{
  "version": "1.0",
  "truncation": null,
  "padding": null,
  "added_tokens": [
    {
      "id": 0,
      "content": "<s>",
      "single_word": false,
      "lstrip": false,
      "rstrip": false,
      "normalized": false,
      "special": true
    },
    {
      "id": 1,
      "content": "<pad>",
      "single_word": false,
      "lstrip": false,
      "rstrip": false,
      "normalized": false,
      "special": true
    },
    {
      "id": 2,
      "content": "</s>",
      "single_word": false,
      "lstrip": false,
      "rstrip": false,
      "normalized": false,
      "special": true
    },
    {
      "id": 3,
      "content": "<unk>",
      "single_word": false,
      "lstrip": false,
      "rstrip": false,
      "normalized": false,
      "special": true
    },
    {
      "id": 4,
      "content": "<cls>",
      "single_word": false,
      "lstrip": false,
      "rstrip": false,
      "normalized": false,
      "special": true
    },
    {
      "id": 5,
      "content": "<sep>",
      "single_word": false,
      "lstrip": false,
      "rstrip": false,
      "normalized": false,
      "special": true
    },
    {
      "id": 6,
      "content": "<mask>",
      "single_word": false,
      "lstrip": false,
      "rstrip": false,
      "normalized": false,
      "special": true
    }
  ],
  "normalizer": {
    "type": "NFKC"
  },
  "pre_tokenizer": {
    "type": "Metaspace",
    "replacement": "▁",
    "add_prefix_space": true,
    "prepend_scheme": "always"
  },
  "post_processor": null,
  "decoder": {
    "type": "Metaspace",
    "replacement": "▁",
    "add_prefix_space": true,
    "prepend_scheme": "always"
  },
  "model": {
    "type": "BPE",
    "dropout": null,
    "unk_token": "<unk>",
    "continuing_subword_prefix": null,
    "end_of_word_suffix": null,
    "fuse_unk": false,
    "byte_fallback": false,
    "vocab": {
      "<s>": 0,
      "<pad>": 1,
      "</s>": 2,
      "<unk>": 3,
      "<cls>": 4,
      "<sep>": 5,
      "<mask>": 6,
      "\t": 7,
      "!": 8,
      "\"": 9,
      "$": 10,
      "%": 11,
      "&": 12,
      "'": 13,
      "(": 14,
      ")": 15,
      "*": 16,
      ",": 17,
      "-": 18,
      ".": 19,
      "/": 20,
      "0": 21,
      "1": 22,
      "2": 23,
      "3": 24,
      "4": 25,
      "5": 26,
      "6": 27,
      "7": 28,
      "8": 29,
      "9": 30,
      ":": 31,
      ";": 32,
      "?": 33,
      "A": 34,
      "B": 35,
      "C": 36,
      "D": 37,
      "E": 38,
      "F": 39,
      "G": 40,
      "H": 41,
      "I": 42,
      "J": 43,
      "K": 44,
      "L": 45,
      "M": 46,
      "N": 47,
      "O": 48,
      "P": 49,
      "Q": 50,
      "R": 51,
      "S": 52,
      "T": 53,
      "U": 54,
      "V": 55,
      "W": 56,
      "X": 57,
      "Y": 58,
      "Z": 59,
      "[": 60,
      "]": 61,
      "`": 62,
      "a": 63,
      "b": 64,
      "c": 65,
      "d": 66,
      "e": 67,
      "f": 68,
      "g": 69,
      "h": 70,
      "i": 71,
      "j": 72,
      "k": 73,
      "l": 74,
      "m": 75,
      "n": 76,
      "o": 77,
      "p": 78,
      "q": 79,
      "r": 80,
      "s": 81,
      "t": 82,
      "u": 83,
      "v": 84,
      "w": 85,
      "x": 86,
      "y": 87,
      "z": 88,
      "£": 89,
      "â": 90,
      "è": 91,
      "é": 92,
      "ê": 93,
      "í": 94,
      "ô": 95,
      "œ": 96,
      "̃": 97,
      "‎": 98,
      "–": 99,
      "—": 100,
      "‘": 101,
      "’": 102,
      "“": 103,
      "”": 104,
      "•": 105,
      "€": 106,
      "▁": 107,
      "an": 108,
      "▁t": 109,
      "er": 110,
      "on": 111,
      "in": 112,
      "▁p": 113,
      "en": 114,
      "▁l": 115,
      "▁s": 116,
      "ou": 117,
      "▁th": 118,
      "▁a": 119,
      "▁d": 120,
      "or": 121,
      "▁k": 122,
      "is": 123,
      "re": 124,
      "▁b": 125,
      "▁the": 126,
      "at": 127,
      "ar": 128,
      "▁f": 129,
      "▁w": 130,
      "▁m": 131,
      "it": 132,
      "al": 133,
      "e.": 134,
      "es": 135,
      "as": 136,
      "ot": 137,
      "▁an": 138,
      "▁ti": 139,
      "▁h": 140,
      "▁o": 141,
      "▁e": 142,
      "▁c": 143,
      "ed": 144,
      "▁en": 145,
      "ing": 146,
      "▁to": 147,
      "et": 148,
      "im": 149,
      "ro": 150,
      "il": 151,
      "▁of": 152,
      "▁n": 153,
      "ir": 154,
      "ion": 155,
      "▁z": 156,
      "▁in": 157,
      "el": 158,
      "ol": 159,
      "▁li": 160,
      "▁g": 161,
      "▁ki": 162,
      "am": 163,
      "ri": 164,
      "om": 165,
      "av": 166,
      "▁enn": 167,
      "▁and": 168,
      "ay": 169,
      "ad": 170,
      "ap": 171,
      "▁re": 172,
      "em": 173,
      "ann": 174,
      ".T": 175,
      "▁u": 176,
      "ic": 177,
      "iz": 178,
      ".S": 179,
      "st": 180,
      "le": 181,
      "▁la": 182,
      ".L": 183,
      "▁dan": 184,
      "ik": 185,
      "ver": 186,
      "ant": 187,
      ".M": 188,
      "ent": 189,
      "▁pe": 190,
      ".P": 191,
      "id": 192,
      "ek": 193,
      "▁sa": 194,
      "ans": 195,
      ".A": 196,
      "▁wh": 197,
      "▁pu": 198,
      "ow": 199,
      "our": 200,
      "az": 201,
      "▁be": 202,
      "inn": 203,
      "▁zot": 204,
      "▁y": 205,
      "▁is": 206,
      "yon": 207,
      "▁v": 208,
      "ak": 209,
      "he": 210,
      "▁de": 211,
      ".D": 212,
      ".B": 213,
      "ter": 214,
      ".K": 215,
      "▁that": 216,
      "ct": 217,
      "▁M": 218,
      "▁for": 219,
      "▁pou": 220,
      "▁on": 221,
      "▁al": 222,
      "e,": 223,
      "man": 224,
      "▁tr": 225,
      "ist": 226,
      "▁pro": 227,
      "if": 228,
      "her": 229,
      "▁so": 230,
      ".I": 231,
      "ur": 232,
      "ut": 233,
      "▁kon": 234,
      "and": 235,
      "▁bann": 236,
      "out": 237,
      ".E": 238,
      "ab": 239,
      "iv": 240,
      "un": 241,
      "▁r": 242,
      "ch": 243,
      "wa": 244,
      "os": 245,
      "ag": 246,
      "ly": 247,
      "▁pa": 248,
      "ig": 249,
      "op": 250,
      "▁ek": 251,
      "la": 252,
      "▁mo": 253,
      "us": 254,
      "ep": 255,
      "ers": 256,
      "▁it": 257,
      "▁st": 258,
      "▁you": 259,
      "ere": 260,
      "ation": 261,
      "▁S": 262,
      "▁par": 263,
      "▁was": 264,
      "▁pl": 265,
      "ok": 266,
      "▁ena": 267,
      ".C": 268,
      ".R": 269,
      "ort": 270,
      ".F": 271,
      "ill": 272,
      "▁fer": 273,
      "oul": 274,
      "▁lor": 275,
      "▁se": 276,
      "ul": 277,
      "▁B": 278,
      "▁or": 279,
      "od": 280,
      "▁as": 281,
      "▁I": 282,
      "ez": 283,
      "nd": 284,
      "ith": 285,
      "▁L": 286,
      "est": 287,
      "war": 288,
      ".N": 289,
      "▁dim": 290,
      "▁finn": 291,
      "um": 292,
      "▁are": 293,
      "oz": 294,
      ".The": 295,
      "ont": 296,
      "ie": 297,
      ".W": 298,
      "pl": 299,
      "ck": 300,
      "s,": 301,
      "▁he": 302,
      "▁at": 303,
      "ave": 304,
      "enn": 305,
      "res": 306,
      ".O": 307,
      "ran": 308,
      "▁kap": 309,
      "▁with": 310,
      "pe": 311,
      ".H": 312,
      "▁ar": 313,
      "▁ex": 314,
      "se": 315,
      "ind": 316,
      "▁dir": 317,
      "ce": 318,
      "▁they": 319,
      "onn": 320,
      "ht": 321,
      "▁me": 322,
      "▁do": 323,
      "unn": 324,
      "ki": 325,
      "asyon": 326,
      "ang": 327,
      ".G": 328,
      "▁had": 329,
      "ye": 330,
      "▁not": 331,
      "▁wor": 332,
      "▁this": 333,
      "ous": 334,
      "other": 335,
      "fer": 336,
      "▁nu": 337,
      "▁kapav": 338,
      "▁A": 339,
      "▁have": 340,
      "▁le": 341,
      "ould": 342,
      "ip": 343,
      "▁su": 344,
      "ard": 345,
      "all": 346,
      "ve": 347,
      "▁“": 348,
      "▁zan": 349,
      "ib": 350,
      "▁ab": 351,
      "▁we": 352,
      "▁ne": 353,
      "ust": 354,
      "▁dimunn": 355,
      "rom": 356,
      "ong": 357,
      "▁ap": 358,
      "▁P": 359,
      "ater": 360,
      "ite": 361,
      "▁by": 362,
      "▁will": 363,
      "ain": 364,
      "ess": 365,
      "ome": 366,
      "ell": 367,
      "▁biz": 368,
      "▁T": 369,
      "avay": 370,
      "▁ch": 371,
      ".In": 372,
      "▁go": 373,
      "asion": 374,
      ".Z": 375,
      "▁man": 376,
      "port": 377,
      "ien": 378,
      "art": 379,
      "ame": 380,
      "ski": 381,
      "▁sh": 382,
      "e.T": 383,
      "▁all": 384,
      "for": 385,
      "e.D": 386,
      "▁from": 387,
      "e.S": 388,
      "are": 389,
      "ra": 390,
      "▁av": 391,
      "▁kont": 392,
      "▁F": 393,
      "▁his": 394,
      "ast": 395,
      "erv": 396,
      "▁ag": 397,
      "imo": 398,
      "-la": 399,
      "▁C": 400,
      "ci": 401,
      "yer": 402,
      "▁their": 403,
      "▁dis": 404,
      "ons": 405,
      "▁gr": 406,
      "qu": 407,
      "▁travay": 408,
      "▁ou": 409,
      "▁were": 410,
      ".Li": 411,
      "bl": 412,
      "ity": 413,
      "oun": 414,
      "▁K": 415,
      "e.P": 416,
      "▁G": 417,
      "ond": 418,
      ".Th": 419,
      "▁pre": 420,
      "▁up": 421,
      "’s": 422,
      "ire": 423,
      "▁work": 424,
      "iti": 425,
      "▁nou": 426,
      "ke": 427,
      "es,": 428,
      ".s": 429,
      "ment": 430,
      "yen": 431,
      "las": 432,
      "e.M": 433,
      "ate": 434,
      "oum": 435,
      "▁N": 436,
      "▁R": 437,
      "ord": 438,
      "▁sek": 439,
      "▁kan": 440,
      "ople": 441,
      "▁them": 442,
      "▁us": 443,
      "ure": 444,
      "▁im": 445,
      "▁com": 446,
      "▁res": 447,
      "per": 448,
      "ry": 449,
      "very": 450,
      "▁part": 451,
      "ole": 452,
      "▁dep": 453,
      "▁ro": 454,
      "▁dif": 455,
      "ore": 456,
      "e.A": 457,
      "▁who": 458,
      "oug": 459,
      "▁mar": 460,
      "imal": 461,
      "end": 462,
      "i,": 463,
      "one": 464,
      "▁E": 465,
      "hat": 466,
      "now": 467,
      "ake": 468,
      "▁vinn": 469,
      "▁out": 470,
      "▁(": 471,
      "ich": 472,
      "▁people": 473,
      "▁zanimo": 474,
      "er,": 475,
      "▁get": 476,
      ".Mo": 477,
      "kl": 478,
      "ally": 479,
      "e.K": 480,
      "ac": 481,
      "te": 482,
      "ud": 483,
      "arm": 484,
      "nn": 485,
      "way": 486,
      "▁there": 487,
      "sion": 488,
      "ug": 489,
      "e.R": 490,
      "ction": 491,
      "ook": 492,
      "og": 493,
      "▁other": 494,
      "▁can": 495,
      "▁what": 496,
      "onom": 497,
      "▁per": 498,
      "e.L": 499,
      "▁D": 500,
      "▁kot": 501,
      "▁kum": 502,
      "ish": 503,
      "ild": 504,
      "▁pol": 505,
      "▁one": 506,
      "▁about": 507,
      "ld": 508,
      "th": 509,
      "ev": 510,
      "▁1": 511,
      "▁J": 512,
      "agn": 513,
      "ound": 514,
      "e.B": 515,
      "▁which": 516,
      "ight": 517,
      "▁Z": 518,
      "▁ri": 519,
      "ren": 520,
      "▁Ma": 521,
      "▁him": 522,
      "▁but": 523,
      "▁prod": 524,
      "▁tim": 525,
      "▁lang": 526,
      "ult": 527,
      "▁ub": 528,
      "▁when": 529,
      "▁j": 530,
      "▁fol": 531,
      "ini": 532,
      ".V": 533,
      "si": 534,
      "oup": 535,
      "e.I": 536,
      "▁tou": 537,
      "▁pers": 538,
      "▁has": 539,
      "eg": 540,
      "▁koum": 541,
      "▁animal": 542,
      "ary": 543,
      "e.E": 544,
      "▁tu": 545,
      "▁int": 546,
      ".An": 547,
      "▁ler": 548,
      "▁lot": 549,
      "ies": 550,
      "▁lek": 551,
      "▁mem": 552,
      "uriti": 553,
      "▁my": 554,
      "▁your": 555,
      "ris": 556,
      "iman": 557,
      "ert": 558,
      "anz": 559,
      "ars": 560,
      "gan": 561,
      "▁pri": 562,
      "vern": 563,
      "▁lap": 564,
      "▁been": 565,
      "lo": 566,
      "▁am": 567,
      "▁bizin": 568,
      "ide": 569,
      "▁bu": 570,
      "li": 571,
      "syon": 572,
      "up": 573,
      "▁pli": 574,
      "ayn": 575,
      "▁ubyen": 576,
      "?W": 577,
      "oris": 578,
      "▁depi": 579,
      "▁mwa": 580,
      "apole": 581,
      "▁ak": 582,
      ".He": 583,
      "?K": 584,
      "ven": 585,
      "ink": 586,
      "ive": 587,
      "gr": 588,
      "ll": 589,
      "oy": 590,
      "▁like": 591,
      "▁lez": 592,
      "▁serv": 593,
      "sel": 594,
      "▁say": 595,
      "▁zis": 596,
      "rik": 597,
      "▁sant": 598,
      "riz": 599,
      "ef": 600,
      "▁let": 601,
      "▁would": 602,
      "▁dev": 603,
      "ough": 604,
      "on,": 605,
      "▁met": 606,
      "▁Mauriti": 607,
      "▁un": 608,
      "ack": 609,
      "ect": 610,
      "▁gagn": 611,
      "abl": 612,
      "▁avek": 613,
      "ition": 614,
      "ood": 615,
      "ret": 616,
      ".It": 617,
      "ff": 618,
      "▁some": 619,
      "isyon": 620,
      "▁Moris": 621,
      "▁prop": 622,
      "ze": 623,
      "▁po": 624,
      "▁pr": 625,
      "ital": 626,
      "here": 627,
      "ne": 628,
      "▁inter": 629,
      "ank": 630,
      "istwar": 631,
      "▁sp": 632,
      "e.F": 633,
      "a,": 634,
      "fan": 635,
      ".t": 636,
      "▁lav": 637,
      "▁seki": 638,
      "ical": 639,
      "ron": 640,
      "▁know": 641,
      "00": 642,
      "▁polit": 643,
      "▁dem": 644,
      "▁fam": 645,
      "▁said": 646,
      "wn": 647,
      "▁\"": 648,
      "ed,": 649,
      "▁lak": 650,
      "e.C": 651,
      "▁her": 652,
      "▁pran": 653,
      "▁lezot": 654,
      "ght": 655,
      ".Sa": 656,
      "▁lam": 657,
      "▁any": 658,
      "so": 659,
      "ism": 660,
      "▁bon": 661,
      "▁bec": 662,
      "cc": 663,
      "▁bizen": 664,
      "▁kuma": 665,
      "ge": 666,
      "y,": 667,
      "ose": 668,
      "apoleon": 669,
      "..": 670,
      "we": 671,
      "▁si": 672,
      "▁our": 673,
      "▁tw": 674,
      ".Enn": 675,
      "ach": 676,
      "ision": 677,
      "▁lab": 678,
      "▁animals": 679,
      "▁W": 680,
      "reat": 681,
      "ing,": 682,
      "▁child": 683,
      "der": 684,
      "'s": 685,
      "▁zanfan": 686,
      "o,": 687,
      "rwa": 688,
      "ings": 689,
      "▁spe": 690,
      "▁koz": 691,
      "ouv": 692,
      "ezi": 693,
      "ox": 694,
      "ign": 695,
      "ool": 696,
      "ize": 697,
      "pen": 698,
      ".Zot": 699,
      "an,": 700,
      "▁more": 701,
      "▁again": 702,
      "▁into": 703,
      "▁form": 704,
      ".They": 705,
      "ost": 706,
      "▁rep": 707,
      "ick": 708,
      "▁konp": 709,
      "ade": 710,
      "vers": 711,
      "▁cont": 712,
      ".Wh": 713,
      "▁lan": 714,
      "ial": 715,
      "xt": 716,
      "▁donn": 717,
      "ors": 718,
      "ilt": 719,
      "ory": 720,
      "▁way": 721,
      "ement": 722,
      "?E": 723,
      "int": 724,
      "▁des": 725,
      "own": 726,
      "▁qu": 727,
      "▁bien": 728,
      "alk": 729,
      "▁no": 730,
      "▁fe": 731,
      "▁ad": 732,
      "▁fas": 733,
      "▁now": 734,
      "▁folkl": 735,
      "ec": 736,
      "oc": 737,
      "▁very": 738,
      "ree": 739,
      "▁fa": 740,
      "waz": 741,
      "’t": 742,
      "itt": 743,
      "▁gran": 744,
      ".St": 745,
      "blem": 746,
      "aus": 747,
      "ress": 748,
      "af": 749,
      ".Me": 750,
      "▁person": 751,
      "ob": 752,
      "urn": 753,
      ".J": 754,
      "▁gayn": 755,
      "▁Mauritius": 756,
      "▁prof": 757,
      "▁O": 758,
      "▁she": 759,
      "orn": 760,
      "▁how": 761,
      ".U": 762,
      "▁str": 763,
      "uc": 764,
      "▁long": 765,
      "nder": 766,
      "▁2": 767,
      ".But": 768,
      "form": 769,
      "▁con": 770,
      "e.N": 771,
      "pt": 772,
      "ng": 773,
      "uv": 774,
      "▁af": 775,
      "alit": 776,
      "▁kriz": 777,
      "You": 778,
      "anc": 779,
      "▁these": 780,
      "▁day": 781,
      "ated": 782,
      "ric": 783,
      "ikasyon": 784,
      ".Ex": 785,
      "▁later": 786,
      "age": 787,
      "▁servi": 788,
      "hing": 789,
      "▁ant": 790,
      "ster": 791,
      "'t": 792,
      "ice": 793,
      "oss": 794,
      ".Ch": 795,
      "cial": 796,
      "▁te": 797,
      "▁cris": 798,
      "rol": 799,
      "▁plant": 800,
      "vi": 801,
      "orm": 802,
      "eb": 803,
      "▁es": 804,
      "ouk": 805,
      "row": 806,
      "▁under": 807,
      "ount": 808,
      "▁Napoleon": 809,
      "▁langaz": 810,
      "ber": 811,
      "get": 812,
      "▁fl": 813,
      "▁farm": 814,
      "esus": 815,
      "▁rel": 816,
      "▁problem": 817,
      "▁time": 818,
      "gram": 819,
      "ier": 820,
      "arn": 821,
      "riv": 822,
      "▁las": 823,
      "▁two": 824,
      "▁children": 825,
      "▁just": 826,
      "gar": 827,
      "erm": 828,
      "▁ank": 829,
      "▁ans": 830,
      "▁osi": 831,
      "▁ret": 832,
      ".This": 833,
      "▁U": 834,
      "ine": 835,
      "red": 836,
      "alite": 837,
      "e.O": 838,
      "omet": 839,
      "?T": 840,
      "na": 841,
      "▁if": 842,
      "▁det": 843,
      "▁br": 844,
      "mem": 845,
      "ener": 846,
      "▁sir": 847,
      "e.W": 848,
      "?Eski": 849,
      "?D": 850,
      "▁down": 851,
      "ass": 852,
      "▁only": 853,
      "yal": 854,
      "▁pres": 855,
      "▁did": 856,
      "▁every": 857,
      "ept": 858,
      "en,": 859,
      "enc": 860,
      "▁liv": 861,
      "of": 862,
      "rav": 863,
      "▁ob": 864,
      "▁could": 865,
      ".Ap": 866,
      "▁also": 867,
      "lass": 868,
      "?I": 869,
      "▁land": 870,
      "▁bl": 871,
      "ause": 872,
      "ely": 873,
      "▁plis": 874,
      "▁apel": 875,
      "▁19": 876,
      "ds": 877,
      "▁H": 878,
      "▁off": 879,
      "rit": 880,
      "▁look": 881,
      "▁don": 882,
      "▁mal": 883,
      "able": 884,
      "▁bat": 885,
      "▁must": 886,
      "oli": 887,
      "▁ye": 888,
      "▁right": 889,
      "ue": 890,
      "▁les": 891,
      "▁klas": 892,
      "▁mont": 893,
      "e.G": 894,
      "rib": 895,
      ".Kon": 896,
      "▁import": 897,
      "▁crisis": 898,
      "rir": 899,
      "▁back": 900,
      "▁even": 901,
      "ile": 902,
      "amp": 903,
      "▁difer": 904,
      "aliz": 905,
      "▁rez": 906,
      "▁bet": 907,
      "▁over": 908,
      "▁trad": 909,
      "▁kouma": 910,
      "ual": 911,
      "e.H": 912,
      "▁zistwar": 913,
      ".Bann": 914,
      "e.The": 915,
      "kenn": 916,
      "▁lep": 917,
      "read": 918,
      "irst": 919,
      "▁rev": 920,
      "ho": 921,
      "ase": 922,
      "rop": 923,
      ".And": 924,
      "▁think": 925,
      "▁own": 926,
      "▁sugar": 927,
      "▁new": 928,
      "ail": 929,
      "old": 930,
      "e.In": 931,
      "ru": 932,
      "oman": 933,
      ".Kan": 934,
      "▁should": 935,
      "vernment": 936,
      "uch": 937,
      "ern": 938,
      "▁kit": 939,
      "▁kom": 940,
      "▁et": 941,
      "▁program": 942,
      "afer": 943,
      "▁inv": 944,
      "iel": 945,
      "imanyer": 946,
      "ka": 947,
      "▁pap": 948,
      "▁sel": 949,
      "▁ed": 950,
      "▁call": 951,
      "▁ind": 952,
      "▁travayer": 953,
      "▁div": 954,
      "ather": 955,
      "ari": 956,
      "▁make": 957,
      ".Tr": 958,
      "▁its": 959,
      "pet": 960,
      "ath": 961,
      "▁inst": 962,
      "▁put": 963,
      "chool": 964,
      "▁organ": 965,
      "▁does": 966,
      "▁sanz": 967,
      "▁cl": 968,
      "anse": 969,
      "▁parski": 970,
      "?Ki": 971,
      "ark": 972,
      "▁kalite": 973,
      "▁dimoun": 974,
      "▁exp": 975,
      "▁folklor": 976,
      "▁diferan": 977,
      "ku": 978,
      "lop": 979,
      "rim": 980,
      "oxer": 981,
      "▁after": 982,
      "anb": 983,
      "▁dez": 984,
      ".We": 985,
      "▁need": 986,
      "▁byen": 987,
      "▁good": 988,
      ".z": 989,
      "?M": 990,
      "yel": 991,
      "▁ser": 992,
      "amar": 993,
      ".So": 994,
      "ations": 995,
      "▁ot": 996,
      "▁pla": 997,
      "▁then": 998,
      "▁much": 999,
      "▁rec": 1000,
      "ball": 1001,
      "uvern": 1002,
      "ise": 1003,
      "kt": 1004,
      "▁ev": 1005,
      "▁sak": 1006,
      ".At": 1007,
      "ution": 1008,
      "ia": 1009,
      "rough": 1010,
      "uri": 1011,
      "▁kind": 1012,
      "▁zafer": 1013,
      ".Pro": 1014,
      "▁kone": 1015,
      "conom": 1016,
      "kot": 1017,
      "▁pig": 1018,
      "▁lar": 1019,
      "▁somet": 1020,
      "▁want": 1021,
      "self": 1022,
      "day": 1023,
      "ens": 1024,
      "▁school": 1025,
      "▁group": 1026,
      ".When": 1027,
      "ax": 1028,
      "▁lat": 1029,
      "▁acc": 1030,
      "▁mor": 1031,
      ".Dan": 1032,
      "▁trouv": 1033,
      "?S": 1034,
      "ful": 1035,
      "▁set": 1036,
      "▁old": 1037,
      "▁cap": 1038,
      "iliz": 1039,
      "▁la,": 1040,
      ".Ler": 1041,
      "fe": 1042,
      "anp": 1043,
      "▁take": 1044,
      "reol": 1045,
      "▁bel": 1046,
      "▁hap": 1047,
      "▁class": 1048,
      ".Dis": 1049,
      "▁langu": 1050,
      "rat": 1051,
      "▁than": 1052,
      "ese": 1053,
      "▁where": 1054,
      ".Re": 1055,
      "cl": 1056,
      "iter": 1057,
      "▁lag": 1058,
      ".Par": 1059,
      ".What": 1060,
      "▁produ": 1061,
      "▁dr": 1062,
      "olog": 1063,
      ".Eski": 1064,
      "orti": 1065,
      "▁because": 1066,
      "uvernman": 1067,
      "fi": 1068,
      "mall": 1069,
      "▁first": 1070,
      "elop": 1071,
      "lect": 1072,
      "andan": 1073,
      "▁same": 1074,
      "▁fwa": 1075,
      "▁went": 1076,
      "▁made": 1077,
      "▁come": 1078,
      "▁inport": 1079,
      "▁buku": 1080,
      "▁politik": 1081,
      "ft": 1082,
      "▁di": 1083,
      "▁kr": 1084,
      "ower": 1085,
      "▁chang": 1086,
      "▁koumans": 1087,
      "▁demand": 1088,
      "▁important": 1089,
      "?H": 1090,
      "?N": 1091,
      "ves": 1092,
      "ins": 1093,
      "▁through": 1094,
      "ories": 1095,
      "▁fin": 1096,
      "▁mother": 1097,
      "aler": 1098,
      "igh": 1099,
      "ey": 1100,
      "tan": 1101,
      ".Al": 1102,
      "▁being": 1103,
      "▁apre": 1104,
      "▁avan": 1105,
      "▁kontan": 1106,
      "▁differ": 1107,
      "nowball": 1108,
      "?What": 1109,
      "yn": 1110,
      "▁kol": 1111,
      "▁econom": 1112,
      "▁li,": 1113,
      "ama": 1114,
      "▁befor": 1115,
      "▁dec": 1116,
      ".Ki": 1117,
      "ittle": 1118,
      "amarad": 1119,
      "ian": 1120,
      "oulkot": 1121,
      "▁ankor": 1122,
      "▁ver": 1123,
      "▁used": 1124,
      "▁lakaz": 1125,
      "▁fact": 1126,
      "rad": 1127,
      "vo": 1128,
      "ones": 1129,
      "e.Z": 1130,
      "aking": 1131,
      "ler": 1132,
      "▁hel": 1133,
      ".As": 1134,
      "▁see": 1135,
      "▁lekol": 1136,
      "▁lavi": 1137,
      "▁another": 1138,
      "▁came": 1139,
      "▁laf": 1140,
      "iksyon": 1141,
      "ours": 1142,
      "▁ask": 1143,
      "▁att": 1144,
      "-s": 1145,
      "?A": 1146,
      "▁ariv": 1147,
      "ents": 1148,
      "mi": 1149,
      "pare": 1150,
      "▁sw": 1151,
      "le,": 1152,
      "tern": 1153,
      "▁Kreol": 1154,
      "ought": 1155,
      "oulkoton": 1156,
      "par": 1157,
      "eng": 1158,
      "▁sy": 1159,
      "▁well": 1160,
      "▁anvi": 1161,
      "▁col": 1162,
      "eter": 1163,
      "riy": 1164,
      "▁many": 1165,
      "▁Zan": 1166,
      "italist": 1167,
      "de": 1168,
      "▁tell": 1169,
      "ste": 1170,
      "ourn": 1171,
      "▁ziska": 1172,
      "pos": 1173,
      "ance": 1174,
      "▁lin": 1175,
      "▁food": 1176,
      "▁el": 1177,
      "▁too": 1178,
      "ried": 1179,
      "▁devlop": 1180,
      "▁develop": 1181,
      "gre": 1182,
      "▁dek": 1183,
      "eser": 1184,
      "ros": 1185,
      "ily": 1186,
      "▁konn": 1187,
      "▁sante": 1188,
      "▁tro": 1189,
      "▁sim": 1190,
      "▁rap": 1191,
      "ois": 1192,
      "soz": 1193,
      "▁kos": 1194,
      "rez": 1195,
      "oth": 1196,
      "▁ever": 1197,
      "▁end": 1198,
      "▁got": 1199,
      ".Com": 1200,
      "estion": 1201,
      "▁konpran": 1202,
      "di": 1203,
      "gs": 1204,
      "rann": 1205,
      "”,": 1206,
      "▁find": 1207,
      ".There": 1208,
      "ural": 1209,
      "▁rant": 1210,
      "▁rak": 1211,
      "▁prot": 1212,
      "▁inportan": 1213,
      "-b": 1214,
      ".You": 1215,
      "istem": 1216,
      "ov": 1217,
      "ock": 1218,
      "▁talk": 1219,
      "rem": 1220,
      ".Pl": 1221,
      "▁kons": 1222,
      "▁manz": 1223,
      "cess": 1224,
      "wit": 1225,
      "▁lal": 1226,
      "▁san": 1227,
      "▁kas": 1228,
      "▁gard": 1229,
      "adi": 1230,
      "yone": 1231,
      "▁working": 1232,
      "▁different": 1233,
      "ness": 1234,
      "ty": 1235,
      "ting": 1236,
      "▁done": 1237,
      "et,": 1238,
      ".Sh": 1239,
      ".Ar": 1240,
      "▁trans": 1241,
      "▁Snowball": 1242,
      "▁Boxer": 1243,
      "▁priv": 1244,
      ".st": 1245,
      "air": 1246,
      "eep": 1247,
      "fl": 1248,
      "ject": 1249,
      "▁bas": 1250,
      "▁mater": 1251,
      "▁plas": 1252,
      "▁called": 1253,
      "▁happen": 1254,
      "isman": 1255,
      ".Mal": 1256,
      "ational": 1257,
      "ious": 1258,
      "▁pat": 1259,
      "▁wind": 1260,
      "▁med": 1261,
      "ala": 1262,
      "▁zour": 1263,
      "▁rod": 1264,
      "bs": 1265,
      "ever": 1266,
      "▁men": 1267,
      "▁dimann": 1268,
      ".On": 1269,
      "▁parti": 1270,
      "thing": 1271,
      "overnment": 1272,
      "▁act": 1273,
      "▁dire": 1274,
      "▁truv": 1275,
      "istri": 1276,
      "ward": 1277,
      "pect": 1278,
      "i-": 1279,
      "low": 1280,
      "yans": 1281,
      "▁little": 1282,
      "▁song": 1283,
      "e.s": 1284,
      "▁use": 1285,
      "▁def": 1286,
      "▁St": 1287,
      "▁sec": 1288,
      "▁political": 1289,
      "oukou": 1290,
      "▁something": 1291,
      "?L": 1292,
      "jp": 1293,
      "▁sin": 1294,
      "ouz": 1295,
      "▁dib": 1296,
      "or,": 1297,
      "▁king": 1298,
      "▁fini": 1299,
      "▁nes": 1300,
      "▁ris": 1301,
      "▁amenn": 1302,
      "...": 1303,
      "▁fason": 1304,
      "ba": 1305,
      "ures": 1306,
      "▁fish": 1307,
      "▁gro": 1308,
      "▁Lalit": 1309,
      "▁lev": 1310,
      "ract": 1311,
      "▁underst": 1312,
      "raver": 1313,
      "hojp": 1314,
      "▁help": 1315,
      "ced": 1316,
      "rap": 1317,
      "zan": 1318,
      "▁pen": 1319,
      "ason": 1320,
      "adir": 1321,
      "▁rek": 1322,
      "▁rest": 1323,
      "ekt": 1324,
      "▁ext": 1325,
      "hojpuri": 1326,
      "mer": 1327,
      "wat": 1328,
      "▁pas": 1329,
      "▁big": 1330,
      "▁fri": 1331,
      "al,": 1332,
      "rod": 1333,
      "▁nat": 1334,
      "▁liz": 1335,
      "▁giv": 1336,
      "▁read": 1337,
      ".Ti": 1338,
      "ific": 1339,
      "▁Boulkoton": 1340,
      "estyon": 1341,
      "ready": 1342,
      "▁belie": 1343,
      "▁count": 1344,
      "annla": 1345,
      "ict": 1346,
      ".Man": 1347,
      "▁such": 1348,
      "arson": 1349,
      "▁said,": 1350,
      "▁against": 1351,
      "sa": 1352,
      "uman": 1353,
      "▁tel": 1354,
      "▁sal": 1355,
      "▁sing": 1356,
      "▁aster": 1357,
      "ork": 1358,
      "▁inn": 1359,
      "adam": 1360,
      "▁pare": 1361,
      ".Then": 1362,
      "▁lepok": 1363,
      ".v": 1364,
      "inis": 1365,
      "ativ": 1366,
      "▁fr": 1367,
      "ote": 1368,
      "izan": 1369,
      "ik,": 1370,
      "ider": 1371,
      "▁ran": 1372,
      "▁Bhojpuri": 1373,
      "▁workers": 1374,
      "e.An": 1375,
      "ways": 1376,
      "e.Li": 1377,
      "ngl": 1378,
      "▁koson": 1379,
      "cre": 1380,
      "▁er": 1381,
      "▁sistem": 1382,
      ".Be": 1383,
      "▁already": 1384,
      "▁Ch": 1385,
      "▁Jesus": 1386,
      "selves": 1387,
      "-t": 1388,
      "ket": 1389,
      "ub": 1390,
      "▁water": 1391,
      "▁hist": 1392,
      "▁cle": 1393,
      "▁ref": 1394,
      ".Im": 1395,
      "▁going": 1396,
      "▁manze": 1397,
      "lock": 1398,
      "▁montre": 1399,
      "▁divan": 1400,
      "▁before": 1401,
      "les": 1402,
      "ral": 1403,
      "ye,": 1404,
      "ence": 1405,
      "▁away": 1406,
      "▁mil": 1407,
      ".Si": 1408,
      "▁pei": 1409,
      "▁always": 1410,
      "pli": 1411,
      ".How": 1412,
      "▁never": 1413,
      "▁Tr": 1414,
      "▁mars": 1415,
      "▁letan": 1416,
      "▁interest": 1417,
      "▁led": 1418,
      "ention": 1419,
      "ifi": 1420,
      ".Con": 1421,
      "▁sup": 1422,
      "ibl": 1423,
      "▁grup": 1424,
      "▁Government": 1425,
      "▁Zanimo": 1426,
      "-d": 1427,
      "hip": 1428,
      "n’t": 1429,
      "▁sert": 1430,
      "▁small": 1431,
      "▁der": 1432,
      "▁dil": 1433,
      "isannla": 1434,
      "▁bo": 1435,
      "▁real": 1436,
      "eman": 1437,
      "ung": 1438,
      "wa,": 1439,
      ".Rep": 1440,
      ".For": 1441,
      "▁dir,": 1442,
      "ferm": 1443,
      "ugg": 1444,
      "ces": 1445,
      "hy": 1446,
      "▁pos": 1447,
      "▁lad": 1448,
      "ouse": 1449,
      "▁drwa": 1450,
      "▁boukou": 1451,
      "▁told": 1452,
      "stit": 1453,
      "▁Ind": 1454,
      "▁means": 1455,
      "ertain": 1456,
      ".Un": 1457,
      "ricult": 1458,
      "ER": 1459,
      "act": 1460,
      "vwar": 1461,
      "ane": 1462,
      "▁kestyon": 1463,
      "ating": 1464,
      "ar,": 1465,
      "irl": 1466,
      "stem": 1467,
      "▁Mo": 1468,
      "▁sos": 1469,
      ".Ena": 1470,
      "▁mov": 1471,
      "▁atraver": 1472,
      "▁resp": 1473,
      "▁rakont": 1474,
      "▁understand": 1475,
      "wi": 1476,
      "▁turn": 1477,
      "enir": 1478,
      "oud": 1479,
      "▁kamarad": 1480,
      "▁may": 1481,
      "▁here": 1482,
      "▁tom": 1483,
      "▁took": 1484,
      "▁reg": 1485,
      "▁rem": 1486,
      ".Or": 1487,
      "▁nuvo": 1488,
      "ordi": 1489,
      "?B": 1490,
      "▁lis": 1491,
      "▁sorti": 1492,
      "arch": 1493,
      "ale": 1494,
      "ili": 1495,
      "▁beg": 1496,
      "▁isi": 1497,
      "▁languag": 1498,
      "-l": 1499,
      "AN": 1500,
      "▁ide": 1501,
      "▁sc": 1502,
      "▁those": 1503,
      "edir": 1504,
      "▁start": 1505,
      "▁In": 1506,
      "ithan": 1507,
      ".Name": 1508,
      "▁sekter": 1509,
      "udget": 1510,
      ".al": 1511,
      "ery": 1512,
      "▁pay": 1513,
      "▁kimanyer": 1514,
      "▁keep": 1515,
      "atch": 1516,
      "▁zwe": 1517,
      "▁ins": 1518,
      "▁give": 1519,
      "▁laferm": 1520,
      "▁viv": 1521,
      "▁move": 1522,
      "▁still": 1523,
      "▁story": 1524,
      "▁Li": 1525,
      "▁world": 1526,
      "que": 1527,
      "▁prem": 1528,
      "▁kumans": 1529,
      "?Mo": 1530,
      "ES": 1531,
      "hen": 1532,
      "▁term": 1533,
      "▁past": 1534,
      "▁bir": 1535,
      "▁baz": 1536,
      "▁bus": 1537,
      "aly": 1538,
      "ody": 1539,
      "▁An": 1540,
      "▁Com": 1541,
      "▁lapat": 1542,
      "▁eski": 1543,
      "▁years": 1544,
      "▁production": 1545,
      "Yes,": 1546,
      "fic": 1547,
      "his": 1548,
      "ually": 1549,
      "▁3": 1550,
      "▁tre": 1551,
      "oni": 1552,
      "ouy": 1553,
      "▁kwar": 1554,
      "▁em": 1555,
      "▁great": 1556,
      ".Se": 1557,
      ".Lab": 1558,
      "▁vini": 1559,
      ".Dep": 1560,
      "ifer": 1561,
      "▁play": 1562,
      "ull": 1563,
      "ular": 1564,
      "▁expl": 1565,
      "▁Zezi": 1566,
      "▁place": 1567,
      "▁record": 1568,
      "▁system": 1569,
      "aug": 1570,
      "led": 1571,
      "pes": 1572,
      "▁bour": 1573,
      "▁bur": 1574,
      "▁night": 1575,
      "amb": 1576,
      "rive": 1577,
      "▁red": 1578,
      "izasyon": 1579,
      ".Let": 1580,
      "▁stud": 1581,
      "ustry": 1582,
      "▁imen": 1583,
      "▁prodiksyon": 1584,
      "fet": 1585,
      "▁ter": 1586,
      "▁ple": 1587,
      "▁panse": 1588,
      "▁boss": 1589,
      "▁wr": 1590,
      "oloz": 1591,
      ".Pa": 1592,
      ".Do": 1593,
      ".Dim": 1594,
      "onns": 1595,
      "▁lex": 1596,
      "▁learn": 1597,
      "▁themselves": 1598,
      "ugar": 1599,
      "geois": 1600,
      "▁question": 1601,
      "wazi": 1602,
      ".ak": 1603,
      "pan": 1604,
      "▁tem": 1605,
      "▁lim": 1606,
      "▁mout": 1607,
      "als": 1608,
      "▁human": 1609,
      "ansyon": 1610,
      "indistri": 1611,
      "▁disc": 1612,
      "lob": 1613,
      "▁ansam": 1614,
      "▁invest": 1615,
      "?How": 1616,
      "'m": 1617,
      "uck": 1618,
      "▁sit": 1619,
      "▁sil": 1620,
      "▁sol": 1621,
      "▁aste": 1622,
      ".To": 1623,
      "▁vit": 1624,
      ".Dem": 1625,
      "▁sect": 1626,
      "oze": 1627,
      "ible": 1628,
      "oney": 1629,
      "ween": 1630,
      "▁pigs": 1631,
      "▁bourgeois": 1632,
      "ON": 1633,
      "den": 1634,
      "o-": 1635,
      "over": 1636,
      "pro": 1637,
      "rand": 1638,
      "erve": 1639,
      "▁pw": 1640,
      "▁sik": 1641,
      "▁things": 1642,
      "▁az": 1643,
      "atis": 1644,
      "alman": 1645,
      "e.V": 1646,
      "▁hard": 1647,
      "▁certain": 1648,
      "ation,": 1649,
      ".Res": 1650,
      "▁able": 1651,
      "e.Mo": 1652,
      "iltir": 1653,
      "▁Un": 1654,
      "▁tradisyon": 1655,
      "ithanen": 1656,
      ".ab": 1657,
      "?P": 1658,
      "fwa": 1659,
      "h,": 1660,
      "mill": 1661,
      "ph": 1662,
      "yin": 1663,
      "▁tak": 1664,
      "▁tax": 1665,
      "▁min": 1666,
      "▁ele": 1667,
      "▁each": 1668,
      "▁car": 1669,
      "▁cons": 1670,
      "ete": 1671,
      "▁nom": 1672,
      "▁zw": 1673,
      "rig": 1674,
      ".She": 1675,
      ".Per": 1676,
      ".All": 1677,
      "▁death": 1678,
      "ers,": 1679,
      "erson": 1680,
      "▁ferm": 1681,
      ".Nu": 1682,
      ".Nou": 1683,
      "▁left": 1684,
      "▁aprann": 1685,
      "▁disik": 1686,
      "▁God": 1687,
      "▁akoz": 1688,
      "▁text": 1689,
      "?The": 1690,
      "▁don't": 1691,
      ".ad": 1692,
      "▁twa": 1693,
      "▁found": 1694,
      "▁che": 1695,
      "▁toget": 1696,
      "ilit": 1697,
      "▁zom": 1698,
      "ante": 1699,
      "ansion": 1700,
      "ly,": 1701,
      "▁ekonom": 1702,
      "▁kontrol": 1703,
      "▁Mauritian": 1704,
      "ffect": 1705,
      "▁folklore": 1706,
      "?Do": 1707,
      "▁tradition": 1708,
      "▁together": 1709,
      "met": 1710,
      "ras": 1711,
      "til": 1712,
      "▁lem": 1713,
      "▁mom": 1714,
      "amin": 1715,
      "ans,": 1716,
      "▁round": 1717,
      "▁plan": 1718,
      "▁kontin": 1719,
      "▁agricult": 1720,
      "-la,": 1721,
      "irel": 1722,
      "▁room": 1723,
      "onomi": 1724,
      "▁contin": 1725,
      "▁lane": 1726,
      "▁organiz": 1727,
      "▁patron": 1728,
      "cy": 1729,
      "iy": 1730,
      "▁pie": 1731,
      "▁pandan": 1732,
      "▁three": 1733,
      "▁hand": 1734,
      "ets": 1735,
      "ions": 1736,
      "amem": 1737,
      "anter": 1738,
      "▁pey": 1739,
      ".If": 1740,
      "▁Bid": 1741,
      "▁Baz": 1742,
      "▁without": 1743,
      "▁comm": 1744,
      "▁poem": 1745,
      "▁year": 1746,
      "▁lir": 1747,
      "ited": 1748,
      "▁obl": 1749,
      "irm": 1750,
      "el,": 1751,
      "oll": 1752,
      "▁gu": 1753,
      "avi": 1754,
      "▁re-": 1755,
      "▁Mr": 1756,
      ".Ot": 1757,
      "▁around": 1758,
      "▁leg": 1759,
      "▁disk": 1760,
      "▁others": 1761,
      "▁intern": 1762,
      "▁koze": 1763,
      "▁between": 1764,
      "?”": 1765,
      "ew": 1766,
      "ech": 1767,
      "yem": 1768,
      "▁V": 1769,
      "onp": 1770,
      "▁last": 1771,
      "▁woman": 1772,
      "▁hous": 1773,
      "▁okenn": 1774,
      "▁laz": 1775,
      "▁head": 1776,
      "▁show": 1777,
      "ctions": 1778,
      "▁reponn": 1779,
      "▁lasam": 1780,
      "MM": 1781,
      "iet": 1782,
      "ram": 1783,
      "ying": 1784,
      "▁bad": 1785,
      "▁viz": 1786,
      "und": 1787,
      "▁ekrir": 1788,
      "▁most": 1789,
      "ezir": 1790,
      "▁exper": 1791,
      ".Zezi": 1792,
      "ared": 1793,
      ".That": 1794,
      "▁lerla": 1795,
      ".Jesus": 1796,
      ".Apre": 1797,
      "▁windmill": 1798,
      "'ll": 1799,
      "-p": 1800,
      "?O": 1801,
      "aj": 1802,
      "aw": 1803,
      "ead": 1804,
      "ger": 1805,
      "iol": 1806,
      "tu": 1807,
      "val": 1808,
      "zwazi": 1809,
      "▁-": 1810,
      "▁tap": 1811,
      "▁tann": 1812,
      "▁dit": 1813,
      "▁kok": 1814,
      "▁bar": 1815,
      "ates": 1816,
      "atik": 1817,
      "arly": 1818,
      "▁mis": 1819,
      "ically": 1820,
      "000": 1821,
      "▁lesp": 1822,
      "▁demands": 1823,
      "▁dilo": 1824,
      "?Z": 1825,
      "ten": 1826,
      "▁‘": 1827,
      "▁sem": 1828,
      "alf": 1829,
      "▁tir": 1830,
      "▁ete": 1831,
      "▁life": 1832,
      "riyer": 1833,
      ".Lap": 1834,
      ".Lak": 1835,
      ".Kom": 1836,
      "epli": 1837,
      "▁stories": 1838,
      ".Fl": 1839,
      "▁words": 1840,
      "▁better": 1841,
      "▁dimounn": 1842,
      "▁deza": 1843,
      "▁parey": 1844,
      "▁Travay": 1845,
      ".“": 1846,
      "king": 1847,
      "ped": 1848,
      "rans": 1849,
      "▁tabl": 1850,
      "iner": 1851,
      "▁lont": 1852,
      "▁del": 1853,
      "▁kar": 1854,
      "ator": 1855,
      "verb": 1856,
      "▁whole": 1857,
      "▁Minis": 1858,
      "uring": 1859,
      "▁Bond": 1860,
      "▁Ler": 1861,
      "▁Jonns": 1862,
      "▁profit": 1863,
      "▁ekonomik": 1864,
      "ix": 1865,
      "tir": 1866,
      "▁5": 1867,
      "inal": 1868,
      "▁list": 1869,
      "oub": 1870,
      "▁thought": 1871,
      "▁bro": 1872,
      "aring": 1873,
      "▁money": 1874,
      "▁vann": 1875,
      "▁deb": 1876,
      "▁social": 1877,
      "▁ord": 1878,
      "▁exc": 1879,
      "▁word": 1880,
      "raw": 1881,
      "▁Farm": 1882,
      "▁perdi": 1883,
      "▁speak": 1884,
      "▁UN": 1885,
      "▁kitsoz": 1886,
      "▁capitalist": 1887,
      "▁matern": 1888,
      "bo": 1889,
      "ivers": 1890,
      "▁power": 1891,
      "▁thing": 1892,
      "▁wom": 1893,
      "▁maz": 1894,
      "▁nam": 1895,
      "elf": 1896,
      "aving": 1897,
      ".Las": 1898,
      "anti": 1899,
      ".Pre": 1900,
      "man,": 1901,
      "▁pros": 1902,
      "▁stop": 1903,
      "▁pliz": 1904,
      "▁Ben": 1905,
      "blic": 1906,
      "▁Engl": 1907,
      "▁build": 1908,
      "▁lisien": 1909,
      "▁moment": 1910,
      "),": 1911,
      "RE": 1912,
      "▁4": 1913,
      "anf": 1914,
      "▁pass": 1915,
      "▁sl": 1916,
      "▁ther": 1917,
      "ref": 1918,
      "▁mas": 1919,
      "e.U": 1920,
      "▁ann": 1921,
      "edi": 1922,
      "ety": 1923,
      "ether": 1924,
      "▁girl": 1925,
      "▁kikenn": 1926,
      ".Lar": 1927,
      "▁saw": 1928,
      "▁prom": 1929,
      "▁order": 1930,
      "▁Lab": 1931,
      "ploy": 1932,
      "▁lead": 1933,
      "▁lamor": 1934,
      "▁become": 1935,
      "▁strugg": 1936,
      "eneral": 1937,
      "▁don’t": 1938,
      "▁batiman": 1939,
      "▁pena": 1940,
      "-m": 1941,
      "po": 1942,
      "tor": 1943,
      "is,": 1944,
      "reder": 1945,
      "▁block": 1946,
      "att": 1947,
      "▁nan": 1948,
      "▁garson": 1949,
      "akor": 1950,
      ".Kont": 1951,
      "▁once": 1952,
      "ift": 1953,
      "▁Sugar": 1954,
      "▁sey": 1955,
      "▁kapital": 1956,
      "▁art": 1957,
      "▁Part": 1958,
      "▁char": 1959,
      "ry,": 1960,
      "▁himself": 1961,
      "▁special": 1962,
      "▁blok": 1963,
      "olienn": 1964,
      ".Lerla": 1965,
      "paret": 1966,
      ",000": 1967,
      "The": 1968,
      "ex": 1969,
      "mant": 1970,
      "oh": 1971,
      "rot": 1972,
      "wer": 1973,
      "▁kat": 1974,
      "▁bal": 1975,
      "▁high": 1976,
      "▁open": 1977,
      "rip": 1978,
      "apre": 1979,
      ".Lam": 1980,
      ".My": 1981,
      "ekte": 1982,
      "▁vol": 1983,
      "▁dead": 1984,
      "▁tru": 1985,
      "ifik": 1986,
      ".Ind": 1987,
      "▁Sithanen": 1988,
      "▁government": 1989,
      "▁party": 1990,
      "▁partic": 1991,
      "▁Jones": 1992,
      "▁lekonomi": 1993,
      "ronpet": 1994,
      "▁lanpl": 1995,
      "▁landrwa": 1996,
      "▁educ": 1997,
      "▁asked": 1998,
      "▁friend": 1999,
      "▁histor": 2000,
      "▁Animal": 2001,
      "ficult": 2002,
      "-f": 2003,
      "RI": 2004,
      "zi": 2005,
      "▁est": 2006,
      "▁ling": 2007,
      "▁sip": 2008,
      "▁op": 2009,
      "imes": 2010,
      "rick": 2011,
      "izyon": 2012,
      "leep": 2013,
      "ikil": 2014,
      "eki": 2015,
      "▁vre": 2016,
      ".Di": 2017,
      ".Des": 2018,
      "urt": 2019,
      "uth": 2020,
      "unt": 2021,
      "▁examp": 2022,
      "▁next": 2023,
      "ateg": 2024,
      "▁revand": 2025,
      "▁divers": 2026,
      "▁economic": 2027,
      "▁devlopman": 2028,
      ".”": 2029,
      "19": 2030,
      "CO": 2031,
      "lim": 2032,
      "n't": 2033,
      "ring": 2034,
      "raz": 2035,
      "ues": 2036,
      "▁poss": 2037,
      "▁sor": 2038,
      "▁arive": 2039,
      "▁kou": 2040,
      "▁ben": 2041,
      "▁might": 2042,
      "e.t": 2043,
      "ash": 2044,
      "▁cond": 2045,
      "▁today": 2046,
      "▁guvernman": 2047,
      "ident": 2048,
      "▁zot,": 2049,
      "▁ase": 2050,
      ".Now": 2051,
      "ples": 2052,
      "cially": 2053,
      "▁persons": 2054,
      "e.Ex": 2055,
      "▁spes": 2056,
      "▁days": 2057,
      "▁present": 2058,
      "▁rapel": 2059,
      "▁neseser": 2060,
      "▁maternel": 2061,
      "gn": 2062,
      "oot": 2063,
      "ove": 2064,
      "win": 2065,
      "▁ir": 2066,
      "▁tong": 2067,
      "▁dist": 2068,
      "▁dorm": 2069,
      "▁bre": 2070,
      "▁mama": 2071,
      "▁anpl": 2072,
      "ikt": 2073,
      "ows": 2074,
      "plet": 2075,
      ".One": 2076,
      "ustom": 2077,
      "▁apart": 2078,
      "▁disparet": 2079,
      "▁prefer": 2080,
      "▁follow": 2081,
      "▁fami": 2082,
      "▁200": 2083,
      "▁latet": 2084,
      "▁collect": 2085,
      "IN": 2086,
      "fort": 2087,
      "por": 2088,
      "rin": 2089,
      "▁pot": 2090,
      "▁sen": 2091,
      "▁sign": 2092,
      "▁ku": 2093,
      "isie": 2094,
      "▁budget": 2095,
      "esans": 2096,
      "▁tifi": 2097,
      "▁eg": 2098,
      "▁eolienn": 2099,
      "▁cook": 2100,
      "ime": 2101,
      "▁nepli": 2102,
      "▁zoli": 2103,
      "▁inpe": 2104,
      "▁vedir": 2105,
      "term": 2106,
      "ify": 2107,
      "▁soon": 2108,
      "▁rul": 2109,
      "▁mob": 2110,
      "▁Sque": 2111,
      "▁parmi": 2112,
      "▁seem": 2113,
      "asyonal": 2114,
      "▁appe": 2115,
      "▁Napole": 2116,
      "ished": 2117,
      "▁job": 2118,
      "?Wi,": 2119,
      "ocal": 2120,
      "▁obs": 2121,
      "?Is": 2122,
      "▁papa": 2123,
      "▁deryer": 2124,
      "▁revandikasyon": 2125,
      "?Yes,": 2126,
      "pre": 2127,
      "▁toul": 2128,
      "eri": 2129,
      "iness": 2130,
      "▁kler": 2131,
      "isit": 2132,
      "atir": 2133,
      "▁fre": 2134,
      "▁moman": 2135,
      "▁creat": 2136,
      "▁ni": 2137,
      "ike": 2138,
      "az,": 2139,
      "▁beh": 2140,
      "ter,": 2141,
      "▁MMM": 2142,
      "▁Sun": 2143,
      "▁Af": 2144,
      "fors": 2145,
      "▁upon": 2146,
      "▁difficult": 2147,
      "▁point": 2148,
      "▁family": 2149,
      "▁feel": 2150,
      "▁sheep": 2151,
      "uvman": 2152,
      "ield": 2153,
      ".Trans": 2154,
      "▁language": 2155,
      "▁economy": 2156,
      "▁second": 2157,
      "▁mouton": 2158,
      "▁zwenn": 2159,
      "-c": 2160,
      ".\"": 2161,
      "AL": 2162,
      "mit": 2163,
      "zerv": 2164,
      "er.P": 2165,
      "▁pop": 2166,
      "▁ale": 2167,
      "▁four": 2168,
      "▁madam": 2169,
      "alis": 2170,
      "▁hare": 2171,
      "eds": 2172,
      "▁net": 2173,
      "▁name": 2174,
      "▁zame": 2175,
      "▁live": 2176,
      "▁gave": 2177,
      "rid": 2178,
      "▁sa,": 2179,
      "▁puvwar": 2180,
      "ters": 2181,
      ".Kor": 2182,
      ".En": 2183,
      "ush": 2184,
      "▁it,": 2185,
      ".Not": 2186,
      "▁atann": 2187,
      "▁doing": 2188,
      "kip": 2189,
      "▁Freder": 2190,
      "▁agrik": 2191,
      "▁comrad": 2192,
      "acher": 2193,
      ".Ant": 2194,
      "▁aks": 2195,
      "▁Mauritius,": 2196,
      "▁sirtu": 2197,
      "▁given": 2198,
      "▁respons": 2199,
      "▁bosses": 2200,
      "?C": 2201,
      "MO": 2202,
      "aut": 2203,
      "iod": 2204,
      "uct": 2205,
      "wen": 2206,
      "zon": 2207,
      "▁tour": 2208,
      "er.D": 2209,
      "▁lok": 2210,
      "▁sell": 2211,
      "▁though": 2212,
      "ority": 2213,
      "rel": 2214,
      "▁bout": 2215,
      "▁boy": 2216,
      "▁morn": 2217,
      "▁making": 2218,
      "iting": 2219,
      "ask": 2220,
      "▁analy": 2221,
      "▁eat": 2222,
      "▁cut": 2223,
      "edikasyon": 2224,
      "imer": 2225,
      "▁kik": 2226,
      "riye": 2227,
      "apt": 2228,
      "izin": 2229,
      ".Mem": 2230,
      "istic": 2231,
      "▁within": 2232,
      "▁meas": 2233,
      "ousa": 2234,
      "▁week": 2235,
      "▁Guvernman": 2236,
      "▁kanp": 2237,
      "▁imp": 2238,
      "▁ros": 2239,
      "▁drink": 2240,
      "ology": 2241,
      "▁songs": 2242,
      "▁extra": 2243,
      "▁sosyal": 2244,
      "olozi": 2245,
      "crib": 2246,
      "pir": 2247,
      "iss": 2248,
      "▁book": 2249,
      "ott": 2250,
      "▁cre": 2251,
      "▁zordi": 2252,
      "olkl": 2253,
      "▁glob": 2254,
      "apa": 2255,
      ".Some": 2256,
      "▁istor": 2257,
      "▁vie": 2258,
      "▁young": 2259,
      "▁Let": 2260,
      ".Napoleon": 2261,
      "ump": 2262,
      "▁dogs": 2263,
      "▁shop": 2264,
      "ouma": 2265,
      "e.Re": 2266,
      "▁times": 2267,
      "▁buy": 2268,
      "▁akt": 2269,
      "e.He": 2270,
      "▁revol": 2271,
      "▁sanzman": 2272,
      "▁development": 2273,
      "▁dormi": 2274,
      "ME": 2275,
      "TO": 2276,
      "ling": 2277,
      "uation": 2278,
      "yan": 2279,
      "er.F": 2280,
      "▁sent": 2281,
      "▁dakor": 2282,
      "organ": 2283,
      "▁mind": 2284,
      "ither": 2285,
      "▁og": 2286,
      "▁care": 2287,
      "elt": 2288,
      "▁gal": 2289,
      "▁grow": 2290,
      "ries": 2291,
      "▁remem": 2292,
      ".Tou": 2293,
      ".Sp": 2294,
      ".Sir": 2295,
      "lev": 2296,
      ".Mar": 2297,
      ".Pat": 2298,
      "▁while": 2299,
      "▁began": 2300,
      ".Kot": 2301,
      "▁proverb": 2302,
      "ute": 2303,
      "▁ru": 2304,
      "▁paret": 2305,
      "▁ass": 2306,
      "▁aret": 2307,
      "▁heard": 2308,
      "ennman": 2309,
      "▁Pil": 2310,
      "e.Me": 2311,
      "▁marse": 2312,
      "▁prodir": 2313,
      "▁Moris,": 2314,
      "▁laba": 2315,
      "▁add": 2316,
      "▁instit": 2317,
      "▁krwar": 2318,
      "▁burzwazi": 2319,
      "▁limem": 2320,
      "▁tablisman": 2321,
      "▁agrikol": 2322,
      ".Y": 2323,
      "ksyon": 2324,
      "ma": 2325,
      "most": 2326,
      "pres": 2327,
      "uff": 2328,
      "ved": 2329,
      "onz": 2330,
      "▁poz": 2331,
      "▁dern": 2332,
      "▁kad": 2333,
      "▁kout": 2334,
      "▁bwar": 2335,
      "▁walk": 2336,
      "ales": 2337,
      "▁camp": 2338,
      "▁enough": 2339,
      "ro-": 2340,
      "▁incre": 2341,
      "ization": 2342,
      "▁val": 2343,
      "akes": 2344,
      ".Def": 2345,
      "lain": 2346,
      "wards": 2347,
      "▁The": 2348,
      "▁Ram": 2349,
      "▁coming": 2350,
      "▁perform": 2351,
      "▁until": 2352,
      "▁control": 2353,
      "▁looking": 2354,
      "▁industry": 2355,
      "clud": 2356,
      "▁swiv": 2357,
      "▁country": 2358,
      "▁posib": 2359,
      "▁movement": 2360,
      "▁premye": 2361,
      "ESCO": 2362,
      ".d": 2363,
      "ray": 2364,
      "ration": 2365,
      "inist": 2366,
      "ori": 2367,
      "▁kut": 2368,
      "▁kne": 2369,
      "arb": 2370,
      "▁fig": 2371,
      "▁num": 2372,
      "oler": 2373,
      "▁kifer": 2374,
      "▁really": 2375,
      "izi": 2376,
      "▁why": 2377,
      "▁Man": 2378,
      "▁trou": 2379,
      "▁soci": 2380,
      "epar": 2381,
      "▁Sir": 2382,
      ".Rel": 2383,
      "ranz": 2384,
      "▁kapitalist": 2385,
      "▁meet": 2386,
      "▁Ang": 2387,
      "▁Tronpet": 2388,
      "▁avoy": 2389,
      "▁grav": 2390,
      "▁Kom": 2391,
      "▁gete": 2392,
      "▁10": 2393,
      "▁him,": 2394,
      "e.It": 2395,
      "lover": 2396,
      "▁someone": 2397,
      "▁anything": 2398,
      "▁profi": 2399,
      "ormal": 2400,
      "▁return": 2401,
      "▁retourn": 2402,
      "▁everything": 2403,
      "?No,": 2404,
      "▁Bidze": 2405,
      "com": 2406,
      "cul": 2407,
      "ha": 2408,
      "onb": 2409,
      "onst": 2410,
      "inc": 2411,
      "▁sk": 2412,
      "▁sur": 2413,
      "▁dest": 2414,
      "ised": 2415,
      "▁ban": 2416,
      "▁bor": 2417,
      "▁bag": 2418,
      "ato": 2419,
      "atter": 2420,
      "▁muvman": 2421,
      "itch": 2422,
      "▁occ": 2423,
      "▁lik": 2424,
      "▁gre": 2425,
      "izon": 2426,
      "ants": 2427,
      ".Met": 2428,
      "▁peop": 2429,
      "▁vo": 2430,
      ".Dez": 2431,
      ".Kons": 2432,
      "▁trav": 2433,
      "lack": 2434,
      "▁heal": 2435,
      "pecially": 2436,
      "▁mary": 2437,
      "▁kote": 2438,
      "▁lerwa": 2439,
      "▁among": 2440,
      "▁quite": 2441,
      "▁adv": 2442,
      "▁bring": 2443,
      "▁otur": 2444,
      "▁change": 2445,
      "ighb": 2446,
      ".Alor": 2447,
      "e.Zot": 2448,
      "▁pleas": 2449,
      "kingt": 2450,
      "▁women": 2451,
      "▁Labour": 2452,
      "▁kiksoz": 2453,
      "▁remember": 2454,
      "▁Pilkingt": 2455,
      "aign": 2456,
      "bers": 2457,
      "lam": 2458,
      "land": 2459,
      "sp": 2460,
      "zam": 2461,
      "ana": 2462,
      "▁lindistri": 2463,
      "▁ac": 2464,
      "▁kann": 2465,
      "▁kill": 2466,
      "▁kisannla": 2467,
      "▁bis": 2468,
      "▁bank": 2469,
      "▁both": 2470,
      "ately": 2471,
      "▁father": 2472,
      "▁mezir": 2473,
      "▁co": 2474,
      "▁cult": 2475,
      "aven": 2476,
      "ays": 2477,
      "vert": 2478,
      ".Pe": 2479,
      ".Av": 2480,
      "▁trwa": 2481,
      "ife": 2482,
      "outh": 2483,
      "ivo": 2484,
      "▁you,": 2485,
      "▁nothing": 2486,
      "▁pret": 2487,
      "▁comes": 2488,
      "peryans": 2489,
      "▁permet": 2490,
      "▁rid": 2491,
      "▁produc": 2492,
      "▁says": 2493,
      "?Non,": 2494,
      "▁State": 2495,
      "▁believe": 2496,
      "▁languages": 2497,
      "▁bourgeoisie": 2498,
      "▁taken": 2499,
      "▁textil": 2500,
      "▁lontan": 2501,
      "▁UNESCO": 2502,
      "▁kanpayn": 2503,
      "▁knew": 2504,
      "!”": 2505,
      ".w": 2506,
      "Qu": 2507,
      "ium": 2508,
      "rist": 2509,
      "vest": 2510,
      "▁'": 2511,
      "▁tort": 2512,
      "er.": 2513,
      "erg": 2514,
      "er.L": 2515,
      "ony": 2516,
      "▁kor": 2517,
      "▁fac": 2518,
      "▁full": 2519,
      "▁mid": 2520,
      "▁mus": 2521,
      "▁anba": 2522,
      "▁harm": 2523,
      "appe": 2524,
      "▁whether": 2525,
      ".Det": 2526,
      "▁sov": 2527,
      "epte": 2528,
      ".Ou": 2529,
      "indik": 2530,
      "▁mean": 2531,
      "▁necess": 2532,
      "e.This": 2533,
      "e.Sa": 2534,
      "ired": 2535,
      "ure,": 2536,
      "▁comp": 2537,
      "▁period": 2538,
      "▁Zot": 2539,
      "▁time,": 2540,
      "▁Morisyen": 2541,
      "▁knowled": 2542,
      "▁few": 2543,
      "▁fasil": 2544,
      "▁strat": 2545,
      "▁answer": 2546,
      "▁197": 2547,
      "▁199": 2548,
      "?Li": 2549,
      "ployment": 2550,
      "▁campaign": 2551,
      "?\"": 2552,
      "AS": 2553,
      "bu": 2554,
      "ja": 2555,
      "py": 2556,
      "▁Y": 2557,
      "▁tand": 2558,
      "▁mill": 2559,
      "▁okip": 2560,
      "olt": 2561,
      "▁rey": 2562,
      "ices": 2563,
      ".Pu": 2564,
      ".Part": 2565,
      "ourt": 2566,
      ".Kar": 2567,
      "iful": 2568,
      "▁kond": 2569,
      ".Ek": 2570,
      ".Can": 2571,
      ".Ne": 2572,
      ".No": 2573,
      ".Ob": 2574,
      "rang": 2575,
      "▁legs": 2576,
      "cies": 2577,
      "▁grand": 2578,
      "ities": 2579,
      "▁price": 2580,
      "ffic": 2581,
      "▁propoz": 2582,
      "pens": 2583,
      "ance,": 2584,
      "memtan": 2585,
      "▁clos": 2586,
      "▁plac": 2587,
      "ification": 2588,
      "▁support": 2589,
      "▁started": 2590,
      "▁lemond": 2591,
      "▁experien": 2592,
      "▁lespri": 2593,
      "anfour": 2594,
      ".b": 2595,
      ".19": 2596,
      "ding": 2597,
      "fter": 2598,
      "kord": 2599,
      "ply": 2600,
      "rup": 2601,
      "sk": 2602,
      "vent": 2603,
      "▁$": 2604,
      "▁tar": 2605,
      "er.S": 2606,
      "on't": 2607,
      "▁pans": 2608,
      "ene": 2609,
      "▁son": 2610,
      "▁sou": 2611,
      "▁size": 2612,
      "ali": 2613,
      "▁having": 2614,
      "▁effect": 2615,
      "room": 2616,
      "olis": 2617,
      "olit": 2618,
      "▁lif": 2619,
      "omin": 2620,
      "▁law": 2621,
      ".Aster": 2622,
      "▁vot": 2623,
      "▁vil": 2624,
      "▁viol": 2625,
      "uraz": 2626,
      "▁konesans": 2627,
      "▁rann": 2628,
      "ersonn": 2629,
      "▁exist": 2630,
      "indu": 2631,
      "▁sub": 2632,
      "▁manyer": 2633,
      "▁Far": 2634,
      "▁prepar": 2635,
      "▁seksyon": 2636,
      "▁usi": 2637,
      "▁polic": 2638,
      "e.Enn": 2639,
      "▁introd": 2640,
      "▁mwa,": 2641,
      "▁adm": 2642,
      "ruit": 2643,
      "▁seri": 2644,
      "▁sector": 2645,
      "▁istorik": 2646,
      ".am": 2647,
      "EB": 2648,
      "ffer": 2649,
      "sid": 2650,
      "▁6": 2651,
      "▁pow": 2652,
      "▁lalit": 2653,
      "▁local": 2654,
      "▁diz": 2655,
      "isil": 2656,
      "▁free": 2657,
      "▁ang": 2658,
      "▁often": 2659,
      "annk": 2660,
      ".Lav": 2661,
      ".Ad": 2662,
      ".Are": 2663,
      ".Ala": 2664,
      "azy": 2665,
      "▁vari": 2666,
      "▁Misie": 2667,
      ".Em": 2668,
      "aba": 2669,
      "▁moder": 2670,
      ".Cont": 2671,
      "▁seen": 2672,
      "uma": 2673,
      ".With": 2674,
      "arth": 2675,
      "e.Dis": 2676,
      "ogn": 2677,
      "▁Danfour": 2678,
      "▁rikord": 2679,
      "rench": 2680,
      "▁ubyin": 2681,
      "▁lekor": 2682,
      "▁saying": 2683,
      "▁santi": 2684,
      "▁propos": 2685,
      "▁known": 2686,
      "▁later,": 2687,
      "▁rezon": 2688,
      "▁sime": 2689,
      "▁privat": 2690,
      "▁happened": 2691,
      "▁begin": 2692,
      "aught": 2693,
      ".Dimunn": 2694,
      "▁silv": 2695,
      "▁agricultural": 2696,
      "▁commun": 2697,
      "▁condition": 2698,
      "autiful": 2699,
      "auriti": 2700,
      "cri": 2701,
      "fam": 2702,
      "hter": 2703,
      "rak": 2704,
      "the": 2705,
      "where": 2706,
      "yes": 2707,
      "▁i": 2708,
      "▁tus": 2709,
      "er.M": 2710,
      "on-": 2711,
      "onk": 2712,
      "onet": 2713,
      "▁pract": 2714,
      "▁lent": 2715,
      "▁sort": 2716,
      "ative": 2717,
      "▁main": 2718,
      "esi": 2719,
      "▁ol": 2720,
      "▁cent": 2721,
      "▁custom": 2722,
      "rog": 2723,
      "irit": 2724,
      "▁lide": 2725,
      "lez": 2726,
      ".Laf": 2727,
      "▁iss": 2728,
      ".De": 2729,
      "▁Me": 2730,
      "▁poul": 2731,
      "▁almost": 2732,
      "mand": 2733,
      ".Is": 2734,
      "▁konf": 2735,
      "▁ra": 2736,
      "▁ren": 2737,
      "▁ram": 2738,
      "▁stand": 2739,
      "▁parol": 2740,
      ".Rev": 2741,
      "▁leave": 2742,
      "▁neighb": 2743,
      "e.St": 2744,
      "▁Fl": 2745,
      "▁them,": 2746,
      "▁market": 2747,
      "▁Eski": 2748,
      "▁conc": 2749,
      "▁especially": 2750,
      "▁relig": 2751,
      "▁changes": 2752,
      "▁since": 2753,
      "▁lexperyans": 2754,
      "▁Bondie": 2755,
      "▁announ": 2756,
      "▁Parti": 2757,
      "▁lanplwa": 2758,
      "▁education": 2759,
      "▁Leta": 2760,
      "▁modern": 2761,
      "GM": 2762,
      "TI": 2763,
      "o.B": 2764,
      "wir": 2765,
      "ani": 2766,
      "▁less": 2767,
      "▁listwar": 2768,
      "▁lost": 2769,
      "▁sleep": 2770,
      "▁fut": 2771,
      "▁mon": 2772,
      "▁mir": 2773,
      "esion": 2774,
      "▁analiz": 2775,
      "▁anpes": 2776,
      "▁eas": 2777,
      "▁zen": 2778,
      "▁inform": 2779,
      "izion": 2780,
      ".Lez": 2781,
      "▁pur": 2782,
      ".Del": 2783,
      ".Dist": 2784,
      ".Kol": 2785,
      "▁try": 2786,
      "▁konst": 2787,
      "abb": 2788,
      "abet": 2789,
      "agic": 2790,
      ".Cl": 2791,
      ".Rec": 2792,
      "▁Is": 2793,
      "▁hear": 2794,
      "asyon,": 2795,
      "iber": 2796,
      "▁aband": 2797,
      "acc": 2798,
      "▁lerb": 2799,
      "▁lives": 2800,
      "▁offic": 2801,
      "▁malad": 2802,
      "▁larzan": 2803,
      "▁groups": 2804,
      "▁capital": 2805,
      "▁else": 2806,
      "▁serten": 2807,
      "▁boat": 2808,
      "▁Mr.": 2809,
      "e.Un": 2810,
      "▁truve": 2811,
      "▁Squealer": 2812,
      "▁ogmant": 2813,
      "▁peopl": 2814,
      "▁necessary": 2815,
      "-k": 2816,
      "?F": 2817,
      "SM": 2818,
      "ean": 2819,
      "sis": 2820,
      "side": 2821,
      "wis": 2822,
      "was": 2823,
      "▁tant": 2824,
      "▁pond": 2825,
      "▁swa": 2826,
      "oral": 2827,
      "▁far": 2828,
      "▁felt": 2829,
      "▁ho": 2830,
      "▁cann": 2831,
      "aman": 2832,
      "▁rese": 2833,
      ".Sc": 2834,
      ".Lag": 2835,
      "ided": 2836,
      "▁vas": 2837,
      ".Bl": 2838,
      "urs": 2839,
      "aby": 2840,
      "▁run": 2841,
      "osion": 2842,
      "ages": 2843,
      "▁plit": 2844,
      "▁sex": 2845,
      "▁dimin": 2846,
      ".His": 2847,
      "▁dimunn,": 2848,
      "▁Pro": 2849,
      ".Int": 2850,
      "▁short": 2851,
      "▁travayer,": 2852,
      "▁Grand": 2853,
      "▁GMO": 2854,
      "▁Eu": 2855,
      "acy": 2856,
      "▁folkt": 2857,
      "▁lera": 2858,
      "riksion": 2859,
      "rikiltir": 2860,
      "▁repres": 2861,
      "▁ways": 2862,
      "▁detay": 2863,
      "▁kinds": 2864,
      "▁talking": 2865,
      "▁lalwa": 2866,
      "▁direk": 2867,
      "▁ledikasyon": 2868,
      "▁ladan": 2869,
      "▁bird": 2870,
      "▁listen": 2871,
      "▁mobiliz": 2872,
      "▁morning": 2873,
      "▁Siram": 2874,
      "-K": 2875,
      "-n": 2876,
      ".*": 2877,
      ".c": 2878,
      ".ag": 2879,
      "Mo": 2880,
      "dom": 2881,
      "ection": 2882,
      "ient": 2883,
      "ie,": 2884,
      "lor": 2885,
      "let": 2886,
      "rade": 2887,
      "sy": 2888,
      "uction": 2889,
      "’ll": 2890,
      "▁9": 2891,
      "ination": 2892,
      "▁lant": 2893,
      "▁sm": 2894,
      "▁sindik": 2895,
      "▁koup": 2896,
      "▁kept": 2897,
      "ream": 2898,
      "▁fat": 2899,
      "▁mot": 2900,
      "alm": 2901,
      "e.J": 2902,
      "▁anp": 2903,
      "▁tick": 2904,
      "▁half": 2905,
      "▁elect": 2906,
      "ird": 2907,
      "els": 2908,
      "elman": 2909,
      "▁gam": 2910,
      "▁gener": 2911,
      ".Lin": 2912,
      ".Les": 2913,
      "ikman": 2914,
      "antal": 2915,
      ".After": 2916,
      "▁that,": 2917,
      "▁ones": 2918,
      "▁alim": 2919,
      "▁altern": 2920,
      "▁proper": 2921,
      "ifye": 2922,
      "ifikasyon": 2923,
      "▁itself": 2924,
      "▁seg": 2925,
      "▁asiz": 2926,
      "▁La": 2927,
      "▁expect": 2928,
      "▁neg": 2929,
      "ellion": 2930,
      "▁Tref": 2931,
      "▁goes": 2932,
      "▁allow": 2933,
      "e.Dek": 2934,
      "▁agre": 2935,
      "▁disappe": 2936,
      "▁oule": 2937,
      "ments": 2938,
      "▁mari": 2939,
      "▁folk": 2940,
      "e.Ch": 2941,
      "▁speech": 2942,
      "▁teacher": 2943,
      "▁198": 2944,
      "posed": 2945,
      "▁everyone": 2946,
      "▁sosy": 2947,
      "▁kontinye": 2948,
      "▁Napoleon,": 2949,
      "▁Afric": 2950,
      "▁society": 2951,
      "▁reysi": 2952,
      "-h": 2953,
      "cour": 2954,
      "eas": 2955,
      "hadi": 2956,
      "jamin": 2957,
      "less": 2958,
      "nes": 2959,
      "rer": 2960,
      "vir": 2961,
      "yom": 2962,
      "▁press": 2963,
      "▁sot": 2964,
      "▁sid": 2965,
      "▁during": 2966,
      "▁dapre": 2967,
      "orite": 2968,
      "▁kree": 2969,
      "isk": 2970,
      "▁wa": 2971,
      "▁makes": 2972,
      "alt": 2973,
      "▁house": 2974,
      "▁zet": 2975,
      "oly": 2976,
      ".Seki": 2977,
      "▁lafors": 2978,
      ".Lat": 2979,
      ".Mon": 2980,
      "eksion": 2981,
      "▁public": 2982,
      "▁beautiful": 2983,
      "akt": 2984,
      ".Kat": 2985,
      "▁tranz": 2986,
      ".Rem": 2987,
      ".Rek": 2988,
      "▁lord": 2989,
      "▁IN": 2990,
      "▁It": 2991,
      "▁Ledikasyon": 2992,
      "sey": 2993,
      "▁abit": 2994,
      "▁byin": 2995,
      "ession": 2996,
      "▁TH": 2997,
      ".Zistwar": 2998,
      ".These": 2999,
      "▁imm": 3000,
      "e.And": 3001,
      "ended": 3002,
      "▁12": 3003,
      "▁letid": 3004,
      "▁species": 3005,
      "wazo": 3006,
      "▁problems": 3007,
      "▁detrwa": 3008,
      "ences": 3009,
      "▁explain": 3010,
      "anble": 3011,
      "▁fact,": 3012,
      "▁explik": 3013,
      "▁sikriyer": 3014,
      "▁benef": 3015,
      "-mem": 3016,
      "ior": 3017,
      "▁id": 3018,
      "on.P": 3019,
      "inter": 3020,
      "▁lener": 3021,
      "▁liter": 3022,
      "▁sum": 3023,
      "▁dress": 3024,
      "orz": 3025,
      "▁kre": 3026,
      "▁bit": 3027,
      "▁bed": 3028,
      "▁body": 3029,
      "ara": 3030,
      "▁fire": 3031,
      "▁me,": 3032,
      "itid": 3033,
      "▁anfet": 3034,
      "▁tipt": 3035,
      "▁earth": 3036,
      "▁corn": 3037,
      "▁ent": 3038,
      "iling": 3039,
      "ility": 3040,
      "irt": 3041,
      "amat": 3042,
      "aves": 3043,
      "empt": 3044,
      ".Tu": 3045,
      "▁ule": 3046,
      ".Sk": 3047,
      ".Sak": 3048,
      "lex": 3049,
      "aker": 3050,
      ".Dev": 3051,
      "▁forward": 3052,
      "▁trade": 3053,
      "istre": 3054,
      "▁rat": 3055,
      "ersi": 3056,
      ".Reg": 3057,
      ".Fin": 3058,
      "▁sever": 3059,
      "odrig": 3060,
      "▁dog": 3061,
      ".Go": 3062,
      "ously": 3063,
      ".Inter": 3064,
      "▁grannk": 3065,
      "▁prepare": 3066,
      "uge": 3067,
      "ograp": 3068,
      "e.Bann": 3069,
      "▁personn": 3070,
      "eget": 3071,
      "▁say,": 3072,
      "itional": 3073,
      "▁poet": 3074,
      "▁lavwa": 3075,
      "▁became": 3076,
      "▁labour": 3077,
      "▁WTO": 3078,
      "▁face": 3079,
      "▁OGM": 3080,
      "▁strong": 3081,
      "▁relations": 3082,
      "▁living": 3083,
      "▁sometimes": 3084,
      "▁lagrikiltir": 3085,
      "▁private": 3086,
      "▁basen": 3087,
      "▁asterla": 3088,
      "▁front": 3089,
      "▁Chin": 3090,
      "▁sertin": 3091,
      "▁discus": 3092,
      "▁continu": 3093,
      "▁karo": 3094,
      "▁tongue": 3095,
      "▁aksepte": 3096,
      "▁knowledge": 3097,
      "azyb": 3098,
      "▁cannot": 3099,
      "!B": 3100,
      "RS": 3101,
      "dden": 3102,
      "go": 3103,
      "iver": 3104,
      "ping": 3105,
      "ze,": 3106,
      "▁7": 3107,
      "▁tail": 3108,
      "▁sat": 3109,
      "▁side": 3110,
      "▁separ": 3111,
      "isi": 3112,
      "isip": 3113,
      "rep": 3114,
      "▁black": 3115,
      "ature": 3116,
      "▁mw": 3117,
      "▁maj": 3118,
      "ality": 3119,
      "▁anmemtan": 3120,
      "▁hom": 3121,
      "▁light": 3122,
      "ami": 3123,
      "rif": 3124,
      "adem": 3125,
      "annman": 3126,
      ".Lot": 3127,
      "iksion": 3128,
      "ekoy": 3129,
      "▁deep": 3130,
      ".Boxer": 3131,
      "istik": 3132,
      "ations,": 3133,
      "▁fer,": 3134,
      "▁I'm": 3135,
      "ief": 3136,
      "▁export": 3137,
      "ange": 3138,
      "arde": 3139,
      ".Ins": 3140,
      "raight": 3141,
      "▁French": 3142,
      "▁Clover": 3143,
      "ciples": 3144,
      "▁Rep": 3145,
      "▁compan": 3146,
      "▁road": 3147,
      "▁rock": 3148,
      "e.At": 3149,
      "▁Dim": 3150,
      "liye": 3151,
      "▁looked": 3152,
      "▁malgre": 3153,
      "ruction": 3154,
      "▁large": 3155,
      "▁account": 3156,
      "ross": 3157,
      "▁medium": 3158,
      "ever,": 3159,
      "▁direct": 3160,
      "▁interests": 3161,
      "▁ditor": 3162,
      "▁English": 3163,
      "▁struggle": 3164,
      "ohn": 3165,
      "▁popil": 3166,
      "▁maryaz": 3167,
      "hadija": 3168,
      "!A": 3169,
      "-M": 3170,
      "EN": 3171,
      "a.K": 3172,
      "cap": 3173,
      "ext": 3174,
      "iyn": 3175,
      "lip": 3176,
      "rasion": 3177,
      "sh": 3178,
      "wet": 3179,
      "er.B": 3180,
      "▁ph": 3181,
      "▁pi": 3182,
      "▁sn": 3183,
      "▁sar": 3184,
      "▁dok": 3185,
      "orrow": 3186,
      "▁bi": 3187,
      "▁best": 3188,
      "ati": 3189,
      "atif": 3190,
      "▁fight": 3191,
      "▁five": 3192,
      "▁miz": 3193,
      "itif": 3194,
      "▁hung": 3195,
      "▁ear": 3196,
      "▁cow": 3197,
      "rope": 3198,
      "rown": 3199,
      "▁includ": 3200,
      "elev": 3201,
      "▁gen": 3202,
      "▁geri": 3203,
      "avid": 3204,
      ".Set": 3205,
      ".Lek": 3206,
      "ently": 3207,
      "▁yard": 3208,
      "▁valer": 3209,
      ".Dek": 3210,
      "urb": 3211,
      "agos": 3212,
      "illing": 3213,
      "▁aswar": 3214,
      "iev": 3215,
      ".Where": 3216,
      "▁sure": 3217,
      "▁sudden": 3218,
      "e.Dep": 3219,
      "raft": 3220,
      "▁CEB": 3221,
      "e.Pl": 3222,
      ".sp": 3223,
      "▁usual": 3224,
      "▁difisil": 3225,
      "e.As": 3226,
      "▁marri": 3227,
      "e.Ler": 3228,
      "ultan": 3229,
      "egn": 3230,
      "ganizasyon": 3231,
      "?Kimanyer": 3232,
      "▁poor": 3233,
      "▁lavil": 3234,
      "▁famil": 3235,
      "▁lamer": 3236,
      "▁forms": 3237,
      "ements": 3238,
      "itten": 3239,
      "▁longer": 3240,
      "▁conf": 3241,
      "▁farmh": 3242,
      "▁etid": 3243,
      "▁evennman": 3244,
      "▁secret": 3245,
      "▁lizinn": 3246,
      "▁ranpli": 3247,
      "▁history": 3248,
      "▁situation": 3249,
      "▁sectors": 3250,
      "▁tradisyonel": 3251,
      "▁oblize": 3252,
      "▁semenn": 3253,
      "▁break": 3254,
      "▁ruling": 3255,
      "OR": 3256,
      "band": 3257,
      "ce,": 3258,
      "dle": 3259,
      "me": 3260,
      "mo": 3261,
      "van": 3262,
      "’ve": 3263,
      "▁ill": 3264,
      "▁ousa": 3265,
      "▁ty": 3266,
      "▁tut": 3267,
      "▁tous": 3268,
      "erem": 3269,
      "▁lay": 3270,
      "▁swe": 3271,
      "ouver": 3272,
      "▁din": 3273,
      "atwar": 3274,
      "▁watch": 3275,
      "esp": 3276,
      "asite": 3277,
      "▁anyone": 3278,
      "▁hold": 3279,
      "▁eyes": 3280,
      "▁cost": 3281,
      "▁cru": 3282,
      "edding": 3283,
      "▁non": 3284,
      "▁napa": 3285,
      "▁normal": 3286,
      "▁zenn": 3287,
      "olision": 3288,
      "ics": 3289,
      ".Small": 3290,
      "▁la.": 3291,
      ".Lor": 3292,
      ".Po": 3293,
      ".Pen": 3294,
      ".Person": 3295,
      "▁vill": 3296,
      "▁veget": 3297,
      "head": 3298,
      ".Dr": 3299,
      ".Kap": 3300,
      ".Kimanyer": 3301,
      "▁Maz": 3302,
      "▁along": 3303,
      "▁trak": 3304,
      "ists": 3305,
      ".Ed": 3306,
      ".Ext": 3307,
      "▁stay": 3308,
      "▁Sinn": 3309,
      ".Red": 3310,
      "▁lorganizasyon": 3311,
      "e.Dez": 3312,
      "e.Par": 3313,
      "▁nouvo": 3314,
      "▁Rodrig": 3315,
      "▁partou": 3316,
      "e.Kan": 3317,
      "▁John": 3318,
      "▁union": 3319,
      "anker": 3320,
      "▁spirit": 3321,
      "soci": 3322,
      "▁desid": 3323,
      "▁now,": 3324,
      "▁strateg": 3325,
      "▁brought": 3326,
      "e.We": 3327,
      "▁object": 3328,
      "utions": 3329,
      "▁wanted": 3330,
      "▁setadir": 3331,
      "▁produce": 3332,
      "▁drwat": 3333,
      "insip": 3334,
      "▁decre": 3335,
      "▁attack": 3336,
      "▁refiz": 3337,
      "iblik": 3338,
      "▁tapaz": 3339,
      "▁Benjamin": 3340,
      "▁observ": 3341,
      "▁Sunday": 3342,
      "▁number": 3343,
      "▁dizef": 3344,
      "azybones": 3345,
      "-up": 3346,
      "PT": 3347,
      "aff": 3348,
      "body": 3349,
      "fect": 3350,
      "ged": 3351,
      "hap": 3352,
      "hood": 3353,
      "sip": 3354,
      "swit": 3355,
      "uistic": 3356,
      "work": 3357,
      "ym": 3358,
      "yasyon": 3359,
      "▁8": 3360,
      "▁tot": 3361,
      "▁test": 3362,
      "▁tultan": 3363,
      "onv": 3364,
      "on’t": 3365,
      "ened": 3366,
      "▁lel": 3367,
      "▁sold": 3368,
      "oupl": 3369,
      "▁mass": 3370,
      "itab": 3371,
      "▁enter": 3372,
      "▁top": 3373,
      "ir,": 3374,
      "olon": 3375,
      "ama,": 3376,
      "▁lake": 3377,
      ".Med": 3378,
      "ental": 3379,
      ".Am": 3380,
      "▁beings": 3381,
      "inning": 3382,
      "▁deba": 3383,
      "ival": 3384,
      "ivid": 3385,
      "ched": 3386,
      "osp": 3387,
      "aged": 3388,
      "▁step": 3389,
      "▁parfwa": 3390,
      ".Ref": 3391,
      ".Fam": 3392,
      "▁sea": 3393,
      "▁seval": 3394,
      "▁Be": 3395,
      "▁exam": 3396,
      "▁dirizan": 3397,
      ".Gard": 3398,
      "▁Angl": 3399,
      "▁abs": 3400,
      "ained": 3401,
      "elling": 3402,
      "raf": 3403,
      "astic": 3404,
      "▁disip": 3405,
      "ends": 3406,
      "▁gets": 3407,
      "▁cane": 3408,
      "▁lamas": 3409,
      ".Who": 3410,
      "▁deside": 3411,
      "▁ankuraz": 3412,
      "▁determ": 3413,
      "▁sanze": 3414,
      "▁serious": 3415,
      "▁event": 3416,
      "anp,": 3417,
      "▁rapor": 3418,
      "▁dibut": 3419,
      "▁level": 3420,
      "▁gives": 3421,
      "▁belief": 3422,
      "▁realize": 3423,
      "▁birth": 3424,
      "▁business": 3425,
      "▁questions": 3426,
      "▁traditional": 3427,
      "▁reponn,": 3428,
      "▁Minister": 3429,
      "▁England": 3430,
      "▁passed": 3431,
      "▁possible": 3432,
      "▁toultan": 3433,
      "▁rupe": 3434,
      "▁Farouk": 3435,
      "▁lenerzi": 3436,
      "▁grannkaz": 3437,
      ".an": 3438,
      ".in": 3439,
      "AT": 3440,
      "IS": 3441,
      "In": 3442,
      "ace": 3443,
      "be": 3444,
      "cle": 3445,
      "har": 3446,
      "pris": 3447,
      "person": 3448,
      "s.": 3449,
      "y.": 3450,
      "▁–": 3451,
      "an.P": 3452,
      "▁taking": 3453,
      "in,": 3454,
      "▁port": 3455,
      "▁loz": 3456,
      "▁sap": 3457,
      "▁sut": 3458,
      "▁thus": 3459,
      "▁kn": 3460,
      "▁kriye": 3461,
      "isyel": 3462,
      "▁fall": 3463,
      "▁wall": 3464,
      "▁writ": 3465,
      "ased": 3466,
      "▁tip": 3467,
      "▁hid": 3468,
      "▁hors": 3469,
      "▁equ": 3470,
      "▁either": 3471,
      "▁enem": 3472,
      "▁enpe": 3473,
      "▁energ": 3474,
      "amer": 3475,
      "▁reason": 3476,
      "izik": 3477,
      "▁laug": 3478,
      "veryone": 3479,
      "antinn": 3480,
      ".Pou": 3481,
      "▁sack": 3482,
      "▁is,": 3483,
      ".Dec": 3484,
      ".Br": 3485,
      ".Bar": 3486,
      "▁prov": 3487,
      ".El": 3488,
      ".Et": 3489,
      "iven": 3490,
      "▁ras": 3491,
      "oph": 3492,
      "▁mod": 3493,
      "use": 3494,
      "epend": 3495,
      "▁So": 3496,
      "▁paran": 3497,
      ".Rez": 3498,
      "orth": 3499,
      ".Fil": 3500,
      "▁Bann": 3501,
      "▁heart": 3502,
      "unning": 3503,
      ".Ink": 3504,
      ".Zis": 3505,
      "aret": 3506,
      "cious": 3507,
      "▁ground": 3508,
      "▁gramat": 3509,
      "▁Gran": 3510,
      "▁Rs": 3511,
      "ording": 3512,
      "▁usually": 3513,
      "▁mark": 3514,
      "▁can’t": 3515,
      "ights": 3516,
      "▁Maj": 3517,
      "▁prim": 3518,
      "▁konpayn": 3519,
      "▁quick": 3520,
      "ecause": 3521,
      "▁day,": 3522,
      "▁teach": 3523,
      "▁planters": 3524,
      "▁relasyon": 3525,
      "e.What": 3526,
      "ence,": 3527,
      "▁month": 3528,
      "▁crisis,": 3529,
      "▁otour": 3530,
      "▁lager": 3531,
      "▁kraz": 3532,
      "▁linter": 3533,
      "rezistre": 3534,
      "▁natirel": 3535,
      "▁single": 3536,
      "▁clear": 3537,
      "▁Intern": 3538,
      "▁continue": 3539,
      "▁Travayer": 3540,
      "ouble": 3541,
      "▁Benzam": 3542,
      "▁building": 3543,
      "▁behind": 3544,
      "▁comrades": 3545,
      "▁analysis": 3546,
      "▁measures": 3547,
      "olklor": 3548,
      "cript": 3549,
      "▁future": 3550,
      "▁Dimans": 3551,
      "\",": 3552,
      "-L": 3553,
      "-g": 3554,
      "poz": 3555,
      "rint": 3556,
      "▁tout": 3557,
      "▁tini": 3558,
      "▁tret": 3559,
      "ines": 3560,
      "▁dream": 3561,
      "▁ka": 3562,
      "ission": 3563,
      "▁fil": 3564,
      "▁fun": 3565,
      "▁fruit": 3566,
      "aster": 3567,
      "▁hot": 3568,
      "▁hop": 3569,
      "▁huge": 3570,
      "▁os": 3571,
      "▁cours": 3572,
      "▁encour": 3573,
      "ilite": 3574,
      "▁gone": 3575,
      "amil": 3576,
      "aper": 3577,
      "izasion": 3578,
      ".Ser": 3579,
      ".Sal": 3580,
      "ikasion": 3581,
      "▁process": 3582,
      "outik": 3583,
      "ively": 3584,
      "▁Sik": 3585,
      ".Fe": 3586,
      "ode": 3587,
      "onton": 3588,
      "enns": 3589,
      ".Obs": 3590,
      "ains": 3591,
      ".Zan": 3592,
      "fore": 3593,
      "forman": 3594,
      "e.Deb": 3595,
      "asts": 3596,
      "▁Ki": 3597,
      "▁rol": 3598,
      "▁marye": 3599,
      "▁people,": 3600,
      "wayaz": 3601,
      "▁15": 3602,
      "e.But": 3603,
      "▁touy": 3604,
      "e.Eski": 3605,
      ".Ank": 3606,
      "▁members": 3607,
      "▁yourself": 3608,
      "▁laport": 3609,
      "upid": 3610,
      "ected": 3611,
      "▁interv": 3612,
      "▁lakour": 3613,
      "▁becom": 3614,
      "wazir": 3615,
      "▁brother": 3616,
      "▁rights": 3617,
      ".Prof": 3618,
      "▁accept": 3619,
      "▁protez": 3620,
      "▁based": 3621,
      "▁medyom": 3622,
      "▁lizie": 3623,
      "▁milk": 3624,
      "▁30": 3625,
      "▁study": 3626,
      "▁written": 3627,
      "▁except": 3628,
      "▁particip": 3629,
      "▁particular": 3630,
      "▁spesyal": 3631,
      "▁seemed": 3632,
      "▁responsab": 3633,
      "cribe": 3634,
      ".People": 3635,
      "rupt": 3636,
      "▁ramas": 3637,
      "▁hoof": 3638,
      "▁diminye": 3639,
      "-S": 3640,
      "?R": 3641,
      "?You": 3642,
      "aur": 3643,
      "bol": 3644,
      "eor": 3645,
      "hed": 3646,
      "i.B": 3647,
      "oise": 3648,
      "ple": 3649,
      "vel": 3650,
      "’re": 3651,
      "▁tan": 3652,
      "▁treat": 3653,
      "erit": 3654,
      "er.T": 3655,
      "ina": 3656,
      "▁lo": 3657,
      "▁send": 3658,
      "▁sick": 3659,
      "▁saler": 3660,
      "oran": 3661,
      "▁barn": 3662,
      "atic": 3663,
      "arvest": 3664,
      "▁wife": 3665,
      "▁matter": 3666,
      "ases": 3667,
      "▁tiket": 3668,
      "▁cry": 3669,
      "▁caus": 3670,
      "ed.": 3671,
      "roll": 3672,
      "▁nwar": 3673,
      "▁zur": 3674,
      "▁inkl": 3675,
      "▁lip": 3676,
      "▁gun": 3677,
      "right": 3678,
      "▁reb": 3679,
      "▁refer": 3680,
      "emin": 3681,
      ".Lan": 3682,
      "antite": 3683,
      ".Mat": 3684,
      "ential": 3685,
      "▁pull": 3686,
      "ourne": 3687,
      "▁yev": 3688,
      "akter": 3689,
      ".Deb": 3690,
      ".Kouma": 3691,
      "▁Mar": 3692,
      "iste": 3693,
      "urg": 3694,
      "urity": 3695,
      "abol": 3696,
      "ably": 3697,
      "▁ekout": 3698,
      "▁it’s": 3699,
      "▁parents": 3700,
      "oke": 3701,
      ".Cons": 3702,
      ".Ret": 3703,
      "▁oral": 3704,
      ".Neg": 3705,
      "ontre": 3706,
      ".Water": 3707,
      "plas": 3708,
      "▁atak": 3709,
      ".Om": 3710,
      "▁kapasite": 3711,
      "▁Ar": 3712,
      "▁“W": 3713,
      "▁appro": 3714,
      "e.Dem": 3715,
      "e.So": 3716,
      "▁agro-": 3717,
      "ounc": 3718,
      "ondyal": 3719,
      "▁Nou": 3720,
      "▁New": 3721,
      "▁complet": 3722,
      "▁result": 3723,
      "▁partisip": 3724,
      "acity": 3725,
      "tegr": 3726,
      "▁David": 3727,
      "reng": 3728,
      "▁gagne": 3729,
      "▁propri": 3730,
      "▁prinsip": 3731,
      "▁demok": 3732,
      "itting": 3733,
      "afrik": 3734,
      "▁kriz-la": 3735,
      "▁planter": 3736,
      "▁detail": 3737,
      "▁obzerv": 3738,
      "?It": 3739,
      "▁selman": 3740,
      "arket": 3741,
      "▁pige": 3742,
      "?Sa": 3743,
      "▁kasiet": 3744,
      "▁transform": 3745,
      "▁material": 3746,
      "▁dibout": 3747,
      "▁telman": 3748,
      "▁idea": 3749,
      "▁baze": 3750,
      "▁employment": 3751,
      "▁check": 3752,
      "▁international": 3753,
      "▁words,": 3754,
      "▁plizyer": 3755,
      "attle": 3756,
      "▁friends": 3757,
      "▁example,": 3758,
      "▁2004": 3759,
      "▁Frederick": 3760,
      "▁kutim": 3761,
      "▁subject": 3762,
      "▁conditions": 3763,
      "▁Europe": 3764,
      "▁immedi": 3765,
      "▁konpayni": 3766,
      "!M": 3767,
      "'re": 3768,
      "-P": 3769,
      "-in": 3770,
      "OU": 3771,
      "VER": 3772,
      "a.": 3773,
      "cher": 3774,
      "kil": 3775,
      "oo": 3776,
      "ront": 3777,
      "round": 3778,
      "zur": 3779,
      "—la": 3780,
      "onf": 3781,
      "eni": 3782,
      "▁len": 3783,
      "▁sour": 3784,
      "▁sity": 3785,
      "▁satis": 3786,
      "▁aim": 3787,
      "▁kriy": 3788,
      "isan": 3789,
      "ister": 3790,
      "▁foot": 3791,
      "▁wood": 3792,
      "ite,": 3793,
      "alenn": 3794,
      "e.z": 3795,
      "oti": 3796,
      "▁hour": 3797,
      "rok": 3798,
      "▁offer": 3799,
      "▁zed": 3800,
      "eleb": 3801,
      "olid": 3802,
      "▁lib": 3803,
      ".Sip": 3804,
      ".Le": 3805,
      ".Mak": 3806,
      ".Pol": 3807,
      "idan": 3808,
      "ekn": 3809,
      "▁whom": 3810,
      "ouraz": 3811,
      "▁vye": 3812,
      "▁deal": 3813,
      "▁fors": 3814,
      ".Even": 3815,
      "ivity": 3816,
      "unch": 3817,
      "used": 3818,
      "▁itiliz": 3819,
      "▁strik": 3820,
      ".Co": 3821,
      "ouler": 3822,
      "▁Budget": 3823,
      "▁Lind": 3824,
      "▁arm": 3825,
      ".Get": 3826,
      ".Guvernman": 3827,
      "▁AN": 3828,
      "▁suffer": 3829,
      "▁suvan": 3830,
      "▁Pl": 3831,
      "essed": 3832,
      "cient": 3833,
      "▁travay,": 3834,
      "▁prez": 3835,
      ".sin": 3836,
      "lass,": 3837,
      "atever": 3838,
      "ured": 3839,
      "▁respect": 3840,
      "▁difikil": 3841,
      "wayans": 3842,
      "▁police": 3843,
      "▁lapolis": 3844,
      ".It’s": 3845,
      "▁lavenir": 3846,
      "ccess": 3847,
      "▁20": 3848,
      "▁preske": 3849,
      ".Konp": 3850,
      "▁organize": 3851,
      "▁cloth": 3852,
      ".Lerwa": 3853,
      "▁classes": 3854,
      "?He": 3855,
      "▁decided": 3856,
      "▁protest": 3857,
      "remie": 3858,
      "▁nature": 3859,
      ".Many": 3860,
      "ified": 3861,
      "▁understanding": 3862,
      "▁Command": 3863,
      ".Depi": 3864,
      "aughter": 3865,
      "▁azir": 3866,
      "▁consider": 3867,
      "▁kontinie": 3868,
      "▁house,": 3869,
      "?Ou": 3870,
      "▁lingw": 3871,
      "uthority": 3872,
      "▁lokal": 3873,
      "▁figir": 3874,
      "▁travers": 3875,
      "▁health": 3876,
      "▁tortoise": 3877,
      "▁tande": 3878,
      "▁silvoupl": 3879,
      "▁miray": 3880,
      "▁plito": 3881,
      "▁tipti": 3882,
      "▁several": 3883,
      "▁difikilte": 3884,
      "-F": 3885,
      "?G": 3886,
      "gest": 3887,
      "lar": 3888,
      "liz": 3889,
      "mother": 3890,
      "minist": 3891,
      "oin": 3892,
      "press": 3893,
      "s.The": 3894,
      "ublic": 3895,
      "wal": 3896,
      "wood": 3897,
      "’d": 3898,
      "erport": 3899,
      "onter": 3900,
      "onse": 3901,
      "in.M": 3902,
      "ini,": 3903,
      "▁lili": 3904,
      "▁love": 3905,
      "▁samem": 3906,
      "ouf": 3907,
      "orld": 3908,
      "▁kl": 3909,
      "▁kiltir": 3910,
      "iser": 3911,
      "ison": 3912,
      "ising": 3913,
      "rek": 3914,
      "▁ble": 3915,
      "▁born": 3916,
      "ats": 3917,
      "ate.C": 3918,
      "atory": 3919,
      "▁fool": 3920,
      "▁field": 3921,
      "▁mult": 3922,
      "▁milt": 3923,
      "itor": 3924,
      "e...": 3925,
      "esis": 3926,
      "▁anv": 3927,
      "▁ti-": 3928,
      "▁hus": 3929,
      "▁home": 3930,
      "▁harvest": 3931,
      "▁town": 3932,
      "▁nek": 3933,
      "▁zwazo": 3934,
      "▁gl": 3935,
      "riend": 3936,
      "avan": 3937,
      "avour": 3938,
      "▁andeor": 3939,
      "▁rece": 3940,
      ".Take": 3941,
      "▁u,": 3942,
      ".Sin": 3943,
      ".Sant": 3944,
      "▁lao": 3945,
      ".La": 3946,
      ".Lal": 3947,
      "▁danger": 3948,
      ".Mod": 3949,
      ".Make": 3950,
      ".Ph": 3951,
      "ekrir": 3952,
      "▁yet": 3953,
      "▁deg": 3954,
      ".Dif": 3955,
      ".Bu": 3956,
      ".Bat": 3957,
      "ctor": 3958,
      "▁trap": 3959,
      "▁trank": 3960,
      "▁project": 3961,
      "utes": 3962,
      ".Ev": 3963,
      "▁it's": 3964,
      "▁stick": 3965,
      "▁Sp": 3966,
      "▁Sid": 3967,
      ".Car": 3968,
      "▁Bala": 3969,
      "▁I'll": 3970,
      "▁Lord": 3971,
      "▁Lazybones": 3972,
      "▁dimand": 3973,
      ".Her": 3974,
      "onnman": 3975,
      "▁meyer": 3976,
      "▁this,": 3977,
      "▁Ag": 3978,
      "▁And": 3979,
      "yer,": 3980,
      "▁Khadija": 3981,
      "e.Pro": 3982,
      "▁pred": 3983,
      "▁up,": 3984,
      "▁reserv": 3985,
      "▁Ed": 3986,
      "▁outside": 3987,
      "e.Rek": 3988,
      "e.Im": 3989,
      "▁koumsa": 3990,
      "▁priest": 3991,
      "▁pratik": 3992,
      "ism,": 3993,
      "▁laboutik": 3994,
      "▁We": 3995,
      "ouvan": 3996,
      "▁profeser": 3997,
      "▁farm,": 3998,
      ".Apart": 3999,
      "e.They": 4000,
      "▁komin": 4001,
      "▁komers": 4002,
      "▁paper": 4003,
      "▁instead": 4004,
      "▁product": 4005,
      "▁lekol,": 4006,
      "rezant": 4007,
      "▁rekonet": 4008,
      "▁salad": 4009,
      "▁storyt": 4010,
      "▁premie": 4011,
      "▁terrib": 4012,
      "overed": 4013,
      "▁elekt": 4014,
      "▁agriculture": 4015,
      "▁poems": 4016,
      "▁re-organ": 4017,
      "▁broke": 4018,
      "iversity": 4019,
      "▁nanye": 4020,
      "▁historical": 4021,
      "▁example": 4022,
      "▁create": 4023,
      "▁Angle": 4024,
      "▁Pilkingtonn": 4025,
      "▁stratezi": 4026,
      "▁effects": 4027,
      "▁olig": 4028,
      "!F": 4029,
      "!T": 4030,
      "a.S": 4031,
      "cum": 4032,
      "ians": 4033,
      "o.P": 4034,
      "pil": 4035,
      "▁—": 4036,
      "onstit": 4037,
      "inary": 4038,
      "▁sans": 4039,
      "isation": 4040,
      "rest": 4041,
      "▁bott": 4042,
      "▁baby": 4043,
      "▁fos": 4044,
      "▁flo": 4045,
      "▁fane": 4046,
      "▁fizi": 4047,
      "▁mess": 4048,
      "itive": 4049,
      "e.You": 4050,
      "as,": 4051,
      "▁om": 4052,
      "▁cr": 4053,
      "▁cat": 4054,
      "▁cour": 4055,
      "▁crop": 4056,
      "▁towards": 4057,
      "ion,": 4058,
      "▁infl": 4059,
      "omb": 4060,
      ".Te": 4061,
      "▁ut": 4062,
      ".Mas": 4063,
      ".Pas": 4064,
      "ides": 4065,
      "eksyon": 4066,
      "ansyel": 4067,
      "▁vag": 4068,
      "▁vote": 4069,
      "▁visit": 4070,
      "▁deor": 4071,
      ".Kisannla": 4072,
      ".Kifer": 4073,
      "▁fore": 4074,
      "andans": 4075,
      ".Es": 4076,
      ".Ele": 4077,
      ".Every": 4078,
      "abor": 4079,
      "▁pain": 4080,
      "oper": 4081,
      "lac": 4082,
      "laim": 4083,
      "ership": 4084,
      ".Fat": 4085,
      "▁seeds": 4086,
      "ulation": 4087,
      "▁area": 4088,
      "iew": 4089,
      "plis": 4090,
      "▁success": 4091,
      "▁Par": 4092,
      "atern": 4093,
      "▁Th": 4094,
      "▁shout": 4095,
      "e.Dan": 4096,
      "▁kontrib": 4097,
      "astik": 4098,
      "▁disciples": 4099,
      "▁Kamarad": 4100,
      "▁prezan": 4101,
      "▁work,": 4102,
      "▁worked": 4103,
      "▁compet": 4104,
      "e.Ap": 4105,
      "e.Rep": 4106,
      ".Vol": 4107,
      "▁koumadir": 4108,
      "▁aksyon": 4109,
      "▁servant": 4110,
      "▁sante,": 4111,
      "ached": 4112,
      "▁zanfan,": 4113,
      "▁desann": 4114,
      "▁faith": 4115,
      "▁struct": 4116,
      "ances": 4117,
      "ebellion": 4118,
      "▁flight": 4119,
      "e.When": 4120,
      "▁maladi": 4121,
      "▁self": 4122,
      "▁indust": 4123,
      "▁clim": 4124,
      "▁dezyem": 4125,
      "utionary": 4126,
      "▁died": 4127,
      ".Alor,": 4128,
      ".Art": 4129,
      ".Only": 4130,
      "▁defann": 4131,
      "▁king’s": 4132,
      "▁Chagos": 4133,
      "▁Industry": 4134,
      "▁rakonte": 4135,
      "▁tomorrow": 4136,
      "▁ideolog": 4137,
      "▁tempo": 4138,
      "▁pwason": 4139,
      "▁minit": 4140,
      "▁traditions": 4141,
      "▁diskour": 4142,
      "▁brok": 4143,
      "▁historic": 4144,
      "▁sipoze": 4145,
      "urther": 4146,
      "▁appeared": 4147,
      "▁aktiv": 4148,
      "▁institisyon": 4149,
      "▁increase": 4150,
      "▁destro": 4151,
      "▁korek": 4152,
      "▁vilaz": 4153,
      "▁Flanker": 4154,
      "▁allowed": 4155,
      "▁lintere": 4156,
      "▁sityasyon": 4157,
      "▁husband": 4158,
      "▁trankil": 4159,
      "▁terrible": 4160,
      ".h": 4161,
      ":00": 4162,
      "RO": 4163,
      "YON": 4164,
      "ie.K": 4165,
      "o.": 4166,
      "oon": 4167,
      "roup": 4168,
      "yet": 4169,
      "ycl": 4170,
      "’nn": 4171,
      "▁tit": 4172,
      "er.K": 4173,
      "er.C": 4174,
      "ereng": 4175,
      "on.B": 4176,
      "▁sib": 4177,
      "▁sound": 4178,
      "▁air": 4179,
      "▁affect": 4180,
      "ore,": 4181,
      "▁kart": 4182,
      "isid": 4183,
      "isye": 4184,
      "reansyon": 4185,
      "▁bread": 4186,
      "ate.": 4187,
      "▁fix": 4188,
      "▁mama,": 4189,
      "itasion": 4190,
      "ite.L": 4191,
      "e.ab": 4192,
      "ester": 4193,
      "▁an,": 4194,
      "▁anb": 4195,
      "▁anf": 4196,
      "▁anrezistre": 4197,
      "▁hund": 4198,
      "▁oper": 4199,
      "▁conn": 4200,
      "▁cerem": 4201,
      "ede": 4202,
      "ett": 4203,
      "et.P": 4204,
      "▁ze": 4205,
      "▁ziz": 4206,
      "▁zeneral": 4207,
      "omaz": 4208,
      "▁ennmi": 4209,
      "apit": 4210,
      ".Su": 4211,
      ".Sel": 4212,
      ".So,": 4213,
      ".Lad": 4214,
      ".Mauriti": 4215,
      "enty": 4216,
      ".Ab": 4217,
      "inn,": 4218,
      "yon,": 4219,
      "▁vict": 4220,
      "aksion": 4221,
      ".Div": 4222,
      ".Bien": 4223,
      ".Kal": 4224,
      "▁proze": 4225,
      ".I'm": 4226,
      "anda": 4227,
      ".Everyone": 4228,
      "ab,": 4229,
      "▁ekut": 4230,
      "▁stood": 4231,
      "▁South": 4232,
      "▁plim": 4233,
      "▁Bonom": 4234,
      "▁LPT": 4235,
      "plic": 4236,
      "▁heaven": 4237,
      ".Over": 4238,
      "▁arg": 4239,
      "▁dir:": 4240,
      "ceed": 4241,
      "▁door": 4242,
      "▁Ad": 4243,
      "▁Al": 4244,
      "▁lefe": 4245,
      "▁super": 4246,
      "▁sulev": 4247,
      "▁Pa": 4248,
      "▁shall": 4249,
      "e.Th": 4250,
      "raid": 4251,
      "▁Kan": 4252,
      "▁nouvel": 4253,
      "▁Rebellion": 4254,
      "e.Ki": 4255,
      "e.Res": 4256,
      "▁performan": 4257,
      "e.Be": 4258,
      "▁prodwir": 4259,
      "ouple": 4260,
      "▁leker": 4261,
      "▁lekel": 4262,
      "upi": 4263,
      "▁propriy": 4264,
      "▁spread": 4265,
      "▁konpreansyon": 4266,
      "▁contrib": 4267,
      "ilta": 4268,
      ".Char": 4269,
      "▁sir,": 4270,
      "▁didn’t": 4271,
      "ruct": 4272,
      "▁papa,": 4273,
      "▁instance,": 4274,
      "▁larg": 4275,
      "▁happy": 4276,
      "▁lakaz,": 4277,
      "▁els": 4278,
      ".Once": 4279,
      "▁defin": 4280,
      "▁dibwa": 4281,
      "▁ready": 4282,
      "▁clearly": 4283,
      "▁position": 4284,
      "▁terms": 4285,
      "▁wrong": 4286,
      "▁textile": 4287,
      "▁patrona": 4288,
      "▁vizit": 4289,
      "▁Travayis": 4290,
      "▁orders": 4291,
      "▁charge": 4292,
      "ifikasion": 4293,
      ".Now,": 4294,
      "▁senk": 4295,
      "▁Sunil": 4296,
      "▁Frederik": 4297,
      "olklore": 4298,
      "▁view": 4299,
      "presion": 4300,
      "▁dernie": 4301,
      "▁troubl": 4302,
      "▁ridd": 4303,
      "▁concern": 4304,
      "▁announced": 4305,
      "▁THE": 4306,
      "▁major": 4307,
      "▁dokter": 4308,
      "▁suddenly": 4309,
      "▁vegetabl": 4310,
      "▁lozik": 4311,
      "▁Benzamen": 4312,
      "▁course": 4313,
      "▁hundred": 4314,
      "-E": 4315,
      "0,": 4316,
      "30": 4317,
      "ED": 4318,
      "SI": 4319,
      "action": 4320,
      "coh": 4321,
      "don": 4322,
      "gne": 4323,
      "ia,": 4324,
      "mar": 4325,
      "pa": 4326,
      "ps": 4327,
      "pire": 4328,
      "wiz": 4329,
      "yod": 4330,
      "’m": 4331,
      "”.": 4332,
      "▁tun": 4333,
      "▁tried": 4334,
      "ones,": 4335,
      "▁pet": 4336,
      "▁pizon": 4337,
      "▁lans": 4338,
      "▁lame": 4339,
      "ouret": 4340,
      "▁award": 4341,
      "re,": 4342,
      "▁bon,": 4343,
      "▁fon": 4344,
      "▁win": 4345,
      "▁wedding": 4346,
      "▁mention": 4347,
      "its": 4348,
      "e.Y": 4349,
      "e.v": 4350,
      "e.ak": 4351,
      "▁hor": 4352,
      "ing.F": 4353,
      "imunn": 4354,
      "rof": 4355,
      "▁nerport": 4356,
      "▁zore": 4357,
      "▁zelev": 4358,
      "ol,": 4359,
      "omm": 4360,
      "▁andan": 4361,
      "emb": 4362,
      "emoni": 4363,
      ".Tw": 4364,
      ".Sit": 4365,
      ".Leg": 4366,
      "ik.K": 4367,
      ".Min": 4368,
      ".Pal": 4369,
      ".Pandan": 4370,
      "▁sabo": 4371,
      ".Ast": 4372,
      ".Acc": 4373,
      "▁vary": 4374,
      ".Kuma": 4375,
      "▁MO": 4376,
      "ist,": 4377,
      "ifie": 4378,
      "ives": 4379,
      "agon": 4380,
      "▁ekz": 4381,
      "▁stor": 4382,
      "▁Son": 4383,
      "▁Spe": 4384,
      "oko": 4385,
      "waren": 4386,
      "ression": 4387,
      ".Of": 4388,
      "▁exact": 4389,
      "▁diriz": 4390,
      "▁least": 4391,
      "▁“G": 4392,
      "▁“k": 4393,
      "▁PM": 4394,
      "▁chick": 4395,
      "ience": 4396,
      "e.There": 4397,
      "e.Sh": 4398,
      "▁Father": 4399,
      "▁Frans": 4400,
      "▁ouver": 4401,
      "▁Kavi": 4402,
      "key": 4403,
      "▁Rev": 4404,
      "▁Rights": 4405,
      "▁resol": 4406,
      "▁rob": 4407,
      "e.Ar": 4408,
      "▁kumsa": 4409,
      "ildren": 4410,
      "▁tuzur": 4411,
      "▁buz": 4412,
      "grin": 4413,
      "ablish": 4414,
      "▁democ": 4415,
      ".Why": 4416,
      "▁afraid": 4417,
      "▁kriz,": 4418,
      ".Expl": 4419,
      "▁relizyon": 4420,
      "▁lived": 4421,
      "▁obze": 4422,
      "▁bato": 4423,
      "▁evening": 4424,
      "▁thinking": 4425,
      "▁invol": 4426,
      "▁close": 4427,
      "▁belong": 4428,
      "ratik": 4429,
      "▁changed": 4430,
      "▁finally": 4431,
      ".Alors": 4432,
      "▁lafen": 4433,
      "?Are": 4434,
      "engn": 4435,
      "▁colon": 4436,
      "▁nesans": 4437,
      "▁natural": 4438,
      "▁workers’": 4439,
      "▁kamarad,": 4440,
      "▁lexanp": 4441,
      "▁carried": 4442,
      "▁hands": 4443,
      ".Other": 4444,
      "?Zot": 4445,
      "▁Bondi": 4446,
      "▁capitalists": 4447,
      "▁charac": 4448,
      "▁linguistic": 4449,
      "▁following": 4450,
      "▁jobs": 4451,
      "▁comrades,": 4452,
      "?Can": 4453,
      "▁global": 4454,
      "▁kado": 4455,
      "▁Komannman": 4456,
      "▁voice": 4457,
      "▁admir": 4458,
      "▁monop": 4459,
      "▁official": 4460,
      "▁capitalism": 4461,
      "▁ticket": 4462,
      "▁games": 4463,
      "▁sosyete": 4464,
      "viron": 4465,
      "▁Beasts": 4466,
      "▁Sikriyer": 4467,
      "rength": 4468,
      "-T": 4469,
      "-de": 4470,
      ".f": 4471,
      ".Qu": 4472,
      "50": 4473,
      "AR": 4474,
      "Ram": 4475,
      "ah": 4476,
      "bal": 4477,
      "fas": 4478,
      "got": 4479,
      "offic": 4480,
      "pat": 4481,
      "prop": 4482,
      "personn": 4483,
      "vant": 4484,
      "vaz": 4485,
      "wh": 4486,
      "▁You": 4487,
      "ering": 4488,
      "ine,": 4489,
      "inport": 4490,
      "▁lil": 4491,
      "▁sis": 4492,
      "▁sif": 4493,
      "▁slow": 4494,
      "▁sung": 4495,
      "▁swazir": 4496,
      "oust": 4497,
      "oupe": 4498,
      "▁den": 4499,
      "▁dam": 4500,
      "▁dom": 4501,
      "▁dip": 4502,
      "oriz": 4503,
      "▁kantite": 4504,
      "isien": 4505,
      "reg": 4506,
      "reet": 4507,
      "▁bou": 4508,
      "▁bul": 4509,
      "▁blo": 4510,
      "▁bliye": 4511,
      "ate,": 4512,
      "▁fek": 4513,
      "▁further": 4514,
      "▁warn": 4515,
      "▁mul": 4516,
      "itir": 4517,
      "esaz": 4518,
      "▁cor": 4519,
      "▁cur": 4520,
      "▁cast": 4521,
      "▁crow": 4522,
      "▁cold": 4523,
      "▁cried": 4524,
      "▁caught": 4525,
      "edg": 4526,
      "▁nor": 4527,
      "iri": 4528,
      "▁inc": 4529,
      "olkt": 4530,
      "▁ge": 4531,
      "rial": 4532,
      "ized": 4533,
      "ley": 4534,
      ".Lim": 4535,
      ".Long": 4536,
      ".Look": 4537,
      "ikenn": 4538,
      ".Maz": 4539,
      ".Pop": 4540,
      ".Port": 4541,
      ".Pres": 4542,
      "▁island": 4543,
      "aksyon": 4544,
      ".Deg": 4545,
      ".Ben": 4546,
      ".Kind": 4547,
      "▁Mal": 4548,
      "▁fort": 4549,
      "▁forced": 4550,
      "▁train": 4551,
      "▁true": 4552,
      "herpersonn": 4553,
      "utter": 4554,
      "ands": 4555,
      "ivil": 4556,
      "unct": 4557,
      "▁rit": 4558,
      "▁running": 4559,
      "chn": 4560,
      "agog": 4561,
      "▁straw": 4562,
      "▁straight": 4563,
      "▁Sit": 4564,
      "▁Sim": 4565,
      "▁plen": 4566,
      ".Form": 4567,
      "oday": 4568,
      "▁IRS": 4569,
      "▁Las": 4570,
      "umm": 4571,
      "rank": 4572,
      ".Here": 4573,
      "▁arrang": 4574,
      "onnfam": 4575,
      ".Give": 4576,
      "ips": 4577,
      "▁sug": 4578,
      "ardi": 4579,
      "▁“T": 4580,
      ".Inf": 4581,
      "e.She": 4582,
      "rack": 4583,
      "▁kontiyn": 4584,
      "▁ago": 4585,
      "▁agree": 4586,
      "ounn": 4587,
      "▁No": 4588,
      "▁uswa": 4589,
      "▁depann": 4590,
      "e.Al": 4591,
      "▁Enn": 4592,
      "▁(s": 4593,
      "even": 4594,
      "▁100": 4595,
      "oupi": 4596,
      "▁loto": 4597,
      "?Where": 4598,
      "▁propoze": 4599,
      "▁post": 4600,
      "▁knows": 4601,
      "▁labank": 4602,
      "▁again,": 4603,
      "▁former": 4604,
      ".Stories": 4605,
      "▁Or": 4606,
      "e.Nou": 4607,
      "e.Name": 4608,
      "▁reliz": 4609,
      "e.One": 4610,
      "▁lesiel": 4611,
      "▁news": 4612,
      "▁newsp": 4613,
      "rime": 4614,
      "▁evit": 4615,
      "axim": 4616,
      "▁politik,": 4617,
      "▁finalman": 4618,
      "ynam": 4619,
      "▁kolon": 4620,
      "e.Zezi": 4621,
      "▁attempt": 4622,
      "▁dekouver": 4623,
      "remye": 4624,
      "▁basis": 4625,
      "▁menas": 4626,
      "▁actually": 4627,
      "▁restaur": 4628,
      "ubb": 4629,
      "▁turned": 4630,
      "▁beginning": 4631,
      "▁pwen": 4632,
      "▁oblig": 4633,
      "▁Lerwa": 4634,
      "▁Lerop": 4635,
      "▁named": 4636,
      "▁there,": 4637,
      "▁Jones’s": 4638,
      "▁behavi": 4639,
      "▁measure": 4640,
      ".Your": 4641,
      "▁music": 4642,
      "▁kondisyon": 4643,
      "▁life,": 4644,
      "▁community": 4645,
      "▁research": 4646,
      "sych": 4647,
      "▁sindika": 4648,
      "▁Laouret": 4649,
      "▁agreement": 4650,
      "ograph": 4651,
      "▁discuss": 4652,
      "▁earli": 4653,
      "▁genoc": 4654,
      "▁Mazor": 4655,
      "▁horses": 4656,
      "▁course,": 4657,
      "eknolozi": 4658,
      "▁foreign": 4659,
      "!I": 4660,
      "!S": 4661,
      "-A": 4662,
      "-w": 4663,
      ".af": 4664,
      "FI": 4665,
      "Zot": 4666,
      "bin": 4667,
      "bably": 4668,
      "clock": 4669,
      "eal": 4670,
      "father": 4671,
      "iem": 4672,
      "joy": 4673,
      "mon": 4674,
      "o.K": 4675,
      "ril": 4676,
      "ranse": 4677,
      "sm": 4678,
      "uver": 4679,
      "wher": 4680,
      "▁task": 4681,
      "on.S": 4682,
      "onut": 4683,
      "▁lop": 4684,
      "▁larm": 4685,
      "▁log": 4686,
      "▁sav": 4687,
      "▁swar": 4688,
      "▁throw": 4689,
      "▁third": 4690,
      "▁drol": 4691,
      "orit": 4692,
      "rev": 4693,
      "▁bound": 4694,
      "ate.D": 4695,
      "arante": 4696,
      "▁fet": 4697,
      "▁fest": 4698,
      "▁fons": 4699,
      "▁fwet": 4700,
      "▁wer": 4701,
      "itan": 4702,
      "itud": 4703,
      "e.st": 4704,
      "es.The": 4705,
      "asi": 4706,
      "ots": 4707,
      "▁anons": 4708,
      "▁hay": 4709,
      "▁hours": 4710,
      "▁early": 4711,
      "▁cas": 4712,
      "▁cir": 4713,
      "▁card": 4714,
      "▁class,": 4715,
      "ed.The": 4716,
      "etan": 4717,
      "▁nar": 4718,
      "▁ink": 4719,
      "eli": 4720,
      "▁liber": 4721,
      "▁gar": 4722,
      "▁gout": 4723,
      "am,": 4724,
      "avy": 4725,
      "aver": 4726,
      "ember": 4727,
      "izen": 4728,
      "izann": 4729,
      ".Sw": 4730,
      ".Sem": 4731,
      ".Sup": 4732,
      "leg": 4733,
      "lection": 4734,
      ".Laz": 4735,
      "verbs": 4736,
      "ant,": 4737,
      ".Mir": 4738,
      ".Mel": 4739,
      "▁sakenn": 4740,
      "yond": 4741,
      "▁vi": 4742,
      "▁vini,": 4743,
      ".Bet": 4744,
      ".Because": 4745,
      "istans": 4746,
      "ab.In": 4747,
      "▁rac": 4748,
      "▁rise": 4749,
      "osi": 4750,
      "oses": 4751,
      "osid": 4752,
      "uslim": 4753,
      "epre": 4754,
      "▁stall": 4755,
      "oka": 4756,
      ".Col": 4757,
      "▁sez": 4758,
      "▁section": 4759,
      "▁seven": 4760,
      "▁sections": 4761,
      "▁Box": 4762,
      "▁asir": 4763,
      "onte": 4764,
      ".Work": 4765,
      "plant": 4766,
      ".Our": 4767,
      ".Old": 4768,
      ".Hom": 4769,
      "▁exch": 4770,
      ".Gu": 4771,
      "▁As": 4772,
      "▁Aunt": 4773,
      "ardin": 4774,
      "veg": 4775,
      "▁“P": 4776,
      "▁biznes": 4777,
      "▁Tamil": 4778,
      "▁mank": 4779,
      "▁manier": 4780,
      "portans": 4781,
      "artment": 4782,
      "▁shift": 4783,
      "e.That": 4784,
      "e.Def": 4785,
      "e.Pa": 4786,
      "▁prezerv": 4787,
      "ordi,": 4788,
      "▁partu": 4789,
      "e.All": 4790,
      "ending": 4791,
      "nown": 4792,
      "▁zanimo,": 4793,
      "▁getting": 4794,
      "▁there’s": 4795,
      "▁peryod": 4796,
      "▁De": 4797,
      "▁one's": 4798,
      "▁rich": 4799,
      "inivers": 4800,
      ".Ver": 4801,
      ".Viol": 4802,
      "▁lekz": 4803,
      "▁prive": 4804,
      "▁lapay": 4805,
      "?Why": 4806,
      "▁santer": 4807,
      "▁unem": 4808,
      "ablir": 4809,
      "e.Fl": 4810,
      "▁six": 4811,
      "inted": 4812,
      "▁quar": 4813,
      "oconut": 4814,
      "obert": 4815,
      "▁Old": 4816,
      "uvwar": 4817,
      "▁afekte": 4818,
      "▁crises": 4819,
      "▁children,": 4820,
      "▁down,": 4821,
      "ency": 4822,
      "▁obz": 4823,
      "▁blind": 4824,
      "▁He": 4825,
      "▁ete,": 4826,
      "▁individ": 4827,
      "▁wants": 4828,
      "fully": 4829,
      "▁capacity": 4830,
      ".Disk": 4831,
      "▁lagaz": 4832,
      ".Parski": 4833,
      "▁kolinn": 4834,
      "▁held": 4835,
      "▁garden": 4836,
      "airperson": 4837,
      "▁singing": 4838,
      ".Conf": 4839,
      "▁supposed": 4840,
      "hys": 4841,
      "▁Indian": 4842,
      "▁recorded": 4843,
      "olozik": 4844,
      "▁vites": 4845,
      "rasi": 4846,
      "▁piece": 4847,
      "▁obliz": 4848,
      "▁mazik": 4849,
      "▁names": 4850,
      "▁diversification": 4851,
      "▁diversifikasyon": 4852,
      "▁occasion": 4853,
      "▁middle": 4854,
      "▁powers": 4855,
      "▁practice": 4856,
      ".Lezot": 4857,
      "▁direksion": 4858,
      "▁electric": 4859,
      "▁alternativ": 4860,
      "▁tranzisyon": 4861,
      "▁summer": 4862,
      "lipar": 4863,
      ".Setadir": 4864,
      "▁Angleter": 4865,
      "▁enemy": 4866,
      "▁energy": 4867,
      "▁laugh": 4868,
      "▁quickly": 4869,
      "▁inklir": 4870,
      "▁completely": 4871,
      "▁immediately": 4872,
      "▁broken": 4873,
      "▁destroy": 4874,
      "herpersonn:": 4875,
      "!L": 4876,
      "!O": 4877,
      "!P": 4878,
      ".ac": 4879,
      "?)": 4880,
      "?J": 4881,
      "?U": 4882,
      "Al": 4883,
      "Ki": 4884,
      "RB": 4885,
      "au": 4886,
      "awn": 4887,
      "co": 4888,
      "cel": 4889,
      "cific": 4890,
      "field": 4891,
      "gool": 4892,
      "hod": 4893,
      "leman": 4894,
      "mama": 4895,
      "mission": 4896,
      "pret": 4897,
      "ror": 4898,
      "rum": 4899,
      "wizin": 4900,
      "▁ident": 4901,
      "anis": 4902,
      "▁tur": 4903,
      "▁tousa": 4904,
      "▁tonb": 4905,
      "erc": 4906,
      "ered": 4907,
      "one,": 4908,
      "on.G": 4909,
      "inasion": 4910,
      "inational": 4911,
      "ening": 4912,
      "▁late": 4913,
      "▁lose": 4914,
      "▁luck": 4915,
      "▁sers": 4916,
      "▁soup": 4917,
      "▁threat": 4918,
      "▁then,": 4919,
      "▁ahead": 4920,
      "▁dry": 4921,
      "▁draw": 4922,
      "▁domin": 4923,
      "orb": 4924,
      "▁kilt": 4925,
      "isik": 4926,
      "isans": 4927,
      "isher": 4928,
      "reak": 4929,
      "arp": 4930,
      "▁fot": 4931,
      "▁furn": 4932,
      "▁firm": 4933,
      "▁witch": 4934,
      "▁mway": 4935,
      "al.": 4936,
      "asing": 4937,
      "▁hen": 4938,
      "▁crit": 4939,
      "▁eng": 4940,
      "iment": 4941,
      "ils": 4942,
      "ilar": 4943,
      "iled": 4944,
      "▁ofer": 4945,
      "▁ninport": 4946,
      "▁zener": 4947,
      "ely,": 4948,
      "▁ki,": 4949,
      "ayer": 4950,
      "add": 4951,
      "▁reform": 4952,
      "▁realiz": 4953,
      "▁repli": 4954,
      "▁ur": 4955,
      ".Sl": 4956,
      ".Serv": 4957,
      ".Sign": 4958,
      ".Sec": 4959,
      "▁lagrin": 4960,
      ".Later": 4961,
      ".Mad": 4962,
      ".Pot": 4963,
      ".Pli": 4964,
      ".Prop": 4965,
      "ansman": 4966,
      ".Az": 4967,
      ".Abu": 4968,
      "▁whatever": 4969,
      "ourd": 4970,
      "az.K": 4971,
      "▁bear": 4972,
      "▁beyond": 4973,
      "▁ve": 4974,
      "▁vwaz": 4975,
      ".Bi": 4976,
      ".By": 4977,
      ".Bas": 4978,
      ".Bel": 4979,
      ".Bizin": 4980,
      "▁trin": 4981,
      "▁sosi": 4982,
      "and,": 4983,
      "▁rum": 4984,
      "▁ranz": 4985,
      "chem": 4986,
      "ware": 4987,
      "aging": 4988,
      "eph": 4989,
      "▁strength": 4990,
      "▁Se": 4991,
      ".Cor": 4992,
      ".Fer": 4993,
      ".From": 4994,
      "▁Lafrik": 4995,
      ".Nat": 4996,
      "ennt": 4997,
      ".Out": 4998,
      ".Hand": 4999,
      "▁exanp,": 5000,
      "sect": 5001,
      ".Gran": 5002,
      "▁nu,": 5003,
      "▁lefet": 5004,
      "▁apros": 5005,
      "▁Prot": 5006,
      "aint": 5007,
      "aining": 5008,
      "eller": 5009,
      "▁cho": 5010,
      "portman": 5011,
      "e.To": 5012,
      "e.Se": 5013,
      "rafi": 5014,
      "▁Franse": 5015,
      "-law": 5016,
      "quired": 5017,
      "ounter": 5018,
      "▁Gal": 5019,
      "▁Garson": 5020,
      ".sou": 5021,
      "▁sekre": 5022,
      "▁using": 5023,
      "▁parts": 5024,
      "▁parties": 5025,
      "oley": 5026,
      "▁married": 5027,
      "klav": 5028,
      "e.Kont": 5029,
      "tegre": 5030,
      "▁DI": 5031,
      "▁rib": 5032,
      "▁riy": 5033,
      "▁langar": 5034,
      ".Vir": 5035,
      "▁memor": 5036,
      "?Who": 5037,
      "▁letter": 5038,
      "▁unf": 5039,
      "ney": 5040,
      "▁interes": 5041,
      "▁boner": 5042,
      "▁What": 5043,
      "▁reprezant": 5044,
      "▁quiet": 5045,
      "▁feb": 5046,
      "▁gayne": 5047,
      "▁however,": 5048,
      "ucation": 5049,
      "▁conv": 5050,
      "ancy": 5051,
      "▁flow": 5052,
      "▁flag": 5053,
      "ometimes": 5054,
      "?That": 5055,
      "▁detrir": 5056,
      "ritik": 5057,
      "▁rezilta": 5058,
      "▁expoz": 5059,
      "▁needs": 5060,
      "▁good,": 5061,
      "▁kolekte": 5062,
      "▁developed": 5063,
      "▁rakonter": 5064,
      "▁manze,": 5065,
      ".Malini": 5066,
      "▁neses": 5067,
      "▁risk": 5068,
      "▁fishing": 5069,
      "▁helped": 5070,
      "▁countries": 5071,
      "▁clever": 5072,
      "▁interested": 5073,
      "stitut": 5074,
      "▁vivan": 5075,
      "▁Comrade": 5076,
      "▁reduc": 5077,
      "▁please": 5078,
      "▁write": 5079,
      "prov": 5080,
      "▁azordi": 5081,
      ".abs": 5082,
      "▁eleksyon": 5083,
      "?They": 5084,
      "?Does": 5085,
      "▁legim": 5086,
      "▁internasyonal": 5087,
      "?Zistwar": 5088,
      "▁lontan,": 5089,
      "▁prosesis": 5090,
      "▁stopped": 5091,
      "▁nany": 5092,
      "▁kapitalis": 5093,
      "▁tongu": 5094,
      "▁anplas": 5095,
      "▁eggs": 5096,
      "▁Napoleons": 5097,
      "▁Afrik": 5098,
      ".Korek": 5099,
      "▁galoup": 5100,
      "▁dernye": 5101,
      "▁meeting": 5102,
      "▁cultiv": 5103,
      "▁experience": 5104,
      "▁various": 5105,
      "▁lentere": 5106,
      "▁central": 5107,
      "▁raised": 5108,
      "▁religion": 5109,
      "▁religious": 5110,
      "▁easy": 5111,
      "▁motif": 5112,
      "▁alimanter": 5113,
      "▁property": 5114,
      "interyer": 5115,
      "▁prepared": 5116,
      "▁Republic": 5117,
      "▁sarye": 5118,
      "e.Lerla": 5119,
      "▁strategy": 5120,
      "haps": 5121,
      "▁Social": 5122,
      "▁osi,": 5123,
      "▁Mariliz": 5124,
      "▁lingwistik": 5125,
      "▁zefor": 5126,
      "cohol": 5127,
      "▁restaurant": 5128,
      "▁earlier": 5129,
      "airperson:": 5130,
      "wizinie": 5131,
      "!C": 5132,
      "!The": 5133,
      "-for": 5134,
      "/s": 5135,
      "City": 5136,
      "IL": 5137,
      "Zan": 5138,
      "cent": 5139,
      "ces,": 5140,
      "cept": 5141,
      "fast": 5142,
      "ging": 5143,
      "gress": 5144,
      "how": 5145,
      "hib": 5146,
      "ies,": 5147,
      "junct": 5148,
      "kiz": 5149,
      "lin": 5150,
      "mun": 5151,
      "mper": 5152,
      "pas": 5153,
      "pose": 5154,
      "rou": 5155,
      "rant": 5156,
      "sit": 5157,
      "tou": 5158,
      "uce": 5159,
      "viv": 5160,
      "▁[": 5161,
      "anik": 5162,
      "an.K": 5163,
      "▁tast": 5164,
      "▁tree": 5165,
      "▁tale": 5166,
      "▁trick": 5167,
      "onour": 5168,
      "on.K": 5169,
      "▁pom": 5170,
      "▁pik": 5171,
      "▁pren": 5172,
      "enport": 5173,
      "▁lod": 5174,
      "▁save": 5175,
      "oured": 5176,
      "▁thous": 5177,
      "▁action": 5178,
      "▁dri": 5179,
      "▁dres": 5180,
      "▁dra": 5181,
      "orc": 5182,
      "orl": 5183,
      "orter": 5184,
      "ors,": 5185,
      "▁kal": 5186,
      "▁kur": 5187,
      "▁krim": 5188,
      "▁bom": 5189,
      "ate.S": 5190,
      "arz": 5191,
      "arsi": 5192,
      "▁fell": 5193,
      "▁wi": 5194,
      "▁wif": 5195,
      "▁mer": 5196,
      "▁mice": 5197,
      "al.B": 5198,
      "alep": 5199,
      "asc": 5200,
      "▁tib": 5201,
      "▁hill": 5202,
      "▁hens": 5203,
      "▁emer": 5204,
      "▁coconut": 5205,
      "edy": 5206,
      "eder": 5207,
      "▁enport": 5208,
      "eth": 5209,
      "rob": 5210,
      "ilot": 5211,
      "ilasion": 5212,
      "eless": 5213,
      "olf": 5214,
      "▁lid": 5215,
      "omi": 5216,
      "▁and,": 5217,
      "ayt": 5218,
      "ady": 5219,
      "adays": 5220,
      "ape": 5221,
      ".Tout": 5222,
      ".Sim": 5223,
      ".Sil": 5224,
      ".Sur": 5225,
      ".Ste": 5226,
      "▁la.Li": 5227,
      "▁danze": 5228,
      "ikl": 5229,
      "antan": 5230,
      "antaz": 5231,
      ".Mil": 5232,
      ".May": 5233,
      "ent,": 5234,
      ".Prot": 5235,
      "idans": 5236,
      ".Aut": 5237,
      "▁bef": 5238,
      "▁beat": 5239,
      "▁va": 5240,
      "▁van": 5241,
      "▁vant": 5242,
      ".Dapre": 5243,
      ".Donk": 5244,
      ".Bo": 5245,
      ".Boulkoton": 5246,
      "▁sok": 5247,
      ".Id": 5248,
      ".Ir": 5249,
      "urne": 5250,
      "▁konsey": 5251,
      "ivit": 5252,
      "▁Sa": 5253,
      "▁Sak": 5254,
      ".Rap": 5255,
      "uls": 5256,
      "▁Bwaren": 5257,
      "▁Lang": 5258,
      "▁Lond": 5259,
      "▁Liter": 5260,
      ".Non-": 5261,
      ".Well": 5262,
      "cked": 5263,
      ".Ok": 5264,
      ".Opt": 5265,
      ".Hindu": 5266,
      "▁arch": 5267,
      "▁arriv": 5268,
      "▁doctor": 5269,
      ".Gl": 5270,
      ".Gr": 5271,
      ".Gram": 5272,
      "▁Ala": 5273,
      "▁Abu": 5274,
      "▁“A": 5275,
      "▁“S": 5276,
      "▁“c": 5277,
      "▁“t": 5278,
      "▁weak": 5279,
      "▁near": 5280,
      "iency": 5281,
      "▁share": 5282,
      "e.Ti": 5283,
      "e.Then": 5284,
      "racy": 5285,
      "▁Fox": 5286,
      "▁grass": 5287,
      "▁Ger": 5288,
      "keep": 5289,
      "e.Man": 5290,
      "▁Rama": 5291,
      "▁Robert": 5292,
      "▁partaz": 5293,
      "▁out,": 5294,
      "e.Kon": 5295,
      "udd": 5296,
      "▁Dem": 5297,
      "▁Zare": 5298,
      "▁prodwi": 5299,
      "e.En": 5300,
      ".Ans": 5301,
      ".Head": 5302,
      "?Kot": 5303,
      "?Kom": 5304,
      "?Kisannla": 5305,
      "ffort": 5306,
      "▁demontre": 5307,
      "▁World": 5308,
      "▁koze,": 5309,
      "ouvman": 5310,
      "▁konpet": 5311,
      "▁fey": 5312,
      "▁adop": 5313,
      ".Just": 5314,
      "▁techn": 5315,
      "redi": 5316,
      "redit": 5317,
      "▁didn't": 5318,
      "?In": 5319,
      "?I'm": 5320,
      "▁196": 5321,
      "▁importance": 5322,
      "▁lepep": 5323,
      "▁komann": 5324,
      "▁etc": 5325,
      "▁program,": 5326,
      "ields": 5327,
      "▁divin": 5328,
      "▁ot-n": 5329,
      ".Att": 5330,
      "▁pigs,": 5331,
      "?Si": 5332,
      "ological": 5333,
      "▁krwayans": 5334,
      "▁decision": 5335,
      "▁attention": 5336,
      "▁arive,": 5337,
      "▁dekrir": 5338,
      "▁everyon": 5339,
      "▁protect": 5340,
      "▁konsyan": 5341,
      "▁transfer": 5342,
      "▁Snowball’s": 5343,
      "▁happening": 5344,
      "▁activ": 5345,
      "▁restoran": 5346,
      "▁telev": 5347,
      "?Bann": 5348,
      "▁scale": 5349,
      "▁played": 5350,
      "▁rediksyon": 5351,
      "▁studies": 5352,
      "▁mouth": 5353,
      "o-M": 5354,
      "▁minutes": 5355,
      "▁carry": 5356,
      "▁years,": 5357,
      "▁ditu": 5358,
      "▁profits": 5359,
      "▁debate": 5360,
      "▁ordiner": 5361,
      "▁plizier": 5362,
      "▁40": 5363,
      "▁Party": 5364,
      "▁lanplwa,": 5365,
      "▁estates": 5366,
      "▁spesial": 5367,
      "▁appear": 5368,
      "▁observe": 5369,
      "▁feeling": 5370,
      "alisation": 5371,
      "▁aktyel": 5372,
      "▁value": 5373,
      "▁trouve": 5374,
      "▁privatizasyon": 5375,
      "▁issue": 5376,
      "▁neighbour": 5377,
      "iberal": 5378,
      "▁fatig": 5379,
      "▁anprann": 5380,
      "▁pressure": 5381,
      "▁relationship": 5382,
      "▁Chinese": 5383,
      "▁continued": 5384,
      "▁families": 5385,
      "▁farmhouse": 5386,
      "▁tousel": 5387,
      "▁sweet": 5388,
      "▁decrease": 5389,
      "▁lelvaz": 5390,
      "ospital": 5391,
      "▁rupees": 5392,
      "▁becomes": 5393,
      "tegrated": 5394,
      "▁materials": 5395,
      "▁multinational": 5396,
      "▁Spider": 5397,
      "▁sulevman": 5398,
      "official": 5399,
      "!\"": 5400,
      "-an": 5401,
      ".2": 5402,
      ".l": 5403,
      ".y": 5404,
      "Given": 5405,
      "IT": 5406,
      "TU": 5407,
      "bon": 5408,
      "bar": 5409,
      "bit": 5410,
      "een": 5411,
      "het": 5412,
      "hich": 5413,
      "iot": 5414,
      "ied": 5415,
      "iant": 5416,
      "i.P": 5417,
      "iye": 5418,
      "koz": 5419,
      "krir": 5420,
      "o.S": 5421,
      "renn": 5422,
      "rary": 5423,
      "rwat": 5424,
      "ses": 5425,
      "ts": 5426,
      "uz": 5427,
      "vok": 5428,
      "xual": 5429,
      "▁ten": 5430,
      "▁tourn": 5431,
      "▁trem": 5432,
      "▁taught": 5433,
      "er.R": 5434,
      "inch": 5435,
      "ine.D": 5436,
      "▁ped": 5437,
      "▁pick": 5438,
      "▁pase": 5439,
      "▁piblik": 5440,
      "▁lit": 5441,
      "▁link": 5442,
      "▁lanse": 5443,
      "▁lower": 5444,
      "▁lwen": 5445,
      "▁sun": 5446,
      "▁sitting": 5447,
      "▁scient": 5448,
      "▁apl": 5449,
      "▁ale,": 5450,
      "▁actions": 5451,
      "▁aranz": 5452,
      "▁dile": 5453,
      "▁drop": 5454,
      "▁daughter": 5455,
      "▁kreat": 5456,
      "▁key": 5457,
      "▁kwi": 5458,
      "reole": 5459,
      "▁bill": 5460,
      "atay": 5461,
      "ate.P": 5462,
      "arf": 5463,
      "arg": 5464,
      "▁foul": 5465,
      "▁fast": 5466,
      "▁fields": 5467,
      "▁won": 5468,
      "▁mord": 5469,
      "▁mach": 5470,
      "▁magic": 5471,
      "▁mesaz": 5472,
      "it,": 5473,
      "e.anb": 5474,
      "▁an-": 5475,
      "▁hum": 5476,
      "▁hedg": 5477,
      "▁ep": 5478,
      "▁ez": 5479,
      "▁effort": 5480,
      "▁cart": 5481,
      "▁crick": 5482,
      "▁cross": 5483,
      "ed.B": 5484,
      "▁enst": 5485,
      "▁infer": 5486,
      "eleg": 5487,
      "olk": 5488,
      "olution": 5489,
      "▁li.Li": 5490,
      "▁ger": 5491,
      "▁gos": 5492,
      "▁gate": 5493,
      "▁glass": 5494,
      "▁general": 5495,
      "▁gift": 5496,
      "ames": 5497,
      "avig": 5498,
      "ado": 5499,
      "emon": 5500,
      ".Tab": 5501,
      "▁uver": 5502,
      "icip": 5503,
      ".Sav": 5504,
      ".Sek": 5505,
      ".Spe": 5506,
      ".Snowball": 5507,
      "▁la.Sa": 5508,
      ".Lel": 5509,
      ".Lant": 5510,
      ".Lang": 5511,
      ".Lanb": 5512,
      "ikal": 5513,
      "version": 5514,
      "entral": 5515,
      ".Pet": 5516,
      ".Pekoy": 5517,
      "ekil": 5518,
      ".Ag": 5519,
      "▁pun": 5520,
      "▁vand": 5521,
      ".Koum": 5522,
      "▁that’s": 5523,
      "▁Mad": 5524,
      "▁forget": 5525,
      "▁pous": 5526,
      "▁alor": 5527,
      "▁tras": 5528,
      "▁trying": 5529,
      "▁proverbs": 5530,
      ".Ill": 5531,
      "ur,": 5532,
      "urzwazi": 5533,
      "▁konportman": 5534,
      ".Eg": 5535,
      "unk": 5536,
      "▁rupi": 5537,
      "igious": 5538,
      "▁star": 5539,
      "▁store": 5540,
      "▁stone": 5541,
      "▁you'll": 5542,
      "▁SME": 5543,
      ".Radi": 5544,
      ".Fr": 5545,
      "▁sef": 5546,
      "ulsion": 5547,
      "▁Bereng": 5548,
      "▁associ": 5549,
      "ezon": 5550,
      "▁Lek": 5551,
      "▁Lend": 5552,
      "▁Lindistri": 5553,
      ".Non": 5554,
      "enn,": 5555,
      ".Op": 5556,
      "indep": 5557,
      "ousman": 5558,
      "▁leaves": 5559,
      "vey": 5560,
      "▁“I": 5561,
      "▁“M": 5562,
      "▁“d": 5563,
      "▁“m": 5564,
      "▁Per": 5565,
      "▁Pap": 5566,
      "elled": 5567,
      "▁Ti": 5568,
      "▁That": 5569,
      "▁shell": 5570,
      "e.Deg": 5571,
      "▁avan,": 5572,
      "quid": 5573,
      "▁Rat": 5574,
      "▁comfort": 5575,
      "▁resist": 5576,
      "▁resers": 5577,
      "▁dife": 5578,
      "ally,": 5579,
      "tee": 5580,
      "udg": 5581,
      "sions": 5582,
      "ugna": 5583,
      "e.Reg": 5584,
      "e.Ref": 5585,
      "ografi": 5586,
      "▁DE": 5587,
      "▁18": 5588,
      "▁Jugna": 5589,
      ".Vil": 5590,
      "▁built": 5591,
      "?Kifer": 5592,
      "venir": 5593,
      "▁service": 5594,
      "riksyon": 5595,
      "▁santral": 5596,
      "▁princ": 5597,
      "▁interese": 5598,
      ".tir": 5599,
      "ghtened": 5600,
      "▁lamone": 5601,
      "▁twenty": 5602,
      "▁lanwit": 5603,
      "afe": 5604,
      "▁profon": 5605,
      "e.Not": 5606,
      "▁antan": 5607,
      "▁plantasyon": 5608,
      "vious": 5609,
      "ountain": 5610,
      "▁fler": 5611,
      "▁ansyen": 5612,
      "▁US": 5613,
      "e.Or": 5614,
      "?There": 5615,
      "?This": 5616,
      "?Dan": 5617,
      "?Dekrir": 5618,
      "ofisyel": 5619,
      "▁land,": 5620,
      "▁blan": 5621,
      "▁Hindu": 5622,
      "able,": 5623,
      "▁lesel": 5624,
      "e.Inter": 5625,
      "▁recogn": 5626,
      ".Prod": 5627,
      "▁latet,": 5628,
      "fied": 5629,
      "▁fwa,": 5630,
      "▁krwas": 5631,
      "ynman": 5632,
      "▁before,": 5633,
      "▁veritab": 5634,
      "▁lafin": 5635,
      "riyang": 5636,
      "▁telling": 5637,
      "▁linz": 5638,
      "▁linform": 5639,
      "▁linportans": 5640,
      "▁rapid": 5641,
      "▁gardien": 5642,
      "▁Snowball,": 5643,
      "▁songs,": 5644,
      "▁sinifikasyon": 5645,
      "▁natir": 5646,
      "▁giving": 5647,
      "▁believed": 5648,
      "▁board": 5649,
      "ungal": 5650,
      "stitute": 5651,
      ".Ord": 5652,
      "?Bien": 5653,
      "▁language,": 5654,
      "▁ideas": 5655,
      "▁trees": 5656,
      "▁students": 5657,
      ".Demi-": 5658,
      "▁takes": 5659,
      "▁together,": 5660,
      "▁guarante": 5661,
      "onpans": 5662,
      "▁windmill,": 5663,
      "▁baraz": 5664,
      "elfare": 5665,
      "▁prosenn": 5666,
      "▁plizir": 5667,
      "▁slog": 5668,
      "▁masinn": 5669,
      "▁girls": 5670,
      "▁leader": 5671,
      "▁struggl": 5672,
      "▁kapitalism": 5673,
      "▁balans": 5674,
      ".”The": 5675,
      "▁anplway": 5676,
      "iktwar": 5677,
      "fortun": 5678,
      "▁sense": 5679,
      "▁Squeal": 5680,
      "▁difficulty": 5681,
      "▁revolisyon": 5682,
      "▁caret": 5683,
      "▁performans": 5684,
      "haust": 5685,
      "▁Pilkington": 5686,
      "▁culture": 5687,
      "verti": 5688,
      ".Avek": 5689,
      "▁answered": 5690,
      ".198": 5691,
      "▁policy": 5692,
      "▁customs": 5693,
      "▁konstrir": 5694,
      "▁Grandmother": 5695,
      "▁GMOs": 5696,
      "▁folktales": 5697,
      "e.Jesus": 5698,
      "▁expected": 5699,
      "▁disappeared": 5700,
      "▁Africa": 5701,
      "▁sotrel": 5702,
      "▁entire": 5703,
      "▁mwens": 5704,
      "▁farmhous": 5705,
      "▁village": 5706,
      "▁examples": 5707,
      "▁writing": 5708,
      "▁International": 5709,
      "▁interview": 5710,
      "▁lipie": 5711,
      "▁agro-ind": 5712,
      "-in-law": 5713,
      "▁clothes": 5714,
      "▁Commandments": 5715,
      "▁elektris": 5716,
      ".Super": 5717,
      "▁performance": 5718,
      "▁zorey": 5719,
      "▁suggest": 5720,
      "▁Organ": 5721,
      "▁kolonyal": 5722,
      "▁logic": 5723,
      "▁exchange": 5724,
      "▁lagazet": 5725,
      "▁prensip": 5726,
      "▁Foxwood": 5727,
      "▁princip": 5728,
      "!E": 5729,
      "-B": 5730,
      "-st": 5731,
      ".ter": 5732,
      ".te": 5733,
      "1.": 5734,
      "Etan": 5735,
      "OL": 5736,
      "boy": 5737,
      "ca": 5738,
      "cing": 5739,
      "craft": 5740,
      "eople": 5741,
      "friend": 5742,
      "hic": 5743,
      "net": 5744,
      "pok": 5745,
      "rast": 5746,
      "rouv": 5747,
      "s)": 5748,
      "sik": 5749,
      "sans": 5750,
      "to": 5751,
      "top": 5752,
      "tories": 5753,
      "uly": 5754,
      "ving": 5755,
      "yp": 5756,
      "yu": 5757,
      "yol": 5758,
      "zour": 5759,
      "an.": 5760,
      "an.F": 5761,
      "▁ta": 5762,
      "▁tri": 5763,
      "eral": 5764,
      "oniz": 5765,
      "on.F": 5766,
      "▁pir": 5767,
      "enet": 5768,
      "enaz": 5769,
      "▁sink": 5770,
      "▁souvan": 5771,
      "oula": 5772,
      "▁due": 5773,
      "▁doub": 5774,
      "oret": 5775,
      "▁kup": 5776,
      "▁kritik": 5777,
      "rew": 5778,
      "rect": 5779,
      "reman": 5780,
      "▁bes": 5781,
      "▁band": 5782,
      "▁bought": 5783,
      "ata": 5784,
      "atin": 5785,
      "ar.B": 5786,
      "▁fan": 5787,
      "▁fiz": 5788,
      "▁fant": 5789,
      "▁fode": 5790,
      "▁fisher": 5791,
      "▁wond": 5792,
      "▁wild": 5793,
      "▁won't": 5794,
      "▁mel": 5795,
      "▁mamb": 5796,
      "itiv": 5797,
      "alth": 5798,
      "asp": 5799,
      "asant": 5800,
      "▁horn": 5801,
      "▁cam": 5802,
      "▁ens": 5803,
      "ing.": 5804,
      "ing.P": 5805,
      "imier": 5806,
      "ilo": 5807,
      "ilize": 5808,
      "▁ofthe": 5809,
      "▁nenport": 5810,
      "irite": 5811,
      "▁zean": 5812,
      "elve": 5813,
      "olut": 5814,
      "▁god": 5815,
      "ament": 5816,
      "aminn": 5817,
      "ri,": 5818,
      "apter": 5819,
      "▁report": 5820,
      "▁reste": 5821,
      "▁refl": 5822,
      ".Tem": 5823,
      ".Today": 5824,
      "▁u-mem": 5825,
      "icy": 5826,
      "iced": 5827,
      "izing": 5828,
      "izans": 5829,
      "ize.M": 5830,
      ".Sev": 5831,
      ".Swe": 5832,
      ".Samem": 5833,
      "stant": 5834,
      ".Light": 5835,
      ".Ledikasyon": 5836,
      "anto": 5837,
      ".Ma": 5838,
      ".Mol": 5839,
      ".Magic": 5840,
      "▁peye": 5841,
      ".Pay": 5842,
      ".Plas": 5843,
      ".Personn": 5844,
      "▁whose": 5845,
      "az.R": 5846,
      "▁isn’t": 5847,
      "▁Moli": 5848,
      "▁Madam": 5849,
      "▁Mondyal": 5850,
      "▁on,": 5851,
      "▁one,": 5852,
      "▁ala": 5853,
      "▁probably": 5854,
      "▁koni": 5855,
      "ander": 5856,
      "outi": 5857,
      ".Elect": 5858,
      "abit": 5859,
      "under": 5860,
      "▁rouz": 5861,
      "▁roupi": 5862,
      "osis": 5863,
      "osyasyon": 5864,
      "▁paw": 5865,
      "opi": 5866,
      "usion": 5867,
      "▁it.The": 5868,
      "▁stat": 5869,
      "▁station": 5870,
      "▁SI": 5871,
      "▁Seven": 5872,
      "▁wasn’t": 5873,
      "▁plat": 5874,
      "oking": 5875,
      ".Cle": 5876,
      ".Reb": 5877,
      ".Fish": 5878,
      "illed": 5879,
      "▁Brit": 5880,
      "▁Le": 5881,
      "▁Long": 5882,
      ".Nar": 5883,
      ".Never": 5884,
      ".New": 5885,
      "umber": 5886,
      "plom": 5887,
      "pleman": 5888,
      "▁heavy": 5889,
      "▁meal": 5890,
      ".Grad": 5891,
      "▁worn": 5892,
      "ousma": 5893,
      "▁AG": 5894,
      "▁Act": 5895,
      "▁suc": 5896,
      "▁“N": 5897,
      "▁weather": 5898,
      "▁nef": 5899,
      "ongs": 5900,
      "▁Pu": 5901,
      "▁PME": 5902,
      "ellig": 5903,
      "▁TO": 5904,
      "▁Tonton": 5905,
      ".Zordi": 5906,
      "e.Tou": 5907,
      "e.Do": 5908,
      "arey": 5909,
      "ra-l": 5910,
      "▁Fin": 5911,
      "cipl": 5912,
      "▁dish": 5913,
      "▁gratis": 5914,
      "▁Gu": 5915,
      "▁prevent": 5916,
      ".spe": 5917,
      "e.Mal": 5918,
      "▁Res": 5919,
      "▁imin": 5920,
      "▁imag": 5921,
      "▁imen,": 5922,
      "▁depart": 5923,
      "▁EN": 5924,
      "▁(l": 5925,
      "▁people’s": 5926,
      "e.Ret": 5927,
      "e.Rev": 5928,
      "ooking": 5929,
      "▁Dep": 5930,
      "e.Bl": 5931,
      "e.Ena": 5932,
      "▁tuy": 5933,
      "▁intend": 5934,
      ".Anp": 5935,
      "anzman": 5936,
      "anzantan": 5937,
      "▁pri-la": 5938,
      "▁lapo": 5939,
      "▁lapli": 5940,
      "▁akote": 5941,
      "ground": 5942,
      "oyal": 5943,
      "▁saying,": 5944,
      "▁method": 5945,
      "▁unable": 5946,
      "▁unions": 5947,
      "ffe": 5948,
      "anks": 5949,
      "▁spok": 5950,
      "▁\"K": 5951,
      "▁\"M": 5952,
      "e.Com": 5953,
      "▁lamizik": 5954,
      "▁labous": 5955,
      "▁Why": 5956,
      "▁Willing": 5957,
      "▁speaking": 5958,
      "▁repons": 5959,
      "▁context": 5960,
      "alkol": 5961,
      "▁nois": 5962,
      "▁granper": 5963,
      "▁profet": 5964,
      "▁Ou": 5965,
      "▁longanis": 5966,
      "▁relativ": 5967,
      "▁problem,": 5968,
      "▁presyon": 5969,
      "▁year,": 5970,
      ".Konf": 5971,
      "▁diferans": 5972,
      "▁rezerv": 5973,
      "▁lepas": 5974,
      "▁komye": 5975,
      "▁invit": 5976,
      "▁invite": 5977,
      ".Trad": 5978,
      "▁doesn’t": 5979,
      "▁needed": 5980,
      ".Pros": 5981,
      "?Stories": 5982,
      "▁sett": 5983,
      "▁koumansman": 5984,
      "▁finished": 5985,
      "▁decla": 5986,
      ".Ask": 5987,
      ".Ass": 5988,
      "▁attract": 5989,
      "▁swim": 5990,
      "stead": 5991,
      "▁koson,": 5992,
      ".Comp": 5993,
      ".Plant": 5994,
      "▁konsider": 5995,
      ".Short": 5996,
      "▁materyel": 5997,
      ".Malgre": 5998,
      "▁direction": 5999,
      "i-City": 6000,
      "▁defend": 6001,
      "▁extrem": 6002,
      "▁frightened": 6003,
      "▁frer": 6004,
      "▁refused": 6005,
      "▁milyon": 6006,
      "▁sertenn": 6007,
      ".Organ": 6008,
      "▁world,": 6009,
      "▁production,": 6010,
      "▁learning": 6011,
      "▁investisman": 6012,
      "▁solid": 6013,
      "▁United": 6014,
      "▁pieces": 6015,
      "▁Bidze,": 6016,
      "▁guard": 6017,
      "▁legal": 6018,
      "onpagn": 6019,
      "▁Lerwa,": 6020,
      "▁buildings": 6021,
      "▁estate": 6022,
      "ING": 6023,
      "▁kuyon": 6024,
      "▁sheep,": 6025,
      "zonkt": 6026,
      "▁selling": 6027,
      "▁books": 6028,
      "▁globaliz": 6029,
      "▁growth": 6030,
      "▁Ramgool": 6031,
      "▁likes": 6032,
      "▁killed": 6033,
      "▁produced": 6034,
      "▁grandfather": 6035,
      "▁communic": 6036,
      "lezour": 6037,
      "▁neighbor": 6038,
      "▁information": 6039,
      "▁ogmantasyon": 6040,
      "▁folktel": 6041,
      "▁It's": 6042,
      "▁corner": 6043,
      "repriz": 6044,
      "▁companies": 6045,
      "▁popiler": 6046,
      "▁hungry": 6047,
      "▁marriage": 6048,
      "▁type": 6049,
      "▁crucial": 6050,
      "▁Major": 6051,
      "▁primary": 6052,
      "▁teaching": 6053,
      "cription": 6054,
      "▁participants": 6055,
      "▁partisipan": 6056,
      "▁zedmo": 6057,
      "▁striktir": 6058,
      "▁miltin": 6059,
      ".Buku": 6060,
      "▁KaviRam": 6061,
      "propri": 6062,
      "▁blood": 6063,
      "▁garanti": 6064,
      "▁unemployment": 6065,
      "?Jesus": 6066,
      "▁sosial": 6067,
      "▁caretaker": 6068,
      "-D": 6069,
      "-R": 6070,
      "-v": 6071,
      "-room": 6072,
      ".Yes,": 6073,
      "IC": 6074,
      "Li": 6075,
      "MAN": 6076,
      "US": 6077,
      "a.B": 6078,
      "bil": 6079,
      "cest": 6080,
      "eat": 6081,
      "fall": 6082,
      "ga": 6083,
      "i!": 6084,
      "ires": 6085,
      "ie.P": 6086,
      "not": 6087,
      "oid": 6088,
      "o.F": 6089,
      "riman": 6090,
      "raliz": 6091,
      "s:": 6092,
      "wel": 6093,
      "wiv": 6094,
      "yl": 6095,
      "zir": 6096,
      "’clock": 6097,
      "”.The": 6098,
      "an.S": 6099,
      "anbl": 6100,
      "▁teknolozi": 6101,
      "▁pav": 6102,
      "▁pile": 6103,
      "▁peser": 6104,
      "ension": 6105,
      "▁lite": 6106,
      "▁loss": 6107,
      "▁line": 6108,
      "▁linivers": 6109,
      "▁lindep": 6110,
      "ouri": 6111,
      "▁thro": 6112,
      "▁aveg": 6113,
      "▁driv": 6114,
      "▁douz": 6115,
      "orpor": 6116,
      "▁kost": 6117,
      "▁korn": 6118,
      "▁kwen": 6119,
      "isiel": 6120,
      "reli": 6121,
      "▁bare": 6122,
      "▁bonom": 6123,
      "▁bouz": 6124,
      "▁bungal": 6125,
      "at,": 6126,
      "arse": 6127,
      "▁fim": 6128,
      "▁fann": 6129,
      "▁wit": 6130,
      "▁warm": 6131,
      "▁worth": 6132,
      "▁mantal": 6133,
      "▁maxim": 6134,
      "e.al": 6135,
      "asit": 6136,
      "▁tig": 6137,
      "▁tired": 6138,
      "▁hol": 6139,
      "▁hind": 6140,
      "▁her,": 6141,
      "▁hospital": 6142,
      "▁o’clock": 6143,
      "▁ears": 6144,
      "▁cak": 6145,
      "▁case": 6146,
      "▁cows": 6147,
      "▁celeb": 6148,
      "ed.C": 6149,
      "▁tool": 6150,
      "eti": 6151,
      "ro,": 6152,
      "road": 6153,
      "iler": 6154,
      "▁naz": 6155,
      "▁norm": 6156,
      "▁zonn": 6157,
      "▁zordi,": 6158,
      "▁initi": 6159,
      "▁integre": 6160,
      "olisyon": 6161,
      "▁realite": 6162,
      "▁reward": 6163,
      ".Ter": 6164,
      "▁ul": 6165,
      "izer": 6166,
      ".Sib": 6167,
      "leksyon": 6168,
      "▁la?Eski": 6169,
      "▁la.Eski": 6170,
      "ikter": 6171,
      "antasion": 6172,
      "ented": 6173,
      ".Pir": 6174,
      ".Pap": 6175,
      ".Ple": 6176,
      ".Pers": 6177,
      "▁sauc": 6178,
      "ansiv": 6179,
      "▁white": 6180,
      "azed": 6181,
      "▁ven": 6182,
      "▁defe": 6183,
      ".Dir": 6184,
      ".Bad": 6185,
      "tery": 6186,
      "▁forces": 6187,
      "▁alon": 6188,
      "isten": 6189,
      ".Ide": 6190,
      "urer": 6191,
      "▁kone,": 6192,
      ".Est": 6193,
      "abilit": 6194,
      "▁rain": 6195,
      "▁rate": 6196,
      "chard": 6197,
      "agaz": 6198,
      "age,": 6199,
      "opy": 6200,
      "us,": 6201,
      "epsion": 6202,
      "▁stri": 6203,
      "▁park": 6204,
      "▁plann": 6205,
      "okol": 6206,
      "▁ena,": 6207,
      ".Cap": 6208,
      ".Che": 6209,
      ".Fre": 6210,
      "▁season": 6211,
      "ulat": 6212,
      "▁Bever": 6213,
      "▁aside": 6214,
      "▁Liman": 6215,
      "esty": 6216,
      "umer": 6217,
      "ontan": 6218,
      "plik": 6219,
      "resi": 6220,
      "resion": 6221,
      "range": 6222,
      ".Have": 6223,
      "▁meant": 6224,
      "▁do,": 6225,
      ".Gal": 6226,
      "ferans": 6227,
      "▁Authority": 6228,
      "▁leve": 6229,
      "▁“s": 6230,
      "▁wearing": 6231,
      "▁Pekoy": 6232,
      ".Zoko": 6233,
      "▁manip": 6234,
      "▁shock": 6235,
      "e.Trans": 6236,
      "e.Det": 6237,
      "e.Dev": 6238,
      "▁Folklor": 6239,
      "astrof": 6240,
      "ciation": 6241,
      "▁disp": 6242,
      "▁disik,": 6243,
      "▁grad": 6244,
      "▁Kat": 6245,
      "e.Pre": 6246,
      "ondam": 6247,
      "itiasion": 6248,
      "▁compare": 6249,
      "▁resi": 6250,
      "▁resour": 6251,
      "e.Ad": 6252,
      "▁marry": 6253,
      "▁marmit": 6254,
      "e.Kons": 6255,
      "▁therefore": 6256,
      "e.Rem": 6257,
      "ograf": 6258,
      "▁perfect": 6259,
      "▁kote,": 6260,
      "ilding": 6261,
      "▁Zamb": 6262,
      "e.If": 6263,
      "e.Ind": 6264,
      "▁touzour": 6265,
      "▁persist": 6266,
      "▁prizon": 6267,
      "▁lapes": 6268,
      "▁amene": 6269,
      "▁mwa.Mo": 6270,
      "?Kan": 6271,
      "veni": 6272,
      "▁servis": 6273,
      "▁sayings": 6274,
      "▁interpret": 6275,
      "anket": 6276,
      ".to": 6277,
      "▁fam,": 6278,
      "▁lakord": 6279,
      "▁twelve": 6280,
      "▁specific": 6281,
      "▁formal": 6282,
      "▁lanf": 6283,
      "▁way,": 6284,
      "▁desert": 6285,
      "▁desizion": 6286,
      "ocol": 6287,
      "itted": 6288,
      ".Stick": 6289,
      "ressing": 6290,
      "▁concess": 6291,
      ".Exper": 6292,
      "▁anty": 6293,
      "▁escap": 6294,
      "▁langaz,": 6295,
      "▁sirk": 6296,
      "▁sirtou": 6297,
      "▁preserv": 6298,
      "?If": 6299,
      "▁Her": 6300,
      "▁How": 6301,
      "▁batt": 6302,
      ".Konst": 6303,
      "e.How": 6304,
      "▁komie": 6305,
      "▁etan": 6306,
      "▁papye": 6307,
      "▁independ": 6308,
      ".Travay": 6309,
      "▁expression": 6310,
      "▁school,": 6311,
      "▁setting": 6312,
      "▁demands,": 6313,
      "▁final": 6314,
      "▁finans": 6315,
      "▁decide": 6316,
      "▁factory": 6317,
      "▁lafoul": 6318,
      "▁lafnet": 6319,
      "-sh": 6320,
      "▁tells": 6321,
      "posing": 6322,
      "position": 6323,
      "▁lalis": 6324,
      "airs": 6325,
      "flict": 6326,
      "▁zour,": 6327,
      "istriyel": 6328,
      "▁security": 6329,
      "▁understood": 6330,
      "▁rekolt": 6331,
      "mercial": 6332,
      "▁reading": 6333,
      "▁ranplas": 6334,
      "▁Bhojpuri,": 6335,
      "▁erer": 6336,
      "▁Christ": 6337,
      "-trwa": 6338,
      "▁water,": 6339,
      "▁clean": 6340,
      "▁moved": 6341,
      "▁regard": 6342,
      "▁remark": 6343,
      "archy": 6344,
      "▁keeping": 6345,
      "▁laferm,": 6346,
      "▁explike": 6347,
      "▁burz": 6348,
      "▁discovered": 6349,
      "▁investi": 6350,
      "▁solisyon": 6351,
      "▁bourgeoisi": 6352,
      "▁Uni-City": 6353,
      "▁conscious": 6354,
      ".adm": 6355,
      "▁organizations": 6356,
      "▁common": 6357,
      "▁diskur": 6358,
      "▁ditou": 6359,
      "▁lespas": 6360,
      "?Zezi": 6361,
      "board": 6362,
      "▁mazorite": 6363,
      "▁promosion": 6364,
      "▁vreman": 6365,
      "▁iron": 6366,
      "▁apartir": 6367,
      "▁mobilize": 6368,
      "▁created": 6369,
      "ushed": 6370,
      "▁responsible": 6371,
      "▁lokaz": 6372,
      "▁analyze": 6373,
      "▁revolutionary": 6374,
      "▁institutions": 6375,
      "culation": 6376,
      "▁surpris": 6377,
      "▁bags": 6378,
      "▁remembered": 6379,
      "▁across": 6380,
      "ASYON": 6381,
      "▁$1": 6382,
      "▁privatization": 6383,
      "▁sorts": 6384,
      "TION": 6385,
      "▁abandon": 6386,
      "▁abandonn": 6387,
      "▁resevwar": 6388,
      "▁Program": 6389,
      "▁oneself": 6390,
      "▁teachers": 6391,
      "▁sosyet": 6392,
      "▁African": 6393,
      "▁wait": 6394,
      "▁abitye": 6395,
      "▁benefit": 6396,
      "▁mizer": 6397,
      "▁cruel": 6398,
      "▁Rodrigues": 6399,
      "onvention": 6400,
      "▁beliefs": 6401,
      "Ini": 6402,
      "▁Internasyonal": 6403,
      ".Ankor": 6404,
      "▁brothers": 6405,
      "▁rebellion": 6406,
      "▁results": 6407,
      "▁kriye,": 6408,
      ".Since": 6409,
      "▁Education": 6410,
      "▁aktivite": 6411,
      "▁sibir": 6412,
      "▁fixe": 6413,
      "▁connected": 6414,
      "▁ceremony": 6415,
      ".Mauritian": 6416,
      "▁propriyeter": 6417,
      "▁vegetables": 6418,
      "e.Yev": 6419,
      "▁mulen": 6420,
      "▁Malini": 6421,
      "▁relizye": 6422,
      "▁newspap": 6423,
      "▁nesesite": 6424,
      "junctural": 6425,
      "alepa": 6426,
      "▁Sakunn": 6427,
      "▁activities": 6428,
      "▁lanseynman": 6429,
      "▁krwasans": 6430,
      "▁succeed": 6431,
      "ra-liberal": 6432,
      "▁neighborhood": 6433,
      "▁Beverly": 6434,
      "-Ini": 6435,
      ".3": 6436,
      ".a": 6437,
      ".acc": 6438,
      "2,": 6439,
      "A,": 6440,
      "Do": 6441,
      "Eski": 6442,
      "K,": 6443,
      "bi": 6444,
      "bed": 6445,
      "ble": 6446,
      "f.": 6447,
      "hi": 6448,
      "ham": 6449,
      "krip": 6450,
      "known": 6451,
      "lig": 6452,
      "le.S": 6453,
      "le.P": 6454,
      "le.B": 6455,
      "men": 6456,
      "mas": 6457,
      "mo,": 6458,
      "oard": 6459,
      "oint": 6460,
      "pic": 6461,
      "rus": 6462,
      "rain": 6463,
      "rate": 6464,
      "samem": 6465,
      "ule": 6466,
      "uary": 6467,
      "uage": 6468,
      "vil": 6469,
      "vansion": 6470,
      "wan": 6471,
      "’,": 6472,
      "▁&": 6473,
      "▁il": 6474,
      "anic": 6475,
      "an.R": 6476,
      "▁ton": 6477,
      "▁torti": 6478,
      "inat": 6479,
      "▁pib": 6480,
      "▁path": 6481,
      "▁lyen": 6482,
      "▁som": 6483,
      "▁sad": 6484,
      "▁sle": 6485,
      "▁soul": 6486,
      "▁sight": 6487,
      "▁soley": 6488,
      "▁ast": 6489,
      "▁douler": 6490,
      "orasion": 6491,
      "▁kab": 6492,
      "▁koul": 6493,
      "▁kud": 6494,
      "▁ba": 6495,
      "▁boul": 6496,
      "▁bonnfam": 6497,
      "aton": 6498,
      "ate.R": 6499,
      "ar.S": 6500,
      "arily": 6501,
      "▁fu": 6502,
      "▁fif": 6503,
      "▁fenns": 6504,
      "▁favour": 6505,
      "▁wave": 6506,
      "▁wage": 6507,
      "▁mat": 6508,
      "▁mist": 6509,
      "itar": 6510,
      "itwar": 6511,
      "itabl": 6512,
      "asure": 6513,
      "otion": 6514,
      "▁anz": 6515,
      "▁anver": 6516,
      "▁anse": 6517,
      "▁anonse": 6518,
      "▁hun": 6519,
      "▁hide": 6520,
      "▁hurt": 6521,
      "▁honour": 6522,
      "▁oil": 6523,
      "▁ec": 6524,
      "▁etern": 6525,
      "▁eating": 6526,
      "▁city": 6527,
      "▁cup": 6528,
      "▁cock": 6529,
      "▁cattle": 6530,
      "eding": 6531,
      "▁enorm": 6532,
      "▁enjoy": 6533,
      "ing.D": 6534,
      "▁too,": 6535,
      "etadir": 6536,
      "imi": 6537,
      "ilater": 6538,
      "▁inf": 6539,
      "▁insect": 6540,
      "elm": 6541,
      "el.M": 6542,
      "el.P": 6543,
      "▁liye": 6544,
      "▁gall": 6545,
      "▁gather": 6546,
      "ay,": 6547,
      "adire": 6548,
      "apav": 6549,
      "▁repe": 6550,
      "emn": 6551,
      ".Tour": 6552,
      ".Tref": 6553,
      "▁und": 6554,
      "▁us,": 6555,
      "icid": 6556,
      "icism": 6557,
      "izien": 6558,
      ".Sn": 6559,
      ".Sub": 6560,
      ".Land": 6561,
      ".Lalit": 6562,
      ".Little": 6563,
      "▁dans": 6564,
      "ika": 6565,
      ".Men": 6566,
      "entre": 6567,
      ".Pw": 6568,
      ".Pil": 6569,
      ".Psych": 6570,
      ".Psik": 6571,
      "ida": 6572,
      "idel": 6573,
      "ekter": 6574,
      "▁sa!": 6575,
      "▁saret": 6576,
      "ow,": 6577,
      "▁isi,": 6578,
      "▁isn't": 6579,
      "▁vwayaz": 6580,
      "▁vyol": 6581,
      "aked": 6582,
      ".Don't": 6583,
      ".Bal": 6584,
      ".Box": 6585,
      ".Kr": 6586,
      ".Kam": 6587,
      ".Kum": 6588,
      ".Kamarad": 6589,
      "▁MSM": 6590,
      "▁Muslim": 6591,
      "▁forb": 6592,
      "▁force": 6593,
      "▁forgot": 6594,
      "▁for-for": 6595,
      "▁pouvwar": 6596,
      "▁onivo": 6597,
      "▁alcohol": 6598,
      "man.R": 6599,
      "▁tra": 6600,
      "istry": 6601,
      "iff": 6602,
      "▁so,": 6603,
      "▁soil": 6604,
      "uti": 6605,
      "uty": 6606,
      "uted": 6607,
      "▁konpl": 6608,
      "andal": 6609,
      ".Esk": 6610,
      "abies": 6611,
      "▁rimer": 6612,
      "ching": 6613,
      "osk": 6614,
      "osm": 6615,
      "osye": 6616,
      "agement": 6617,
      "lying": 6618,
      "▁paid": 6619,
      "usual": 6620,
      "▁stuck": 6621,
      "▁stupid": 6622,
      "▁Sin": 6623,
      "▁Schem": 6624,
      "▁plans": 6625,
      ".Come": 6626,
      ".Ren": 6627,
      ".Fool": 6628,
      ".First": 6629,
      ".Folkt": 6630,
      "▁seas": 6631,
      "▁seed": 6632,
      "▁Ba": 6633,
      "▁Battle": 6634,
      "▁orchard": 6635,
      "odi": 6636,
      ".Wi,": 6637,
      ".Watch": 6638,
      "plo": 6639,
      "▁atas": 6640,
      "▁atir": 6641,
      "resh": 6642,
      ".High": 6643,
      "▁arrive": 6644,
      "angl": 6645,
      ".Gro": 6646,
      ".God": 6647,
      ".Good": 6648,
      "ferenc": 6649,
      "▁AT": 6650,
      "▁leaving": 6651,
      "alleng": 6652,
      "veal": 6653,
      "▁“B": 6654,
      "ibility": 6655,
      "▁nearly": 6656,
      "▁Port": 6657,
      "▁Phar": 6658,
      "▁Pinch": 6659,
      "ell,": 6660,
      "▁Tort": 6661,
      ".Instead": 6662,
      ".Zom": 6663,
      "e.Take": 6664,
      "e.Des": 6665,
      "e.Del": 6666,
      "e.Dist": 6667,
      "e.Si": 6668,
      "▁avans": 6669,
      "▁kontak": 6670,
      "▁Camp": 6671,
      "▁Creole": 6672,
      "▁disan": 6673,
      "ityel": 6674,
      ".Thank": 6675,
      "▁worker": 6676,
      "iti-Ini": 6677,
      "▁nouri": 6678,
      ".sout": 6679,
      "▁Nu": 6680,
      "▁National": 6681,
      "▁Rav": 6682,
      "▁sekirite": 6683,
      "▁compens": 6684,
      "▁partikil": 6685,
      "▁depres": 6686,
      "▁roll": 6687,
      "e.Apre": 6688,
      "endous": 6689,
      "▁Ena": 6690,
      "▁Eliz": 6691,
      "hatma": 6692,
      "udden": 6693,
      "wayom": 6694,
      "▁there's": 6695,
      "▁perpet": 6696,
      "e.Las": 6697,
      "▁Jos": 6698,
      "▁prodikt": 6699,
      "▁join": 6700,
      ".Vers": 6701,
      "▁animals,": 6702,
      "▁tulez": 6703,
      ".Another": 6704,
      "▁lots": 6705,
      "▁memwar": 6706,
      "▁laplipar": 6707,
      "▁amount": 6708,
      "▁aksel": 6709,
      "▁says,": 6710,
      "efonn": 6711,
      "▁leta": 6712,
      "▁metod": 6713,
      "▁somey": 6714,
      "▁propose": 6715,
      "▁politic": 6716,
      "▁said:": 6717,
      "▁\"d": 6718,
      "osexual": 6719,
      "▁siyn": 6720,
      "ision,": 6721,
      "▁labou": 6722,
      "▁labut": 6723,
      "▁laba,": 6724,
      "▁Where": 6725,
      "reath": 6726,
      "eziem": 6727,
      "ostal": 6728,
      "▁desp": 6729,
      "▁design": 6730,
      "▁feet": 6731,
      "▁feather": 6732,
      "▁adilt": 6733,
      "▁nowadays": 6734,
      "ocation": 6735,
      "▁fair": 6736,
      ".Stupid": 6737,
      ".But,": 6738,
      "ossible": 6739,
      ".Children": 6740,
      "viously": 6741,
      "▁flies": 6742,
      "▁farmers": 6743,
      "e.On": 6744,
      "?Des": 6745,
      "▁bles": 6746,
      "▁malen": 6747,
      "▁baton": 6748,
      "▁batay": 6749,
      "▁rezion": 6750,
      "▁revinn": 6751,
      "▁owner": 6752,
      "e.Int": 6753,
      "▁kitch": 6754,
      "▁seleb": 6755,
      "ario": 6756,
      "▁seremoni": 6757,
      "▁otan": 6758,
      "▁places": 6759,
      "▁recent": 6760,
      "isees": 6761,
      "▁evil": 6762,
      "▁schools": 6763,
      "▁according": 6764,
      "▁older": 6765,
      ".Disc": 6766,
      "ologist": 6767,
      "?Nou": 6768,
      "▁throughout": 6769,
      "▁lafwa": 6770,
      "▁asking": 6771,
      "?And": 6772,
      "▁Kreol,": 6773,
      "▁elements": 6774,
      "▁dekuver": 6775,
      "▁simply": 6776,
      "▁protection": 6777,
      "▁proteksyon": 6778,
      "▁konsom": 6779,
      "▁kasyet": 6780,
      "▁happens": 6781,
      "▁medic": 6782,
      "bsid": 6783,
      "▁rekones": 6784,
      "▁country,": 6785,
      "iction": 6786,
      "▁singers": 6787,
      ".Imm": 6788,
      "▁lady": 6789,
      "▁remind": 6790,
      "▁inside": 6791,
      "▁bush": 6792,
      ".Sex": 6793,
      "▁night,": 6794,
      "▁ansam,": 6795,
      "▁investment": 6796,
      "▁harder": 6797,
      "▁Uncle": 6798,
      "▁University": 6799,
      "phas": 6800,
      "▁eleph": 6801,
      "▁consult": 6802,
      "▁death,": 6803,
      "▁ferme": 6804,
      "ollie": 6805,
      "▁Mrs": 6806,
      "▁legend": 6807,
      "▁diskit": 6808,
      "?”“": 6809,
      "▁koken": 6810,
      ".Komie": 6811,
      "▁deliver": 6812,
      "▁karakter": 6813,
      "▁50": 6814,
      "REE": 6815,
      "▁leaders": 6816,
      "▁sorry": 6817,
      "▁sorry,": 6818,
      "▁kouver": 6819,
      "▁spesifik": 6820,
      "▁apartenir": 6821,
      "▁egg": 6822,
      "▁seems": 6823,
      "▁klerman": 6824,
      "▁eats": 6825,
      "imero": 6826,
      ".Member": 6827,
      ".Someone": 6828,
      "▁galoupe": 6829,
      "▁assum": 6830,
      "▁pozisyon": 6831,
      "▁movement,": 6832,
      "ories,": 6833,
      "▁green": 6834,
      "▁voic": 6835,
      "▁acquired": 6836,
      "▁textiles": 6837,
      "▁meaning": 6838,
      "▁answered,": 6839,
      "▁violence": 6840,
      "▁Farizien": 6841,
      "▁silvouple": 6842,
      "▁tusala": 6843,
      "▁issues": 6844,
      "▁tanto": 6845,
      "▁tickets": 6846,
      "▁literacy": 6847,
      "▁discussion": 6848,
      "▁mwins": 6849,
      "▁company": 6850,
      "▁directly": 6851,
      "▁pirog": 6852,
      "▁cows,": 6853,
      "▁traka": 6854,
      "onvansyon": 6855,
      "▁sutenir": 6856,
      "▁hope": 6857,
      "▁encourage": 6858,
      ".Feel": 6859,
      ".Observ": 6860,
      "▁treated": 6861,
      "▁caused": 6862,
      "▁proprieter": 6863,
      "▁prinsipal": 6864,
      "▁pigeons": 6865,
      "▁satisf": 6866,
      "▁itilizasyon": 6867,
      "▁AND": 6868,
      "▁priests": 6869,
      "▁products": 6870,
      "onstitution": 6871,
      "▁floor": 6872,
      "▁competition": 6873,
      "▁structure": 6874,
      "▁anfaver": 6875,
      "▁Administ": 6876,
      "▁horse": 6877,
      ".According": 6878,
      "▁exactly": 6879,
      "▁democrat": 6880,
      "▁colonial": 6881,
      "▁character": 6882,
      "▁monopol": 6883,
      "vironment": 6884,
      "▁100,000": 6885,
      "▁obligatwar": 6886,
      "▁genocid": 6887,
      "smith": 6888,
      "▁lopital": 6889,
      "hysical": 6890,
      "▁electricity": 6891,
      "▁foto": 6892,
      "/she": 6893,
      "▁enportan": 6894,
      "▁Bwarenar": 6895,
      "▁tremendous": 6896,
      "▁machin": 6897,
      "▁Berenger": 6898,
      "▁linformasyon": 6899,
      "▁Whymper": 6900,
      "zonktirel": 6901,
      "▁miltinasyonal": 6902,
      "▁Pharisees": 6903,
      "▁Pinchfield": 6904,
      "▁Elizabet": 6905,
      "!W": 6906,
      "-G": 6907,
      "-term": 6908,
      ".5": 6909,
      ".m": 6910,
      ".anb": 6911,
      "1,": 6912,
      "18": 6913,
      "CE": 6914,
      "DA": 6915,
      "It": 6916,
      "Ler": 6917,
      "Let": 6918,
      "TER": 6919,
      "a.D": 6920,
      "bat": 6921,
      "cop": 6922,
      "gent": 6923,
      "hol": 6924,
      "i.M": 6925,
      "i.K": 6926,
      "jection": 6927,
      "kan": 6928,
      "ker": 6929,
      "lap": 6930,
      "laz": 6931,
      "les,": 6932,
      "menn": 6933,
      "mark": 6934,
      "o.R": 6935,
      "o.z": 6936,
      "pon": 6937,
      "pot": 6938,
      "pher": 6939,
      "put": 6940,
      "part": 6941,
      "prim": 6942,
      "rust": 6943,
      "ronom": 6944,
      "siv": 6945,
      "ted": 6946,
      "ves,": 6947,
      "winn": 6948,
      "wif": 6949,
      "what": 6950,
      "ys": 6951,
      "y.L": 6952,
      "y.R": 6953,
      "yard": 6954,
      "”.“": 6955,
      "▁ess": 6956,
      "▁ign": 6957,
      "an.B": 6958,
      "▁tas": 6959,
      "▁tar,": 6960,
      "▁tales": 6961,
      "erd": 6962,
      "erk": 6963,
      "er.G": 6964,
      "onfl": 6965,
      "ined": 6966,
      "inet": 6967,
      "inion": 6968,
      "inel": 6969,
      "inaz": 6970,
      "inct": 6971,
      "inater": 6972,
      "▁pye": 6973,
      "ena": 6974,
      "eness": 6975,
      "▁lump": 6976,
      "▁lalkol": 6977,
      "▁sam": 6978,
      "▁sand": 6979,
      "▁sitiasion": 6980,
      "oule": 6981,
      "▁a-l": 6982,
      "▁authority": 6983,
      "▁dark": 6984,
      "orry": 6985,
      "▁kri": 6986,
      "▁kare": 6987,
      "▁kole": 6988,
      "ises": 6989,
      "is.B": 6990,
      "reyer": 6991,
      "▁box": 6992,
      "▁base": 6993,
      "ate.G": 6994,
      "arl": 6995,
      "arter": 6996,
      "▁fi": 6997,
      "▁fro": 6998,
      "▁fonn": 6999,
      "▁war": 7000,
      "▁mann": 7001,
      "▁mondyal": 7002,
      "ite.K": 7003,
      "itary": 7004,
      "al.M": 7005,
      "e.ad": 7006,
      "e.Qu": 7007,
      "esyon": 7008,
      "▁tied": 7009,
      "▁hat": 7010,
      "▁ham": 7011,
      "▁ef": 7012,
      "▁ca": 7013,
      "▁cover": 7014,
      "▁cash": 7015,
      "▁claim": 7016,
      "▁cycl": 7017,
      "▁credit": 7018,
      "ingap": 7019,
      "ings,": 7020,
      "▁ofisyel": 7021,
      "▁nn": 7022,
      "▁nivo": 7023,
      "iraz": 7024,
      "iryel": 7025,
      "eler": 7026,
      "elter": 7027,
      "▁li.": 7028,
      "▁game": 7029,
      "amental": 7030,
      "ad,": 7031,
      "apan": 7032,
      "▁reached": 7033,
      "embl": 7034,
      ".Tend": 7035,
      ".Turn": 7036,
      "ickl": 7037,
      "ize,": 7038,
      "izib": 7039,
      ".Sm": 7040,
      ".Sat": 7041,
      ".Sof": 7042,
      ".Sithanen": 7043,
      ".Sante": 7044,
      ".Self": 7045,
      ".Sometimes": 7046,
      ".Lib": 7047,
      "ik.E": 7048,
      ".Mus": 7049,
      ".Marde": 7050,
      "enth": 7051,
      ".Pla": 7052,
      "idze": 7053,
      ".Abs": 7054,
      ".Ah,": 7055,
      "our,": 7056,
      "aze": 7057,
      "▁zotmem": 7058,
      "▁yer": 7059,
      "▁vid": 7060,
      "▁vikt": 7061,
      "▁defer": 7062,
      "▁de-trwa": 7063,
      ".Dom": 7064,
      ".Diz": 7065,
      ".Big": 7066,
      ".Kour": 7067,
      "▁that's": 7068,
      "▁Moses": 7069,
      "▁trouble": 7070,
      "istis": 7071,
      ".Iron": 7072,
      "▁konstit": 7073,
      "▁konplet": 7074,
      "andi": 7075,
      "andime": 7076,
      "andhi": 7077,
      "ivan": 7078,
      "ive,": 7079,
      "ive.C": 7080,
      "▁raf": 7081,
      "ches": 7082,
      "chang": 7083,
      "osed": 7084,
      "ager": 7085,
      "▁paint": 7086,
      "iger": 7087,
      "opolit": 7088,
      "laug": 7089,
      "using": 7090,
      "▁stir": 7091,
      "▁strange": 7092,
      "ation.M": 7093,
      "▁Sh": 7094,
      "▁Serv": 7095,
      "▁Singap": 7096,
      "▁parabol": 7097,
      ".Fas": 7098,
      ".Four": 7099,
      "▁sev": 7100,
      "▁Bl": 7101,
      "odo": 7102,
      "▁asleep": 7103,
      "▁I’m": 7104,
      "▁Lou": 7105,
      "▁Les": 7106,
      "▁Lem": 7107,
      "estim": 7108,
      ".Navig": 7109,
      "ontagn": 7110,
      "ontrol": 7111,
      ".Wind": 7112,
      "plit": 7113,
      "plem": 7114,
      "▁he/she": 7115,
      ".Od": 7116,
      ".Okenn": 7117,
      ".Hair": 7118,
      ".Gre": 7119,
      ".Gar": 7120,
      ".Garson": 7121,
      "▁not,": 7122,
      "▁note": 7123,
      "▁All": 7124,
      "iper": 7125,
      "▁“C": 7126,
      "▁“g": 7127,
      "▁wear": 7128,
      "▁neck": 7129,
      "▁apepre": 7130,
      "essia": 7131,
      "▁To": 7132,
      "▁govern": 7133,
      "asion,": 7134,
      "▁man,": 7135,
      "ienc": 7136,
      "▁all,": 7137,
      "e.Some": 7138,
      "▁For": 7139,
      "▁Four": 7140,
      "▁age": 7141,
      "▁Could": 7142,
      "▁Cows": 7143,
      "▁Central": 7144,
      "▁Convention": 7145,
      "▁Constitution": 7146,
      "▁diseas": 7147,
      "▁KM": 7148,
      "▁King": 7149,
      "e.Per": 7150,
      "▁Gandhi": 7151,
      "▁prec": 7152,
      ".sc": 7153,
      ".sim": 7154,
      ".sans": 7155,
      "yen,": 7156,
      "e.Mod": 7157,
      "oumans": 7158,
      "▁RE": 7159,
      "▁commercial": 7160,
      "▁depre": 7161,
      "▁rope": 7162,
      "▁rode": 7163,
      "oney,": 7164,
      "▁En": 7165,
      "▁Est": 7166,
      "▁(t": 7167,
      "ache": 7168,
      "e.Rel": 7169,
      "e.Rez": 7170,
      "▁can't": 7171,
      "▁perman": 7172,
      "▁DAN": 7173,
      "▁Disik": 7174,
      "though": 7175,
      "evi": 7176,
      "evelop": 7177,
      "▁13": 7178,
      "▁Jones,": 7179,
      "▁timber": 7180,
      "egwi": 7181,
      "▁tu,": 7182,
      "▁lot,": 7183,
      "▁mem,": 7184,
      "rison": 7185,
      "iman,": 7186,
      "▁lapenn": 7187,
      "▁amezir": 7188,
      "▁buck": 7189,
      "liy": 7190,
      "?When": 7191,
      "?Which": 7192,
      "group": 7193,
      "▁lezel": 7194,
      "▁lezand": 7195,
      "riktir": 7196,
      "▁letan,": 7197,
      "▁Mauritians": 7198,
      "▁unusual": 7199,
      "able.": 7200,
      "▁pov": 7201,
      "▁pron": 7202,
      "▁prin": 7203,
      ".ti-": 7204,
      "▁politics": 7205,
      "▁demin": 7206,
      "▁fami,": 7207,
      "▁ourselves": 7208,
      "aching": 7209,
      "▁again.Re": 7210,
      "▁konpans": 7211,
      ".Which": 7212,
      "▁lanatir": 7213,
      "orship": 7214,
      "▁fear": 7215,
      "ecome": 7216,
      "▁fail": 7217,
      ".Step": 7218,
      ".Mean": 7219,
      "obin": 7220,
      "▁profession": 7221,
      "▁OF": 7222,
      "▁Ot": 7223,
      "▁Oct": 7224,
      "▁25": 7225,
      "▁conflict": 7226,
      "▁plants": 7227,
      "▁planters,": 7228,
      "▁espes": 7229,
      "▁esklav": 7230,
      "▁laspe": 7231,
      "▁lasante": 7232,
      "▁answ": 7233,
      "?Th": 7234,
      "?Did": 7235,
      "▁everywhere": 7236,
      "ritir": 7237,
      "▁rezim": 7238,
      "▁lepase": 7239,
      "e.Inf": 7240,
      "▁etranz": 7241,
      "▁ede": 7242,
      "▁edge": 7243,
      "▁inde": 7244,
      "▁puts": 7245,
      "▁organic": 7246,
      "▁folklor,": 7247,
      "rimp": 7248,
      "▁dezord": 7249,
      "▁sakre": 7250,
      "▁accur": 7251,
      "▁mor,": 7252,
      "▁moral": 7253,
      "?So": 7254,
      "▁lagorz": 7255,
      ".Parfwa": 7256,
      "▁economy,": 7257,
      "e.Zis": 7258,
      "▁attitud": 7259,
      "?An": 7260,
      "▁sym": 7261,
      "posib": 7262,
      "▁devlope": 7263,
      "▁sime,": 7264,
      "▁end,": 7265,
      "▁konsern": 7266,
      ".Shop": 7267,
      ".Maladi": 7268,
      "▁window": 7269,
      "▁sinp": 7270,
      "▁kingdom": 7271,
      "▁Lalit,": 7272,
      "▁leve,": 7273,
      "▁pension": 7274,
      "meric": 7275,
      "▁lizi": 7276,
      "▁telefonn": 7277,
      "▁interesting": 7278,
      "▁supply": 7279,
      "▁India,": 7280,
      "▁Moiz": 7281,
      "▁respond": 7282,
      "▁regleman": 7283,
      "▁languages,": 7284,
      "▁Institute": 7285,
      "▁terminal": 7286,
      "▁Commit": 7287,
      "▁playing": 7288,
      "▁recording": 7289,
      "▁system,": 7290,
      ".Letan": 7291,
      "▁learned": 7292,
      "▁temper": 7293,
      "▁solution": 7294,
      "▁taxi": 7295,
      "▁God's": 7296,
      "▁planet": 7297,
      "▁hand,": 7298,
      "▁kokin": 7299,
      "atikman": 7300,
      ".Flat": 7301,
      "ixed": 7302,
      "▁woman,": 7303,
      "▁moment,": 7304,
      "▁slip": 7305,
      "▁promot": 7306,
      "▁ordered": 7307,
      "▁education,": 7308,
      "▁sipa": 7309,
      "▁vremem": 7310,
      "▁today,": 7311,
      "▁distrib": 7312,
      "▁collecting": 7313,
      "▁rules": 7314,
      "▁MMM-M": 7315,
      "ALP": 7316,
      "ridg": 7317,
      "▁aksept": 7318,
      "cribed": 7319,
      "pirasion": 7320,
      "▁growing": 7321,
      ".Patron": 7322,
      "▁addition": 7323,
      "▁address": 7324,
      "▁enough,": 7325,
      "▁valu": 7326,
      "▁returned": 7327,
      "▁banan": 7328,
      "▁borlam": 7329,
      "▁advant": 7330,
      "▁advanc": 7331,
      "▁academ": 7332,
      "▁1976": 7333,
      "?\"\"": 7334,
      "▁grandi": 7335,
      "▁closely": 7336,
      "▁power,": 7337,
      "▁angry": 7338,
      "▁variant": 7339,
      ".Without": 7340,
      "onksion": 7341,
      "▁issu": 7342,
      "▁renion": 7343,
      "▁purpos": 7344,
      "▁konstriksion": 7345,
      "▁Islam": 7346,
      "▁plitar": 7347,
      "▁sexual": 7348,
      "▁mobilization": 7349,
      "▁lantrepriz": 7350,
      "▁electoral": 7351,
      "▁alternative": 7352,
      "▁sega": 7353,
      "▁negoti": 7354,
      "▁agreed": 7355,
      "▁disappear": 7356,
      "▁12:": 7357,
      "ilingual": 7358,
      "▁dogs,": 7359,
      "ography": 7360,
      "▁separate": 7361,
      "▁rocks": 7362,
      "▁including": 7363,
      "▁usual,": 7364,
      "▁etidian": 7365,
      "▁breakfast": 7366,
      "▁illness": 7367,
      ".Gardien": 7368,
      "▁determine": 7369,
      "IST": 7370,
      "▁equal": 7371,
      "▁model": 7372,
      "▁Granmama": 7373,
      "▁months": 7374,
      "▁hotel": 7375,
      "▁barn,": 7376,
      "▁propriete": 7377,
      "▁demokratik": 7378,
      "?It's": 7379,
      "▁European": 7380,
      "▁zedmo,": 7381,
      "▁suffering": 7382,
      "▁predir": 7383,
      ".Apartir": 7384,
      ".Elekt": 7385,
      "▁self-": 7386,
      "▁Paul": 7387,
      "▁riddles": 7388,
      "SIFI": 7389,
      "▁tune": 7390,
      "▁mentioned": 7391,
      "▁chicken": 7392,
      "▁crowd": 7393,
      "▁Sita": 7394,
      "▁behavior": 7395,
      "▁festival": 7396,
      "▁obzerve": 7397,
      "▁individual": 7398,
      "▁kiltirel": 7399,
      ".Second": 7400,
      "Zanimo": 7401,
      "▁tibaba": 7402,
      "▁Zaregne": 7403,
      "▁technology": 7404,
      "▁decisions": 7405,
      "▁Madag": 7406,
      "▁slogan": 7407,
      "▁Squealer,": 7408,
      "▁revolisyoner": 7409,
      "▁methods": 7410,
      "▁spoken": 7411,
      "▁Willingdon": 7412,
      "▁declared": 7413,
      "▁bungalows": 7414,
      "▁pibliye": 7415,
      "▁forbid": 7416,
      "?Describe": 7417,
      "▁MMM-MSM": 7418,
      "!Mo": 7419,
      "-pl": 7420,
      "53": 7421,
      ";Given": 7422,
      ";Etan": 7423,
      "?Y": 7424,
      "AC": 7425,
      "ET": 7426,
      "LI": 7427,
      "OS": 7428,
      "Tou": 7429,
      "VE": 7430,
      "auc": 7431,
      "bel": 7432,
      "bra": 7433,
      "born": 7434,
      "cu": 7435,
      "cer": 7436,
      "come": 7437,
      "dan": 7438,
      "dez": 7439,
      "di,": 7440,
      "eath": 7441,
      "fli": 7442,
      "gres": 7443,
      "give": 7444,
      "just": 7445,
      "lem": 7446,
      "lab": 7447,
      "le.C": 7448,
      "mm": 7449,
      "ming": 7450,
      "mante": 7451,
      "ni": 7452,
      "ner": 7453,
      "nat": 7454,
      "o.T": 7455,
      "off": 7456,
      "pu": 7457,
      "pons": 7458,
      "r.": 7459,
      "rent": 7460,
      "rinn": 7461,
      "rous": 7462,
      "sed": 7463,
      "sci": 7464,
      "s.He": 7465,
      "ship": 7466,
      "ua": 7467,
      "upe": 7468,
      "wing": 7469,
      "wad": 7470,
      "wak": 7471,
      "wala": 7472,
      "zer": 7473,
      "zekt": 7474,
      "”.Li": 7475,
      "▁rom": 7476,
      "an.L": 7477,
      "iny": 7478,
      "ining": 7479,
      "▁pank": 7480,
      "enk": 7481,
      "ense": 7482,
      "▁lenn": 7483,
      "▁lov": 7484,
      "▁lock": 7485,
      "▁loud": 7486,
      "▁lying": 7487,
      "▁sas": 7488,
      "▁squ": 7489,
      "▁sors": 7490,
      "▁sens": 7491,
      "ou.B": 7492,
      "▁thing,": 7493,
      "▁ax": 7494,
      "▁dinn": 7495,
      "▁doz": 7496,
      "▁dign": 7497,
      "▁duck": 7498,
      "▁double": 7499,
      "▁dynam": 7500,
      "▁kris": 7501,
      "▁king,": 7502,
      "▁kwizinie": 7503,
      "isaz": 7504,
      "▁bod": 7505,
      "▁bond": 7506,
      "▁bouse": 7507,
      "▁bapt": 7508,
      "aries": 7509,
      "▁fir": 7510,
      "▁ful": 7511,
      "▁fund": 7512,
      "▁wages": 7513,
      "▁won’t": 7514,
      "▁mant": 7515,
      "▁mek": 7516,
      "▁mang": 7517,
      "▁mous": 7518,
      "▁me.I": 7519,
      "▁men,": 7520,
      "▁mouvman": 7521,
      "itation": 7522,
      "ite.S": 7523,
      "ite.E": 7524,
      "itfwa": 7525,
      "al.N": 7526,
      "aleg": 7527,
      "e.am": 7528,
      "e.ag": 7529,
      "es!": 7530,
      "eser,": 7531,
      "asm": 7532,
      "▁anter": 7533,
      "▁ancest": 7534,
      "▁tif": 7535,
      "▁hit": 7536,
      "▁hav": 7537,
      "▁hur": 7538,
      "▁holid": 7539,
      "▁opt": 7540,
      "▁ogre": 7541,
      "▁earn": 7542,
      "▁catch": 7543,
      "▁couple": 7544,
      "ing.B": 7545,
      "etic": 7546,
      "etik": 7547,
      "eter,": 7548,
      "ety,": 7549,
      "imann": 7550,
      "ilie": 7551,
      "▁nation": 7552,
      "▁nine": 7553,
      "▁zardin": 7554,
      "▁inh": 7555,
      "eles": 7556,
      "el.B": 7557,
      "elizan": 7558,
      "elcom": 7559,
      "▁li.Enn": 7560,
      "▁li.Zot": 7561,
      "▁li.Me": 7562,
      "▁gat": 7563,
      "▁gars": 7564,
      "amy": 7565,
      "amet": 7566,
      "ri.K": 7567,
      "omann": 7568,
      "aya": 7569,
      "▁reel": 7570,
      "ema": 7571,
      "emen": 7572,
      ".Tam": 7573,
      ".Trav": 7574,
      ".Torti": 7575,
      "icit": 7576,
      ".Sik": 7577,
      ".Sinn": 7578,
      ".Sif": 7579,
      ".Sho": 7580,
      ".Sym": 7581,
      ".Sudden": 7582,
      "▁la:": 7583,
      "▁la.Mo": 7584,
      ".Lok": 7585,
      ".Lev": 7586,
      ".Listen": 7587,
      "iklet": 7588,
      "antasyon": 7589,
      ".Mor": 7590,
      ".Mik": 7591,
      ".Mid": 7592,
      ".More": 7593,
      ".Madam": 7594,
      ".Minis": 7595,
      ".Maj": 7596,
      "▁pei,": 7597,
      ".Polit": 7598,
      ".Premie": 7599,
      "▁sacri": 7600,
      ".Aud": 7601,
      ".Ann": 7602,
      ".Akoz": 7603,
      "▁whale": 7604,
      "▁pul": 7605,
      "azi": 7606,
      "▁beer": 7607,
      "▁vis": 7608,
      "▁vak": 7609,
      "▁vey": 7610,
      "ak,": 7611,
      "aks": 7612,
      ".Did": 7613,
      ".Dok": 7614,
      ".Bon": 7615,
      ".Boul": 7616,
      ".Beg": 7617,
      "tered": 7618,
      ".Kikenn": 7619,
      "▁May": 7620,
      "▁Mars": 7621,
      "▁Mob": 7622,
      "▁Miryel": 7623,
      "▁Messia": 7624,
      "▁forest": 7625,
      "▁alone": 7626,
      "▁trot": 7627,
      "istan": 7628,
      "istor": 7629,
      "ists,": 7630,
      "▁progress": 7631,
      "ifest": 7632,
      ".I’ve": 7633,
      "ury": 7634,
      "urch": 7635,
      "uth,": 7636,
      "▁konzonktirel": 7637,
      "andard": 7638,
      ".Ep": 7639,
      "abitid": 7640,
      "▁rav": 7641,
      "▁rushed": 7642,
      "chan": 7643,
      "osing": 7644,
      "agre": 7645,
      "lye": 7646,
      "igher": 7647,
      "▁mo,": 7648,
      "epare": 7649,
      "▁item": 7650,
      ".Cir": 7651,
      ".Cur": 7652,
      ".Cut": 7653,
      ".Ram": 7654,
      ".Rid": 7655,
      ".Rest": 7656,
      ".Far": 7657,
      ".Folklor": 7658,
      "▁seat": 7659,
      "▁sezon": 7660,
      "ulated": 7661,
      "▁But": 7662,
      "▁Batay": 7663,
      "▁aspect": 7664,
      "▁Lak": 7665,
      "▁Land": 7666,
      "ests": 7667,
      "estik": 7668,
      ".Nin": 7669,
      ".No,": 7670,
      ".Norm": 7671,
      "umb": 7672,
      "ozision": 7673,
      ".Walk": 7674,
      "▁heals": 7675,
      "▁atansion": 7676,
      "resyon": 7677,
      "resident": 7678,
      ".Obl": 7679,
      ".Oper": 7680,
      ".Open": 7681,
      ".Half": 7682,
      "▁arrow": 7683,
      "▁arrest": 7684,
      "▁exanp": 7685,
      "sequ": 7686,
      "▁dirty": 7687,
      "▁meat": 7688,
      "asyonal,": 7689,
      "angaz": 7690,
      ".Grand": 7691,
      "▁noticed": 7692,
      "▁worry": 7693,
      "▁“K": 7694,
      "▁“O": 7695,
      "▁“f": 7696,
      "ibil": 7697,
      "▁above": 7698,
      "▁neither": 7699,
      "▁Papa": 7700,
      "▁There": 7701,
      "▁Tantinn": 7702,
      "▁Triyang": 7703,
      ".Inc": 7704,
      "▁manb": 7705,
      "arti": 7706,
      "artir": 7707,
      "▁shot": 7708,
      "ford": 7709,
      "fore,": 7710,
      "rac": 7711,
      "▁Folklore": 7712,
      "bles": 7713,
      "▁KI": 7714,
      "▁Klas": 7715,
      "▁Konvansyon": 7716,
      "▁Gar": 7717,
      ".Then,": 7718,
      ".Through": 7719,
      "▁prek": 7720,
      "ire,": 7721,
      "irect": 7722,
      "irement": 7723,
      "▁works": 7724,
      ".so": 7725,
      ".su": 7726,
      ".sous": 7727,
      "e.My": 7728,
      "e.Mor": 7729,
      "e.Mar": 7730,
      "e.Mem": 7731,
      "▁Re": 7732,
      "▁Rose": 7733,
      "▁respe": 7734,
      "▁party,": 7735,
      "▁roof": 7736,
      "enda": 7737,
      "▁outsid": 7738,
      "▁(G": 7739,
      "▁(M": 7740,
      "▁(m": 7741,
      "e.Kimanyer": 7742,
      "wayan": 7743,
      "e.Rap": 7744,
      "▁pert": 7745,
      "ishing": 7746,
      "ishment": 7747,
      "▁polis": 7748,
      "▁riye,": 7749,
      "▁Mahatma": 7750,
      "▁him.The": 7751,
      "▁times,": 7752,
      "▁ju": 7753,
      ".Viz": 7754,
      "▁toulezour": 7755,
      "▁person,": 7756,
      "ary,": 7757,
      "aryenn": 7758,
      "e.Em": 7759,
      "e.Ev": 7760,
      "▁intellig": 7761,
      ".Any": 7762,
      ".Anpl": 7763,
      "▁leres": 7764,
      "▁yours": 7765,
      "ertific": 7766,
      "anze": 7767,
      "▁amar": 7768,
      "▁buried": 7769,
      "?Wi": 7770,
      "?Kouma": 7771,
      "▁served": 7772,
      "▁serviter": 7773,
      "▁lete": 7774,
      "▁devwar": 7775,
      "▁unknown": 7776,
      "able.In": 7777,
      "▁somewhere": 7778,
      "▁prophet": 7779,
      "▁poets": 7780,
      "▁poison": 7781,
      "▁pray": 7782,
      "▁spite": 7783,
      "▁laviktwar": 7784,
      "▁\"A": 7785,
      "▁\"s": 7786,
      "e.Con": 7787,
      "▁lame,": 7788,
      "▁Wind": 7789,
      "▁Would": 7790,
      "ouvel": 7791,
      "ouvraz": 7792,
      "▁repet": 7793,
      "▁reprod": 7794,
      "▁controll": 7795,
      "▁contrary": 7796,
      "?Enn": 7797,
      "?Ena": 7798,
      "▁feed": 7799,
      "▁adult": 7800,
      "▁adapt": 7801,
      "econom": 7802,
      "wazon": 7803,
      ".Straight": 7804,
      "uced": 7805,
      "▁2yem": 7806,
      "▁constant": 7807,
      "▁consequ": 7808,
      "e.Now": 7809,
      "e.Napoleon": 7810,
      ".Exc": 7811,
      ".Exp": 7812,
      "▁fles": 7813,
      "arness": 7814,
      "erme": 7815,
      "▁retir": 7816,
      "▁retourne": 7817,
      "inea": 7818,
      "?To": 7819,
      "▁bril": 7820,
      "▁everywher": 7821,
      "ofann": 7822,
      "ofonn": 7823,
      "▁bless": 7824,
      "e.Get": 7825,
      "alizasion": 7826,
      "▁rezud": 7827,
      "olding": 7828,
      "▁program-la": 7829,
      "▁diviner": 7830,
      "▁instruction": 7831,
      "▁expulsion": 7832,
      "▁aftern": 7833,
      "iseases": 7834,
      "▁larz": 7835,
      "▁latab": 7836,
      "▁latansyon": 7837,
      "▁latizann": 7838,
      "fulness": 7839,
      "esearch": 7840,
      "▁drug": 7841,
      "▁inportan,": 7842,
      "▁factories": 7843,
      "e.Zistwar": 7844,
      "?Ask": 7845,
      "▁syant": 7846,
      "ournal": 7847,
      "▁eleman": 7848,
      ".There’s": 7849,
      "▁rantre": 7850,
      "▁lalyans": 7851,
      "▁transitional": 7852,
      "▁basen,": 7853,
      "▁patiraz": 7854,
      "▁windfall": 7855,
      "izanpli": 7856,
      "e.Ant": 7857,
      ".Beat": 7858,
      ".Imp": 7859,
      ".However,": 7860,
      ".Const": 7861,
      "▁Independ": 7862,
      "▁respekte": 7863,
      "▁regular": 7864,
      "▁lisyen": 7865,
      "▁begins": 7866,
      "AND": 7867,
      "▁explan": 7868,
      ".Dimann": 7869,
      ".Dimounn": 7870,
      "waziem": 7871,
      "▁situ": 7872,
      "▁minim": 7873,
      "▁nomb": 7874,
      "▁cheap": 7875,
      "iyaz": 7876,
      "▁Bidz": 7877,
      "▁guilt": 7878,
      "▁koko": 7879,
      "▁misye": 7880,
      "▁lespwar": 7881,
      "▁ordinary": 7882,
      "point": 7883,
      "▁katastrof": 7884,
      "▁balance": 7885,
      "RIS": 7886,
      "▁possibl": 7887,
      "▁conduct": 7888,
      "gnant": 7889,
      "▁irzan": 7890,
      "▁anplis": 7891,
      "▁disparet,": 7892,
      "▁preferansyel": 7893,
      "fortab": 7894,
      "▁signs": 7895,
      "▁popular": 7896,
      "▁weeks": 7897,
      "▁impossible": 7898,
      "▁drinking": 7899,
      "▁revolision": 7900,
      "▁mindev": 7901,
      "▁ogmante": 7902,
      "▁proverb,": 7903,
      "▁rule": 7904,
      "▁assure": 7905,
      "▁added": 7906,
      ".Youn": 7907,
      "▁walked": 7908,
      "▁walking": 7909,
      "▁increased": 7910,
      "▁numbers": 7911,
      "▁society,": 7912,
      "▁Bidze-la": 7913,
      "▁occur": 7914,
      "▁grew": 7915,
      "▁greater": 7916,
      "▁bankrupt": 7917,
      ".Avan": 7918,
      ".with": 7919,
      "▁facing": 7920,
      "▁knowledg": 7921,
      "▁strata": 7922,
      "▁million": 7923,
      "▁closed": 7924,
      "▁lemond,": 7925,
      "▁lenter": 7926,
      "▁zenosid": 7927,
      "▁abandone": 7928,
      "▁vas,": 7929,
      "▁mobilizasyon": 7930,
      "vironnman": 7931,
      "▁waiting": 7932,
      "▁tranzaksion": 7933,
      "▁IND": 7934,
      "▁abitan": 7935,
      "▁sikriyer,": 7936,
      "▁idiot": 7937,
      "ersi.": 7938,
      "▁continuing": 7939,
      "extil": 7940,
      "▁phot": 7941,
      "▁tutswit": 7942,
      "▁holding": 7943,
      "▁80": 7944,
      "▁knock": 7945,
      "▁hiding": 7946,
      "▁gramaten": 7947,
      "▁buildings,": 7948,
      "▁toutswit": 7949,
      "▁intervyu": 7950,
      "▁becoming": 7951,
      "▁accepted": 7952,
      "▁responsabilite": 7953,
      "▁“What": 7954,
      "▁demokrasi": 7955,
      "▁details": 7956,
      "▁pigeon": 7957,
      "▁Commandment": 7958,
      "-FREE": 7959,
      "▁anvoy": 7960,
      "▁receiv": 7961,
      "▁receive": 7962,
      "▁Agricult": 7963,
      "▁predict": 7964,
      "▁storyteller": 7965,
      "▁message": 7966,
      "▁crops": 7967,
      "▁influ": 7968,
      "aternal": 7969,
      "▁industries": 7970,
      "▁industrial": 7971,
      "ommend": 7972,
      ".Two": 7973,
      "▁Franse,": 7974,
      "▁Revolision": 7975,
      "▁bourik": 7976,
      "▁warned": 7977,
      "▁ritual": 7978,
      "▁Boxers": 7979,
      "▁lekzanp": 7980,
      "▁mwayen": 7981,
      "▁replied,": 7982,
      "▁convin": 7983,
      "▁cultivation": 7984,
      "?Komie": 7985,
      "official\"": 7986,
      "▁pedagog": 7987,
      "▁cricket": 7988,
      "▁elektrisite": 7989,
      "olutely": 7990,
      "▁reflesi": 7991,
      "▁globalizasyon": 7992,
      "▁Ramgoolam": 7993,
      "▁throat": 7994,
      "▁koste": 7995,
      "▁tigit": 7996,
      "▁planning": 7997,
      "ondamantal": 7998,
      "▁sirkile": 7999,
      "▁partikilye": 8000,
      "▁kitchen": 8001,
      "▁ignor": 8002,
      "▁viktim": 8003,
      "laughter": 8004,
      "▁Committee": 8005,
      "▁garson,": 8006,
      "!G": 8007,
      "!H": 8008,
      "'le": 8009,
      "(s)": 8010,
      ".\t": 8011,
      ".e": 8012,
      ".j": 8013,
      ".ver": 8014,
      ".and": 8015,
      ".amb": 8016,
      "/H": 8017,
      "0’s": 8018,
      "?V": 8019,
      "AU": 8020,
      "An": 8021,
      "HE": 8022,
      "Or": 8023,
      "Sa": 8024,
      "TS": 8025,
      "To": 8026,
      "This": 8027,
      "UL": 8028,
      "a!": 8029,
      "a)": 8030,
      "aith": 8031,
      "by": 8032,
      "bes": 8033,
      "cand": 8034,
      "cip": 8035,
      "ea": 8036,
      "ear": 8037,
      "gren": 8038,
      "h!": 8039,
      "ii": 8040,
      "iat": 8041,
      "iam": 8042,
      "i.D": 8043,
      "ipl": 8044,
      "iqu": 8045,
      "ially": 8046,
      "kur": 8047,
      "lenn": 8048,
      "lement": 8049,
      "nic": 8050,
      "night": 8051,
      "oor": 8052,
      "oat": 8053,
      "oos": 8054,
      "pop": 8055,
      "pend": 8056,
      "path": 8057,
      "ron,": 8058,
      "sing": 8059,
      "ux": 8060,
      "wil": 8061,
      "wann": 8062,
      "wi,": 8063,
      "wint": 8064,
      "zen": 8065,
      "▁,": 8066,
      "▁:": 8067,
      "▁£": 8068,
      "anim": 8069,
      "anuary": 8070,
      "▁tor": 8071,
      "▁tal": 8072,
      "▁trik": 8073,
      "▁tanp": 8074,
      "▁taman": 8075,
      "erful": 8076,
      "onest": 8077,
      "onpet": 8078,
      "on.z": 8079,
      "▁pan": 8080,
      "▁ponn": 8081,
      "▁pell": 8082,
      "▁pansion": 8083,
      "▁pilot": 8084,
      "▁low": 8085,
      "▁ler,": 8086,
      "▁litt": 8087,
      "▁lwin": 8088,
      "▁sed": 8089,
      "▁sinn": 8090,
      "▁sus": 8091,
      "▁son,": 8092,
      "▁somaz": 8093,
      "ou,": 8094,
      "oure": 8095,
      "ouyon": 8096,
      "oubl": 8097,
      "▁thin": 8098,
      "▁aud": 8099,
      "▁dying": 8100,
      "orek": 8101,
      "orough": 8102,
      "▁ko": 8103,
      "▁kes": 8104,
      "▁kour": 8105,
      "▁kus": 8106,
      "▁kouler": 8107,
      "▁kredi": 8108,
      "ise,": 8109,
      "▁bay": 8110,
      "▁bord": 8111,
      "▁burn": 8112,
      "ates,": 8113,
      "arke": 8114,
      "▁fo": 8115,
      "▁fit": 8116,
      "▁fine": 8117,
      "▁winter": 8118,
      "▁mad": 8119,
      "▁map": 8120,
      "▁mans": 8121,
      "▁mur": 8122,
      "▁merit": 8123,
      "itat": 8124,
      "itim": 8125,
      "ite.F": 8126,
      "ite.O": 8127,
      "itable": 8128,
      "alem": 8129,
      "al.T": 8130,
      "al.In": 8131,
      "alism": 8132,
      "e.\"": 8133,
      "e.an": 8134,
      "e.af": 8135,
      "asy": 8136,
      "asin": 8137,
      "asman": 8138,
      "▁hers": 8139,
      "▁hair": 8140,
      "▁higher": 8141,
      "▁cal": 8142,
      "▁cure": 8143,
      "▁cake": 8144,
      "▁cause": 8145,
      "▁crim": 8146,
      "▁curing": 8147,
      "▁court": 8148,
      "ed.In": 8149,
      "▁env": 8150,
      "ing.S": 8151,
      "etro": 8152,
      "et.G": 8153,
      "ims": 8154,
      "imil": 8155,
      "roz": 8156,
      "rove": 8157,
      "ilsion": 8158,
      "ileg": 8159,
      "▁ns": 8160,
      "▁non,": 8161,
      "▁nose": 8162,
      "▁nice": 8163,
      "▁nwit": 8164,
      "▁national": 8165,
      "▁nasyonal": 8166,
      "ir.K": 8167,
      "irth": 8168,
      "irty": 8169,
      "▁zep": 8170,
      "▁zuti": 8171,
      "elin": 8172,
      "el.G": 8173,
      "elief": 8174,
      "ole,": 8175,
      "▁lies": 8176,
      "▁lift": 8177,
      "▁gold": 8178,
      "▁guvern": 8179,
      "▁kids": 8180,
      "riot": 8181,
      "ries,": 8182,
      "rief": 8183,
      "om,": 8184,
      "avern": 8185,
      "▁enn-de": 8186,
      "ay.K": 8187,
      "apli": 8188,
      "apitalist": 8189,
      "▁requ": 8190,
      "▁rearing": 8191,
      ".Tan": 8192,
      ".Tom": 8193,
      ".Tand": 8194,
      ".Tous": 8195,
      ".Trick": 8196,
      "icle": 8197,
      "izir": 8198,
      "ize.S": 8199,
      "izier": 8200,
      ".San": 8201,
      ".Sis": 8202,
      ".Sam": 8203,
      ".Sun": 8204,
      ".Sert": 8205,
      ".Slow": 8206,
      ".Sapit": 8207,
      "stand": 8208,
      "lekt": 8209,
      "▁laid": 8210,
      "▁lack": 8211,
      "▁lafor": 8212,
      ".Lo": 8213,
      ".Lans": 8214,
      ".Last": 8215,
      ".Lef": 8216,
      ".Local": 8217,
      "▁danc": 8218,
      "▁dant": 8219,
      "ver,": 8220,
      "antik": 8221,
      "antman": 8222,
      ".Mis": 8223,
      ".Mand": 8224,
      ".Mwa": 8225,
      ".Moris": 8226,
      ".Mark": 8227,
      "enter": 8228,
      "▁peasant": 8229,
      ".Pr": 8230,
      ".Pan": 8231,
      ".Pran": 8232,
      ".Prom": 8233,
      ".Pret": 8234,
      ".Park": 8235,
      "id,": 8236,
      "▁sa.": 8237,
      "▁sac": 8238,
      "▁saz": 8239,
      "▁sagren": 8240,
      "anser": 8241,
      "▁whip": 8242,
      "az.B": 8243,
      "▁vom": 8244,
      "akl": 8245,
      "▁depl": 8246,
      "▁deor,": 8247,
      ".Der": 8248,
      ".Din": 8249,
      ".Den": 8250,
      ".Ban": 8251,
      ".Bour": 8252,
      ".Boukou": 8253,
      ".Brid": 8254,
      ".Kond": 8255,
      ".Klas": 8256,
      "ctors": 8257,
      "▁Mé": 8258,
      "▁Me,": 8259,
      "▁Mok": 8260,
      "▁Mons": 8261,
      "▁Muri": 8262,
      "▁Mov": 8263,
      "▁Mala": 8264,
      "▁March": 8265,
      "▁Marde": 8266,
      "▁Mistry": 8267,
      "▁Mollie": 8268,
      "▁for,": 8269,
      "▁alok": 8270,
      "▁alinteryer": 8271,
      "▁sove": 8272,
      ".I’d": 8273,
      "utonom": 8274,
      "▁konv": 8275,
      "oute": 8276,
      ".Equ": 8277,
      ".Eth": 8278,
      ".Early": 8279,
      ".Epil": 8280,
      "ive.": 8281,
      "ivman": 8282,
      "ivo,": 8283,
      "▁rar": 8284,
      "▁rasion": 8285,
      "▁rather": 8286,
      "▁rabb": 8287,
      "▁rubb": 8288,
      "chron": 8289,
      "waf": 8290,
      "agu": 8291,
      "age.P": 8292,
      "agged": 8293,
      "opter": 8294,
      "opus": 8295,
      "▁ekl": 8296,
      "lare": 8297,
      "usi": 8298,
      "ussi": 8299,
      "▁stal": 8300,
      "▁state": 8301,
      "▁stret": 8302,
      "▁stock": 8303,
      "▁street": 8304,
      "▁steal": 8305,
      "▁you.The": 8306,
      "▁you're": 8307,
      "▁Si": 8308,
      "▁Sat": 8309,
      "▁Set": 8310,
      "▁Sec": 8311,
      "▁Sithan": 8312,
      "▁Script": 8313,
      "▁plot": 8314,
      "▁plore": 8315,
      "▁plore,": 8316,
      ".Cat": 8317,
      ".Count": 8318,
      ".Class": 8319,
      ".Clover": 8320,
      ".Cherpersonn:": 8321,
      ".Rot": 8322,
      ".Rak": 8323,
      ".Rob": 8324,
      ".Fri": 8325,
      ".Fert": 8326,
      ".Foot": 8327,
      "oulou": 8328,
      "▁Bé": 8329,
      "▁orig": 8330,
      "▁asire": 8331,
      "▁IS": 8332,
      "▁Im": 8333,
      "ezi,": 8334,
      "▁Lead": 8335,
      "▁Lamer": 8336,
      "ested": 8337,
      ".Ner": 8338,
      ".Nit": 8339,
      ".Nam": 8340,
      ".Non,": 8341,
      "▁dimal": 8342,
      "ument": 8343,
      "umbl": 8344,
      "▁are,": 8345,
      "▁areas": 8346,
      "ozi": 8347,
      "iego": 8348,
      "plement": 8349,
      "▁hearing": 8350,
      "▁ate": 8351,
      ".Off": 8352,
      ".Oh,": 8353,
      "▁expens": 8354,
      "▁exakt": 8355,
      "▁exerc": 8356,
      ".Gast": 8357,
      ".Great": 8358,
      ".Grav": 8359,
      ".Government": 8360,
      "▁Aven": 8361,
      "▁Americ": 8362,
      "oulder": 8363,
      "ipt": 8364,
      "ardo": 8365,
      "ards": 8366,
      "allow": 8367,
      "▁“p": 8368,
      "▁“the": 8369,
      "ustral": 8370,
      "▁aprop": 8371,
      "▁Polit": 8372,
      "ellent": 8373,
      "▁This": 8374,
      ".Inst": 8375,
      ".Invest": 8376,
      "asion.P": 8377,
      ".Zour": 8378,
      ".Zame": 8379,
      "▁manual": 8380,
      "artik": 8381,
      "▁sho": 8382,
      "▁allows": 8383,
      "e.Sak": 8384,
      "▁Food": 8385,
      "asting": 8386,
      "▁Can": 8387,
      "onsens": 8388,
      "▁gras": 8389,
      "quet": 8390,
      "▁ou.Mo": 8391,
      "ounce": 8392,
      "▁Konstit": 8393,
      "e.Pres": 8394,
      "▁prev": 8395,
      "irek": 8396,
      ".sup": 8397,
      ".spes": 8398,
      "▁kanar": 8399,
      "ureauc": 8400,
      "▁imans": 8401,
      "▁compl": 8402,
      "▁command": 8403,
      "▁reserve": 8404,
      "perty": 8405,
      "▁depas": 8406,
      "e.Kol": 8407,
      "e.Kom": 8408,
      "e.Kouma": 8409,
      "way,": 8410,
      "wayn": 8411,
      "e.Red": 8412,
      "ction,": 8413,
      "▁other,": 8414,
      "▁Do": 8415,
      "▁Day": 8416,
      "▁Diego": 8417,
      "▁polisyon": 8418,
      "▁Jonn": 8419,
      "▁Zak": 8420,
      "▁rig": 8421,
      "▁riye": 8422,
      "▁Mau": 8423,
      "▁jud": 8424,
      ".Very": 8425,
      "e.Ek": 8426,
      "▁intention": 8427,
      ".Ang": 8428,
      ".Animal": 8429,
      ".Anfet": 8430,
      ".Anmemtan": 8431,
      "▁lotel": 8432,
      "▁memory": 8433,
      "▁member": 8434,
      "▁prices": 8435,
      "▁amb": 8436,
      "▁buze,": 8437,
      "?We": 8438,
      "?Kuma": 8439,
      "grad": 8440,
      "selri": 8441,
      "efan": 8442,
      "▁mete": 8443,
      "▁university": 8444,
      "able.C": 8445,
      "ablisman": 8446,
      "▁primer": 8447,
      "▁spent": 8448,
      "▁spring": 8449,
      "▁spoke": 8450,
      "▁spekil": 8451,
      "e.For": 8452,
      ".tay": 8453,
      "▁lavi,": 8454,
      "▁demars": 8455,
      "▁demonst": 8456,
      "▁\"E": 8457,
      "▁herb": 8458,
      "▁lamor,": 8459,
      "▁anywhere": 8460,
      "▁labor": 8461,
      "▁labier": 8462,
      "▁laburer": 8463,
      "▁Welfare": 8464,
      "▁Wi!": 8465,
      "▁formel": 8466,
      "▁repla": 8467,
      "▁repran": 8468,
      "▁konpar": 8469,
      "▁konpoz": 8470,
      "▁lanvironnman": 8471,
      "▁desizyon": 8472,
      "▁quality": 8473,
      "▁queen": 8474,
      "▁fasilit": 8475,
      "ocrat": 8476,
      ".Str": 8477,
      ".Stay": 8478,
      "▁profic": 8479,
      ".Und": 8480,
      ".Use": 8481,
      ".Under": 8482,
      "▁conjunctural": 8483,
      "e.No": 8484,
      "ossip": 8485,
      ".Chairperson:": 8486,
      "▁tears": 8487,
      "rolog": 8488,
      "▁esay": 8489,
      "▁flat": 8490,
      "▁lasas": 8491,
      "▁lasant": 8492,
      "▁lasoup": 8493,
      "▁ankoler": 8494,
      "▁retret": 8495,
      "▁retablir": 8496,
      "▁brings": 8497,
      "▁sir.": 8498,
      "e.Wh": 8499,
      "?Don't": 8500,
      "?Dimann": 8501,
      "▁preserve": 8502,
      "ence.C": 8503,
      "▁liv-la": 8504,
      "ravind": 8505,
      "▁blow": 8506,
      "▁blessed": 8507,
      "▁Human": 8508,
      "▁looks": 8509,
      "▁right,": 8510,
      ".Konz": 8511,
      "▁back,": 8512,
      "▁zistwar,": 8513,
      "▁revini": 8514,
      "ernoula": 8515,
      "▁indistriyel": 8516,
      "arian": 8517,
      ".Trap": 8518,
      "▁putting": 8519,
      "▁organik": 8520,
      "▁doesn't": 8521,
      "▁express": 8522,
      "▁exprim": 8523,
      "▁events": 8524,
      "▁sakouy": 8525,
      ".Prov": 8526,
      "ensive": 8527,
      "▁groups,": 8528,
      "▁access": 8529,
      "▁morso": 8530,
      "▁capt": 8531,
      "▁happ": 8532,
      ".Rever": 8533,
      "▁lagrev": 8534,
      "?Have": 8535,
      "▁finan": 8536,
      "▁apre,": 8537,
      "▁koler": 8538,
      "▁kolez": 8539,
      "e.Zan": 8540,
      "▁lafreyer": 8541,
      "-sk": 8542,
      "?At": 8543,
      "▁swen": 8544,
      "▁well,": 8545,
      "▁element": 8546,
      "▁developing": 8547,
      "rezor": 8548,
      "▁ended": 8549,
      "▁finds": 8550,
      "▁finding": 8551,
      "▁protected": 8552,
      "-bar": 8553,
      "▁talked": 8554,
      ".Plan": 8555,
      "witch": 8556,
      "▁lalinn": 8557,
      "▁lalimier": 8558,
      ".Arm": 8559,
      "▁transport": 8560,
      "▁prive,": 8561,
      "▁plas,": 8562,
      "?Let": 8563,
      "ouzi": 8564,
      "▁Lalit’s": 8565,
      "▁rekonpans": 8566,
      ".Manm": 8567,
      ".Manip": 8568,
      "orkers": 8569,
      "▁frans": 8570,
      "▁workers,": 8571,
      "▁divan-d": 8572,
      "▁milye": 8573,
      "▁militer": 8574,
      "▁Trade": 8575,
      ".Conc": 8576,
      "▁grup,": 8577,
      "▁Government,": 8578,
      "▁Zanimoism": 8579,
      "▁deranz": 8580,
      "▁dilo,": 8581,
      "▁reality": 8582,
      "▁ladrog": 8583,
      "▁India": 8584,
      "▁moving": 8585,
      "▁region": 8586,
      "▁remain": 8587,
      "▁remained": 8588,
      "▁begun": 8589,
      "▁scal": 8590,
      "▁kumansman": 8591,
      "▁pasture": 8592,
      "▁birds": 8593,
      "▁empt": 8594,
      "▁emphas": 8595,
      "iferans": 8596,
      "▁burst": 8597,
      "▁reduction": 8598,
      "▁student": 8599,
      "▁teren": 8600,
      ".Does": 8601,
      ".akt": 8602,
      "▁silans": 8603,
      "▁azanda": 8604,
      "atisf": 8605,
      "▁certainly": 8606,
      ".abst": 8607,
      "?Pa": 8608,
      "?Par": 8609,
      "▁cheaper": 8610,
      "▁room.": 8611,
      "▁organization": 8612,
      "cycl": 8613,
      "▁commit": 8614,
      "▁re-al": 8615,
      "▁VRS": 8616,
      "▁lazourne": 8617,
      "▁head,": 8618,
      "▁shows": 8619,
      ".That’s": 8620,
      ".That's": 8621,
      "▁debates": 8622,
      "iverser": 8623,
      "iversal": 8624,
      "▁prosper": 8625,
      "▁master": 8626,
      ".Large": 8627,
      "▁promuvwar": 8628,
      "▁blocks": 8629,
      "attress": 8630,
      "▁charg": 8631,
      "▁himself,": 8632,
      "▁opening": 8633,
      "RIK": 8634,
      ".Diplom": 8635,
      "razy": 8636,
      "▁kouyon": 8637,
      "ashed": 8638,
      "▁guvernman,": 8639,
      "idential": 8640,
      "▁disturb": 8641,
      "▁followers": 8642,
      "porter": 8643,
      "▁potato": 8644,
      "▁signal": 8645,
      "▁cooked": 8646,
      "▁toulede": 8647,
      "▁freed": 8648,
      "▁creating": 8649,
      "▁creature": 8650,
      "▁creatures": 8651,
      "▁difficulties": 8652,
      "▁boys": 8653,
      "▁cutting": 8654,
      "issac": 8655,
      "▁globalisation": 8656,
      "▁galup": 8657,
      "▁institution": 8658,
      "▁increasing": 8659,
      "▁industry,": 8660,
      "inistry": 8661,
      ".Religious": 8662,
      "▁kapitalist,": 8663,
      "▁10%": 8664,
      "▁destruction": 8665,
      "▁banann": 8666,
      "▁occup": 8667,
      "▁likou": 8668,
      "▁liked": 8669,
      ".Dezyem": 8670,
      "▁bisiklet": 8671,
      "▁coffe": 8672,
      "▁cultural": 8673,
      "▁pretty": 8674,
      "▁textil,": 8675,
      "▁'Zanimo": 8676,
      "▁sovaz": 8677,
      "▁compuls": 8678,
      "▁fasilman": 8679,
      "▁York": 8680,
      "▁mills": 8681,
      "▁kondir": 8682,
      "▁place,": 8683,
      "▁souf": 8684,
      "▁soufer": 8685,
      "▁existing": 8686,
      "▁introduction": 8687,
      "▁proposes": 8688,
      "▁tusel": 8689,
      "▁mainly": 8690,
      "▁Meet": 8691,
      "▁konfli": 8692,
      "▁neighbours": 8693,
      "▁listwar,": 8694,
      "▁easily": 8695,
      ".Record": 8696,
      "▁tantativ": 8697,
      "▁pond,": 8698,
      "▁Europ": 8699,
      "▁repression": 8700,
      "▁sindikal": 8701,
      "▁generations": 8702,
      "▁idant": 8703,
      "▁kreasyon": 8704,
      "▁majority": 8705,
      "▁home,": 8706,
      "rifis": 8707,
      "▁exportasyon": 8708,
      "▁Repiblik": 8709,
      "▁snack": 8710,
      "egnman": 8711,
      "▁family,": 8712,
      "▁etidyan": 8713,
      "espri": 8714,
      "▁trakas": 8715,
      "▁objects": 8716,
      "▁Benjamin,": 8717,
      "▁total": 8718,
      "▁massive": 8719,
      "▁enterese": 8720,
      "olonial": 8721,
      "▁step,": 8722,
      "▁determinn": 8723,
      "▁equally": 8724,
      ".Ziska": 8725,
      "▁gramatin": 8726,
      "▁gramaten,": 8727,
      "▁Rs1": 8728,
      "▁natirelman": 8729,
      "▁tretman": 8730,
      "▁funeral": 8731,
      ".Zanimo": 8732,
      "▁hoofs": 8733,
      "▁treatment": 8734,
      "ouncil": 8735,
      "▁transformasyon": 8736,
      "▁lenz": 8737,
      "▁dangerous": 8738,
      ".Phot": 8739,
      "▁dimande": 8740,
      "▁Agaleg": 8741,
      "▁reservation": 8742,
      "▁oligarsi": 8743,
      "▁omwen": 8744,
      "operativ": 8745,
      "▁successful": 8746,
      "▁kontribisyon": 8747,
      "ROP": 8748,
      "▁affected": 8749,
      "▁ceremon": 8750,
      "▁Alli": 8751,
      "e.These": 8752,
      "▁contribution": 8753,
      "▁Special": 8754,
      "▁Speech": 8755,
      "▁monopoly": 8756,
      "▁correct": 8757,
      "▁fortun": 8758,
      "▁larme": 8759,
      "▁liberte": 8760,
      "▁Boxer,": 8761,
      "▁tranzisyonel": 8762,
      "▁destroyed": 8763,
      "▁furni": 8764,
      "▁witchcraft": 8765,
      "▁criticism": 8766,
      "▁vehic": 8767,
      "▁Galil": 8768,
      "▁Galile": 8769,
      "▁DIVER": 8770,
      "▁riban": 8771,
      "▁interesan": 8772,
      "▁[L": 8773,
      "▁lodyans": 8774,
      "▁thousands": 8775,
      "▁Language": 8776,
      "▁London": 8777,
      "▁Literacy": 8778,
      "▁etc.": 8779,
      "▁ot-nivo": 8780,
      "▁scientific": 8781,
      "▁kreatir": 8782,
      "▁SME’s": 8783,
      "▁Lekiri": 8784,
      "▁Percy": 8785,
      "▁Ratna": 8786,
      "▁Jugnauth,": 8787,
      "▁agro-indust": 8788,
      "▁Resort": 8789,
      "▁solidar": 8790,
      "▁witness": 8791,
      "▁strike": 8792,
      "▁Limanite": 8793,
      "▁battle": 8794,
      "-shirt": 8795,
      "▁lokazyon": 8796,
      "▁newspapers": 8797,
      "▁slept": 8798,
      "▁fennsifer": 8799,
      ".Kumsa": 8800,
      "▁Baissac": 8801,
      "▁depresyasyon": 8802,
      "▁akseler": 8803,
      "▁labutik": 8804,
      "▁elephant": 8805,
      "▁democratic": 8806,
      "▁Elizabeth": 8807,
      "Let’s": 8808,
      "▁KM/H": 8809,
      "▁answers": 8810,
      "▁lennmi": 8811,
      "▁tifi,": 8812,
      "▁vakans": 8813,
      "economic": 8814,
      "▁consequences": 8815,
      "▁littl": 8816,
      "▁herself": 8817,
      "▁Sithanen,": 8818,
      "▁Konstitisyon": 8819,
      "▁divan-divan": 8820,
      "'nn": 8821,
      "-3": 8822,
      "-a": 8823,
      "-ekrir": 8824,
      ".•": 8825,
      ".he": 8826,
      ".act": 8827,
      "/her": 8828,
      "5.": 8829,
      "AZ": 8830,
      "AIN": 8831,
      "ATION": 8832,
      "DS": 8833,
      "DER": 8834,
      "IV": 8835,
      "Pa": 8836,
      "Que": 8837,
      "So": 8838,
      "TH": 8839,
      "We": 8840,
      "YE": 8841,
      "ao": 8842,
      "ait": 8843,
      "a.M": 8844,
      "aid": 8845,
      "a.F": 8846,
      "a.G": 8847,
      "byen": 8848,
      "book": 8849,
      "bisid": 8850,
      "borl": 8851,
      "car": 8852,
      "cut": 8853,
      "cast": 8854,
      "cision": 8855,
      "dings": 8856,
      "deter": 8857,
      "e”": 8858,
      "eel": 8859,
      "fet,": 8860,
      "hairperson:": 8861,
      "io": 8862,
      "iro": 8863,
      "i.A": 8864,
      "iok": 8865,
      "i.H": 8866,
      "i.V": 8867,
      "iary": 8868,
      "ixt": 8869,
      "lik": 8870,
      "lation": 8871,
      "lok": 8872,
      "le.L": 8873,
      "le.F": 8874,
      "like": 8875,
      "mor": 8876,
      "mars": 8877,
      "pit": 8878,
      "pere": 8879,
      "pie": 8880,
      "rr": 8881,
      "rag": 8882,
      "rill": 8883,
      "s”": 8884,
      "son": 8885,
      "sha": 8886,
      "ton": 8887,
      "tar": 8888,
      "tiz": 8889,
      "tiliz": 8890,
      "wise": 8891,
      "wins": 8892,
      "yd": 8893,
      "yor": 8894,
      "y.C": 8895,
      "zik": 8896,
      "▁0": 8897,
      "▁ion": 8898,
      "an.In": 8899,
      "▁tul": 8900,
      "▁tend": 8901,
      "▁twa,": 8902,
      "erer": 8903,
      "erite": 8904,
      "onor": 8905,
      "onis": 8906,
      "one.S": 8907,
      "one.P": 8908,
      "one.B": 8909,
      "inan": 8910,
      "in.K": 8911,
      "in.V": 8912,
      "inated": 8913,
      "▁piti": 8914,
      "▁pini": 8915,
      "▁pansyon": 8916,
      "▁psych": 8917,
      "▁prison": 8918,
      "enz": 8919,
      "▁lof": 8920,
      "▁lari": 8921,
      "▁louvraz": 8922,
      "▁sang": 8923,
      "▁slop": 8924,
      "▁scre": 8925,
      "▁separe": 8926,
      "▁thick": 8927,
      "▁thorough": 8928,
      "▁a-": 8929,
      "▁aw": 8930,
      "▁ach": 8931,
      "▁aki": 8932,
      "▁aff": 8933,
      "▁aware": 8934,
      "▁ded": 8935,
      "▁die": 8936,
      "▁drove": 8937,
      "ores": 8938,
      "orab": 8939,
      "▁ker": 8940,
      "▁kiman": 8941,
      "▁kli": 8942,
      "▁kestion": 8943,
      "▁klim": 8944,
      "▁kourt": 8945,
      "rees": 8946,
      "re.K": 8947,
      "▁bow": 8948,
      "▁bous": 8949,
      "▁ball": 8950,
      "▁bell": 8951,
      "▁banb": 8952,
      "▁bwat": 8953,
      "▁bwi": 8954,
      "▁brick": 8955,
      "▁beds": 8956,
      "▁babies": 8957,
      "▁breath": 8958,
      "▁thes": 8959,
      "ate.s": 8960,
      "atically": 8961,
      "▁furi": 8962,
      "▁fidel": 8963,
      "▁fondamantal": 8964,
      "▁wine": 8965,
      "▁waves": 8966,
      "▁mit": 8967,
      "▁mons": 8968,
      "▁mud": 8969,
      "▁minis": 8970,
      "▁mouse": 8971,
      "▁money,": 8972,
      "ito": 8973,
      "ites": 8974,
      "itiz": 8975,
      "ite.D": 8976,
      "alu": 8977,
      "alet": 8978,
      "al.C": 8979,
      "ala,": 8980,
      "ese,": 8981,
      "esi,": 8982,
      "asons": 8983,
      "ote,": 8984,
      "▁tight": 8985,
      "▁ti-b": 8986,
      "▁hell": 8987,
      "▁haven": 8988,
      "▁od": 8989,
      "▁eth": 8990,
      "▁cand": 8991,
      "▁cogn": 8992,
      "▁covered": 8993,
      "ed.T": 8994,
      "▁enpresion": 8995,
      "▁environment": 8996,
      "inger": 8997,
      "et.S": 8998,
      "imant": 8999,
      "ime,": 9000,
      "imes,": 9001,
      "iments": 9002,
      "role": 9003,
      "ilet": 9004,
      "ilib": 9005,
      "ilte": 9006,
      "ileng": 9007,
      "▁ofisie": 9008,
      "▁non-": 9009,
      "irb": 9010,
      "▁zard": 9011,
      "▁zone": 9012,
      "elv": 9013,
      "olv": 9014,
      "olar": 9015,
      "olet": 9016,
      "▁li:": 9017,
      "▁lider": 9018,
      "amz": 9019,
      "aming": 9020,
      "amel": 9021,
      "rict": 9022,
      "rifi": 9023,
      "rific": 9024,
      "omen": 9025,
      "avery": 9026,
      "▁enn,": 9027,
      "ades": 9028,
      "apital": 9029,
      "▁reaz": 9030,
      "▁reach": 9031,
      "▁rebu": 9032,
      "▁reasons": 9033,
      "emenn": 9034,
      "emale": 9035,
      "annd": 9036,
      ".Ty": 9037,
      ".Tor": 9038,
      ".Tre": 9039,
      ".Tar": 9040,
      ".Test": 9041,
      ".Tran": 9042,
      ".Tell": 9043,
      ".Tra": 9044,
      "icat": 9045,
      "icides": 9046,
      ".Som": 9047,
      ".Sus": 9048,
      "stans": 9049,
      "▁la.E": 9050,
      ".Lem": 9051,
      ".Liv": 9052,
      ".Lep": 9053,
      ".Lare": 9054,
      "▁danz": 9055,
      "verse": 9056,
      ".Mit": 9057,
      ".Mag": 9058,
      ".Mort": 9059,
      ".Mater": 9060,
      ".Mars": 9061,
      ".Mass": 9062,
      ".Pour": 9063,
      ".Poul": 9064,
      ".Pip": 9065,
      ".Past": 9066,
      ".Pred": 9067,
      ".Print": 9068,
      "idal": 9069,
      "idere": 9070,
      "eks": 9071,
      "▁saki": 9072,
      ".Aunt": 9073,
      "ourdi": 9074,
      "azing": 9075,
      "az.F": 9076,
      "▁beach": 9077,
      "inng": 9078,
      "inn.B": 9079,
      "inn.K": 9080,
      "▁zot:": 9081,
      "▁zot.Li": 9082,
      "▁zot.Zot": 9083,
      "▁vine": 9084,
      "▁vadire": 9085,
      "aka": 9086,
      "▁deer": 9087,
      "▁defors": 9088,
      ".Day": 9089,
      ".Dark": 9090,
      ".Draw": 9091,
      ".Dynam": 9092,
      ".Bus": 9093,
      ".Book": 9094,
      ".Boy": 9095,
      ".Baby": 9096,
      ".Bidze": 9097,
      ".Kout": 9098,
      ".Kriz": 9099,
      ".Korn": 9100,
      "▁My": 9101,
      "▁Mol": 9102,
      "▁Mod": 9103,
      "▁Moz": 9104,
      "▁Muvman": 9105,
      "▁Montagn": 9106,
      "▁MAU": 9107,
      "▁Ministry": 9108,
      "▁pound": 9109,
      "▁alors": 9110,
      "man.D": 9111,
      "▁tris": 9112,
      "▁truth": 9113,
      "▁tranble": 9114,
      "istent": 9115,
      "istik,": 9116,
      "▁proc": 9117,
      "▁progre": 9118,
      "ifizans": 9119,
      ".Il": 9120,
      ".Idi": 9121,
      ".I'll": 9122,
      ".I’m": 9123,
      "urally": 9124,
      "utch": 9125,
      "▁konplis": 9126,
      "▁konfortab": 9127,
      "andiz": 9128,
      ".Ef": 9129,
      ".Econom": 9130,
      "ability": 9131,
      "ab.Ink": 9132,
      "▁ring": 9133,
      "▁range": 9134,
      "wagn": 9135,
      "osy": 9136,
      "ages,": 9137,
      "agger": 9138,
      "▁pares": 9139,
      "igation": 9140,
      "igaret": 9141,
      "▁ekri": 9142,
      "▁ekute": 9143,
      "▁moon": 9144,
      "usman": 9145,
      "ers’": 9146,
      "▁stre": 9147,
      "▁stil": 9148,
      "▁stasion": 9149,
      "▁you’re": 9150,
      "ereg": 9151,
      "erez": 9152,
      "ation.Ex": 9153,
      "▁ST": 9154,
      "▁Sk": 9155,
      "▁San": 9156,
      "▁Sol": 9157,
      "▁Sant": 9158,
      "▁Segn": 9159,
      "▁Squid": 9160,
      "▁Siti-Ini": 9161,
      "▁parent": 9162,
      "▁parcel": 9163,
      "▁waste": 9164,
      ".Card": 9165,
      ".Cris": 9166,
      ".Counter": 9167,
      ".Rat": 9168,
      ".Rod": 9169,
      ".Rib": 9170,
      ".Raf": 9171,
      ".Fan": 9172,
      ".Fot": 9173,
      ".Fant": 9174,
      ".Fun": 9175,
      ".Fos": 9176,
      ".Foul": 9177,
      ".Fail": 9178,
      ".Fals": 9179,
      ".Folklore": 9180,
      "▁seek": 9181,
      "ulous": 9182,
      "ulate": 9183,
      "▁Bay": 9184,
      "▁Bizen": 9185,
      "▁Brus": 9186,
      "▁I’ll": 9187,
      "▁LA": 9188,
      "▁LE": 9189,
      "▁Lar": 9190,
      "▁Lion": 9191,
      "▁Lez": 9192,
      "▁Little": 9193,
      "▁Lair": 9194,
      "▁Law": 9195,
      "▁Lady": 9196,
      "estin": 9197,
      ".Nor": 9198,
      ".Night": 9199,
      ".No-": 9200,
      "ums": 9201,
      "umped": 9202,
      "▁arete": 9203,
      ".Their": 9204,
      "ontin": 9205,
      "ontane": 9206,
      ".Would": 9207,
      ".Ward": 9208,
      ".Woman": 9209,
      ".Wedding": 9210,
      ".Ov": 9211,
      ".Orig": 9212,
      ".Overt": 9213,
      "ranze": 9214,
      ".Hor": 9215,
      "▁arsiv": 9216,
      "inded": 9217,
      "cean": 9218,
      "ceiv": 9219,
      "▁docum": 9220,
      "unny": 9221,
      "anging": 9222,
      "angard": 9223,
      ".Glob": 9224,
      ".Games": 9225,
      "▁notice": 9226,
      "▁worse": 9227,
      "▁Apart": 9228,
      "▁Autonom": 9229,
      "▁sufer": 9230,
      "▁subsid": 9231,
      "▁“D": 9232,
      "▁“in": 9233,
      "▁abdom": 9234,
      "ongrat": 9235,
      "▁Pol": 9236,
      "▁Premie": 9237,
      "▁Premye": 9238,
      "▁President": 9239,
      "▁Pravind": 9240,
      "ater,": 9241,
      "▁will,": 9242,
      "ellow": 9243,
      "▁Tou": 9244,
      "▁Trap": 9245,
      "▁Textil": 9246,
      "▁chos": 9247,
      "▁challeng": 9248,
      "asion.Kons": 9249,
      ".Zwe": 9250,
      "▁manage": 9251,
      "portun": 9252,
      "▁ship": 9253,
      "e.Tu": 9254,
      "e.Der": 9255,
      "e.Dim": 9256,
      "e.Sir": 9257,
      "e.Spe": 9258,
      "e.Sip": 9259,
      "areless": 9260,
      "rael": 9261,
      "rawn": 9262,
      "▁avoid": 9263,
      "▁kontab": 9264,
      "▁kontenir": 9265,
      "aste": 9266,
      "astrop": 9267,
      "▁ago,": 9268,
      "▁agenda": 9269,
      "-la.": 9270,
      "-la.Li": 9271,
      "▁Car": 9272,
      "▁CON": 9273,
      "▁Corpor": 9274,
      "ciety": 9275,
      "▁disord": 9276,
      "▁ought": 9277,
      "ity,": 9278,
      "ity.H": 9279,
      "▁Kaya": 9280,
      "e.Pat": 9281,
      "e.Pal": 9282,
      "e.Part": 9283,
      "▁ups": 9284,
      ".san": 9285,
      ".sos": 9286,
      "ateful": 9287,
      "oumsamem": 9288,
      "▁Nov": 9289,
      "▁Riv": 9290,
      "▁Research": 9291,
      "▁Russi": 9292,
      "▁sek,": 9293,
      "▁themsel": 9294,
      "▁them.They": 9295,
      "▁resanti": 9296,
      "▁resanble": 9297,
      "rya": 9298,
      "▁depar": 9299,
      "▁depend": 9300,
      "▁depends": 9301,
      "e.Av": 9302,
      "e.Are": 9303,
      "▁marye,": 9304,
      "▁EK": 9305,
      "▁Ex": 9306,
      "▁Ero,": 9307,
      "▁(and": 9308,
      "▁(ki": 9309,
      "▁(for": 9310,
      ".Mov": 9311,
      ".Most": 9312,
      "klir": 9313,
      "klam": 9314,
      "e.Kind": 9315,
      "armi": 9316,
      "ogether": 9317,
      "▁others,": 9318,
      "onomi,": 9319,
      "▁perhaps": 9320,
      "▁Drwa": 9321,
      "▁Dario": 9322,
      "▁kumanse": 9323,
      "▁poll": 9324,
      "▁one-": 9325,
      "▁17": 9326,
      "▁Jean": 9327,
      "▁January": 9328,
      "e.Bat": 9329,
      "renger": 9330,
      "▁prodikter": 9331,
      "▁jok": 9332,
      "inier": 9333,
      "▁tou,": 9334,
      "▁tou:": 9335,
      "▁touch": 9336,
      "egobin": 9337,
      "▁koumanse": 9338,
      "aryaz": 9339,
      "e.Ext": 9340,
      ".Anplis": 9341,
      ".Anfet,": 9342,
      "▁lotorite": 9343,
      "▁lekonomi,": 9344,
      "▁myself": 9345,
      "ertin": 9346,
      "anzan": 9347,
      "▁prize": 9348,
      "▁lapey": 9349,
      "▁laptop": 9350,
      "▁buze": 9351,
      "liament": 9352,
      "▁aksion": 9353,
      "▁akadem": 9354,
      "▁servants": 9355,
      "▁services": 9356,
      "▁santé": 9357,
      "▁letters": 9358,
      "acked": 9359,
      "able.Un": 9360,
      "▁somebody": 9361,
      "isyon,": 9362,
      "▁spot": 9363,
      "▁spell": 9364,
      "▁space": 9365,
      "e.Fer": 9366,
      "▁lavant": 9367,
      "▁know,": 9368,
      "▁knowing": 9369,
      "▁lakor": 9370,
      "▁lamp": 9371,
      "▁lamwat": 9372,
      "ism.F": 9373,
      "▁twice": 9374,
      "▁Wh": 9375,
      "▁konpart": 9376,
      "versman": 9377,
      "▁contain": 9378,
      "▁contract": 9379,
      "▁contact": 9380,
      "▁lane,": 9381,
      "▁laniverser": 9382,
      "intenir": 9383,
      "▁bien,": 9384,
      "▁fash": 9385,
      "ecess": 9386,
      "ocracy": 9387,
      ".Start": 9388,
      "▁personal": 9389,
      "▁person’s": 9390,
      "obil": 9391,
      "▁profesion": 9392,
      "▁shepher": 9393,
      ".Us": 9394,
      "▁2000": 9395,
      "▁conversion": 9396,
      "e.Ne": 9397,
      "e.Nu": 9398,
      "e.Neg": 9399,
      "ance.C": 9400,
      ".Exkiz": 9401,
      ".Christ": 9402,
      "▁teeth": 9403,
      "▁planter,": 9404,
      "▁flower": 9405,
      "▁flung": 9406,
      "▁relative": 9407,
      "▁problem.": 9408,
      "ierman": 9409,
      "▁lasosyasyon": 9410,
      "▁children's": 9411,
      "▁retirement": 9412,
      "e.Ot": 9413,
      "▁sirman": 9414,
[...]
