{
  "version": "1.0",
  "truncation": null,
  "padding": null,
  "added_tokens": [
    {
      "id": 0,
      "content": "<bos>",
      "single_word": false,
      "lstrip": false,
      "rstrip": false,
      "normalized": false,
      "special": true
    },
    {
      "id": 1,
      "content": "<pad>",
      "single_word": false,
      "lstrip": false,
      "rstrip": false,
      "normalized": false,
      "special": true
    },
    {
      "id": 2,
      "content": "</s>",
      "single_word": false,
      "lstrip": false,
      "rstrip": false,
      "normalized": false,
      "special": true
    },
    {
      "id": 3,
      "content": "<unk>",
      "single_word": false,
      "lstrip": false,
      "rstrip": false,
      "normalized": false,
      "special": true
    },
    {
      "id": 4,
      "content": "<cls>",
      "single_word": false,
      "lstrip": false,
      "rstrip": false,
      "normalized": false,
      "special": true
    },
    {
      "id": 5,
      "content": "<sep>",
      "single_word": false,
      "lstrip": false,
      "rstrip": false,
      "normalized": false,
      "special": true
    },
    {
      "id": 6,
      "content": "<mask>",
      "single_word": false,
      "lstrip": false,
      "rstrip": false,
      "normalized": false,
      "special": true
    }
  ],
  "normalizer": {
    "type": "NFKC"
  },
  "pre_tokenizer": {
    "type": "Metaspace",
    "replacement": "▁",
    "add_prefix_space": true,
    "prepend_scheme": "always"
  },
  "post_processor": null,
  "decoder": {
    "type": "Metaspace",
    "replacement": "▁",
    "add_prefix_space": true,
    "prepend_scheme": "always"
  },
  "model": {
    "type": "BPE",
    "dropout": null,
    "unk_token": "<unk>",
    "continuing_subword_prefix": null,
    "end_of_word_suffix": null,
    "fuse_unk": false,
    "byte_fallback": false,
    "vocab": {
      "<bos>": 0,
      "<pad>": 1,
      "</s>": 2,
      "<unk>": 3,
      "<cls>": 4,
      "<sep>": 5,
      "<mask>": 6,
      "\t": 7,
      "\n": 8,
      "0": 9,
      "1": 10,
      "2": 11,
      "3": 12,
      "4": 13,
      "5": 14,
      "6": 15,
      "7": 16,
      "8": 17,
      "9": 18,
      "a": 19,
      "b": 20,
      "c": 21,
      "d": 22,
      "e": 23,
      "f": 24,
      "g": 25,
      "h": 26,
      "i": 27,
      "j": 28,
      "k": 29,
      "l": 30,
      "m": 31,
      "n": 32,
      "o": 33,
      "p": 34,
      "q": 35,
      "r": 36,
      "s": 37,
      "t": 38,
      "u": 39,
      "v": 40,
      "w": 41,
      "x": 42,
      "y": 43,
      "z": 44,
      "▁": 45,
      "▁\n": 46,
      "an": 47,
      "▁t": 48,
      "▁l": 49,
      "▁p": 50,
      "er": 51,
      "▁s": 52,
      "on": 53,
      "▁d": 54,
      "ou": 55,
      "in": 56,
      "en": 57,
      "▁a": 58,
      "▁m": 59,
      "re": 60,
      "▁k": 61,
      "▁b": 62,
      "▁th": 63,
      "is": 64,
      "▁f": 65,
      "es": 66,
      "or": 67,
      "ar": 68,
      "it": 69,
      "▁c": 70,
      "▁e": 71,
      "at": 72,
      "▁the": 73,
      "▁w": 74,
      "ot": 75,
      "al": 76,
      "▁z": 77,
      "as": 78,
      "▁an": 79,
      "▁n": 80,
      "il": 81,
      "▁h": 82,
      "▁en": 83,
      "▁la": 84,
      "▁g": 85,
      "▁de": 86,
      "le": 87,
      "▁ti": 88,
      "▁li": 89,
      "▁o": 90,
      "et": 91,
      "ir": 92,
      "om": 93,
      "▁v": 94,
      "▁in": 95,
      "ion": 96,
      "▁re": 97,
      "im": 98,
      "▁to": 99,
      "el": 100,
      "ed": 101,
      "ro": 102,
      "▁ki": 103,
      "ing": 104,
      "ra": 105,
      "ri": 106,
      "▁enn": 107,
      "▁sa": 108,
      "▁of": 109,
      "ann": 110,
      "▁u": 111,
      "▁dan": 112,
      "ol": 113,
      "ent": 114,
      "▁zot": 115,
      "▁le": 116,
      "ve": 117,
      "▁pou": 118,
      "▁and": 119,
      "ant": 120,
      "am": 121,
      "iz": 122,
      "se": 123,
      "▁mo": 124,
      "ie": 125,
      "ay": 126,
      "▁pe": 127,
      "inn": 128,
      "qu": 129,
      "ic": 130,
      "▁se": 131,
      "ur": 132,
      "ad": 133,
      "te": 134,
      "ap": 135,
      "▁wh": 136,
      "▁al": 137,
      "▁bann": 138,
      "us": 139,
      "▁so": 140,
      "man": 141,
      "id": 142,
      "▁y": 143,
      "our": 144,
      "ont": 145,
      "▁j": 146,
      "ik": 147,
      "wa": 148,
      "em": 149,
      "ver": 150,
      "▁par": 151,
      "ter": 152,
      "▁pa": 153,
      "▁be": 154,
      "ch": 155,
      "▁r": 156,
      "ere": 157,
      "▁pl": 158,
      "ut": 159,
      "▁pro": 160,
      "if": 161,
      "and": 162,
      "az": 163,
      "out": 164,
      "▁is": 165,
      "ce": 166,
      "▁on": 167,
      "ans": 168,
      "ous": 169,
      "ow": 170,
      "ag": 171,
      "ers": 172,
      "ig": 173,
      "▁un": 174,
      "▁for": 175,
      "▁et": 176,
      "onn": 177,
      "▁pu": 178,
      "ite": 179,
      "▁ek": 180,
      "▁qu": 181,
      "os": 182,
      "▁st": 183,
      "ab": 184,
      "▁that": 185,
      "un": 186,
      "ct": 187,
      "▁as": 188,
      "est": 189,
      "▁finn": 190,
      "yon": 191,
      "▁fer": 192,
      "▁you": 193,
      "▁lor": 194,
      "res": 195,
      "▁ch": 196,
      "▁me": 197,
      "ill": 198,
      "▁les": 199,
      "ist": 200,
      "▁it": 201,
      "▁ena": 202,
      "op": 203,
      "ak": 204,
      "▁he": 205,
      "ation": 206,
      "▁tr": 207,
      "▁dir": 208,
      "av": 209,
      "ort": 210,
      "▁kon": 211,
      "ip": 212,
      "▁dim": 213,
      "ye": 214,
      "me": 215,
      "▁ap": 216,
      "ok": 217,
      "▁ar": 218,
      "la": 219,
      "iv": 220,
      "▁ne": 221,
      "pe": 222,
      "▁or": 223,
      "oul": 224,
      "▁ex": 225,
      "ki": 226,
      "ien": 227,
      "▁tra": 228,
      "ez": 229,
      "ly": 230,
      "▁com": 231,
      "war": 232,
      "ul": 233,
      "▁ma": 234,
      "▁was": 235,
      "oz": 236,
      "oun": 237,
      "ran": 238,
      "▁at": 239,
      "▁dis": 240,
      "od": 241,
      "enn": 242,
      "▁they": 243,
      "ire": 244,
      "▁man": 245,
      "st": 246,
      "▁mar": 247,
      "▁su": 248,
      "her": 249,
      "▁i": 250,
      "▁il": 251,
      "▁ra": 252,
      "▁des": 253,
      "▁ab": 254,
      "▁sh": 255,
      "▁nou": 256,
      "au": 257,
      "▁do": 258,
      "ate": 259,
      "ith": 260,
      "▁zan": 261,
      "▁pre": 262,
      "▁are": 263,
      "ard": 264,
      "▁ser": 265,
      "▁kap": 266,
      "pl": 267,
      "ond": 268,
      "▁fr": 269,
      "▁kou": 270,
      "▁ou": 271,
      "asion": 272,
      "▁kan": 273,
      "um": 274,
      "▁this": 275,
      "ave": 276,
      "▁with": 277,
      "▁ave": 278,
      "▁ro": 279,
      "ck": 280,
      "▁tou": 281,
      "fer": 282,
      "▁pas": 283,
      "▁ler": 284,
      "▁not": 285,
      "ib": 286,
      "ons": 287,
      "ge": 288,
      "ment": 289,
      "ind": 290,
      "▁go": 291,
      "gh": 292,
      "▁pr": 293,
      "▁res": 294,
      "▁lan": 295,
      "▁kapav": 296,
      "▁es": 297,
      "▁will": 298,
      "ze": 299,
      "▁gr": 300,
      "▁we": 301,
      "ater": 302,
      "▁all": 303,
      "▁biz": 304,
      "▁nu": 305,
      "ier": 306,
      "▁im": 307,
      "ezi": 308,
      "end": 309,
      "▁jes": 310,
      "▁wor": 311,
      "▁kont": 312,
      "ne": 313,
      "vi": 314,
      "one": 315,
      "ong": 316,
      "▁have": 317,
      "▁jesus": 318,
      "▁had": 319,
      "▁fa": 320,
      "▁dep": 321,
      "▁per": 322,
      "ke": 323,
      "▁av": 324,
      "▁ot": 325,
      "de": 326,
      "▁zezi": 327,
      "ore": 328,
      "ell": 329,
      "▁trav": 330,
      "▁kot": 331,
      "▁but": 332,
      "▁rep": 333,
      "▁what": 334,
      "unn": 335,
      "▁si": 336,
      "ould": 337,
      "ess": 338,
      "▁his": 339,
      "▁ag": 340,
      "▁am": 341,
      "▁part": 342,
      "ole": 343,
      "▁by": 344,
      "port": 345,
      "ine": 346,
      "asyon": 347,
      "▁vous": 348,
      "ure": 349,
      "ust": 350,
      "ize": 351,
      "si": 352,
      "are": 353,
      "per": 354,
      "▁dimunn": 355,
      "ini": 356,
      "que": 357,
      "▁vinn": 358,
      "▁dans": 359,
      "ome": 360,
      "▁pers": 361,
      "▁met": 362,
      "ain": 363,
      "▁mor": 364,
      "▁when": 365,
      "▁travay": 366,
      "ide": 367,
      "▁ri": 368,
      "ile": 369,
      "▁let": 370,
      "▁get": 371,
      "▁from": 372,
      "sion": 373,
      "yer": 374,
      "ame": 375,
      "ma": 376,
      "▁mal": 377,
      "▁est": 378,
      "age": 379,
      "way": 380,
      "▁lak": 381,
      "▁dev": 382,
      "▁who": 383,
      "▁ak": 384,
      "▁peop": 385,
      "▁bon": 386,
      "all": 387,
      "▁avek": 388,
      "pt": 389,
      "▁their": 390,
      "▁lo": 391,
      "▁there": 392,
      "▁were": 393,
      "ait": 394,
      "▁mwa": 395,
      "ise": 396,
      "▁te": 397,
      "ble": 398,
      "▁bo": 399,
      "agn": 400,
      "ux": 401,
      "▁pour": 402,
      "▁que": 403,
      "▁people": 404,
      "ord": 405,
      "ial": 406,
      "▁dif": 407,
      "▁con": 408,
      "og": 409,
      "▁ver": 410,
      "▁mem": 411,
      "▁bu": 412,
      "▁them": 413,
      "les": 414,
      "▁ad": 415,
      "▁lab": 416,
      "▁cl": 417,
      "▁lot": 418,
      "iti": 419,
      "▁bou": 420,
      "▁up": 421,
      "▁dimoun": 422,
      "▁bizin": 423,
      "art": 424,
      "▁donn": 425,
      "oup": 426,
      "▁bien": 427,
      "ght": 428,
      "▁one": 429,
      "▁po": 430,
      "ast": 431,
      "▁pri": 432,
      "ars": 433,
      "imo": 434,
      "ity": 435,
      "ens": 436,
      "▁ce": 437,
      "▁une": 438,
      "▁lek": 439,
      "▁trou": 440,
      "▁no": 441,
      "able": 442,
      "▁out": 443,
      "▁tu": 444,
      "▁zanimo": 445,
      "fe": 446,
      "ors": 447,
      "▁1": 448,
      "▁eski": 449,
      "▁int": 450,
      "ante": 451,
      "▁him": 452,
      "▁ev": 453,
      "▁work": 454,
      "▁lal": 455,
      "▁lez": 456,
      "ction": 457,
      "▁my": 458,
      "▁zis": 459,
      "▁lam": 460,
      "▁san": 461,
      "▁ob": 462,
      "der": 463,
      "▁seki": 464,
      "ake": 465,
      "▁can": 466,
      "▁lar": 467,
      "▁pol": 468,
      "igh": 469,
      "▁sp": 470,
      "▁dem": 471,
      "ement": 472,
      "▁fe": 473,
      "▁prop": 474,
      "du": 475,
      "▁your": 476,
      "ies": 477,
      "ry": 478,
      "ue": 479,
      "▁fl": 480,
      "ach": 481,
      "ive": 482,
      "orm": 483,
      "ase": 484,
      "▁af": 485,
      "▁sur": 486,
      "▁bl": 487,
      "▁br": 488,
      "▁gran": 489,
      "▁depi": 490,
      "▁kouma": 491,
      "▁fol": 492,
      "▁us": 493,
      "▁pli": 494,
      "▁bat": 495,
      "ign": 496,
      "fan": 497,
      "kl": 498,
      "yen": 499,
      "th": 500,
      "▁qui": 501,
      "▁lap": 502,
      "▁je": 503,
      "▁prof": 504,
      "iel": 505,
      "▁inter": 506,
      "ese": 507,
      "ical": 508,
      "ld": 509,
      "int": 510,
      "▁fam": 511,
      "vers": 512,
      "now": 513,
      "▁ter": 514,
      "▁laf": 515,
      "▁about": 516,
      "▁gagn": 517,
      "ich": 518,
      "cc": 519,
      "ision": 520,
      "ai": 521,
      "ep": 522,
      "mem": 523,
      "▁kom": 524,
      "▁ever": 525,
      "▁some": 526,
      "imal": 527,
      "▁pap": 528,
      "ish": 529,
      "▁zanfan": 530,
      "▁apre": 531,
      "▁las": 532,
      "ild": 533,
      "ille": 534,
      "▁far": 535,
      "▁el": 536,
      "di": 537,
      "ose": 538,
      "▁how": 539,
      "ink": 540,
      "ple": 541,
      "ds": 542,
      "▁lang": 543,
      "▁dit": 544,
      "▁animal": 545,
      "▁ret": 546,
      "▁which": 547,
      "▁pran": 548,
      "▁du": 549,
      "ret": 550,
      "▁has": 551,
      "oy": 552,
      "▁mont": 553,
      "ote": 554,
      "ime": 555,
      "ass": 556,
      "▁ant": 557,
      "ult": 558,
      "gan": 559,
      "▁pres": 560,
      "▁cont": 561,
      "▁said": 562,
      "ris": 563,
      "rik": 564,
      "▁kl": 565,
      "▁fo": 566,
      "ound": 567,
      "we": 568,
      "▁lezot": 569,
      "ance": 570,
      "▁say": 571,
      "kou": 572,
      "ru": 573,
      "▁mad": 574,
      "▁spe": 575,
      "onom": 576,
      "▁lav": 577,
      "▁like": 578,
      "ice": 579,
      "vern": 580,
      "ac": 581,
      "▁if": 582,
      "▁maur": 583,
      "▁long": 584,
      "ree": 585,
      "▁her": 586,
      "▁kum": 587,
      "▁then": 588,
      "ale": 589,
      "▁ils": 590,
      "▁sir": 591,
      "▁ub": 592,
      "▁mauriti": 593,
      "rit": 594,
      "▁gu": 595,
      "▁other": 596,
      "ram": 597,
      "wn": 598,
      "ary": 599,
      "▁koz": 600,
      "▁dez": 601,
      "▁disc": 602,
      "mans": 603,
      "▁dr": 604,
      "▁col": 605,
      "▁would": 606,
      "other": 607,
      "▁rev": 608,
      "ition": 609,
      "▁det": 610,
      "▁bec": 611,
      "▁been": 612,
      "▁moris": 613,
      "▁au": 614,
      "iman": 615,
      "00": 616,
      "▁ans": 617,
      "▁nap": 618,
      "▁pat": 619,
      "▁sou": 620,
      "▁med": 621,
      "▁mais": 622,
      "ight": 623,
      "▁kri": 624,
      "▁tw": 625,
      "uv": 626,
      "ence": 627,
      "▁konp": 628,
      "▁she": 629,
      "ins": 630,
      "ger": 631,
      "▁co": 632,
      "▁pos": 633,
      "iss": 634,
      "▁gro": 635,
      "▁sort": 636,
      "ings": 637,
      "be": 638,
      "▁ank": 639,
      "▁kal": 640,
      "▁time": 641,
      "▁rec": 642,
      "▁its": 643,
      "▁min": 644,
      "▁reg": 645,
      "▁son": 646,
      "▁bond": 647,
      "▁trouv": 648,
      "ack": 649,
      "▁child": 650,
      "▁now": 651,
      "ayn": 652,
      "ber": 653,
      "ks": 654,
      "kenn": 655,
      "▁2": 656,
      "▁ari": 657,
      "▁into": 658,
      "ique": 659,
      "ka": 660,
      "▁tom": 661,
      "▁tout": 662,
      "▁der": 663,
      "ism": 664,
      "▁osi": 665,
      "▁ubyen": 666,
      "▁any": 667,
      "▁serv": 668,
      "▁pars": 669,
      "▁later": 670,
      "▁ind": 671,
      "ama": 672,
      "▁mon": 673,
      "istwar": 674,
      "▁bondie": 675,
      "ren": 676,
      "▁em": 677,
      "ital": 678,
      "▁di": 679,
      "waz": 680,
      "▁our": 681,
      "ough": 682,
      "▁fas": 683,
      "▁know": 684,
      "▁dec": 685,
      "ete": 686,
      "▁kuma": 687,
      "▁lin": 688,
      "▁rez": 689,
      "▁sin": 690,
      "▁div": 691,
      "▁ec": 692,
      "▁grand": 693,
      "arson": 694,
      "▁napole": 695,
      "▁nom": 696,
      "elle": 697,
      "▁kone": 698,
      "▁personn": 699,
      "▁more": 700,
      "kt": 701,
      "pli": 702,
      "▁bet": 703,
      "ff": 704,
      "▁pet": 705,
      "iter": 706,
      "▁garson": 707,
      "▁liv": 708,
      "gar": 709,
      "ms": 710,
      "oc": 711,
      "▁sc": 712,
      "▁rel": 713,
      "▁avec": 714,
      "▁sel": 715,
      "▁parski": 716,
      "▁day": 717,
      "reat": 718,
      "gn": 719,
      "ud": 720,
      "iste": 721,
      "▁dimounn": 722,
      "▁these": 723,
      "ui": 724,
      "▁lat": 725,
      "▁pen": 726,
      "▁comp": 727,
      "▁servi": 728,
      "▁def": 729,
      "▁inv": 730,
      "▁polit": 731,
      "▁napoleon": 732,
      "up": 733,
      "▁twa": 734,
      "urs": 735,
      "▁sal": 736,
      "ph": 737,
      "isyon": 738,
      "che": 739,
      "▁bizen": 740,
      "▁kit": 741,
      "▁sak": 742,
      "▁comm": 743,
      "▁rek": 744,
      "▁person": 745,
      "rir": 746,
      "▁ele": 747,
      "omet": 748,
      "▁again": 749,
      "▁dont": 750,
      "▁real": 751,
      "ick": 752,
      "▁off": 753,
      "ants": 754,
      "ces": 755,
      "▁ye": 756,
      "own": 757,
      "▁kar": 758,
      "ric": 759,
      "cial": 760,
      "ia": 761,
      "ang": 762,
      "▁fin": 763,
      "▁ang": 764,
      "ert": 765,
      "▁sol": 766,
      "▁exp": 767,
      "ace": 768,
      "▁tem": 769,
      "▁deman": 770,
      "▁apel": 771,
      "▁lerla": 772,
      "▁deb": 773,
      "▁ref": 774,
      "ils": 775,
      "▁land": 776,
      "▁sw": 777,
      "▁bar": 778,
      "▁every": 779,
      "▁animals": 780,
      "▁tro": 781,
      "▁pan": 782,
      "▁aut": 783,
      "▁lag": 784,
      "▁move": 785,
      "▁trans": 786,
      "▁mauritius": 787,
      "▁dire": 788,
      "▁acc": 789,
      "ory": 790,
      "▁zistwar": 791,
      "▁ins": 792,
      "▁ta": 793,
      "▁did": 794,
      "▁kr": 795,
      "▁lakaz": 796,
      "ener": 797,
      "▁very": 798,
      "▁folkl": 799,
      "▁rem": 800,
      "▁zour": 801,
      "▁inst": 802,
      "ause": 803,
      "▁er": 804,
      "▁way": 805,
      "▁travayer": 806,
      "sel": 807,
      "▁gard": 808,
      "app": 809,
      "▁fri": 810,
      "▁form": 811,
      "▁ont": 812,
      "vo": 813,
      "▁ale": 814,
      "par": 815,
      "zan": 816,
      "▁kre": 817,
      "get": 818,
      "lo": 819,
      "led": 820,
      "▁ran": 821,
      "▁plant": 822,
      "▁boukou": 823,
      "so": 824,
      "ene": 825,
      "▁kam": 826,
      "ilt": 827,
      "fi": 828,
      "mi": 829,
      "▁sant": 830,
      "▁papa": 831,
      "ys": 832,
      "▁ete": 833,
      "▁two": 834,
      "urn": 835,
      "ours": 836,
      "▁farm": 837,
      "▁gra": 838,
      "▁just": 839,
      "▁even": 840,
      "til": 841,
      "▁over": 842,
      "▁where": 843,
      "aient": 844,
      "rol": 845,
      "▁letan": 846,
      "▁set": 847,
      "▁could": 848,
      "ations": 849,
      "▁sugar": 850,
      "▁after": 851,
      "▁discip": 852,
      "▁down": 853,
      "▁manze": 854,
      "ps": 855,
      "▁prog": 856,
      "ost": 857,
      "▁look": 858,
      "▁lui": 859,
      "▁ban": 860,
      "▁rant": 861,
      "▁right": 862,
      "ron": 863,
      "rwa": 864,
      "itt": 865,
      "alk": 866,
      "rat": 867,
      "▁leg": 868,
      "ual": 869,
      "▁fat": 870,
      "▁only": 871,
      "▁new": 872,
      "▁avan": 873,
      "▁mat": 874,
      "ents": 875,
      "ourn": 876,
      "▁disip": 877,
      "ouse": 878,
      "▁ankor": 879,
      "▁mama": 880,
      "▁bel": 881,
      "eser": 882,
      "▁prem": 883,
      "▁kontan": 884,
      "oth": 885,
      "▁non": 886,
      "▁prod": 887,
      "▁organ": 888,
      "▁vo": 889,
      "▁produ": 890,
      "▁come": 891,
      "▁sorti": 892,
      "▁anvi": 893,
      "oman": 894,
      "▁aster": 895,
      "▁ziska": 896,
      "▁dun": 897,
      "▁gal": 898,
      "▁good": 899,
      "▁make": 900,
      "▁19": 901,
      "form": 902,
      "▁plis": 903,
      "▁dimann": 904,
      "▁rod": 905,
      "▁kriz": 906,
      "▁tous": 907,
      "▁pw": 908,
      "orn": 909,
      "▁cal": 910,
      "▁kons": 911,
      "▁children": 912,
      "▁sont": 913,
      "▁kas": 914,
      "▁proble": 915,
      "hing": 916,
      "ool": 917,
      "▁sante": 918,
      "▁came": 919,
      "ions": 920,
      "ount": 921,
      "▁led": 922,
      "▁app": 923,
      "▁mu": 924,
      "▁cro": 925,
      "▁also": 926,
      "▁disciples": 927,
      "bl": 928,
      "▁sm": 929,
      "▁mis": 930,
      "ft": 931,
      "▁amenn": 932,
      "▁pie": 933,
      "▁bal": 934,
      "▁fir": 935,
      "arn": 936,
      "▁dek": 937,
      "▁ve": 938,
      "▁klas": 939,
      "▁dou": 940,
      "▁sek": 941,
      "▁plus": 942,
      "▁rap": 943,
      "erv": 944,
      "enir": 945,
      "▁pret": 946,
      "▁take": 947,
      "▁back": 948,
      "▁cap": 949,
      "▁quand": 950,
      "yal": 951,
      "▁men": 952,
      "▁vini": 953,
      "▁lep": 954,
      "▁because": 955,
      "ais": 956,
      "pri": 957,
      "▁ph": 958,
      "▁pay": 959,
      "▁die": 960,
      "▁gayn": 961,
      "▁tre": 962,
      "arad": 963,
      "▁nous": 964,
      "▁viv": 965,
      "olog": 966,
      "▁pare": 967,
      "ible": 968,
      "▁import": 969,
      "▁put": 970,
      "▁kol": 971,
      "▁langaz": 972,
      "▁cris": 973,
      "▁must": 974,
      "▁anb": 975,
      "▁jo": 976,
      "▁lavi": 977,
      "▁god": 978,
      "ette": 979,
      "▁koumans": 980,
      "ci": 981,
      "ian": 982,
      "▁sip": 983,
      "▁than": 984,
      "ande": 985,
      "▁op": 986,
      "▁vie": 987,
      "▁place": 988,
      "▁ask": 989,
      "of": 990,
      "▁nat": 991,
      "ikasyon": 992,
      "▁box": 993,
      "▁sch": 994,
      "yone": 995,
      "▁does": 996,
      "▁vol": 997,
      "▁inc": 998,
      "oze": 999,
      "▁kamarad": 1000,
      "▁mas": 1001,
      "▁za": 1002,
      "▁see": 1003,
      "▁comme": 1004,
      "▁tell": 1005,
      "▁car": 1006,
      "▁own": 1007,
      "▁baz": 1008,
      "▁sec": 1009,
      "ress": 1010,
      "▁att": 1011,
      "aire": 1012,
      "▁ses": 1013,
      "▁laz": 1014,
      "▁alors": 1015,
      "▁mer": 1016,
      "▁kat": 1017,
      "▁ent": 1018,
      "▁program": 1019,
      "▁went": 1020,
      "ely": 1021,
      "▁lerwa": 1022,
      "ket": 1023,
      "ves": 1024,
      "▁boul": 1025,
      "▁trad": 1026,
      "▁tri": 1027,
      "read": 1028,
      "ated": 1029,
      "▁sat": 1030,
      "▁kos": 1031,
      "▁think": 1032,
      "▁mil": 1033,
      "▁ku": 1034,
      "▁happ": 1035,
      "▁vot": 1036,
      "oli": 1037,
      "▁ram": 1038,
      "ures": 1039,
      "▁well": 1040,
      "▁ext": 1041,
      "▁imp": 1042,
      "▁reponn": 1043,
      "▁tan": 1044,
      "▁should": 1045,
      "fore": 1046,
      "ient": 1047,
      "▁sit": 1048,
      "▁fini": 1049,
      "▁prom": 1050,
      "▁malad": 1051,
      "▁colle": 1052,
      "▁zafer": 1053,
      "nt": 1054,
      "syon": 1055,
      "uri": 1056,
      "▁govern": 1057,
      "▁somet": 1058,
      "▁bas": 1059,
      "▁vit": 1060,
      "▁lem": 1061,
      "▁fait": 1062,
      "li": 1063,
      "eran": 1064,
      "▁fwa": 1065,
      "▁cre": 1066,
      "▁class": 1067,
      "ood": 1068,
      "▁inn": 1069,
      "▁alor": 1070,
      "▁byen": 1071,
      "▁arive": 1072,
      "▁first": 1073,
      "▁old": 1074,
      "▁che": 1075,
      "▁kalite": 1076,
      "▁sim": 1077,
      "▁many": 1078,
      "▁rak": 1079,
      "▁kiman": 1080,
      "▁ze": 1081,
      "▁problem": 1082,
      "day": 1083,
      "yn": 1084,
      "ane": 1085,
      "onp": 1086,
      "▁kind": 1087,
      "▁cert": 1088,
      "ath": 1089,
      "ela": 1090,
      "andan": 1091,
      "▁crisis": 1092,
      "for": 1093,
      "▁here": 1094,
      "raz": 1095,
      "▁lesiel": 1096,
      "▁lekol": 1097,
      "ced": 1098,
      "gg": 1099,
      "▁ke": 1100,
      "▁name": 1101,
      "▁gens": 1102,
      "▁kifer": 1103,
      "ses": 1104,
      "▁ir": 1105,
      "▁king": 1106,
      "▁cons": 1107,
      "▁ed": 1108,
      "▁want": 1109,
      "orte": 1110,
      "lez": 1111,
      "lop": 1112,
      "ason": 1113,
      "▁liz": 1114,
      "▁group": 1115,
      "tan": 1116,
      "aut": 1117,
      "vel": 1118,
      "wat": 1119,
      "anz": 1120,
      "▁pil": 1121,
      "▁dist": 1122,
      "▁thr": 1123,
      "▁hu": 1124,
      "▁school": 1125,
      "ku": 1126,
      "rer": 1127,
      "▁mak": 1128,
      "▁montre": 1129,
      "▁dieu": 1130,
      "▁kimanyer": 1131,
      "▁az": 1132,
      "isien": 1133,
      "▁anp": 1134,
      "eter": 1135,
      "▁plas": 1136,
      "ower": 1137,
      "▁need": 1138,
      "▁made": 1139,
      "▁ris": 1140,
      "▁ass": 1141,
      "▁sup": 1142,
      "▁buku": 1143,
      "ders": 1144,
      "je": 1145,
      "tem": 1146,
      "▁akoz": 1147,
      "▁much": 1148,
      "ral": 1149,
      "xt": 1150,
      "omme": 1151,
      "amp": 1152,
      "▁quel": 1153,
      "▁kote": 1154,
      "▁parti": 1155,
      "ten": 1156,
      "▁konn": 1157,
      "▁fre": 1158,
      "▁ger": 1159,
      "▁parey": 1160,
      "▁government": 1161,
      "wit": 1162,
      "▁dip": 1163,
      "portan": 1164,
      "▁koze": 1165,
      "▁dil": 1166,
      "▁done": 1167,
      "vwar": 1168,
      "▁pig": 1169,
      "▁sil": 1170,
      "▁maz": 1171,
      "▁beau": 1172,
      "▁diferan": 1173,
      "▁sime": 1174,
      "iner": 1175,
      "ari": 1176,
      "ilite": 1177,
      "▁lad": 1178,
      "▁expl": 1179,
      "bre": 1180,
      "ful": 1181,
      "yel": 1182,
      "▁ben": 1183,
      "▁val": 1184,
      "▁leur": 1185,
      "▁panse": 1186,
      "▁litt": 1187,
      "iser": 1188,
      "ike": 1189,
      "igne": 1190,
      "▁lalit": 1191,
      "▁little": 1192,
      "use": 1193,
      "▁sign": 1194,
      "red": 1195,
      "▁same": 1196,
      "▁econom": 1197,
      "▁boxer": 1198,
      "cer": 1199,
      "ix": 1200,
      "▁ac": 1201,
      "▁mars": 1202,
      "▁dib": 1203,
      "▁mother": 1204,
      "▁zwe": 1205,
      "▁kikenn": 1206,
      "thing": 1207,
      "▁another": 1208,
      "▁hel": 1209,
      "▁hist": 1210,
      "▁end": 1211,
      "ider": 1212,
      "▁before": 1213,
      "ifie": 1214,
      "abl": 1215,
      "▁char": 1216,
      "▁through": 1217,
      "ball": 1218,
      "vous": 1219,
      "▁tap": 1220,
      "▁act": 1221,
      "▁ep": 1222,
      "▁enf": 1223,
      "▁del": 1224,
      "let": 1225,
      "▁lord": 1226,
      "▁langu": 1227,
      "wi": 1228,
      "▁sik": 1229,
      "▁mout": 1230,
      "▁mater": 1231,
      "▁why": 1232,
      "▁madam": 1233,
      "▁votre": 1234,
      "pare": 1235,
      "▁tann": 1236,
      "▁sem": 1237,
      "▁important": 1238,
      "▁certain": 1239,
      "ail": 1240,
      "ois": 1241,
      "▁ple": 1242,
      "oute": 1243,
      "▁big": 1244,
      "ally": 1245,
      "▁minis": 1246,
      "rez": 1247,
      "▁fish": 1248,
      "ories": 1249,
      "▁give": 1250,
      "▁told": 1251,
      "oi": 1252,
      "▁sl": 1253,
      "▁mir": 1254,
      "isman": 1255,
      "▁manz": 1256,
      "▁tak": 1257,
      "iliz": 1258,
      "▁deg": 1259,
      "▁ren": 1260,
      "▁plan": 1261,
      "▁ros": 1262,
      "af": 1263,
      "kot": 1264,
      "mes": 1265,
      "▁zom": 1266,
      "▁too": 1267,
      "rib": 1268,
      "▁adm": 1269,
      "bo": 1270,
      "ange": 1271,
      "▁ton": 1272,
      "▁may": 1273,
      "▁find": 1274,
      "▁inportan": 1275,
      "▁resp": 1276,
      "▁differ": 1277,
      "▁guvern": 1278,
      "▁konpran": 1279,
      "▁ariv": 1280,
      "▁tax": 1281,
      "ock": 1282,
      "▁port": 1283,
      "▁vi": 1284,
      "▁rest": 1285,
      "annla": 1286,
      "▁tour": 1287,
      "ought": 1288,
      "▁wi": 1289,
      "▁apr": 1290,
      "▁fact": 1291,
      "▁sanz": 1292,
      "▁folklor": 1293,
      "ivers": 1294,
      "rim": 1295,
      "uit": 1296,
      "▁water": 1297,
      "▁giv": 1298,
      "ict": 1299,
      "cher": 1300,
      "▁used": 1301,
      "▁pier": 1302,
      "▁cor": 1303,
      "ific": 1304,
      "▁politik": 1305,
      "▁small": 1306,
      "he": 1307,
      "ler": 1308,
      "▁deux": 1309,
      "▁ven": 1310,
      "▁talk": 1311,
      "▁bri": 1312,
      "▁bad": 1313,
      "▁fil": 1314,
      "▁anf": 1315,
      "▁life": 1316,
      "ution": 1317,
      "▁avait": 1318,
      "▁elle": 1319,
      "▁pena": 1320,
      "hers": 1321,
      "ksion": 1322,
      "ty": 1323,
      "ved": 1324,
      "▁sk": 1325,
      "▁eg": 1326,
      "▁wind": 1327,
      "▁gl": 1328,
      "▁lex": 1329,
      "▁parmi": 1330,
      "▁under": 1331,
      "duc": 1332,
      "▁lind": 1333,
      "▁anpl": 1334,
      "▁ni": 1335,
      "vez": 1336,
      "▁sev": 1337,
      "▁food": 1338,
      "cess": 1339,
      "ute": 1340,
      "▁id": 1341,
      "▁being": 1342,
      "▁teach": 1343,
      "▁cour": 1344,
      "▁read": 1345,
      "▁ras": 1346,
      "▁truv": 1347,
      "▁faire": 1348,
      "ordi": 1349,
      "▁kreol": 1350,
      "▁guvernman": 1351,
      "▁tort": 1352,
      "ones": 1353,
      "▁hand": 1354,
      "▁got": 1355,
      "▁divan": 1356,
      "▁personne": 1357,
      "ank": 1358,
      "▁pot": 1359,
      "▁sing": 1360,
      "▁snow": 1361,
      "▁mes": 1362,
      "▁kok": 1363,
      "▁bir": 1364,
      "▁okenn": 1365,
      "▁vil": 1366,
      "elop": 1367,
      "▁never": 1368,
      "▁prot": 1369,
      "▁conf": 1370,
      "▁koson": 1371,
      "▁sent": 1372,
      "▁kis": 1373,
      "▁zw": 1374,
      "▁ru": 1375,
      "▁etait": 1376,
      "▁world": 1377,
      "▁develop": 1378,
      "▁beauc": 1379,
      "▁inf": 1380,
      "▁folklore": 1381,
      "▁snowball": 1382,
      "▁beaucoup": 1383,
      "ness": 1384,
      "▁away": 1385,
      "▁cette": 1386,
      "▁har": 1387,
      "▁lame": 1388,
      "ansion": 1389,
      "▁start": 1390,
      "▁called": 1391,
      "▁something": 1392,
      "dom": 1393,
      "ho": 1394,
      "met": 1395,
      "▁3": 1396,
      "▁tres": 1397,
      "▁sar": 1398,
      "▁cle": 1399,
      "▁nan": 1400,
      "▁nes": 1401,
      "▁net": 1402,
      "▁house": 1403,
      "▁red": 1404,
      "▁pei": 1405,
      "cept": 1406,
      "pect": 1407,
      "kte": 1408,
      "▁pandan": 1409,
      "▁dra": 1410,
      "▁educ": 1411,
      "vert": 1412,
      "▁lalwa": 1413,
      "▁famil": 1414,
      "van": 1415,
      "▁ill": 1416,
      "▁bus": 1417,
      "▁bout": 1418,
      "▁tir": 1419,
      "▁ok": 1420,
      "row": 1421,
      "▁use": 1422,
      "ages": 1423,
      "onde": 1424,
      "▁priv": 1425,
      "▁dern": 1426,
      "▁lepok": 1427,
      "▁happen": 1428,
      "koton": 1429,
      "▁kisannla": 1430,
      "▁ide": 1431,
      "▁those": 1432,
      "▁lev": 1433,
      "ural": 1434,
      "▁lamer": 1435,
      "▁fason": 1436,
      "▁boulkoton": 1437,
      "▁dilo": 1438,
      "▁len": 1439,
      "▁kest": 1440,
      "▁bonn": 1441,
      "▁cent": 1442,
      "ational": 1443,
      "aux": 1444,
      "▁lane": 1445,
      "▁devlop": 1446,
      "pos": 1447,
      "▁turn": 1448,
      "▁sen": 1449,
      "▁dav": 1450,
      "▁mus": 1451,
      "▁cond": 1452,
      "ala": 1453,
      "▁yes": 1454,
      "▁isi": 1455,
      "▁intern": 1456,
      "▁lafoul": 1457,
      "▁swiv": 1458,
      "▁instit": 1459,
      "erve": 1460,
      "▁sinn": 1461,
      "▁song": 1462,
      "ouz": 1463,
      "▁vers": 1464,
      "▁samem": 1465,
      "anter": 1466,
      "izan": 1467,
      "ade": 1468,
      "iksyon": 1469,
      "▁etre": 1470,
      "▁aste": 1471,
      "▁others": 1472,
      "▁lavil": 1473,
      "▁belie": 1474,
      "▁tifi": 1475,
      "oloz": 1476,
      "ctor": 1477,
      "endre": 1478,
      "▁laba": 1479,
      "▁working": 1480,
      "▁anba": 1481,
      "bs": 1482,
      "win": 1483,
      "yaz": 1484,
      "▁don": 1485,
      "▁bwar": 1486,
      "▁count": 1487,
      "▁zame": 1488,
      "ention": 1489,
      "▁quil": 1490,
      "ody": 1491,
      "▁abu": 1492,
      "▁ansam": 1493,
      "▁galile": 1494,
      "ject": 1495,
      "▁pra": 1496,
      "▁fem": 1497,
      "▁enc": 1498,
      "▁left": 1499,
      "aze": 1500,
      "▁art": 1501,
      "ward": 1502,
      "▁such": 1503,
      "italist": 1504,
      "gner": 1505,
      "▁against": 1506,
      "▁tant": 1507,
      "▁sans": 1508,
      "oule": 1509,
      "▁om": 1510,
      "irl": 1511,
      "▁took": 1512,
      "ried": 1513,
      "▁leve": 1514,
      "▁ju": 1515,
      "tern": 1516,
      "▁rway": 1517,
      "▁different": 1518,
      "des": 1519,
      "ious": 1520,
      "zon": 1521,
      "▁ste": 1522,
      "orite": 1523,
      "▁ann": 1524,
      "▁anal": 1525,
      "lev": 1526,
      "▁ala": 1527,
      "▁quest": 1528,
      "illes": 1529,
      "▁konf": 1530,
      "▁exam": 1531,
      "▁everyone": 1532,
      "▁rakont": 1533,
      "derst": 1534,
      "gre": 1535,
      "hn": 1536,
      "▁cest": 1537,
      "▁zet": 1538,
      "▁zoli": 1539,
      "ros": 1540,
      "▁lead": 1541,
      "▁rat": 1542,
      "▁avoy": 1543,
      "cy": 1544,
      "gl": 1545,
      "▁sun": 1546,
      "▁bre": 1547,
      "isse": 1548,
      "▁rese": 1549,
      "une": 1550,
      "▁ferm": 1551,
      "▁atra": 1552,
      "▁mari": 1553,
      "▁200": 1554,
      "fic": 1555,
      "fwa": 1556,
      "gne": 1557,
      "rin": 1558,
      "anble": 1559,
      "▁tel": 1560,
      "▁lh": 1561,
      "▁pop": 1562,
      "▁bour": 1563,
      "▁bab": 1564,
      "▁eat": 1565,
      "▁inpe": 1566,
      "▁saw": 1567,
      "▁disk": 1568,
      "▁fami": 1569,
      "▁drwa": 1570,
      "oir": 1571,
      "▁four": 1572,
      "▁viz": 1573,
      "▁underst": 1574,
      "▁stories": 1575,
      "▁konst": 1576,
      "▁exper": 1577,
      "▁going": 1578,
      "▁devan": 1579,
      "▁kriye": 1580,
      "▁political": 1581,
      "self": 1582,
      "▁asked": 1583,
      "bal": 1584,
      "▁limem": 1585,
      "▁sos": 1586,
      "ches": 1587,
      "▁still": 1588,
      "▁show": 1589,
      "fect": 1590,
      "▁obs": 1591,
      "▁contin": 1592,
      "▁petit": 1593,
      "▁latet": 1594,
      "▁lou": 1595,
      "▁lont": 1596,
      "▁last": 1597,
      "▁mess": 1598,
      "▁woman": 1599,
      "▁night": 1600,
      "▁vre": 1601,
      "amb": 1602,
      "▁once": 1603,
      "ienn": 1604,
      "▁marie": 1605,
      "▁father": 1606,
      "co": 1607,
      "▁bur": 1608,
      "▁gre": 1609,
      "▁reb": 1610,
      "▁ekrir": 1611,
      "oney": 1612,
      "▁profeser": 1613,
      "▁help": 1614,
      "▁aprann": 1615,
      "▁education": 1616,
      "▁rwayom": 1617,
      "cl": 1618,
      "mm": 1619,
      "▁power": 1620,
      "▁mom": 1621,
      "▁great": 1622,
      "▁inp": 1623,
      "▁alway": 1624,
      "▁alread": 1625,
      "ikasion": 1626,
      "▁lespri": 1627,
      "▁gete": 1628,
      "▁workers": 1629,
      "▁foll": 1630,
      "▁years": 1631,
      "▁demand": 1632,
      "ting": 1633,
      "▁5": 1634,
      "▁din": 1635,
      "▁dap": 1636,
      "▁bi": 1637,
      "ark": 1638,
      "▁jour": 1639,
      "▁beg": 1640,
      "agne": 1641,
      "▁poiss": 1642,
      "ksyon": 1643,
      "selves": 1644,
      "▁respons": 1645,
      "▁always": 1646,
      "▁already": 1647,
      "jp": 1648,
      "ues": 1649,
      "▁dorm": 1650,
      "▁kole": 1651,
      "▁three": 1652,
      "istri": 1653,
      "▁head": 1654,
      "▁heav": 1655,
      "▁disik": 1656,
      "ogra": 1657,
      "▁indust": 1658,
      "istem": 1659,
      "▁landrwa": 1660,
      "hip": 1661,
      "▁ef": 1662,
      "ets": 1663,
      "iem": 1664,
      "adir": 1665,
      "▁play": 1666,
      "ardin": 1667,
      "▁frer": 1668,
      "▁bud": 1669,
      "▁special": 1670,
      "▁revol": 1671,
      "den": 1672,
      "gm": 1673,
      "▁pere": 1674,
      "▁sistem": 1675,
      "▁mag": 1676,
      "▁fra": 1677,
      "▁zordi": 1678,
      "▁ol": 1679,
      "iment": 1680,
      "▁trwa": 1681,
      "▁pass": 1682,
      "▁perdi": 1683,
      "▁lamor": 1684,
      "▁obl": 1685,
      "▁medical": 1686,
      "hojp": 1687,
      "▁nanye": 1688,
      "ek": 1689,
      "▁bhojp": 1690,
      "▁things": 1691,
      "▁stru": 1692,
      "ests": 1693,
      "▁around": 1694,
      "▁agric": 1695,
      "▁patron": 1696,
      "▁record": 1697,
      "▁premie": 1698,
      "▁dapre": 1699,
      "iere": 1700,
      "anp": 1701,
      "onte": 1702,
      "▁dom": 1703,
      "▁mr": 1704,
      "▁gram": 1705,
      "▁lim": 1706,
      "▁va": 1707,
      "▁pard": 1708,
      "▁str": 1709,
      "▁stud": 1710,
      "▁without": 1711,
      "ments": 1712,
      "▁imen": 1713,
      "▁larzan": 1714,
      "▁speak": 1715,
      "▁keep": 1716,
      "▁geri": 1717,
      "▁atraver": 1718,
      "▁4": 1719,
      "▁pir": 1720,
      "▁dy": 1721,
      "▁ase": 1722,
      "▁ber": 1723,
      "▁fils": 1724,
      "▁glo": 1725,
      "▁cha": 1726,
      "oke": 1727,
      "▁marse": 1728,
      "▁malini": 1729,
      "▁lapat": 1730,
      "▁invest": 1731,
      "▁john": 1732,
      "▁kad": 1733,
      "ison": 1734,
      "▁cou": 1735,
      "▁anv": 1736,
      "▁gar": 1737,
      "▁death": 1738,
      "▁story": 1739,
      "▁heal": 1740,
      "▁abs": 1741,
      "▁koums": 1742,
      "▁words": 1743,
      "▁deza": 1744,
      "▁krwar": 1745,
      "▁pwason": 1746,
      "ll": 1747,
      "soz": 1748,
      "▁anz": 1749,
      "▁gener": 1750,
      "▁vis": 1751,
      "▁vill": 1752,
      "▁repond": 1753,
      "▁term": 1754,
      "▁kitsoz": 1755,
      "▁friend": 1756,
      "▁dune": 1757,
      "▁tradition": 1758,
      "▁pigs": 1759,
      "▁bhojpuri": 1760,
      "iet": 1761,
      "▁pal": 1762,
      "▁kout": 1763,
      "▁bid": 1764,
      "▁fran": 1765,
      "▁camp": 1766,
      "▁eu": 1767,
      "▁hind": 1768,
      "eds": 1769,
      "apt": 1770,
      "ters": 1771,
      "▁kond": 1772,
      "ferm": 1773,
      "▁kontin": 1774,
      "▁someone": 1775,
      "▁follow": 1776,
      "yan": 1777,
      "yans": 1778,
      "▁tal": 1779,
      "▁each": 1780,
      "alite": 1781,
      "▁hol": 1782,
      "▁laferm": 1783,
      "▁sole": 1784,
      "▁jus": 1785,
      "oss": 1786,
      "▁ord": 1787,
      "▁koup": 1788,
      "cle": 1789,
      "cri": 1790,
      "nel": 1791,
      "wer": 1792,
      "zi": 1793,
      "▁tam": 1794,
      "▁dro": 1795,
      "▁dest": 1796,
      "▁dok": 1797,
      "▁money": 1798,
      "itie": 1799,
      "▁cat": 1800,
      "alman": 1801,
      "▁law": 1802,
      "elf": 1803,
      "▁learn": 1804,
      "ikil": 1805,
      "▁meet": 1806,
      "▁dog": 1807,
      "▁past": 1808,
      "▁grup": 1809,
      "▁proph": 1810,
      "▁kumans": 1811,
      "▁lizie": 1812,
      "▁mouton": 1813,
      "▁understand": 1814,
      "▁agricult": 1815,
      "ob": 1816,
      "▁tar": 1817,
      "▁sour": 1818,
      "▁kwar": 1819,
      "▁bis": 1820,
      "▁fig": 1821,
      "atik": 1822,
      "▁hun": 1823,
      "▁girl": 1824,
      "▁sef": 1825,
      "▁jai": 1826,
      "▁face": 1827,
      "▁extra": 1828,
      "▁human": 1829,
      "▁enfants": 1830,
      "act": 1831,
      "▁sys": 1832,
      "▁bor": 1833,
      "▁bro": 1834,
      "▁nam": 1835,
      "▁ogm": 1836,
      "▁puis": 1837,
      "ode": 1838,
      "▁prefer": 1839,
      "▁profet": 1840,
      "▁quelqu": 1841,
      "▁language": 1842,
      "▁viol": 1843,
      "▁david": 1844,
      "▁dormi": 1845,
      "▁lil": 1846,
      "▁sor": 1847,
      "oni": 1848,
      "▁mot": 1849,
      "▁zen": 1850,
      "▁ink": 1851,
      "▁ut": 1852,
      "izasyon": 1853,
      "▁mob": 1854,
      "▁const": 1855,
      "▁mauritian": 1856,
      "▁karo": 1857,
      "▁ledikasyon": 1858,
      "▁sekter": 1859,
      "over": 1860,
      "ule": 1861,
      "ven": 1862,
      "▁kor": 1863,
      "▁found": 1864,
      "asse": 1865,
      "▁hard": 1866,
      "▁pek": 1867,
      "▁social": 1868,
      "▁apres": 1869,
      "▁apart": 1870,
      "ular": 1871,
      "irel": 1872,
      "▁prez": 1873,
      "▁aret": 1874,
      "▁diffic": 1875,
      "▁labour": 1876,
      "▁trouve": 1877,
      "▁propri": 1878,
      "▁vilaz": 1879,
      "pte": 1880,
      "wh": 1881,
      "▁lisien": 1882,
      "arch": 1883,
      "ates": 1884,
      "ather": 1885,
      "▁high": 1886,
      "▁vann": 1887,
      "ization": 1888,
      "▁pey": 1889,
      "▁while": 1890,
      "▁parol": 1891,
      "▁pros": 1892,
      "▁ones": 1893,
      "▁means": 1894,
      "▁appe": 1895,
      "▁able": 1896,
      "▁themselves": 1897,
      "▁lekor": 1898,
      "▁retourn": 1899,
      "▁tanp": 1900,
      "▁kestyon": 1901,
      "▁pekoy": 1902,
      "ja": 1903,
      "king": 1904,
      "oire": 1905,
      "sa": 1906,
      "▁list": 1907,
      "▁sy": 1908,
      "inal": 1909,
      "▁mort": 1910,
      "▁bag": 1911,
      "▁most": 1912,
      "onns": 1913,
      "▁stop": 1914,
      "abet": 1915,
      "▁comra": 1916,
      "ateau": 1917,
      "▁nuvo": 1918,
      "▁akt": 1919,
      "▁days": 1920,
      "▁demands": 1921,
      "▁given": 1922,
      "▁lontan": 1923,
      "▁mel": 1924,
      "▁cela": 1925,
      "▁toget": 1926,
      "▁sap": 1927,
      "mand": 1928,
      "▁nepli": 1929,
      "▁party": 1930,
      "▁spes": 1931,
      "onomi": 1932,
      "▁poss": 1933,
      "▁production": 1934,
      "▁together": 1935,
      "bb": 1936,
      "▁dur": 1937,
      "ouv": 1938,
      "▁aux": 1939,
      "ila": 1940,
      "▁hal": 1941,
      "▁lie": 1942,
      "anti": 1943,
      "ife": 1944,
      "▁publ": 1945,
      "▁stand": 1946,
      "▁konse": 1947,
      "▁order": 1948,
      "▁exc": 1949,
      "▁fruit": 1950,
      "ements": 1951,
      "▁detrwa": 1952,
      "▁year": 1953,
      "▁budget": 1954,
      "con": 1955,
      "tre": 1956,
      "▁ty": 1957,
      "▁fon": 1958,
      "alize": 1959,
      "▁rann": 1960,
      "▁round": 1961,
      "▁ekonom": 1962,
      "ull": 1963,
      "▁nouvel": 1964,
      "ween": 1965,
      "▁maison": 1966,
      "cil": 1967,
      "mar": 1968,
      "▁sink": 1969,
      "▁mid": 1970,
      "isation": 1971,
      "orter": 1972,
      "▁ca": 1973,
      "ating": 1974,
      "▁hom": 1975,
      "riyer": 1976,
      "ape": 1977,
      "▁sub": 1978,
      "▁prepar": 1979,
      "▁kler": 1980,
      "▁deryer": 1981,
      "▁temple": 1982,
      "iltir": 1983,
      "▁moment": 1984,
      "cal": 1985,
      "ding": 1986,
      "▁iz": 1987,
      "▁lok": 1988,
      "▁side": 1989,
      "▁moman": 1990,
      "▁kour": 1991,
      "ats": 1992,
      "▁wr": 1993,
      "▁home": 1994,
      "ede": 1995,
      "izion": 1996,
      "ieux": 1997,
      "manite": 1998,
      "▁jou": 1999,
      "iller": 2000,
      "▁neg": 2001,
      "ateur": 2002,
      "ared": 2003,
      "▁point": 2004,
      "▁present": 2005,
      "▁sirt": 2006,
      "ti": 2007,
      "to": 2008,
      "ying": 2009,
      "▁sith": 2010,
      "▁thought": 2011,
      "its": 2012,
      "▁gou": 2013,
      "▁gen": 2014,
      "imer": 2015,
      "teur": 2016,
      "▁etaient": 2017,
      "▁stra": 2018,
      "▁arri": 2019,
      "ience": 2020,
      "▁marde": 2021,
      "▁prote": 2022,
      "▁tele": 2023,
      "▁meme": 2024,
      "▁demon": 2025,
      "▁prodiksyon": 2026,
      "▁system": 2027,
      "▁sithan": 2028,
      "▁cas": 2029,
      "alem": 2030,
      "▁lir": 2031,
      "▁limanite": 2032,
      "▁indi": 2033,
      "▁ofis": 2034,
      "▁mod": 2035,
      "▁sex": 2036,
      "▁paret": 2037,
      "ige": 2038,
      "▁change": 2039,
      "ctions": 2040,
      "▁says": 2041,
      "▁become": 2042,
      "▁serviter": 2043,
      "▁phar": 2044,
      "▁second": 2045,
      "lik": 2046,
      "mer": 2047,
      "zir": 2048,
      "anb": 2049,
      "▁poz": 2050,
      "▁ka": 2051,
      "itan": 2052,
      "▁cann": 2053,
      "▁walk": 2054,
      "▁nav": 2055,
      "▁gave": 2056,
      "▁sad": 2057,
      "izasion": 2058,
      "onne": 2059,
      "akor": 2060,
      "▁espe": 2061,
      "▁kontrol": 2062,
      "aret": 2063,
      "▁persons": 2064,
      "▁obe": 2065,
      "▁regard": 2066,
      "▁divers": 2067,
      "▁everything": 2068,
      "▁college": 2069,
      "▁anfet": 2070,
      "olozi": 2071,
      "▁heaven": 2072,
      "tle": 2073,
      "inc": 2074,
      "▁aus": 2075,
      "▁monde": 2076,
      "ission": 2077,
      "orik": 2078,
      "▁zer": 2079,
      "ety": 2080,
      "▁today": 2081,
      "▁kiks": 2082,
      "▁leurs": 2083,
      "seign": 2084,
      "▁prover": 2085,
      "▁until": 2086,
      "▁state": 2087,
      "▁thats": 2088,
      "ivite": 2089,
      "▁next": 2090,
      "▁maj": 2091,
      "▁sert": 2092,
      "▁oule": 2093,
      "▁touy": 2094,
      "▁poem": 2095,
      "▁large": 2096,
      "▁bato": 2097,
      "▁lasam": 2098,
      "▁better": 2099,
      "▁between": 2100,
      "▁rapel": 2101,
      "▁village": 2102,
      "▁ekonomik": 2103,
      "▁kiksoz": 2104,
      "▁sout": 2105,
      "▁thing": 2106,
      "ative": 2107,
      "edir": 2108,
      "▁sag": 2109,
      "▁whole": 2110,
      "▁soon": 2111,
      "ikt": 2112,
      "▁univers": 2113,
      "▁chang": 2114,
      "▁heard": 2115,
      "yez": 2116,
      "▁comple": 2117,
      "▁main": 2118,
      "▁marye": 2119,
      "▁super": 2120,
      "geois": 2121,
      "ache": 2122,
      "▁songs": 2123,
      "▁industry": 2124,
      "ied": 2125,
      "ration": 2126,
      "yin": 2127,
      "▁sous": 2128,
      "▁kore": 2129,
      "ited": 2130,
      "ator": 2131,
      "▁anse": 2132,
      "▁na": 2133,
      "▁norm": 2134,
      "iler": 2135,
      "▁ha": 2136,
      "▁dead": 2137,
      "▁pliz": 2138,
      "▁lera": 2139,
      "▁bonom": 2140,
      "▁lekonomi": 2141,
      "▁spec": 2142,
      "▁minister": 2143,
      "▁zwenn": 2144,
      "▁family": 2145,
      "bab": 2146,
      "gent": 2147,
      "iye": 2148,
      "tes": 2149,
      "▁tourn": 2150,
      "▁ling": 2151,
      "▁som": 2152,
      "ouk": 2153,
      "▁ces": 2154,
      "▁cut": 2155,
      "▁num": 2156,
      "▁homme": 2157,
      "izien": 2158,
      "aye": 2159,
      "▁sey": 2160,
      "▁soci": 2161,
      "▁jonns": 2162,
      "▁quils": 2163,
      "▁atann": 2164,
      "▁kanp": 2165,
      "▁room": 2166,
      "▁esp": 2167,
      "▁partic": 2168,
      "▁build": 2169,
      "▁leker": 2170,
      "▁farizien": 2171,
      "▁sold": 2172,
      "▁misie": 2173,
      "▁bourgeois": 2174,
      "▁sithanen": 2175,
      "▁6": 2176,
      "▁tande": 2177,
      "▁ba": 2178,
      "▁fiz": 2179,
      "▁cri": 2180,
      "▁env": 2181,
      "▁poul": 2182,
      "▁moi": 2183,
      "quer": 2184,
      "ows": 2185,
      "▁asiz": 2186,
      "avi": 2187,
      "▁answer": 2188,
      "▁angle": 2189,
      "ually": 2190,
      "▁open": 2191,
      "▁tradisyon": 2192,
      "ablisman": 2193,
      "▁country": 2194,
      "ba": 2195,
      "fle": 2196,
      "ss": 2197,
      "ts": 2198,
      "uve": 2199,
      "zwaz": 2200,
      "▁tree": 2201,
      "ern": 2202,
      "▁swe": 2203,
      "▁mere": 2204,
      "▁fos": 2205,
      "aring": 2206,
      "▁deor": 2207,
      "▁tipt": 2208,
      "▁times": 2209,
      "aman": 2210,
      "quoi": 2211,
      "▁parents": 2212,
      "term": 2213,
      "▁shop": 2214,
      "▁nouvo": 2215,
      "▁sera": 2216,
      "▁book": 2217,
      "▁pourquoi": 2218,
      "▁drink": 2219,
      "▁anything": 2220,
      "▁economic": 2221,
      "▁lhomme": 2222,
      "cre": 2223,
      "fs": 2224,
      "mill": 2225,
      "▁sif": 2226,
      "▁miz": 2227,
      "ativ": 2228,
      "▁live": 2229,
      "▁inform": 2230,
      "▁util": 2231,
      "▁paran": 2232,
      "▁prov": 2233,
      "ansyon": 2234,
      "▁komann": 2235,
      "▁sheep": 2236,
      "▁commun": 2237,
      "▁ranpli": 2238,
      "▁premye": 2239,
      "▁dipin": 2240,
      "ification": 2241,
      "▁global": 2242,
      "pie": 2243,
      "yem": 2244,
      "▁table": 2245,
      "▁sell": 2246,
      "iness": 2247,
      "▁bra": 2248,
      "ised": 2249,
      "▁fore": 2250,
      "arly": 2251,
      "▁creat": 2252,
      "▁wom": 2253,
      "▁lake": 2254,
      "omp": 2255,
      "rig": 2256,
      "▁moiz": 2257,
      "▁separ": 2258,
      "▁seigne": 2259,
      "rest": 2260,
      "▁tronp": 2261,
      "aves": 2262,
      "cket": 2263,
      "▁permet": 2264,
      "▁avant": 2265,
      "▁bring": 2266,
      "▁batiman": 2267,
      "▁lindistri": 2268,
      "▁poisson": 2269,
      "▁seigneur": 2270,
      "bien": 2271,
      "tir": 2272,
      "▁lun": 2273,
      "▁sn": 2274,
      "▁sque": 2275,
      "ina": 2276,
      "ination": 2277,
      "▁bos": 2278,
      "▁both": 2279,
      "▁fou": 2280,
      "▁eff": 2281,
      "▁wat": 2282,
      "▁laport": 2283,
      "ikal": 2284,
      "verse": 2285,
      "▁market": 2286,
      "▁kapital": 2287,
      "ump": 2288,
      "▁imm": 2289,
      "▁feel": 2290,
      "ished": 2291,
      "▁linz": 2292,
      "▁rezon": 2293,
      "▁relig": 2294,
      "paret": 2295,
      "▁windmill": 2296,
      "zwazi": 2297,
      "ec": 2298,
      "▁ous": 2299,
      "▁sid": 2300,
      "onse": 2301,
      "▁dakor": 2302,
      "▁kw": 2303,
      "▁kann": 2304,
      "▁occ": 2305,
      "▁vet": 2306,
      "▁inde": 2307,
      "rait": 2308,
      "▁sov": 2309,
      "▁ist": 2310,
      "▁disparet": 2311,
      "▁desann": 2312,
      "▁ouver": 2313,
      "▁partou": 2314,
      "arth": 2315,
      "▁blok": 2316,
      "▁rekon": 2317,
      "▁dipl": 2318,
      "▁sanzman": 2319,
      "bi": 2320,
      "pa": 2321,
      "ras": 2322,
      "uation": 2323,
      "▁mill": 2324,
      "▁cur": 2325,
      "aler": 2326,
      "▁zak": 2327,
      "▁light": 2328,
      "rael": 2329,
      "oll": 2330,
      "ident": 2331,
      "▁youn": 2332,
      "▁aband": 2333,
      "ateg": 2334,
      "▁prepare": 2335,
      "ploy": 2336,
      "cks": 2337,
      "asyonal": 2338,
      "sive": 2339,
      "▁spir": 2340,
      "ically": 2341,
      "▁else": 2342,
      "▁drwat": 2343,
      "▁cook": 2344,
      "▁offic": 2345,
      "▁encore": 2346,
      "lam": 2347,
      "▁tab": 2348,
      "ense": 2349,
      "▁body": 2350,
      "▁fut": 2351,
      "▁cult": 2352,
      "als": 2353,
      "▁nwar": 2354,
      "▁engl": 2355,
      "▁tip": 2356,
      "▁lide": 2357,
      "▁liber": 2358,
      "▁vas": 2359,
      "▁vir": 2360,
      "▁vedir": 2361,
      "▁reve": 2362,
      "imes": 2363,
      "edi": 2364,
      "sem": 2365,
      "▁pain": 2366,
      "aving": 2367,
      "▁maint": 2368,
      "▁10": 2369,
      "▁asterla": 2370,
      "▁capitalist": 2371,
      "▁collect": 2372,
      "▁maternel": 2373,
      "▁bidze": 2374,
      "ga": 2375,
      "mo": 2376,
      "rou": 2377,
      "▁porte": 2378,
      "▁sis": 2379,
      "▁sle": 2380,
      "▁den": 2381,
      "▁mous": 2382,
      "▁kne": 2383,
      "▁call": 2384,
      "atif": 2385,
      "▁vag": 2386,
      "▁vari": 2387,
      "▁sav": 2388,
      "ourne": 2389,
      "▁plat": 2390,
      "▁fort": 2391,
      "ivo": 2392,
      "▁travers": 2393,
      "▁rav": 2394,
      "▁lerb": 2395,
      "▁reste": 2396,
      "▁aller": 2397,
      "▁peri": 2398,
      "▁agre": 2399,
      "▁agrik": 2400,
      "▁rid": 2401,
      "▁himself": 2402,
      "▁patil": 2403,
      "▁posib": 2404,
      "▁fasil": 2405,
      "▁selman": 2406,
      "▁crow": 2407,
      "▁ramas": 2408,
      "▁economy": 2409,
      "▁dogs": 2410,
      "▁tipti": 2411,
      "dle": 2412,
      "oo": 2413,
      "rasion": 2414,
      "anse": 2415,
      "▁soul": 2416,
      "ines": 2417,
      "▁bla": 2418,
      "▁fiel": 2419,
      "▁earth": 2420,
      "▁anyone": 2421,
      "▁naz": 2422,
      "▁oper": 2423,
      "septe": 2424,
      "iez": 2425,
      "urt": 2426,
      "▁parfwa": 2427,
      "▁etes": 2428,
      "▁mean": 2429,
      "▁lese": 2430,
      "ouler": 2431,
      "▁doing": 2432,
      "iblik": 2433,
      "▁trava": 2434,
      "▁tec": 2435,
      "▁adv": 2436,
      "ouple": 2437,
      "▁fool": 2438,
      "▁lavwa": 2439,
      "▁revand": 2440,
      "▁news": 2441,
      "▁started": 2442,
      "▁dernie": 2443,
      "▁responsab": 2444,
      "▁strugg": 2445,
      "▁difficult": 2446,
      "where": 2447,
      "ker": 2448,
      "uis": 2449,
      "ana": 2450,
      "inist": 2451,
      "▁fun": 2452,
      "▁free": 2453,
      "ara": 2454,
      "▁wife": 2455,
      "▁zardin": 2456,
      "▁ho": 2457,
      "▁lao": 2458,
      "▁moder": 2459,
      "▁peu": 2460,
      "▁peut": 2461,
      "ush": 2462,
      "▁etid": 2463,
      "ope": 2464,
      "ennman": 2465,
      "▁nouve": 2466,
      "▁toule": 2467,
      "▁pase": 2468,
      "▁repres": 2469,
      "▁leta": 2470,
      "▁boat": 2471,
      "ities": 2472,
      "▁terri": 2473,
      "▁guer": 2474,
      "▁grow": 2475,
      "ology": 2476,
      "▁neseser": 2477,
      "▁koumsa": 2478,
      "▁dokter": 2479,
      "▁tronpet": 2480,
      "ning": 2481,
      "▁liter": 2482,
      "▁swa": 2483,
      "▁fel": 2484,
      "▁cra": 2485,
      "▁coun": 2486,
      "▁corn": 2487,
      "▁equ": 2488,
      "atir": 2489,
      "▁writ": 2490,
      "▁zener": 2491,
      "▁enough": 2492,
      "izon": 2493,
      "▁beh": 2494,
      "▁trade": 2495,
      "▁lanpl": 2496,
      "▁dife": 2497,
      "▁block": 2498,
      "▁jean": 2499,
      "▁terre": 2500,
      "▁since": 2501,
      "▁trop": 2502,
      "▁autres": 2503,
      "▁femme": 2504,
      "▁question": 2505,
      "▁utm": 2506,
      "▁bourgeoisie": 2507,
      "▁ten": 2508,
      "▁lis": 2509,
      "▁sib": 2510,
      "▁bene": 2511,
      "▁bapt": 2512,
      "esse": 2513,
      "este": 2514,
      "itre": 2515,
      "▁lepe": 2516,
      "ized": 2517,
      "ici": 2518,
      "▁cher": 2519,
      "▁chose": 2520,
      "istre": 2521,
      "▁nothing": 2522,
      "▁otur": 2523,
      "▁cloth": 2524,
      "▁ceux": 2525,
      "▁propos": 2526,
      "▁komin": 2527,
      "▁control": 2528,
      "▁setadir": 2529,
      "▁okip": 2530,
      "▁burzwazi": 2531,
      "▁quelquun": 2532,
      "▁public": 2533,
      "▁period": 2534,
      "po": 2535,
      "▁tot": 2536,
      "▁ps": 2537,
      "▁pik": 2538,
      "▁ther": 2539,
      "▁eol": 2540,
      "ots": 2541,
      "▁town": 2542,
      "oler": 2543,
      "izyon": 2544,
      "▁sea": 2545,
      "adi": 2546,
      "tere": 2547,
      "▁began": 2548,
      "ulation": 2549,
      "▁mauv": 2550,
      "▁mariliz": 2551,
      "▁sud": 2552,
      "▁avez": 2553,
      "▁add": 2554,
      "▁return": 2555,
      "wazo": 2556,
      "▁looking": 2557,
      "▁histor": 2558,
      "▁sikriyer": 2559,
      "▁harm": 2560,
      "▁devlopman": 2561,
      "▁galilee": 2562,
      "▁telman": 2563,
      "▁gramat": 2564,
      "▁aussi": 2565,
      "kil": 2566,
      "side": 2567,
      "ton": 2568,
      "ug": 2569,
      "wal": 2570,
      "▁7": 2571,
      "▁tong": 2572,
      "▁lel": 2573,
      "ony": 2574,
      "▁dam": 2575,
      "▁air": 2576,
      "▁might": 2577,
      "rel": 2578,
      "isme": 2579,
      "itasion": 2580,
      "▁zok": 2581,
      "▁gagne": 2582,
      "ether": 2583,
      "▁vou": 2584,
      "▁remem": 2585,
      "riye": 2586,
      "▁sau": 2587,
      "▁often": 2588,
      "antal": 2589,
      "▁jud": 2590,
      "▁rul": 2591,
      "▁plit": 2592,
      "▁etran": 2593,
      "▁aswar": 2594,
      "▁comment": 2595,
      "▁malgre": 2596,
      "▁local": 2597,
      "▁tex": 2598,
      "▁prive": 2599,
      "▁lalim": 2600,
      "▁sanze": 2601,
      "▁blan": 2602,
      "▁interv": 2603,
      "▁gros": 2604,
      "▁temps": 2605,
      "▁freder": 2606,
      "▁languages": 2607,
      "▁happened": 2608,
      "▁bosses": 2609,
      "▁agrikol": 2610,
      "▁nouveau": 2611,
      "▁eolienn": 2612,
      "fam": 2613,
      "ium": 2614,
      "kre": 2615,
      "por": 2616,
      "rist": 2617,
      "yau": 2618,
      "▁tret": 2619,
      "▁pom": 2620,
      "oura": 2621,
      "▁mind": 2622,
      "▁fle": 2623,
      "▁fond": 2624,
      "▁fall": 2625,
      "▁cet": 2626,
      "▁hare": 2627,
      "▁enseign": 2628,
      "▁pous": 2629,
      "▁seem": 2630,
      "▁segner": 2631,
      "urer": 2632,
      "▁hear": 2633,
      "▁coming": 2634,
      "wards": 2635,
      "▁sure": 2636,
      "▁short": 2637,
      "key": 2638,
      "elles": 2639,
      "ustom": 2640,
      "ption": 2641,
      "▁boy": 2642,
      "▁servant": 2643,
      "▁accord": 2644,
      "▁repondit": 2645,
      "▁korek": 2646,
      "kan": 2647,
      "pir": 2648,
      "ped": 2649,
      "ume": 2650,
      "wir": 2651,
      "▁tablisman": 2652,
      "▁pi": 2653,
      "▁size": 2654,
      "▁dent": 2655,
      "▁bay": 2656,
      "ork": 2657,
      "ites": 2658,
      "▁cr": 2659,
      "▁cant": 2660,
      "▁eas": 2661,
      "▁wit": 2662,
      "▁zwazo": 2663,
      "▁nin": 2664,
      "ente": 2665,
      "▁leave": 2666,
      "▁peche": 2667,
      "ices": 2668,
      "▁sele": 2669,
      "▁alm": 2670,
      "iksion": 2671,
      "unt": 2672,
      "▁meas": 2673,
      "▁necess": 2674,
      "arde": 2675,
      "▁buy": 2676,
      "▁elect": 2677,
      "▁elekt": 2678,
      "▁yev": 2679,
      "▁sometimes": 2680,
      "▁kingdom": 2681,
      "▁valer": 2682,
      "▁resevwar": 2683,
      "▁soley": 2684,
      "▁jusqu": 2685,
      "▁comrades": 2686,
      "▁sirtu": 2687,
      "▁mauvais": 2688,
      "▁remember": 2689,
      "ever": 2690,
      "ude": 2691,
      "ving": 2692,
      "▁9": 2693,
      "▁ble": 2694,
      "▁though": 2695,
      "isan": 2696,
      "▁five": 2697,
      "esans": 2698,
      "▁card": 2699,
      "▁hor": 2700,
      "▁ens": 2701,
      "▁vont": 2702,
      "els": 2703,
      "▁sever": 2704,
      "▁jer": 2705,
      "ika": 2706,
      "▁ekout": 2707,
      "▁konv": 2708,
      "▁maryaz": 2709,
      "▁front": 2710,
      "▁within": 2711,
      "▁promet": 2712,
      "▁week": 2713,
      "▁allow": 2714,
      "▁among": 2715,
      "▁trouble": 2716,
      "▁folkt": 2717,
      "▁fois": 2718,
      "▁saying": 2719,
      "▁really": 2720,
      "▁santi": 2721,
      "▁grav": 2722,
      "▁secret": 2723,
      "▁making": 2724,
      "▁sosyal": 2725,
      "▁listen": 2726,
      "▁during": 2727,
      "▁society": 2728,
      "▁women": 2729,
      "▁knew": 2730,
      "▁lesegner": 2731,
      "bour": 2732,
      "cont": 2733,
      "pas": 2734,
      "pro": 2735,
      "pers": 2736,
      "▁toul": 2737,
      "▁lent": 2738,
      "▁pur": 2739,
      "▁pese": 2740,
      "▁dri": 2741,
      "▁dile": 2742,
      "▁kut": 2743,
      "▁bes": 2744,
      "▁bot": 2745,
      "▁bran": 2746,
      "▁fet": 2747,
      "▁fid": 2748,
      "▁fire": 2749,
      "▁cel": 2750,
      "ilie": 2751,
      "▁seen": 2752,
      "▁whether": 2753,
      "▁jones": 2754,
      "▁plac": 2755,
      "▁puvwar": 2756,
      "▁stay": 2757,
      "▁konple": 2758,
      "▁comes": 2759,
      "▁rob": 2760,
      "▁perfor": 2761,
      "▁12": 2762,
      "▁few": 2763,
      "riksion": 2764,
      "▁realize": 2765,
      "▁demande": 2766,
      "▁rodrig": 2767,
      "▁ladan": 2768,
      "▁please": 2769,
      "▁taken": 2770,
      "▁pierre": 2771,
      "▁believe": 2772,
      "▁break": 2773,
      "▁squealer": 2774,
      "▁young": 2775,
      "▁lanplwa": 2776,
      "cing": 2777,
      "go": 2778,
      "uck": 2779,
      "ysi": 2780,
      "▁tas": 2781,
      "▁test": 2782,
      "▁lit": 2783,
      "▁lant": 2784,
      "▁lop": 2785,
      "▁sas": 2786,
      "▁sind": 2787,
      "ined": 2788,
      "eng": 2789,
      "enant": 2790,
      "▁muv": 2791,
      "ority": 2792,
      "itid": 2793,
      "▁care": 2794,
      "▁ciel": 2795,
      "▁cru": 2796,
      "▁wed": 2797,
      "▁nar": 2798,
      "▁nest": 2799,
      "▁lapli": 2800,
      "▁ge": 2801,
      "irm": 2802,
      "iron": 2803,
      "olis": 2804,
      "▁ande": 2805,
      "▁run": 2806,
      "andal": 2807,
      "agog": 2808,
      "resion": 2809,
      "▁try": 2810,
      "▁apro": 2811,
      "▁command": 2812,
      "▁mauri": 2813,
      "▁manger": 2814,
      "▁suis": 2815,
      "endant": 2816,
      "▁conv": 2817,
      "▁interest": 2818,
      "▁grande": 2819,
      "▁petite": 2820,
      "▁lagrin": 2821,
      "▁didnt": 2822,
      "▁bank": 2823,
      "▁voir": 2824,
      "▁example": 2825,
      "▁watch": 2826,
      "▁istorik": 2827,
      "▁diplom": 2828,
      "▁revandikasyon": 2829,
      "▁sudden": 2830,
      "▁maurice": 2831,
      "fa": 2832,
      "fort": 2833,
      "ha": 2834,
      "ya": 2835,
      "▁dress": 2836,
      "▁mou": 2837,
      "▁mur": 2838,
      "▁mmm": 2839,
      "▁kant": 2840,
      "▁foul": 2841,
      "▁cer": 2842,
      "▁anmem": 2843,
      "▁lager": 2844,
      "▁gam": 2845,
      "▁os": 2846,
      "etre": 2847,
      "▁vant": 2848,
      "▁vos": 2849,
      "▁ville": 2850,
      "ries": 2851,
      "amy": 2852,
      "▁alim": 2853,
      "uss": 2854,
      "ourd": 2855,
      "▁jama": 2856,
      "▁strat": 2857,
      "cted": 2858,
      "▁mezir": 2859,
      "oph": 2860,
      "aught": 2861,
      "▁royau": 2862,
      "▁princ": 2863,
      "▁morning": 2864,
      "▁rien": 2865,
      "▁upon": 2866,
      "▁price": 2867,
      "▁brought": 2868,
      "▁baton": 2869,
      "▁lapes": 2870,
      "▁livre": 2871,
      "▁organiz": 2872,
      "▁appro": 2873,
      "▁tref": 2874,
      "▁lemond": 2875,
      "▁charge": 2876,
      "▁development": 2877,
      "▁observ": 2878,
      "▁kado": 2879,
      "▁euro": 2880,
      "▁komannman": 2881,
      "▁modern": 2882,
      "▁textil": 2883,
      "▁muvman": 2884,
      "▁princip": 2885,
      "gal": 2886,
      "yes": 2887,
      "▁tus": 2888,
      "▁pans": 2889,
      "▁sot": 2890,
      "▁da": 2891,
      "▁bit": 2892,
      "▁bed": 2893,
      "▁thir": 2894,
      "▁full": 2895,
      "▁custom": 2896,
      "▁lib": 2897,
      "▁top": 2898,
      "ieur": 2899,
      "ques": 2900,
      "ics": 2901,
      "tead": 2902,
      "idan": 2903,
      "ift": 2904,
      "ify": 2905,
      "abol": 2906,
      "ctors": 2907,
      "▁dimande": 2908,
      "iens": 2909,
      "▁rol": 2910,
      "▁road": 2911,
      "▁ess": 2912,
      "▁grat": 2913,
      "▁poor": 2914,
      "▁afric": 2915,
      "▁profi": 2916,
      "▁profit": 2917,
      "▁komie": 2918,
      "▁rights": 2919,
      "▁prodir": 2920,
      "▁incre": 2921,
      "▁simon": 2922,
      "▁possible": 2923,
      "▁zoko": 2924,
      "▁lalimier": 2925,
      "▁anmemtan": 2926,
      "kter": 2927,
      "▁mit": 2928,
      "▁mam": 2929,
      "▁mand": 2930,
      "▁bateau": 2931,
      "▁fot": 2932,
      "organ": 2933,
      "ither": 2934,
      "▁cir": 2935,
      "ately": 2936,
      "ash": 2937,
      "▁hab": 2938,
      "▁lapl": 2939,
      "rav": 2940,
      "▁usi": 2941,
      "sez": 2942,
      "tez": 2943,
      "▁along": 2944,
      "chn": 2945,
      "utions": 2946,
      "▁truve": 2947,
      "▁radi": 2948,
      "▁lakour": 2949,
      "▁obze": 2950,
      "▁fey": 2951,
      "▁surp": 2952,
      "▁montagn": 2953,
      "▁press": 2954,
      "▁personnes": 2955,
      "gnman": 2956,
      "cially": 2957,
      "others": 2958,
      "▁198": 2959,
      "▁kasiet": 2960,
      "▁incl": 2961,
      "▁entend": 2962,
      "▁wanted": 2963,
      "▁anpes": 2964,
      "▁support": 2965,
      "▁quelque": 2966,
      "▁torti": 2967,
      "▁pract": 2968,
      "▁announ": 2969,
      "ograph": 2970,
      "▁effect": 2971,
      "▁answered": 2972,
      "▁struggle": 2973,
      "▁jusqua": 2974,
      "▁royaume": 2975,
      "aw": 2976,
      "four": 2977,
      "▁lini": 2978,
      "▁listwar": 2979,
      "▁sick": 2980,
      "inasion": 2981,
      "▁mons": 2982,
      "▁inse": 2983,
      "▁alle": 2984,
      "ida": 2985,
      "ided": 2986,
      "▁parce": 2987,
      "▁lors": 2988,
      "ression": 2989,
      "▁chin": 2990,
      "orth": 2991,
      "ipe": 2992,
      "▁dimin": 2993,
      "▁deside": 2994,
      "▁prec": 2995,
      "ghter": 2996,
      "▁lanse": 2997,
      "ession": 2998,
      "▁rik": 2999,
      "▁intro": 3000,
      "▁obz": 3001,
      "▁police": 3002,
      "wazir": 3003,
      "▁trois": 3004,
      "▁instead": 3005,
      "▁legs": 3006,
      "▁veget": 3007,
      "▁administ": 3008,
      "▁course": 3009,
      "▁private": 3010,
      "▁agricultural": 3011,
      "▁konsey": 3012,
      "▁proverb": 3013,
      "▁normal": 3014,
      "▁rekonet": 3015,
      "fis": 3016,
      "ling": 3017,
      "less": 3018,
      "rate": 3019,
      "wen": 3020,
      "wel": 3021,
      "▁lost": 3022,
      "▁pin": 3023,
      "▁peser": 3024,
      "▁dre": 3025,
      "▁dize": 3026,
      "isil": 3027,
      "orz": 3028,
      "itif": 3029,
      "▁war": 3030,
      "ales": 3031,
      "▁zenn": 3032,
      "▁having": 3033,
      "▁rece": 3034,
      "▁saki": 3035,
      "▁zotmem": 3036,
      "ides": 3037,
      "▁beaut": 3038,
      "▁rou": 3039,
      "▁unes": 3040,
      "▁ferme": 3041,
      "▁tranz": 3042,
      "▁neigh": 3043,
      "▁notre": 3044,
      "▁respe": 3045,
      "▁depart": 3046,
      "▁aksepte": 3047,
      "▁conse": 3048,
      "ogn": 3049,
      "▁eli": 3050,
      "▁spee": 3051,
      "▁coll": 3052,
      "▁indien": 3053,
      "▁emb": 3054,
      "▁refiz": 3055,
      "▁auth": 3056,
      "▁197": 3057,
      "▁rapor": 3058,
      "▁sipoze": 3059,
      "▁satis": 3060,
      "▁situation": 3061,
      "▁business": 3062,
      "▁international": 3063,
      "▁pardonn": 3064,
      "▁general": 3065,
      "▁sym": 3066,
      "▁clothes": 3067,
      "ior": 3068,
      "kol": 3069,
      "ov": 3070,
      "zam": 3071,
      "oud": 3072,
      "inter": 3073,
      "rem": 3074,
      "▁kill": 3075,
      "▁cy": 3076,
      "ased": 3077,
      "▁nor": 3078,
      "▁hum": 3079,
      "▁lau": 3080,
      "▁gos": 3081,
      "▁inte": 3082,
      "▁sector": 3083,
      "tement": 3084,
      "▁allez": 3085,
      "used": 3086,
      "ager": 3087,
      "▁force": 3088,
      "▁stat": 3089,
      "▁chos": 3090,
      "▁exist": 3091,
      "▁rad": 3092,
      "▁prev": 3093,
      "▁goes": 3094,
      "▁love": 3095,
      "▁techn": 3096,
      "▁prizon": 3097,
      "▁feb": 3098,
      "▁feu": 3099,
      "versite": 3100,
      "▁servite": 3101,
      "▁peter": 3102,
      "▁refle": 3103,
      "ledge": 3104,
      "▁kolon": 3105,
      "▁central": 3106,
      "▁condition": 3107,
      "▁prophet": 3108,
      "▁half": 3109,
      "▁kanpayn": 3110,
      "▁maintenant": 3111,
      "▁theres": 3112,
      "▁almost": 3113,
      "▁jamais": 3114,
      "▁dizef": 3115,
      "ah": 3116,
      "bers": 3117,
      "cul": 3118,
      "uer": 3119,
      "▁ip": 3120,
      "▁tut": 3121,
      "▁pye": 3122,
      "▁send": 3123,
      "oupe": 3124,
      "▁band": 3125,
      "esion": 3126,
      "atwar": 3127,
      "▁ziz": 3128,
      "asite": 3129,
      "▁hors": 3130,
      "▁vway": 3131,
      "rad": 3132,
      "old": 3133,
      "▁parf": 3134,
      "ifikasion": 3135,
      "ersi": 3136,
      "▁forg": 3137,
      "▁quite": 3138,
      "aker": 3139,
      "▁konesans": 3140,
      "ezvous": 3141,
      "▁disp": 3142,
      "▁nouv": 3143,
      "▁kapitalist": 3144,
      "▁prins": 3145,
      "orey": 3146,
      "▁donne": 3147,
      "▁poet": 3148,
      "▁evennman": 3149,
      "▁foot": 3150,
      "▁post": 3151,
      "▁living": 3152,
      "oci": 3153,
      "▁movement": 3154,
      "▁planter": 3155,
      "▁capital": 3156,
      "▁nature": 3157,
      "▁lazy": 3158,
      "▁maladi": 3159,
      "▁groups": 3160,
      "▁history": 3161,
      "▁lexper": 3162,
      "▁baby": 3163,
      "▁cannot": 3164,
      "▁especially": 3165,
      "ployment": 3166,
      "▁spirit": 3167,
      "▁sleep": 3168,
      "▁tongue": 3169,
      "bon": 3170,
      "ged": 3171,
      "nes": 3172,
      "rent": 3173,
      "uff": 3174,
      "yete": 3175,
      "▁8": 3176,
      "▁swazir": 3177,
      "onz": 3178,
      "▁mond": 3179,
      "▁bom": 3180,
      "▁fan": 3181,
      "▁fix": 3182,
      "▁cam": 3183,
      "▁eux": 3184,
      "▁wait": 3185,
      "▁lik": 3186,
      "▁oh": 3187,
      "▁sam": 3188,
      "annk": 3189,
      "▁pouki": 3190,
      "▁moses": 3191,
      "adem": 3192,
      "appe": 3193,
      "erez": 3194,
      "ifye": 3195,
      "▁stre": 3196,
      "opol": 3197,
      "▁manyer": 3198,
      "▁rams": 3199,
      "▁seri": 3200,
      "▁aveg": 3201,
      "▁perm": 3202,
      "▁loi": 3203,
      "▁clos": 3204,
      "▁demok": 3205,
      "▁lafwa": 3206,
      "▁ubyin": 3207,
      "▁detay": 3208,
      "▁morisyen": 3209,
      "▁divin": 3210,
      "▁compan": 3211,
      "voir": 3212,
      "▁199": 3213,
      "▁douz": 3214,
      "▁natirel": 3215,
      "▁basen": 3216,
      "▁pilking": 3217,
      "▁tonbe": 3218,
      "▁type": 3219,
      "▁indian": 3220,
      "▁vetements": 3221,
      "▁fidel": 3222,
      "▁rikord": 3223,
      "aign": 3224,
      "cent": 3225,
      "pere": 3226,
      "vouple": 3227,
      "zour": 3228,
      "▁tand": 3229,
      "▁tini": 3230,
      "ouy": 3231,
      "▁aim": 3232,
      "▁zur": 3233,
      "▁zorey": 3234,
      "▁laut": 3235,
      "▁lipie": 3236,
      "▁vent": 3237,
      "▁vote": 3238,
      "▁vict": 3239,
      "eler": 3240,
      "▁danse": 3241,
      "▁danfour": 3242,
      "amin": 3243,
      "▁altern": 3244,
      "▁proper": 3245,
      "ifik": 3246,
      "iful": 3247,
      "cture": 3248,
      "▁ast": 3249,
      "▁asize": 3250,
      "ists": 3251,
      "istic": 3252,
      "▁except": 3253,
      "▁march": 3254,
      "ended": 3255,
      "▁riye": 3256,
      "▁difikil": 3257,
      "▁difisil": 3258,
      "▁clover": 3259,
      "▁object": 3260,
      "▁cane": 3261,
      "▁fler": 3262,
      "▁bless": 3263,
      "▁lapay": 3264,
      "▁interests": 3265,
      "▁lafors": 3266,
      "illed": 3267,
      "▁contre": 3268,
      "ruction": 3269,
      "▁kumsa": 3270,
      "▁knowledge": 3271,
      "▁self": 3272,
      "▁commence": 3273,
      "▁commission": 3274,
      "▁planters": 3275,
      "▁kolinn": 3276,
      "▁silvouple": 3277,
      "▁explik": 3278,
      "▁tapaz": 3279,
      "▁admir": 3280,
      "▁talking": 3281,
      "▁anplis": 3282,
      "▁seval": 3283,
      "▁protez": 3284,
      "▁donc": 3285,
      "▁analiz": 3286,
      "▁campaign": 3287,
      "▁meeting": 3288,
      "▁agriculture": 3289,
      "▁straight": 3290,
      "▁university": 3291,
      "▁toultan": 3292,
      "▁liniversite": 3293,
      "▁lexperyans": 3294,
      "▁difikilte": 3295,
      "bat": 3296,
      "ges": 3297,
      "kar": 3298,
      "land": 3299,
      "oin": 3300,
      "pet": 3301,
      "ront": 3302,
      "swit": 3303,
      "uc": 3304,
      "▁pond": 3305,
      "▁sale": 3306,
      "▁dor": 3307,
      "ench": 3308,
      "▁mw": 3309,
      "▁kn": 3310,
      "▁kare": 3311,
      "▁bord": 3312,
      "▁fit": 3313,
      "esi": 3314,
      "▁coup": 3315,
      "▁cry": 3316,
      "▁cost": 3317,
      "▁cieux": 3318,
      "ato": 3319,
      "▁national": 3320,
      "▁deep": 3321,
      "▁dekou": 3322,
      "ray": 3323,
      "▁ur": 3324,
      "▁lec": 3325,
      "▁level": 3326,
      "ief": 3327,
      "▁alla": 3328,
      "▁yet": 3329,
      "▁plante": 3330,
      "ifer": 3331,
      "▁iss": 3332,
      "▁etan": 3333,
      "onnman": 3334,
      "▁stup": 3335,
      "abri": 3336,
      "▁christ": 3337,
      "▁less": 3338,
      "▁trank": 3339,
      "▁export": 3340,
      "▁expect": 3341,
      "▁roi": 3342,
      "▁respect": 3343,
      "▁letid": 3344,
      "▁boner": 3345,
      "▁labous": 3346,
      "▁pov": 3347,
      "▁100": 3348,
      "▁polic": 3349,
      "▁aff": 3350,
      "▁folk": 3351,
      "▁eliz": 3352,
      "▁longer": 3353,
      "▁siram": 3354,
      "▁invite": 3355,
      "▁account": 3356,
      "▁legim": 3357,
      "▁cross": 3358,
      "▁piece": 3359,
      "▁bala": 3360,
      "priz": 3361,
      "▁voler": 3362,
      "▁consider": 3363,
      "▁makes": 3364,
      "▁marsan": 3365,
      "▁egal": 3366,
      "▁continue": 3367,
      "▁strong": 3368,
      "▁friends": 3369,
      "▁kontinye": 3370,
      "▁figir": 3371,
      "▁gouvern": 3372,
      "▁indep": 3373,
      "▁official": 3374,
      "▁terrible": 3375,
      "▁felt": 3376,
      "▁suddenly": 3377,
      "▁unesco": 3378,
      "▁ramsamy": 3379,
      "bes": 3380,
      "dit": 3381,
      "ffer": 3382,
      "house": 3383,
      "ner": 3384,
      "wet": 3385,
      "yom": 3386,
      "▁treat": 3387,
      "▁pow": 3388,
      "▁daut": 3389,
      "▁kart": 3390,
      "▁bread": 3391,
      "▁fest": 3392,
      "▁fav": 3393,
      "▁fight": 3394,
      "▁cla": 3395,
      "▁cote": 3396,
      "ali": 3397,
      "▁anc": 3398,
      "▁ner": 3399,
      "ily": 3400,
      "iling": 3401,
      "ilasion": 3402,
      "ilize": 3403,
      "▁eng": 3404,
      "▁tim": 3405,
      "▁inkl": 3406,
      "▁reysi": 3407,
      "elman": 3408,
      "room": 3409,
      "▁sakenn": 3410,
      "▁offer": 3411,
      "ami": 3412,
      "▁sept": 3413,
      "▁seksyon": 3414,
      "▁seeds": 3415,
      "▁sove": 3416,
      "▁yard": 3417,
      "▁plore": 3418,
      "▁pun": 3419,
      "▁stone": 3420,
      "istik": 3421,
      "▁heart": 3422,
      "▁true": 3423,
      "▁arm": 3424,
      "▁trap": 3425,
      "▁mang": 3426,
      "▁desc": 3427,
      "▁serman": 3428,
      "▁serten": 3429,
      "▁rose": 3430,
      "▁toute": 3431,
      "▁passe": 3432,
      "ends": 3433,
      "▁lets": 3434,
      "▁democ": 3435,
      "klav": 3436,
      "▁retourne": 3437,
      "▁lavenir": 3438,
      "▁became": 3439,
      "▁napa": 3440,
      "▁known": 3441,
      "▁defin": 3442,
      "▁expla": 3443,
      "▁erod": 3444,
      "▁ways": 3445,
      "▁produce": 3446,
      "▁kinds": 3447,
      "▁seven": 3448,
      "▁birth": 3449,
      "▁sarye": 3450,
      "▁rebell": 3451,
      "▁lili": 3452,
      "▁future": 3453,
      "▁speech": 3454,
      "bol": 3455,
      "dir": 3456,
      "jours": 3457,
      "kase": 3458,
      "men": 3459,
      "mos": 3460,
      "uite": 3461,
      "val": 3462,
      "was": 3463,
      "▁tur": 3464,
      "inte": 3465,
      "▁ach": 3466,
      "▁avert": 3467,
      "▁kra": 3468,
      "▁korn": 3469,
      "▁bun": 3470,
      "▁thous": 3471,
      "▁fane": 3472,
      "▁warn": 3473,
      "▁lait": 3474,
      "▁gone": 3475,
      "▁refer": 3476,
      "▁leau": 3477,
      "▁peur": 3478,
      "▁proze": 3479,
      "▁trwaz": 3480,
      "ival": 3481,
      "▁nef": 3482,
      "▁train": 3483,
      "stit": 3484,
      "▁shout": 3485,
      "▁toujours": 3486,
      "▁word": 3487,
      "▁avoir": 3488,
      "▁otour": 3489,
      "▁partis": 3490,
      "▁text": 3491,
      "▁boug": 3492,
      "▁propoz": 3493,
      "▁granper": 3494,
      "▁lapolis": 3495,
      "▁komers": 3496,
      "▁lives": 3497,
      "▁krway": 3498,
      "▁siper": 3499,
      "▁attack": 3500,
      "▁kept": 3501,
      "▁supp": 3502,
      "▁semenn": 3503,
      "▁anplas": 3504,
      "▁nesans": 3505,
      "▁privat": 3506,
      "▁leader": 3507,
      "▁message": 3508,
      "▁begin": 3509,
      "▁pirog": 3510,
      "▁health": 3511,
      "▁hindu": 3512,
      "▁sertin": 3513,
      "▁changes": 3514,
      "▁fizi": 3515,
      "▁council": 3516,
      "▁lepep": 3517,
      "▁lorsque": 3518,
      "▁thousand": 3519,
      "body": 3520,
      "pi": 3521,
      "ring": 3522,
      "sh": 3523,
      "vest": 3524,
      "yo": 3525,
      "▁lener": 3526,
      "▁pick": 3527,
      "▁pendant": 3528,
      "erg": 3529,
      "▁squ": 3530,
      "▁soup": 3531,
      "▁sens": 3532,
      "ences": 3533,
      "rete": 3534,
      "▁kay": 3535,
      "▁kree": 3536,
      "isite": 3537,
      "▁cin": 3538,
      "▁cause": 3539,
      "▁cows": 3540,
      "▁enter": 3541,
      "▁determ": 3542,
      "▁opt": 3543,
      "▁sac": 3544,
      "izalem": 3545,
      "usalem": 3546,
      "manse": 3547,
      "▁paul": 3548,
      "▁process": 3549,
      "ifikasyon": 3550,
      "▁stri": 3551,
      "▁lesp": 3552,
      "▁tranble": 3553,
      "▁french": 3554,
      "▁rock": 3555,
      "▁prim": 3556,
      "▁faith": 3557,
      "isees": 3558,
      "▁cele": 3559,
      "▁evil": 3560,
      "▁fek": 3561,
      "▁however": 3562,
      "rikiltir": 3563,
      "▁souv": 3564,
      "▁souvan": 3565,
      "▁itself": 3566,
      "ellement": 3567,
      "▁relations": 3568,
      "▁lagrikiltir": 3569,
      "▁remar": 3570,
      "▁gardien": 3571,
      "▁santral": 3572,
      "▁teachers": 3573,
      "▁court": 3574,
      "▁ready": 3575,
      "▁infl": 3576,
      "▁tantinn": 3577,
      "▁questions": 3578,
      "▁strateg": 3579,
      "▁zerizalem": 3580,
      "▁major": 3581,
      "▁black": 3582,
      "▁field": 3583,
      "▁jerusalem": 3584,
      "▁beautiful": 3585,
      "▁elizabet": 3586,
      "dre": 3587,
      "gat": 3588,
      "kn": 3589,
      "nal": 3590,
      "oise": 3591,
      "pan": 3592,
      "rand": 3593,
      "upe": 3594,
      "yasyon": 3595,
      "▁lum": 3596,
      "▁por": 3597,
      "▁pens": 3598,
      "▁pitie": 3599,
      "▁sus": 3600,
      "▁dab": 3601,
      "▁mult": 3602,
      "▁mix": 3603,
      "▁thro": 3604,
      "▁fal": 3605,
      "▁fode": 3606,
      "itte": 3607,
      "ature": 3608,
      "ality": 3609,
      "▁hy": 3610,
      "▁lape": 3611,
      "olt": 3612,
      "verite": 3613,
      "▁rot": 3614,
      "▁rom": 3615,
      "▁stick": 3616,
      "resse": 3617,
      "▁nek": 3618,
      "▁disappe": 3619,
      "▁mange": 3620,
      "onder": 3621,
      "▁oubien": 3622,
      "ument": 3623,
      "▁six": 3624,
      "▁bois": 3625,
      "▁buze": 3626,
      "astro": 3627,
      "▁outside": 3628,
      "▁lasante": 3629,
      "▁20": 3630,
      "▁linform": 3631,
      "▁salad": 3632,
      "iah": 3633,
      "▁premier": 3634,
      "▁voice": 3635,
      "▁gods": 3636,
      "▁bazar": 3637,
      "▁accept": 3638,
      "▁dibout": 3639,
      "▁venu": 3640,
      "▁rasanble": 3641,
      "▁clear": 3642,
      "▁leaders": 3643,
      "▁continu": 3644,
      "▁oblize": 3645,
      "▁study": 3646,
      "▁talan": 3647,
      "▁mobiliz": 3648,
      "baba": 3649,
      "▁number": 3650,
      "▁ninport": 3651,
      "▁necessary": 3652,
      "▁kantite": 3653,
      "▁lenerzi": 3654,
      "ban": 3655,
      "band": 3656,
      "iy": 3657,
      "rime": 3658,
      "▁lans": 3659,
      "▁piblik": 3660,
      "▁dous": 3661,
      "▁dau": 3662,
      "ened": 3663,
      "▁kris": 3664,
      "▁case": 3665,
      "▁ez": 3666,
      "▁etern": 3667,
      "▁eyes": 3668,
      "▁wont": 3669,
      "▁nour": 3670,
      "▁gout": 3671,
      "▁gate": 3672,
      "▁vu": 3673,
      "▁vye": 3674,
      "▁vais": 3675,
      "rog": 3676,
      "ract": 3677,
      "▁saved": 3678,
      "▁pouv": 3679,
      "▁andan": 3680,
      "ament": 3681,
      "inning": 3682,
      "quet": 3683,
      "ication": 3684,
      "▁seul": 3685,
      "▁jet": 3686,
      "▁jose": 3687,
      "ched": 3688,
      "▁route": 3689,
      "▁isnt": 3690,
      "▁uncle": 3691,
      "▁quick": 3692,
      "akter": 3693,
      "▁heure": 3694,
      "▁dirizan": 3695,
      "▁konpl": 3696,
      "ives": 3697,
      "enns": 3698,
      "▁desid": 3699,
      "▁ouv": 3700,
      "ibil": 3701,
      "▁gets": 3702,
      "▁lotel": 3703,
      "▁donner": 3704,
      "▁priye": 3705,
      "▁15": 3706,
      "▁event": 3707,
      "duction": 3708,
      "▁flank": 3709,
      "▁paper": 3710,
      "▁ditor": 3711,
      "acy": 3712,
      "▁dezer": 3713,
      "▁medec": 3714,
      "▁regle": 3715,
      "▁saler": 3716,
      "▁rekonp": 3717,
      "▁finalman": 3718,
      "▁garden": 3719,
      "ysis": 3720,
      "▁looked": 3721,
      "▁dekrir": 3722,
      "▁lizinn": 3723,
      "▁pige": 3724,
      "▁material": 3725,
      "▁teacher": 3726,
      "▁traditional": 3727,
      "▁kontinie": 3728,
      "▁souris": 3729,
      "▁pharisien": 3730,
      "▁ousa": 3731,
      "▁responsabilite": 3732,
      "▁andeor": 3733,
      "▁trankil": 3734,
      "bor": 3735,
      "fonn": 3736,
      "ham": 3737,
      "las": 3738,
      "xim": 3739,
      "▁ped": 3740,
      "▁siti": 3741,
      "▁diz": 3742,
      "enger": 3743,
      "▁kh": 3744,
      "▁best": 3745,
      "▁bul": 3746,
      "ises": 3747,
      "▁fis": 3748,
      "itab": 3749,
      "atter": 3750,
      "▁wood": 3751,
      "▁hot": 3752,
      "▁dekl": 3753,
      "▁delo": 3754,
      "▁tibaba": 3755,
      "irent": 3756,
      "▁vin": 3757,
      "▁reorgan": 3758,
      "▁ule": 3759,
      "ieme": 3760,
      "ayer": 3761,
      "▁sez": 3762,
      "ikman": 3763,
      "eme": 3764,
      "osion": 3765,
      "▁star": 3766,
      "▁chem": 3767,
      "▁dimans": 3768,
      "iend": 3769,
      "▁manip": 3770,
      "▁marche": 3771,
      "▁suvan": 3772,
      "▁raj": 3773,
      "▁desert": 3774,
      "▁koum": 3775,
      "▁prison": 3776,
      "▁grannk": 3777,
      "▁nuit": 3778,
      "▁perform": 3779,
      "▁reprez": 3780,
      "▁ami": 3781,
      "▁byin": 3782,
      "▁concer": 3783,
      "itive": 3784,
      "▁lamas": 3785,
      "▁demons": 3786,
      "▁toutes": 3787,
      "▁grandm": 3788,
      "▁transform": 3789,
      "▁direct": 3790,
      "itting": 3791,
      "▁tousel": 3792,
      "▁problems": 3793,
      "▁pieces": 3794,
      "▁lemonn": 3795,
      "▁classes": 3796,
      "▁pilate": 3797,
      "▁dibut": 3798,
      "▁certains": 3799,
      "▁mesaz": 3800,
      "▁internasyonal": 3801,
      "▁magic": 3802,
      "▁franse": 3803,
      "▁ogmant": 3804,
      "▁spesyal": 3805,
      "▁lieu": 3806,
      "▁particular": 3807,
      "▁etidian": 3808,
      "▁according": 3809,
      "▁dream": 3810,
      "▁prinsip": 3811,
      "▁rebellion": 3812,
      "▁pharisiens": 3813,
      "ao": 3814,
      "aine": 3815,
      "bones": 3816,
      "jet": 3817,
      "line": 3818,
      "renn": 3819,
      "ted": 3820,
      "▁tit": 3821,
      "▁tete": 3822,
      "▁loz": 3823,
      "▁sers": 3824,
      "enou": 3825,
      "▁kop": 3826,
      "▁kiltir": 3827,
      "▁ball": 3828,
      "isans": 3829,
      "ori": 3830,
      "▁ech": 3831,
      "▁zar": 3832,
      "▁zep": 3833,
      "▁anrez": 3834,
      "▁enem": 3835,
      "▁gay": 3836,
      "▁devez": 3837,
      "iri": 3838,
      "▁vra": 3839,
      "roy": 3840,
      "amem": 3841,
      "▁moise": 3842,
      "▁sectors": 3843,
      "▁jon": 3844,
      "▁jours": 3845,
      "▁park": 3846,
      "▁parabol": 3847,
      "▁beat": 3848,
      "▁bebe": 3849,
      "▁rs": 3850,
      "▁rit": 3851,
      "ously": 3852,
      "▁forward": 3853,
      "▁strik": 3854,
      "▁ars": 3855,
      "▁near": 3856,
      "uler": 3857,
      "▁mach": 3858,
      "ired": 3859,
      "▁manier": 3860,
      "▁suffer": 3861,
      "▁sho": 3862,
      "▁lanwit": 3863,
      "▁amer": 3864,
      "ains": 3865,
      "waye": 3866,
      "▁lakor": 3867,
      "▁lose": 3868,
      "▁conj": 3869,
      "▁loto": 3870,
      "▁yourself": 3871,
      "▁month": 3872,
      "▁preske": 3873,
      "▁contrib": 3874,
      "▁medium": 3875,
      "▁decided": 3876,
      "▁autour": 3877,
      "▁prodwir": 3878,
      "▁product": 3879,
      "▁pays": 3880,
      "▁job": 3881,
      "▁milk": 3882,
      "▁huge": 3883,
      "▁associ": 3884,
      "▁suppos": 3885,
      "▁dibwa": 3886,
      "▁tortoise": 3887,
      "▁hands": 3888,
      "▁bird": 3889,
      "▁research": 3890,
      "▁vizit": 3891,
      "▁poissons": 3892,
      "▁sorry": 3893,
      "▁lokal": 3894,
      "▁pharisees": 3895,
      "▁lingu": 3896,
      "▁tradisyonel": 3897,
      "▁english": 3898,
      "▁agreement": 3899,
      "▁wedding": 3900,
      "▁games": 3901,
      "▁choses": 3902,
      "jamin": 3903,
      "ores": 3904,
      "zer": 3905,
      "zor": 3906,
      "ances": 3907,
      "▁tont": 3908,
      "▁late": 3909,
      "▁lend": 3910,
      "inie": 3911,
      "▁aunt": 3912,
      "▁mim": 3913,
      "▁mans": 3914,
      "▁mist": 3915,
      "▁mass": 3916,
      "▁mersi": 3917,
      "▁thus": 3918,
      "▁fro": 3919,
      "▁fille": 3920,
      "▁foule": 3921,
      "▁cop": 3922,
      "atre": 3923,
      "▁anons": 3924,
      "▁nwel": 3925,
      "ili": 3926,
      "▁enpe": 3927,
      "irt": 3928,
      "▁vary": 3929,
      "▁reun": 3930,
      "rop": 3931,
      "sek": 3932,
      "▁peye": 3933,
      "uses": 3934,
      "▁rend": 3935,
      "▁rouz": 3936,
      "▁plen": 3937,
      "outik": 3938,
      "▁forms": 3939,
      "▁lorgan": 3940,
      "▁cham": 3941,
      "▁arch": 3942,
      "▁atas": 3943,
      "▁mary": 3944,
      "▁suff": 3945,
      "▁descri": 3946,
      "▁door": 3947,
      "▁ground": 3948,
      "▁avaient": 3949,
      "▁telev": 3950,
      "▁board": 3951,
      "▁laboutik": 3952,
      "▁clim": 3953,
      "▁priests": 3954,
      "▁blind": 3955,
      "▁farouk": 3956,
      "ultan": 3957,
      "▁dezyem": 3958,
      "▁rezion": 3959,
      "plied": 3960,
      "▁compet": 3961,
      "▁deba": 3962,
      "lock": 3963,
      "▁sekre": 3964,
      "▁doesnt": 3965,
      "▁happy": 3966,
      "liye": 3967,
      "▁pilat": 3968,
      "▁benzam": 3969,
      "▁benjamin": 3970,
      "head": 3971,
      "▁idea": 3972,
      "▁bonne": 3973,
      "▁step": 3974,
      "▁sunday": 3975,
      "▁passed": 3976,
      "▁wrong": 3977,
      "▁south": 3978,
      "▁species": 3979,
      "▁particip": 3980,
      "▁immedi": 3981,
      "semble": 3982,
      "▁written": 3983,
      "▁gramatin": 3984,
      "▁khadi": 3985,
      "▁grannkaz": 3986,
      "▁tonton": 3987,
      "gr": 3988,
      "ians": 3989,
      "kile": 3990,
      "na": 3991,
      "pat": 3992,
      "uraz": 3993,
      "ani": 3994,
      "▁trik": 3995,
      "▁linn": 3996,
      "▁pale": 3997,
      "▁pizon": 3998,
      "ery": 3999,
      "eral": 4000,
      "▁sand": 4001,
      "▁milt": 4002,
      "▁koul": 4003,
      "▁bak": 4004,
      "▁font": 4005,
      "oran": 4006,
      "▁cit": 4007,
      "▁either": 4008,
      "▁wel": 4009,
      "▁hes": 4010,
      "▁gon": 4011,
      "ettes": 4012,
      "irite": 4013,
      "▁van": 4014,
      "▁voy": 4015,
      "▁vwaz": 4016,
      "▁reason": 4017,
      "rie": 4018,
      "▁ofer": 4019,
      "aps": 4020,
      "▁bannla": 4021,
      "▁parler": 4022,
      "▁paralize": 4023,
      "▁island": 4024,
      "▁youre": 4025,
      "▁meyer": 4026,
      "▁trom": 4027,
      "▁apl": 4028,
      "▁oral": 4029,
      "▁orders": 4030,
      "▁exanp": 4031,
      "▁trakase": 4032,
      "▁atak": 4033,
      "▁mark": 4034,
      "▁married": 4035,
      "▁succ": 4036,
      "cked": 4037,
      "▁pratik": 4038,
      "▁fac": 4039,
      "unning": 4040,
      "▁amb": 4041,
      "▁mete": 4042,
      "▁travayis": 4043,
      "▁boute": 4044,
      "▁ceb": 4045,
      "▁spread": 4046,
      "▁brother": 4047,
      "▁usually": 4048,
      "aires": 4049,
      "issance": 4050,
      "▁tombe": 4051,
      "▁finally": 4052,
      "▁krim": 4053,
      "▁evening": 4054,
      "▁vivan": 4055,
      "▁lazwa": 4056,
      "▁satan": 4057,
      "▁faites": 4058,
      "▁rakonte": 4059,
      "▁zelev": 4060,
      "▁enfant": 4061,
      "▁miray": 4062,
      "▁gives": 4063,
      "▁harvest": 4064,
      "▁encoura": 4065,
      "▁analysis": 4066,
      "▁experience": 4067,
      "▁olig": 4068,
      "▁koumsamem": 4069,
      "▁visit": 4070,
      "▁lingw": 4071,
      "▁measures": 4072,
      "▁europe": 4073,
      "▁obzerv": 4074,
      "▁lazybones": 4075,
      "▁independ": 4076,
      "▁rekonpans": 4077,
      "▁benzamen": 4078,
      "▁khadija": 4079,
      "aur": 4080,
      "bou": 4081,
      "bin": 4082,
      "eur": 4083,
      "hed": 4084,
      "ove": 4085,
      "pap": 4086,
      "ych": 4087,
      "▁tet": 4088,
      "▁tultan": 4089,
      "▁lenn": 4090,
      "▁sors": 4091,
      "onial": 4092,
      "▁award": 4093,
      "▁mant": 4094,
      "▁mway": 4095,
      "reg": 4096,
      "▁kav": 4097,
      "▁base": 4098,
      "▁born": 4099,
      "▁throw": 4100,
      "▁fant": 4101,
      "▁fwet": 4102,
      "arl": 4103,
      "itation": 4104,
      "▁egg": 4105,
      "▁early": 4106,
      "▁wto": 4107,
      "▁nos": 4108,
      "▁hus": 4109,
      "▁energ": 4110,
      "▁laisse": 4111,
      "▁gor": 4112,
      "▁deal": 4113,
      "▁depl": 4114,
      "ays": 4115,
      "▁seg": 4116,
      "▁seule": 4117,
      "▁jardin": 4118,
      "▁beings": 4119,
      "andans": 4120,
      "▁fors": 4121,
      "▁chag": 4122,
      "▁arg": 4123,
      "ivid": 4124,
      "ivier": 4125,
      "ively": 4126,
      "▁mah": 4127,
      "▁dise": 4128,
      "▁dess": 4129,
      "▁serious": 4130,
      "▁kapasite": 4131,
      "▁prendre": 4132,
      "▁result": 4133,
      "▁esklav": 4134,
      "▁kontrib": 4135,
      "▁peoples": 4136,
      "▁log": 4137,
      "▁tekn": 4138,
      "▁members": 4139,
      "astic": 4140,
      "fekte": 4141,
      "▁lamiz": 4142,
      "duce": 4143,
      "▁brit": 4144,
      "▁usual": 4145,
      "▁position": 4146,
      "▁tomem": 4147,
      "▁latab": 4148,
      "▁angi": 4149,
      "▁tempo": 4150,
      "▁reform": 4151,
      "▁inside": 4152,
      "▁tail": 4153,
      "▁farmhouse": 4154,
      "rated": 4155,
      "▁matter": 4156,
      "▁organize": 4157,
      "▁krizla": 4158,
      "▁promise": 4159,
      "▁based": 4160,
      "▁vites": 4161,
      "▁iron": 4162,
      "▁slow": 4163,
      "▁oblig": 4164,
      "▁droit": 4165,
      "▁middle": 4166,
      "▁izrael": 4167,
      "▁arrive": 4168,
      "▁occasion": 4169,
      "▁behind": 4170,
      "▁ruling": 4171,
      "▁ensuite": 4172,
      "▁several": 4173,
      "▁vwayaz": 4174,
      "▁partisip": 4175,
      "▁krwayans": 4176,
      "▁joseph": 4177,
      "▁flanker": 4178,
      "▁mimi": 4179,
      "bours": 4180,
      "ex": 4181,
      "iers": 4182,
      "oon": 4183,
      "pes": 4184,
      "psion": 4185,
      "rann": 4186,
      "rwat": 4187,
      "ula": 4188,
      "wiz": 4189,
      "yeter": 4190,
      "▁sest": 4191,
      "▁dar": 4192,
      "▁dark": 4193,
      "▁age": 4194,
      "▁akey": 4195,
      "▁ment": 4196,
      "▁mia": 4197,
      "▁mount": 4198,
      "▁mouv": 4199,
      "▁kavi": 4200,
      "▁fed": 4201,
      "▁fell": 4202,
      "itude": 4203,
      "▁cand": 4204,
      "ata": 4205,
      "atory": 4206,
      "▁anonse": 4207,
      "▁nen": 4208,
      "▁nations": 4209,
      "ilte": 4210,
      "▁hon": 4211,
      "▁hur": 4212,
      "▁lay": 4213,
      "▁tig": 4214,
      "▁oct": 4215,
      "▁infer": 4216,
      "▁save": 4217,
      "▁danger": 4218,
      "▁sosi": 4219,
      "▁paral": 4220,
      "▁plim": 4221,
      "ifier": 4222,
      "ansman": 4223,
      "onner": 4224,
      "ables": 4225,
      "estion": 4226,
      "▁champ": 4227,
      "aksion": 4228,
      "▁marm": 4229,
      "▁sucre": 4230,
      "▁raf": 4231,
      "▁doc": 4232,
      "▁touzour": 4233,
      "▁note": 4234,
      "▁mettre": 4235,
      "▁labank": 4236,
      "▁lotorite": 4237,
      "▁fev": 4238,
      "▁detrir": 4239,
      "▁becom": 4240,
      "▁souff": 4241,
      "▁individ": 4242,
      "▁monte": 4243,
      "▁monopol": 4244,
      "▁divor": 4245,
      "▁ecrit": 4246,
      "▁grandi": 4247,
      "▁dimounnla": 4248,
      "▁solid": 4249,
      "▁everywhere": 4250,
      "▁ledan": 4251,
      "▁rapid": 4252,
      "▁phot": 4253,
      "▁baze": 4254,
      "▁merit": 4255,
      "▁azordi": 4256,
      "▁taking": 4257,
      "▁rencont": 4258,
      "▁single": 4259,
      "▁kokin": 4260,
      "▁sosyete": 4261,
      "▁beginning": 4262,
      "▁chaque": 4263,
      "▁propriyeter": 4264,
      "▁comrade": 4265,
      "▁mizer": 4266,
      "▁moust": 4267,
      "▁travailler": 4268,
      "▁toulede": 4269,
      "▁psych": 4270,
      "▁plito": 4271,
      "▁electric": 4272,
      "▁celui": 4273,
      "▁cerem": 4274,
      "▁celeb": 4275,
      "▁lumiere": 4276,
      "▁koumadir": 4277,
      "▁anrezistre": 4278,
      "▁lorganizasyon": 4279,
      "ef": 4280,
      "gement": 4281,
      "iyn": 4282,
      "mon": 4283,
      "mas": 4284,
      "pital": 4285,
      "tra": 4286,
      "uille": 4287,
      "▁lour": 4288,
      "▁lwin": 4289,
      "▁sla": 4290,
      "▁sorte": 4291,
      "▁dos": 4292,
      "▁dyn": 4293,
      "ensive": 4294,
      "▁mi": 4295,
      "▁mention": 4296,
      "▁kase": 4297,
      "▁bwat": 4298,
      "isaz": 4299,
      "▁fi": 4300,
      "orrow": 4301,
      "arite": 4302,
      "▁conne": 4303,
      "atic": 4304,
      "▁zed": 4305,
      "▁nasion": 4306,
      "▁hell": 4307,
      "▁gaz": 4308,
      "▁ov": 4309,
      "▁oil": 4310,
      "omm": 4311,
      "omon": 4312,
      "▁towards": 4313,
      "raid": 4314,
      "▁saz": 4315,
      "ently": 4316,
      "▁lef": 4317,
      "urne": 4318,
      "terieur": 4319,
      "▁rise": 4320,
      "▁rara": 4321,
      "utik": 4322,
      "ander": 4323,
      "▁quar": 4324,
      "▁fertil": 4325,
      "▁exact": 4326,
      "▁dish": 4327,
      "odo": 4328,
      "▁mank": 4329,
      "▁rain": 4330,
      "ardo": 4331,
      "umes": 4332,
      "▁notice": 4333,
      "▁resort": 4334,
      "▁esc": 4335,
      "▁worry": 4336,
      "▁fais": 4337,
      "elling": 4338,
      "▁repa": 4339,
      "▁ago": 4340,
      "▁agro": 4341,
      "▁member": 4342,
      "▁close": 4343,
      "astik": 4344,
      "▁lalinn": 4345,
      "▁sang": 4346,
      "▁afraid": 4347,
      "▁bliye": 4348,
      "▁longay": 4349,
      "▁konpayn": 4350,
      "▁posede": 4351,
      "▁tomorrow": 4352,
      "▁decide": 4353,
      "▁sinagog": 4354,
      "▁kitfwa": 4355,
      "▁sakunn": 4356,
      "▁realite": 4357,
      "▁angel": 4358,
      "▁barn": 4359,
      "▁transport": 4360,
      "▁instance": 4361,
      "▁ranpl": 4362,
      "▁banann": 4363,
      "▁rantre": 4364,
      "▁menas": 4365,
      "▁trezor": 4366,
      "ologie": 4367,
      "▁master": 4368,
      "▁secur": 4369,
      "▁creole": 4370,
      "▁simple": 4371,
      "▁ident": 4372,
      "▁teaching": 4373,
      "▁rupe": 4374,
      "▁kestion": 4375,
      "▁institutions": 4376,
      "▁sunil": 4377,
      "▁berenger": 4378,
      "▁absol": 4379,
      "▁following": 4380,
      "▁destroy": 4381,
      "▁understanding": 4382,
      "▁hung": 4383,
      "▁write": 4384,
      "▁india": 4385,
      "▁ofisie": 4386,
      "▁solda": 4387,
      "▁utilise": 4388,
      "▁religious": 4389,
      "▁england": 4390,
      "▁etranze": 4391,
      "▁frederik": 4392,
      "▁kutim": 4393,
      "▁sindika": 4394,
      "▁stratezi": 4395,
      "▁lansegnman": 4396,
      "▁property": 4397,
      "▁lecole": 4398,
      "▁seulement": 4399,
      "▁chagos": 4400,
      "by": 4401,
      "bas": 4402,
      "ev": 4403,
      "fl": 4404,
      "hood": 4405,
      "pres": 4406,
      "pire": 4407,
      "wing": 4408,
      "zel": 4409,
      "▁tin": 4410,
      "▁tor": 4411,
      "▁tard": 4412,
      "▁lut": 4413,
      "▁lod": 4414,
      "▁pel": 4415,
      "erent": 4416,
      "▁sins": 4417,
      "▁ame": 4418,
      "▁kwa": 4419,
      "▁kilt": 4420,
      "▁bib": 4421,
      "▁file": 4422,
      "orer": 4423,
      "arp": 4424,
      "▁conn": 4425,
      "atri": 4426,
      "▁wall": 4427,
      "▁zonn": 4428,
      "▁ny": 4429,
      "▁nimer": 4430,
      "▁haut": 4431,
      "▁lac": 4432,
      "▁laverite": 4433,
      "▁gri": 4434,
      "▁gun": 4435,
      "leve": 4436,
      "▁tiket": 4437,
      "▁vak": 4438,
      "▁vide": 4439,
      "▁replied": 4440,
      "▁toler": 4441,
      "elve": 4442,
      "rage": 4443,
      "▁sacri": 4444,
      "▁sabb": 4445,
      "▁lefe": 4446,
      "iev": 4447,
      "▁peuv": 4448,
      "icate": 4449,
      "teman": 4450,
      "▁whate": 4451,
      "usion": 4452,
      "idans": 4453,
      "▁ron": 4454,
      "utes": 4455,
      "ified": 4456,
      "▁union": 4457,
      "▁unions": 4458,
      "▁etone": 4459,
      "▁pull": 4460,
      "▁chick": 4461,
      "istans": 4462,
      "▁exak": 4463,
      "▁suiv": 4464,
      "▁summ": 4465,
      "▁shell": 4466,
      "▁area": 4467,
      "▁seront": 4468,
      "▁esk": 4469,
      "▁grass": 4470,
      "▁report": 4471,
      "▁amene": 4472,
      "▁partaz": 4473,
      "▁rich": 4474,
      "▁adop": 4475,
      "asts": 4476,
      "▁propoze": 4477,
      "ached": 4478,
      "▁lapo": 4479,
      "▁terti": 4480,
      "▁papay": 4481,
      "▁montagne": 4482,
      "▁konpet": 4483,
      "▁minit": 4484,
      "▁servis": 4485,
      "▁decre": 4486,
      "▁lintere": 4487,
      "▁lived": 4488,
      "▁invol": 4489,
      "▁autre": 4490,
      "▁belong": 4491,
      "▁organism": 4492,
      "▁double": 4493,
      "▁trem": 4494,
      "▁carry": 4495,
      "▁koste": 4496,
      "▁thinking": 4497,
      "▁promes": 4498,
      "▁create": 4499,
      "▁check": 4500,
      "▁azir": 4501,
      "▁azenou": 4502,
      "tempt": 4503,
      "▁mazik": 4504,
      "iction": 4505,
      "▁idi": 4506,
      "▁30": 4507,
      "olozik": 4508,
      "▁donk": 4509,
      "▁pray": 4510,
      "▁tanto": 4511,
      "▁konstrir": 4512,
      "▁revolision": 4513,
      "▁revolution": 4514,
      "▁domin": 4515,
      "▁students": 4516,
      "▁chair": 4517,
      "▁prophete": 4518,
      "▁girls": 4519,
      "▁quelques": 4520,
      "▁spesial": 4521,
      "▁subject": 4522,
      "▁seemed": 4523,
      "▁performan": 4524,
      "▁radio": 4525,
      "▁diminye": 4526,
      "▁laugh": 4527,
      "▁serviteur": 4528,
      "▁conditions": 4529,
      "▁horses": 4530,
      "▁stupid": 4531,
      "▁dautres": 4532,
      "▁gayne": 4533,
      "▁dynam": 4534,
      "▁konpayni": 4535,
      "▁peuvent": 4536,
      "▁whatever": 4537,
      "▁tertiary": 4538,
      "aff": 4539,
      "cement": 4540,
      "krir": 4541,
      "ming": 4542,
      "obe": 4543,
      "ping": 4544,
      "rans": 4545,
      "ronom": 4546,
      "ub": 4547,
      "uel": 4548,
      "xe": 4549,
      "▁ici": 4550,
      "▁lwen": 4551,
      "▁pann": 4552,
      "era": 4553,
      "▁sut": 4554,
      "▁swar": 4555,
      "▁sint": 4556,
      "▁dible": 4557,
      "▁douler": 4558,
      "oure": 4559,
      "eni": 4560,
      "▁magn": 4561,
      "▁kreat": 4562,
      "▁kraz": 4563,
      "▁bles": 4564,
      "▁belle": 4565,
      "▁threat": 4566,
      "ister": 4567,
      "▁fim": 4568,
      "▁furt": 4569,
      "▁wo": 4570,
      "▁zide": 4571,
      "▁zida": 4572,
      "▁anne": 4573,
      "▁hid": 4574,
      "▁hos": 4575,
      "▁envo": 4576,
      "▁deli": 4577,
      "leg": 4578,
      "▁oc": 4579,
      "▁vom": 4580,
      "▁sais": 4581,
      "▁sack": 4582,
      "▁saba": 4583,
      "▁dant": 4584,
      "▁least": 4585,
      "▁pouvwar": 4586,
      "izer": 4587,
      "▁sega": 4588,
      "▁jam": 4589,
      "tery": 4590,
      "▁rent": 4591,
      "▁chau": 4592,
      "▁arbre": 4593,
      "▁traka": 4594,
      "ozision": 4595,
      "▁marri": 4596,
      "aute": 4597,
      "▁prezan": 4598,
      "▁roll": 4599,
      "▁depann": 4600,
      "eller": 4601,
      "▁metal": 4602,
      "▁estate": 4603,
      "▁devant": 4604,
      "▁memor": 4605,
      "▁labutik": 4606,
      "▁ceci": 4607,
      "▁larivier": 4608,
      "▁brans": 4609,
      "▁batis": 4610,
      "▁terms": 4611,
      "▁komye": 4612,
      "0000": 4613,
      "▁medyom": 4614,
      "▁konpre": 4615,
      "▁toutswit": 4616,
      "▁service": 4617,
      "▁employment": 4618,
      "▁died": 4619,
      "▁knows": 4620,
      "▁scale": 4621,
      "▁relasyon": 4622,
      "▁compens": 4623,
      "▁final": 4624,
      "ratik": 4625,
      "▁legal": 4626,
      "▁fatig": 4627,
      "▁natir": 4628,
      "ozef": 4629,
      "▁entre": 4630,
      "temps": 4631,
      "▁mazor": 4632,
      "▁histoire": 4633,
      "▁2004": 4634,
      "▁kolez": 4635,
      "▁patrona": 4636,
      "▁mrs": 4637,
      "▁coupe": 4638,
      "▁followers": 4639,
      "▁ordin": 4640,
      "▁constit": 4641,
      "▁appeared": 4642,
      "▁regardez": 4643,
      "▁complet": 4644,
      "▁kwiz": 4645,
      "rasi": 4646,
      "▁zakari": 4647,
      "▁crowd": 4648,
      "▁zeneral": 4649,
      "▁plitar": 4650,
      "▁folktales": 4651,
      "▁rodrigues": 4652,
      "▁increase": 4653,
      "▁circ": 4654,
      "▁chinese": 4655,
      "▁authority": 4656,
      "▁dekouver": 4657,
      "▁explain": 4658,
      "▁lozik": 4659,
      "▁husband": 4660,
      "▁energy": 4661,
      "▁akeyir": 4662,
      "▁further": 4663,
      "bar": 4664,
      "car": 4665,
      "father": 4666,
      "ging": 4667,
      "gth": 4668,
      "hol": 4669,
      "kri": 4670,
      "lim": 4671,
      "ror": 4672,
      "rase": 4673,
      "wil": 4674,
      "yet": 4675,
      "▁til": 4676,
      "▁lpt": 4677,
      "▁ster": 4678,
      "▁dign": 4679,
      "▁drol": 4680,
      "enez": 4681,
      "ension": 4682,
      "▁mum": 4683,
      "▁moll": 4684,
      "▁krit": 4685,
      "▁kings": 4686,
      "▁kwi": 4687,
      "▁bill": 4688,
      "▁fen": 4689,
      "▁fann": 4690,
      "ester": 4691,
      "itor": 4692,
      "iture": 4693,
      "▁cart": 4694,
      "▁city": 4695,
      "▁eye": 4696,
      "alenn": 4697,
      "▁hill": 4698,
      "▁gol": 4699,
      "▁gateau": 4700,
      "▁rever": 4701,
      "▁repe": 4702,
      "eless": 4703,
      "rain": 4704,
      "rial": 4705,
      "▁ennmi": 4706,
      "▁uver": 4707,
      "ential": 4708,
      "▁lever": 4709,
      "▁leaves": 4710,
      "vey": 4711,
      "antasion": 4712,
      "icien": 4713,
      "▁soyez": 4714,
      "onter": 4715,
      "iklet": 4716,
      "▁parle": 4717,
      "▁roup": 4718,
      "▁project": 4719,
      "▁israel": 4720,
      "oser": 4721,
      "▁asir": 4722,
      "▁chief": 4723,
      "▁itiliz": 4724,
      "avan": 4725,
      "ipar": 4726,
      "law": 4727,
      "▁negl": 4728,
      "ulate": 4729,
      "▁atansion": 4730,
      "▁raised": 4731,
      "▁desizion": 4732,
      "▁doit": 4733,
      "▁pred": 4734,
      "ibilite": 4735,
      "▁pron": 4736,
      "▁grin": 4737,
      "▁perman": 4738,
      "ellig": 4739,
      "▁maler": 4740,
      "▁estates": 4741,
      "wayan": 4742,
      "▁aks": 4743,
      "▁therefore": 4744,
      "▁evit": 4745,
      "ctionn": 4746,
      "▁flo": 4747,
      "▁flight": 4748,
      "▁bras": 4749,
      "▁brothers": 4750,
      "▁batay": 4751,
      "klam": 4752,
      "the": 4753,
      "▁retire": 4754,
      "ruit": 4755,
      "rupt": 4756,
      "▁cold": 4757,
      "▁ansien": 4758,
      "▁soufer": 4759,
      "▁committe": 4760,
      "▁baraz": 4761,
      "▁transition": 4762,
      "▁fright": 4763,
      "▁galupe": 4764,
      "▁tousala": 4765,
      "▁trees": 4766,
      "▁crises": 4767,
      "▁jobs": 4768,
      "▁natural": 4769,
      "▁volonte": 4770,
      "▁attention": 4771,
      "▁distrib": 4772,
      "ablir": 4773,
      "▁protest": 4774,
      "▁bonnfam": 4775,
      "▁jude": 4776,
      "▁zetwal": 4777,
      "▁observe": 4778,
      "ograf": 4779,
      "▁olie": 4780,
      "▁brok": 4781,
      "▁navig": 4782,
      "▁obeir": 4783,
      "▁proverbs": 4784,
      "▁hair": 4785,
      "▁hoof": 4786,
      "▁corner": 4787,
      "▁lisyen": 4788,
      "▁lelv": 4789,
      "▁frederick": 4790,
      "▁allowed": 4791,
      "▁lentere": 4792,
      "▁places": 4793,
      "▁aprose": 4794,
      "▁third": 4795,
      "▁africa": 4796,
      "▁surpris": 4797,
      "▁includ": 4798,
      "▁entendu": 4799,
      "▁cycl": 4800,
      "▁capitalism": 4801,
      "▁street": 4802,
      "▁karem": 4803,
      "▁festival": 4804,
      "▁strategy": 4805,
      "▁savedir": 4806,
      "▁welc": 4807,
      "▁lennmi": 4808,
      "▁lamizik": 4809,
      "▁zedmo": 4810,
      "▁performance": 4811,
      "bu": 4812,
      "bis": 4813,
      "din": 4814,
      "ey": 4815,
      "eper": 4816,
      "fas": 4817,
      "gers": 4818,
      "rom": 4819,
      "tonn": 4820,
      "uie": 4821,
      "yod": 4822,
      "▁ign": 4823,
      "anger": 4824,
      "▁pile": 4825,
      "erc": 4826,
      "▁sound": 4827,
      "▁syn": 4828,
      "▁dry": 4829,
      "▁mol": 4830,
      "▁moul": 4831,
      "▁mul": 4832,
      "rev": 4833,
      "▁kup": 4834,
      "▁kaf": 4835,
      "▁killed": 4836,
      "▁fout": 4837,
      "▁fast": 4838,
      "orme": 4839,
      "iting": 4840,
      "▁cow": 4841,
      "▁cake": 4842,
      "▁crim": 4843,
      "ati": 4844,
      "▁wants": 4845,
      "▁zozef": 4846,
      "▁hay": 4847,
      "▁hours": 4848,
      "▁game": 4849,
      "▁gather": 4850,
      "▁ded": 4851,
      "leem": 4852,
      "▁ore": 4853,
      "▁viend": 4854,
      "▁inpl": 4855,
      "▁requ": 4856,
      "rid": 4857,
      "▁moins": 4858,
      "▁pep": 4859,
      "▁whom": 4860,
      "▁white": 4861,
      "▁alone": 4862,
      "▁yer": 4863,
      "▁ja": 4864,
      "emoni": 4865,
      "char": 4866,
      "change": 4867,
      "▁rar": 4868,
      "▁rum": 4869,
      "ansie": 4870,
      "▁forced": 4871,
      "▁ekl": 4872,
      "▁station": 4873,
      "▁cho": 4874,
      "▁chap": 4875,
      "▁heures": 4876,
      "▁konte": 4877,
      "ips": 4878,
      "▁appar": 4879,
      "ivman": 4880,
      "ivity": 4881,
      "▁maitre": 4882,
      "odi": 4883,
      "▁manag": 4884,
      "▁ile": 4885,
      "▁abra": 4886,
      "▁frere": 4887,
      "▁touch": 4888,
      "▁print": 4889,
      "▁ress": 4890,
      "▁resers": 4891,
      "▁reserv": 4892,
      "▁gren": 4893,
      "▁biznes": 4894,
      "▁imin": 4895,
      "▁avons": 4896,
      "▁whats": 4897,
      "▁agree": 4898,
      "▁partu": 4899,
      "ained": 4900,
      "▁lakord": 4901,
      "▁lakrwa": 4902,
      "▁adina": 4903,
      "▁bienere": 4904,
      "▁intellig": 4905,
      "▁lamone": 4906,
      "▁lari": 4907,
      "▁affect": 4908,
      "▁quiet": 4909,
      "▁lapar": 4910,
      "▁lafrik": 4911,
      "osex": 4912,
      "▁sayings": 4913,
      "acter": 4914,
      "▁guard": 4915,
      "▁detail": 4916,
      "▁soud": 4917,
      "▁medic": 4918,
      "▁coins": 4919,
      "▁ankoler": 4920,
      "▁ankuraz": 4921,
      "▁minim": 4922,
      "▁diab": 4923,
      "▁decision": 4924,
      "▁rezilt": 4925,
      "▁beth": 4926,
      "▁relizyon": 4927,
      "▁defann": 4928,
      "▁rekolt": 4929,
      "▁debate": 4930,
      "▁legl": 4931,
      "▁galoupe": 4932,
      "▁konsider": 4933,
      "▁miser": 4934,
      "▁dekor": 4935,
      "▁capac": 4936,
      "▁lepase": 4937,
      "▁phil": 4938,
      "▁lemesi": 4939,
      "▁beni": 4940,
      "ablish": 4941,
      "▁fishing": 4942,
      "▁singing": 4943,
      "▁clean": 4944,
      "▁clearly": 4945,
      "▁dernye": 4946,
      "▁centre": 4947,
      "▁turned": 4948,
      "▁beliefs": 4949,
      "▁baba": 4950,
      "▁konstit": 4951,
      "▁petits": 4952,
      "▁demanda": 4953,
      "▁pardone": 4954,
      "▁speaking": 4955,
      "▁storyt": 4956,
      "▁healed": 4957,
      "▁holy": 4958,
      "▁soleil": 4959,
      "▁tamil": 4960,
      "▁broke": 4961,
      "▁named": 4962,
      "▁apartir": 4963,
      "▁aktivite": 4964,
      "▁fruits": 4965,
      "▁hommes": 4966,
      "▁sirtou": 4967,
      "▁diversification": 4968,
      "▁poems": 4969,
      "▁plizyer": 4970,
      "▁buildings": 4971,
      "▁environ": 4972,
      "▁capitalists": 4973,
      "▁benef": 4974,
      "▁historical": 4975,
      "▁voulez": 4976,
      "▁intervie": 4977,
      "▁easy": 4978,
      "▁besoin": 4979,
      "▁announced": 4980,
      "▁mondyal": 4981,
      "▁company": 4982,
      "▁lautre": 4983,
      "▁egalement": 4984,
      "▁democrat": 4985,
      "▁bungal": 4986,
      "▁trwaziem": 4987,
      "▁textile": 4988,
      "▁cinq": 4989,
      "▁success": 4990,
      "▁lingwistik": 4991,
      "▁oclock": 4992,
      "▁rezilta": 4993,
      "oid": 4994,
      "pose": 4995,
      "rant": 4996,
      "rise": 4997,
      "work": 4998,
      "zur": 4999,
      "▁ere": 5000,
      "▁tend": 5001,
      "▁lanter": 5002,
      "▁pad": 5003,
      "▁pip": 5004,
      "▁pater": 5005,
      "▁pole": 5006,
      "▁pies": 5007,
      "▁siv": 5008,
      "▁sity": 5009,
      "▁sitting": 5010,
      "onze": 5011,
      "▁dad": 5012,
      "enue": 5013,
      "▁afekte": 5014,
      "▁mille": 5015,
      "▁mouse": 5016,
      "▁bwa": 5017,
      "▁bare": 5018,
      "▁bient": 5019,
      "isi": 5020,
      "▁fourn": 5021,
      "▁crit": 5022,
      "▁worth": 5023,
      "oter": 5024,
      "ases": 5025,
      "▁anu": 5026,
      "▁nave": 5027,
      "▁hour": 5028,
      "▁gas": 5029,
      "ley": 5030,
      "▁lider": 5031,
      "▁vid": 5032,
      "▁vend": 5033,
      "▁vendre": 5034,
      "▁reward": 5035,
      "rier": 5036,
      "▁saf": 5037,
      "▁sabo": 5038,
      "▁danze": 5039,
      "▁pouvez": 5040,
      "▁soit": 5041,
      "ontre": 5042,
      "ema": 5043,
      "▁running": 5044,
      "▁probab": 5045,
      "anda": 5046,
      "ceed": 5047,
      "agon": 5048,
      "▁pul": 5049,
      "▁stood": 5050,
      "▁chat": 5051,
      "▁meal": 5052,
      "oper": 5053,
      "oking": 5054,
      "okol": 5055,
      "▁arb": 5056,
      "▁orig": 5057,
      "▁diss": 5058,
      "▁sugg": 5059,
      "▁rac": 5060,
      "▁deswit": 5061,
      "▁share": 5062,
      "▁shall": 5063,
      "ples": 5064,
      "▁rode": 5065,
      "▁lanfer": 5066,
      "▁weak": 5067,
      "▁allons": 5068,
      "▁peryod": 5069,
      "▁repu": 5070,
      "▁repons": 5071,
      "portans": 5072,
      "ured": 5073,
      "wayin": 5074,
      "▁aksyon": 5075,
      "▁boite": 5076,
      "▁ador": 5077,
      "▁clou": 5078,
      "▁priest": 5079,
      "▁lekel": 5080,
      "▁trouver": 5081,
      "▁noel": 5082,
      "▁worked": 5083,
      "▁lezand": 5084,
      "▁larg": 5085,
      "▁larm": 5086,
      "▁uswa": 5087,
      "▁battle": 5088,
      "▁famille": 5089,
      "▁lafen": 5090,
      "epandans": 5091,
      "▁papie": 5092,
      "▁lasal": 5093,
      "▁deziem": 5094,
      "▁twelve": 5095,
      "▁cover": 5096,
      "▁indis": 5097,
      "▁pension": 5098,
      "▁commen": 5099,
      "▁direksion": 5100,
      "▁ero": 5101,
      "▁pretres": 5102,
      "▁importance": 5103,
      "▁zefor": 5104,
      "▁risk": 5105,
      "▁acqu": 5106,
      "▁academ": 5107,
      "▁mouth": 5108,
      "▁mirak": 5109,
      "▁corre": 5110,
      "▁corps": 5111,
      "▁sevret": 5112,
      "▁lenpas": 5113,
      "▁musul": 5114,
      "▁condu": 5115,
      "▁popiler": 5116,
      "▁eating": 5117,
      "▁diskour": 5118,
      "ografi": 5119,
      "▁hindou": 5120,
      "▁hold": 5121,
      "▁juste": 5122,
      "▁catch": 5123,
      "iktwar": 5124,
      "▁plizier": 5125,
      "▁building": 5126,
      "▁sweet": 5127,
      "▁religion": 5128,
      "▁culture": 5129,
      "▁travaille": 5130,
      "▁newspap": 5131,
      "▁historic": 5132,
      "▁witch": 5133,
      "▁customs": 5134,
      "▁practice": 5135,
      "▁effects": 5136,
      "▁administrasion": 5137,
      "▁integ": 5138,
      "▁susp": 5139,
      "▁daughter": 5140,
      "▁quickly": 5141,
      "▁reprezant": 5142,
      "▁linguistic": 5143,
      "▁describe": 5144,
      "▁marriage": 5145,
      "▁kwizinie": 5146,
      "▁committee": 5147,
      "▁sityasyon": 5148,
      "bel": 5149,
      "belle": 5150,
      "cra": 5151,
      "ffe": 5152,
      "gwi": 5153,
      "hes": 5154,
      "iver": 5155,
      "ni": 5156,
      "net": 5157,
      "nous": 5158,
      "oint": 5159,
      "off": 5160,
      "udi": 5161,
      "wood": 5162,
      "yonn": 5163,
      "▁tay": 5164,
      "▁taught": 5165,
      "▁lond": 5166,
      "▁line": 5167,
      "▁pm": 5168,
      "▁pib": 5169,
      "▁dut": 5170,
      "ouret": 5171,
      "▁ares": 5172,
      "▁mour": 5173,
      "▁mast": 5174,
      "reci": 5175,
      "▁kil": 5176,
      "▁kab": 5177,
      "▁bil": 5178,
      "▁bol": 5179,
      "▁bure": 5180,
      "▁boss": 5181,
      "▁fif": 5182,
      "▁fete": 5183,
      "▁furn": 5184,
      "oral": 5185,
      "orize": 5186,
      "itir": 5187,
      "itable": 5188,
      "▁civ": 5189,
      "▁cong": 5190,
      "▁cours": 5191,
      "▁wonder": 5192,
      "▁nn": 5193,
      "▁nay": 5194,
      "leur": 5195,
      "▁tid": 5196,
      "▁od": 5197,
      "▁vient": 5198,
      "ript": 5199,
      "▁sab": 5200,
      "▁savez": 5201,
      "▁urit": 5202,
      "ola": 5203,
      "▁mos": 5204,
      "quement": 5205,
      "▁sep": 5206,
      "urb": 5207,
      "▁jac": 5208,
      "▁jack": 5209,
      "emi": 5210,
      "▁pag": 5211,
      "▁bef": 5212,
      "▁beasts": 5213,
      "▁plans": 5214,
      "▁plants": 5215,
      "utter": 5216,
      "▁proses": 5217,
      "▁islam": 5218,
      "▁unem": 5219,
      "▁quelle": 5220,
      "▁store": 5221,
      "▁stall": 5222,
      "und": 5223,
      "▁trin": 5224,
      "▁dirent": 5225,
      "▁konk": 5226,
      "▁apep": 5227,
      "oka": 5228,
      "▁arran": 5229,
      "lait": 5230,
      "▁comfort": 5231,
      "ulsion": 5232,
      "▁attempt": 5233,
      "▁abst": 5234,
      "▁nouri": 5235,
      "▁doctor": 5236,
      "▁roz": 5237,
      "▁pris": 5238,
      "▁resi": 5239,
      "▁resisite": 5240,
      "ney": 5241,
      "▁fail": 5242,
      "▁depar": 5243,
      "▁perfect": 5244,
      "▁partir": 5245,
      "▁partikil": 5246,
      "▁whose": 5247,
      "▁concl": 5248,
      "▁vert": 5249,
      "▁obt": 5250,
      "▁flat": 5251,
      "▁jeune": 5252,
      "▁interp": 5253,
      "▁papye": 5254,
      "▁lasos": 5255,
      "▁lavant": 5256,
      "▁auc": 5257,
      "isser": 5258,
      "issent": 5259,
      "▁recogn": 5260,
      "▁region": 5261,
      "ocol": 5262,
      "ocation": 5263,
      "▁scient": 5264,
      "▁eleksyon": 5265,
      "angle": 5266,
      "▁finished": 5267,
      "▁direction": 5268,
      "▁remark": 5269,
      "zanp": 5270,
      "▁santer": 5271,
      "▁fatige": 5272,
      "▁tousa": 5273,
      "▁pwin": 5274,
      "▁balans": 5275,
      "▁balance": 5276,
      "▁doub": 5277,
      "▁tried": 5278,
      "▁sita": 5279,
      "▁basis": 5280,
      "▁chefs": 5281,
      "▁zegwi": 5282,
      "▁lady": 5283,
      "fully": 5284,
      "▁dibien": 5285,
      "▁mirac": 5286,
      "▁renion": 5287,
      "▁briye": 5288,
      "▁lexanp": 5289,
      "▁idant": 5290,
      "▁koko": 5291,
      "▁birds": 5292,
      "▁happening": 5293,
      "▁ideolog": 5294,
      "▁muslim": 5295,
      "▁institisyon": 5296,
      "▁countries": 5297,
      "issement": 5298,
      "▁2009": 5299,
      "▁vreman": 5300,
      "▁green": 5301,
      "▁kolekte": 5302,
      "▁traditions": 5303,
      "▁names": 5304,
      "▁kourt": 5305,
      "▁straw": 5306,
      "▁demonst": 5307,
      "▁sertenn": 5308,
      "▁crowds": 5309,
      "▁psik": 5310,
      "▁gramaten": 5311,
      "▁sauce": 5312,
      "▁elektris": 5313,
      "person": 5314,
      "▁murgat": 5315,
      "▁laplipar": 5316,
      "▁neighbour": 5317,
      "▁respekte": 5318,
      "▁technology": 5319,
      "▁pilkingtonn": 5320,
      "▁issue": 5321,
      "▁nerport": 5322,
      "▁inklir": 5323,
      "▁201": 5324,
      "▁concern": 5325,
      "▁grandmother": 5326,
      "▁joness": 5327,
      "▁supposed": 5328,
      "▁vwazin": 5329,
      "▁mouvman": 5330,
      "▁agroind": 5331,
      "▁hungry": 5332,
      "▁broken": 5333,
      "▁capacity": 5334,
      "▁bureau": 5335,
      "bil": 5336,
      "bet": 5337,
      "can": 5338,
      "cel": 5339,
      "cteur": 5340,
      "haps": 5341,
      "iance": 5342,
      "kon": 5343,
      "kop": 5344,
      "lwar": 5345,
      "mat": 5346,
      "mant": 5347,
      "nelle": 5348,
      "pot": 5349,
      "vet": 5350,
      "ws": 5351,
      "wide": 5352,
      "▁lon": 5353,
      "▁luck": 5354,
      "▁pit": 5355,
      "▁porter": 5356,
      "▁signe": 5357,
      "▁date": 5358,
      "ouri": 5359,
      "ouye": 5360,
      "inet": 5361,
      "inion": 5362,
      "inel": 5363,
      "▁ah": 5364,
      "▁ay": 5365,
      "▁action": 5366,
      "▁ahead": 5367,
      "▁ms": 5368,
      "▁map": 5369,
      "▁moli": 5370,
      "▁ff": 5371,
      "▁cot": 5372,
      "▁cried": 5373,
      "▁caught": 5374,
      "oti": 5375,
      "asing": 5376,
      "▁nik": 5377,
      "▁nivo": 5378,
      "▁hat": 5379,
      "▁hed": 5380,
      "▁hop": 5381,
      "▁hens": 5382,
      "▁enj": 5383,
      "▁gang": 5384,
      "▁defe": 5385,
      "▁vand": 5386,
      "▁vole": 5387,
      "▁vine": 5388,
      "roit": 5389,
      "enty": 5390,
      "izans": 5391,
      "inner": 5392,
      "▁seme": 5393,
      "▁sodom": 5394,
      "idite": 5395,
      "▁pav": 5396,
      "▁rh": 5397,
      "▁rw": 5398,
      "▁ring": 5399,
      "iff": 5400,
      "azet": 5401,
      "anser": 5402,
      "iger": 5403,
      "▁stock": 5404,
      "▁tras": 5405,
      "ipel": 5406,
      "▁apar": 5407,
      "▁aranz": 5408,
      "▁arrest": 5409,
      "lace": 5410,
      "▁exchange": 5411,
      "▁mau": 5412,
      "▁wasnt": 5413,
      "ozor": 5414,
      "▁rama": 5415,
      "▁abit": 5416,
      "▁abitan": 5417,
      "▁shrim": 5418,
      "▁sharp": 5419,
      "▁serf": 5420,
      "▁kouver": 5421,
      "▁aveug": 5422,
      "▁lerop": 5423,
      "▁gras": 5424,
      "▁imag": 5425,
      "▁impl": 5426,
      "▁wors": 5427,
      "▁perhaps": 5428,
      "▁parties": 5429,
      "▁mettez": 5430,
      "▁riz": 5431,
      "▁getting": 5432,
      "▁devenir": 5433,
      "▁difer": 5434,
      "▁bouche": 5435,
      "▁pride": 5436,
      "▁evol": 5437,
      "▁demi": 5438,
      "▁flow": 5439,
      "▁afrik": 5440,
      "▁blood": 5441,
      "▁lafin": 5442,
      "▁somey": 5443,
      "▁dites": 5444,
      "asses": 5445,
      "▁antye": 5446,
      "▁foi": 5447,
      "▁fox": 5448,
      "▁aud": 5449,
      "000": 5450,
      "▁tomb": 5451,
      "▁empl": 5452,
      "▁dix": 5453,
      "▁rezerv": 5454,
      "▁selon": 5455,
      "▁pense": 5456,
      "▁sakre": 5457,
      "▁yeux": 5458,
      "▁expression": 5459,
      "▁demander": 5460,
      "▁laglwar": 5461,
      "▁lagazet": 5462,
      "▁justice": 5463,
      "▁legumes": 5464,
      "▁prodwi": 5465,
      "▁konsern": 5466,
      "▁firm": 5467,
      "▁sekirite": 5468,
      "▁pretre": 5469,
      "cious": 5470,
      "▁thanks": 5471,
      "▁oppos": 5472,
      "▁owner": 5473,
      "▁attra": 5474,
      "▁happens": 5475,
      "▁irs": 5476,
      "▁edge": 5477,
      "▁needed": 5478,
      "▁held": 5479,
      "book": 5480,
      "▁film": 5481,
      "▁worldwide": 5482,
      "▁snowballs": 5483,
      "▁families": 5484,
      "▁senk": 5485,
      "▁music": 5486,
      "▁mariage": 5487,
      "▁dinos": 5488,
      "▁dinozor": 5489,
      "▁structure": 5490,
      "▁recorded": 5491,
      "▁absor": 5492,
      "▁kondisyon": 5493,
      "▁motif": 5494,
      "▁prezerv": 5495,
      "▁standard": 5496,
      "▁midi": 5497,
      "▁negos": 5498,
      "anbik": 5499,
      "▁diversifikasyon": 5500,
      "▁changed": 5501,
      "▁ansegn": 5502,
      "▁angleter": 5503,
      "▁information": 5504,
      "▁foreign": 5505,
      "▁abandonn": 5506,
      "▁prepared": 5507,
      "▁fields": 5508,
      "▁nazare": 5509,
      "▁represent": 5510,
      "▁literacy": 5511,
      "▁pikan": 5512,
      "▁pomd": 5513,
      "▁cruel": 5514,
      "▁pressure": 5515,
      "▁conseil": 5516,
      "▁ipok": 5517,
      "▁powers": 5518,
      "▁sitiasion": 5519,
      "▁chemin": 5520,
      "▁enemy": 5521,
      "▁immediately": 5522,
      "▁eggs": 5523,
      "▁teknolozi": 5524,
      "▁mountain": 5525,
      "▁summer": 5526,
      "▁hospital": 5527,
      "▁completely": 5528,
      "▁navez": 5529,
      "▁republ": 5530,
      "▁integrated": 5531,
      "▁apepre": 5532,
      "cur": 5533,
      "hab": 5534,
      "kor": 5535,
      "roup": 5536,
      "uf": 5537,
      "wala": 5538,
      "yol": 5539,
      "▁tale": 5540,
      "▁lu": 5541,
      "▁lile": 5542,
      "▁penn": 5543,
      "▁siz": 5544,
      "▁spl": 5545,
      "▁dal": 5546,
      "insi": 5547,
      "▁mann": 5548,
      "▁mik": 5549,
      "▁maman": 5550,
      "▁mothers": 5551,
      "▁kaz": 5552,
      "▁kak": 5553,
      "▁kard": 5554,
      "▁kord": 5555,
      "▁bous": 5556,
      "▁bapp": 5557,
      "▁fak": 5558,
      "▁fly": 5559,
      "itate": 5560,
      "▁cu": 5561,
      "▁cous": 5562,
      "▁cast": 5563,
      "▁ears": 5564,
      "▁zi": 5565,
      "▁zim": 5566,
      "▁nons": 5567,
      "iles": 5568,
      "▁hide": 5569,
      "▁hope": 5570,
      "▁gid": 5571,
      "▁gift": 5572,
      "▁tib": 5573,
      "▁tick": 5574,
      "etik": 5575,
      "▁var": 5576,
      "▁vul": 5577,
      "▁venir": 5578,
      "▁init": 5579,
      "eding": 5580,
      "rique": 5581,
      "▁ug": 5582,
      "olo": 5583,
      "amar": 5584,
      "aminn": 5585,
      "ieurs": 5586,
      "icle": 5587,
      "ader": 5588,
      "▁whe": 5589,
      "▁ya": 5590,
      "version": 5591,
      "▁paint": 5592,
      "▁bear": 5593,
      "▁roul": 5594,
      "▁pla": 5595,
      "▁plot": 5596,
      "uth": 5597,
      "▁unf": 5598,
      "▁forces": 5599,
      "onna": 5600,
      "▁quatre": 5601,
      "▁stran": 5602,
      "▁mech": 5603,
      "illon": 5604,
      "istis": 5605,
      "▁tran": 5606,
      "▁tris": 5607,
      "▁trying": 5608,
      "▁koni": 5609,
      "▁apros": 5610,
      "▁orch": 5611,
      "ulte": 5612,
      "▁maxim": 5613,
      "ouni": 5614,
      "▁disan": 5615,
      "▁arete": 5616,
      "ference": 5617,
      "▁resol": 5618,
      "▁kontiyn": 5619,
      "▁fair": 5620,
      "▁otan": 5621,
      "def": 5622,
      "▁repro": 5623,
      "▁moral": 5624,
      "▁lete": 5625,
      "▁letter": 5626,
      "▁akote": 5627,
      "▁pourtan": 5628,
      "▁built": 5629,
      "▁classe": 5630,
      "▁feet": 5631,
      "▁flag": 5632,
      "▁lapres": 5633,
      "▁lapriyer": 5634,
      "▁profession": 5635,
      "ield": 5636,
      "▁lafnet": 5637,
      "▁komite": 5638,
      "▁langar": 5639,
      "▁retir": 5640,
      "▁longtemps": 5641,
      "▁sirman": 5642,
      "▁media": 5643,
      "issant": 5644,
      "▁minist": 5645,
      "▁minutes": 5646,
      "▁25": 5647,
      "▁servants": 5648,
      "▁decor": 5649,
      "▁decla": 5650,
      "▁linst": 5651,
      "▁linterieur": 5652,
      "▁grandfather": 5653,
      "▁script": 5654,
      "▁reliz": 5655,
      "▁invit": 5656,
      "phone": 5657,
      "▁angry": 5658,
      "▁barab": 5659,
      "▁erer": 5660,
      "▁former": 5661,
      "▁krekre": 5662,
      "▁ranz": 5663,
      "▁farmers": 5664,
      "▁banane": 5665,
      "▁pwen": 5666,
      "▁croix": 5667,
      "▁vey": 5668,
      "▁koumansman": 5669,
      "▁view": 5670,
      "▁masinn": 5671,
      "▁carried": 5672,
      "▁attend": 5673,
      "▁crev": 5674,
      "forme": 5675,
      "▁needs": 5676,
      "▁value": 5677,
      "▁actually": 5678,
      "▁restoran": 5679,
      "▁restaur": 5680,
      "▁filao": 5681,
      "▁lindepandans": 5682,
      "▁boutique": 5683,
      "▁bonnes": 5684,
      "▁steal": 5685,
      "levman": 5686,
      "▁louis": 5687,
      "▁heavy": 5688,
      "▁frap": 5689,
      "▁berze": 5690,
      "▁prosper": 5691,
      "▁appear": 5692,
      "▁genoc": 5693,
      "▁ofisiel": 5694,
      "▁canne": 5695,
      "▁ansegne": 5696,
      "▁cricket": 5697,
      "▁books": 5698,
      "▁community": 5699,
      "▁effort": 5700,
      "▁kapitalis": 5701,
      "▁kapitalism": 5702,
      "▁sovaz": 5703,
      "▁ridd": 5704,
      "▁writing": 5705,
      "▁addition": 5706,
      "▁folktel": 5707,
      "▁bott": 5708,
      "▁performans": 5709,
      "▁task": 5710,
      "▁lopital": 5711,
      "▁alimanter": 5712,
      "▁sotrel": 5713,
      "▁insect": 5714,
      "▁feuilles": 5715,
      "▁nouvelles": 5716,
      "▁demokrasi": 5717,
      "▁claim": 5718,
      "▁kraze": 5719,
      "▁heureux": 5720,
      "▁fisher": 5721,
      "▁lefet": 5722,
      "▁woof": 5723,
      "▁deliver": 5724,
      "▁konpreansyon": 5725,
      "▁ffc": 5726,
      "▁bappoo": 5727,
      "face": 5728,
      "gle": 5729,
      "hui": 5730,
      "jourd": 5731,
      "son": 5732,
      "vir": 5733,
      "yenn": 5734,
      "yne": 5735,
      "anze": 5736,
      "▁tante": 5737,
      "▁tellement": 5738,
      "▁lest": 5739,
      "▁lint": 5740,
      "▁pis": 5741,
      "▁sed": 5742,
      "▁serez": 5743,
      "▁dig": 5744,
      "▁dres": 5745,
      "ouf": 5746,
      "inlaw": 5747,
      "enar": 5748,
      "ency": 5749,
      "▁actions": 5750,
      "▁mic": 5751,
      "▁mens": 5752,
      "▁mice": 5753,
      "▁miss": 5754,
      "▁kwin": 5755,
      "ising": 5756,
      "▁fles": 5757,
      "▁filles": 5758,
      "esan": 5759,
      "orde": 5760,
      "▁cup": 5761,
      "▁ede": 5762,
      "▁wine": 5763,
      "▁wise": 5764,
      "▁wild": 5765,
      "▁zal": 5766,
      "▁zone": 5767,
      "asant": 5768,
      "ilter": 5769,
      "▁horn": 5770,
      "▁gato": 5771,
      "▁deau": 5772,
      "▁lion": 5773,
      "▁ost": 5774,
      "▁voul": 5775,
      "▁vande": 5776,
      "▁rekt": 5777,
      "imet": 5778,
      "rap": 5779,
      "▁ennde": 5780,
      "▁poun": 5781,
      "icy": 5782,
      "▁sezon": 5783,
      "text": 5784,
      "▁sof": 5785,
      "▁ral": 5786,
      "▁prostit": 5787,
      "▁onivo": 5788,
      "agas": 5789,
      "▁forget": 5790,
      "▁etc": 5791,
      "itez": 5792,
      "▁stren": 5793,
      "abilite": 5794,
      "▁asos": 5795,
      "▁aside": 5796,
      "esty": 5797,
      "ested": 5798,
      "▁youll": 5799,
      "▁trant": 5800,
      "▁diriz": 5801,
      "iper": 5802,
      "▁ape": 5803,
      "▁argent": 5804,
      "▁exk": 5805,
      "▁existe": 5806,
      "ounn": 5807,
      "ounds": 5808,
      "▁disent": 5809,
      "▁manm": 5810,
      "▁marry": 5811,
      "▁ive": 5812,
      "▁raven": 5813,
      "▁frans": 5814,
      "▁toulez": 5815,
      "▁prens": 5816,
      "▁kontak": 5817,
      "▁faut": 5818,
      "▁oter": 5819,
      "▁repet": 5820,
      "▁amis": 5821,
      "▁lakwiz": 5822,
      "▁veritab": 5823,
      "▁bouze": 5824,
      "▁bourik": 5825,
      "▁tuy": 5826,
      "▁tuzur": 5827,
      "▁lalanp": 5828,
      "▁demontre": 5829,
      "duced": 5830,
      "▁flam": 5831,
      "▁flanb": 5832,
      "▁brill": 5833,
      "kler": 5834,
      "▁profits": 5835,
      "▁teren": 5836,
      "▁antan": 5837,
      "▁guar": 5838,
      "▁dezord": 5839,
      "▁discover": 5840,
      "▁revini": 5841,
      "▁deta": 5842,
      "▁path": 5843,
      "▁souf": 5844,
      "▁cocon": 5845,
      "▁poste": 5846,
      "▁recu": 5847,
      "▁linportans": 5848,
      "▁grandes": 5849,
      "▁commer": 5850,
      "▁solision": 5851,
      "▁swim": 5852,
      "▁transfer": 5853,
      "▁garde": 5854,
      "▁grave": 5855,
      "▁vois": 5856,
      "▁kasyet": 5857,
      "▁ledikasion": 5858,
      "bler": 5859,
      "▁payer": 5860,
      "▁vivre": 5861,
      "▁extrem": 5862,
      "▁zeb": 5863,
      "▁zean": 5864,
      "▁irrit": 5865,
      "▁simeon": 5866,
      "▁explo": 5867,
      "▁explike": 5868,
      "▁tape": 5869,
      "oires": 5870,
      "iverser": 5871,
      "▁giving": 5872,
      "▁reading": 5873,
      "▁neses": 5874,
      "▁dernier": 5875,
      "▁institute": 5876,
      "ross": 5877,
      "▁vremem": 5878,
      "cohol": 5879,
      "▁freres": 5880,
      "▁revolisyon": 5881,
      "▁obliz": 5882,
      "▁pardon": 5883,
      "▁ordiner": 5884,
      "▁bisiklet": 5885,
      "▁ogmante": 5886,
      "▁prezant": 5887,
      "▁prosenn": 5888,
      "▁fonctionn": 5889,
      "marse": 5890,
      "▁cash": 5891,
      "▁soldats": 5892,
      "▁cultiv": 5893,
      "▁difficulty": 5894,
      "▁behavi": 5895,
      "▁kominike": 5896,
      "▁judas": 5897,
      "▁pecheurs": 5898,
      "▁tusala": 5899,
      "▁vegetable": 5900,
      "▁tranzisyon": 5901,
      "▁fixe": 5902,
      "▁policy": 5903,
      "▁descend": 5904,
      "▁elizabeth": 5905,
      "▁linformasion": 5906,
      "▁pigeon": 5907,
      "▁television": 5908,
      "▁oligarch": 5909,
      "▁tigit": 5910,
      "▁becomes": 5911,
      "▁ceremony": 5912,
      "▁ranplas": 5913,
      "▁security": 5914,
      "▁roupi": 5915,
      "▁lelvaz": 5916,
      "▁republic": 5917,
      "▁genocide": 5918,
      "jourdhui": 5919,
      "▁strength": 5920,
      "▁toulezour": 5921,
      "▁flanbwayan": 5922,
      "bles": 5923,
      "cence": 5924,
      "do": 5925,
      "dred": 5926,
      "eks": 5927,
      "gon": 5928,
      "gment": 5929,
      "hi": 5930,
      "iques": 5931,
      "kont": 5932,
      "know": 5933,
      "maker": 5934,
      "oye": 5935,
      "pent": 5936,
      "ril": 5937,
      "sans": 5938,
      "viv": 5939,
      "zant": 5940,
      "▁tonn": 5941,
      "▁lower": 5942,
      "▁pon": 5943,
      "▁pic": 5944,
      "▁piti": 5945,
      "▁sig": 5946,
      "▁dat": 5947,
      "▁dame": 5948,
      "oured": 5949,
      "enge": 5950,
      "eness": 5951,
      "▁ater": 5952,
      "▁aiment": 5953,
      "▁ainsi": 5954,
      "▁mme": 5955,
      "rese": 5956,
      "reter": 5957,
      "▁bh": 5958,
      "▁bw": 5959,
      "▁bang": 5960,
      "isit": 5961,
      "▁fab": 5962,
      "▁fill": 5963,
      "▁fons": 5964,
      "▁earl": 5965,
      "atique": 5966,
      "▁won": 5967,
      "▁wave": 5968,
      "alis": 5969,
      "▁zir": 5970,
      "▁zamb": 5971,
      "▁hous": 5972,
      "▁laouret": 5973,
      "▁gau": 5974,
      "▁tired": 5975,
      "▁ticket": 5976,
      "▁lift": 5977,
      "▁oise": 5978,
      "iraz": 5979,
      "▁inqu": 5980,
      "▁tool": 5981,
      "eli": 5982,
      "rov": 5983,
      "role": 5984,
      "raze": 5985,
      "riere": 5986,
      "vement": 5987,
      "▁moved": 5988,
      "ieu": 5989,
      "▁peux": 5990,
      "iced": 5991,
      "▁section": 5992,
      "adays": 5993,
      "teurs": 5994,
      "▁alt": 5995,
      "▁aler": 5996,
      "▁alcohol": 5997,
      "▁journ": 5998,
      "▁pak": 5999,
      "▁paid": 6000,
      "▁beyon": 6001,
      "▁rate": 6002,
      "▁rasion": 6003,
      "outi": 6004,
      "cean": 6005,
      "onnement": 6006,
      "▁ekute": 6007,
      "istes": 6008,
      "istance": 6009,
      "aksyon": 6010,
      "▁trot": 6011,
      "▁konz": 6012,
      "▁konzon": 6013,
      "oker": 6014,
      "▁aryer": 6015,
      "ienne": 6016,
      "▁traverse": 6017,
      "ezon": 6018,
      "▁comman": 6019,
      "▁mains": 6020,
      "▁dispar": 6021,
      "▁mani": 6022,
      "▁manif": 6023,
      "▁subs": 6024,
      "▁abat": 6025,
      "▁abol": 6026,
      "▁serpan": 6027,
      "plir": 6028,
      "▁koule": 6029,
      "▁koumanse": 6030,
      "ums": 6031,
      "▁lange": 6032,
      "▁willing": 6033,
      "▁grim": 6034,
      "▁alliance": 6035,
      "▁imper": 6036,
      "vient": 6037,
      "▁depuis": 6038,
      "▁perd": 6039,
      "▁pert": 6040,
      "▁persek": 6041,
      "▁travail": 6042,
      "▁agale": 6043,
      "▁establish": 6044,
      "▁aksion": 6045,
      "▁loc": 6046,
      "▁bouse": 6047,
      "▁18": 6048,
      "▁larenn": 6049,
      "▁propre": 6050,
      "▁bril": 6051,
      "▁profon": 6052,
      "▁interese": 6053,
      "ccord": 6054,
      "▁ditou": 6055,
      "▁klan": 6056,
      "rup": 6057,
      "▁herod": 6058,
      "riture": 6059,
      "▁discuss": 6060,
      "▁revinn": 6061,
      "▁aujourdhui": 6062,
      "▁regret": 6063,
      "▁nowadays": 6064,
      "▁emer": 6065,
      "▁ecoute": 6066,
      "elled": 6067,
      "▁science": 6068,
      "▁relativ": 6069,
      "▁common": 6070,
      "▁elector": 6071,
      "▁karakter": 6072,
      "▁pankor": 6073,
      "▁direk": 6074,
      "▁krwas": 6075,
      "▁instr": 6076,
      "▁banquet": 6077,
      "▁organic": 6078,
      "▁ledo": 6079,
      "▁misye": 6080,
      "▁plusieurs": 6081,
      "▁telling": 6082,
      "▁trib": 6083,
      "▁trip": 6084,
      "▁milyon": 6085,
      "▁simil": 6086,
      "▁certific": 6087,
      "▁key": 6088,
      "▁assis": 6089,
      "jection": 6090,
      "▁silans": 6091,
      "▁character": 6092,
      "▁activ": 6093,
      "▁sikl": 6094,
      "▁certainly": 6095,
      "▁takes": 6096,
      "▁planet": 6097,
      "▁tonbo": 6098,
      "▁taxi": 6099,
      "▁sky": 6100,
      "▁koki": 6101,
      "▁zwif": 6102,
      "▁clever": 6103,
      "▁sense": 6104,
      "▁institision": 6105,
      "▁ratna": 6106,
      "▁messiah": 6107,
      "iennent": 6108,
      "▁inpir": 6109,
      "▁dinam": 6110,
      "▁tamar": 6111,
      "▁drop": 6112,
      "▁learning": 6113,
      "▁hundred": 6114,
      "▁violence": 6115,
      "▁appele": 6116,
      "▁stopped": 6117,
      "▁sappro": 6118,
      "▁jouer": 6119,
      "▁model": 6120,
      "▁walking": 6121,
      "▁sadduce": 6122,
      "▁plizir": 6123,
      "▁esprit": 6124,
      "▁nazaret": 6125,
      "▁advance": 6126,
      "▁foolish": 6127,
      "▁guerit": 6128,
      "▁cherpers": 6129,
      "▁tretman": 6130,
      "▁dentre": 6131,
      "▁seleb": 6132,
      "▁measure": 6133,
      "▁branches": 6134,
      "▁commandments": 6135,
      "▁interested": 6136,
      "▁habit": 6137,
      "▁prevent": 6138,
      "▁natirelman": 6139,
      "▁pilkington": 6140,
      "▁gouverner": 6141,
      "▁shouted": 6142,
      "▁thrown": 6143,
      "▁materials": 6144,
      "▁vraiment": 6145,
      "▁association": 6146,
      "▁reunion": 6147,
      "▁competition": 6148,
      "▁independence": 6149,
      "▁mwayen": 6150,
      "ulaire": 6151,
      "▁rencontre": 6152,
      "▁exactly": 6153,
      "▁chairperson": 6154,
      "▁compensation": 6155,
      "▁kritik": 6156,
      "▁prosesis": 6157,
      "▁miracles": 6158,
      "▁elektrisite": 6159,
      "▁enjoy": 6160,
      "▁mauric": 6161,
      "▁diferans": 6162,
      "▁nazareth": 6163,
      "▁lakwizinn": 6164,
      "▁coconut": 6165,
      "known": 6166,
      "▁earlier": 6167,
      "▁journal": 6168,
      "▁beyond": 6169,
      "▁cherpersonn": 6170,
      "0s": 6171,
      "bid": 6172,
      "cope": 6173,
      "da": 6174,
      "dire": 6175,
      "fere": 6176,
      "fans": 6177,
      "fice": 6178,
      "field": 6179,
      "iant": 6180,
      "moi": 6181,
      "ox": 6182,
      "rast": 6183,
      "sin": 6184,
      "sid": 6185,
      "ta": 6186,
      "yard": 6187,
      "zik": 6188,
      "▁tat": 6189,
      "▁tent": 6190,
      "▁tene": 6191,
      "▁link": 6192,
      "▁pied": 6193,
      "▁dh": 6194,
      "▁dwa": 6195,
      "outer": 6196,
      "inate": 6197,
      "▁aer": 6198,
      "▁ate": 6199,
      "▁mud": 6200,
      "rew": 6201,
      "▁kost": 6202,
      "▁kouler": 6203,
      "▁burn": 6204,
      "▁fu": 6205,
      "▁fay": 6206,
      "▁fine": 6207,
      "▁fardo": 6208,
      "arse": 6209,
      "arsi": 6210,
      "itar": 6211,
      "itwar": 6212,
      "▁cure": 6213,
      "▁caret": 6214,
      "▁cuis": 6215,
      "▁eb": 6216,
      "alg": 6217,
      "asure": 6218,
      "▁anim": 6219,
      "▁anter": 6220,
      "▁nit": 6221,
      "▁nail": 6222,
      "▁hit": 6223,
      "▁enportan": 6224,
      "▁gand": 6225,
      "▁tizan": 6226,
      "▁lire": 6227,
      "▁lies": 6228,
      "▁oe": 6229,
      "eth": 6230,
      "iram": 6231,
      "irme": 6232,
      "▁vikt": 6233,
      "▁reel": 6234,
      "▁toil": 6235,
      "racy": 6236,
      "▁saint": 6237,
      "▁savan": 6238,
      "▁ofrand": 6239,
      "anne": 6240,
      "▁ul": 6241,
      "olte": 6242,
      "izann": 6243,
      "▁peace": 6244,
      "icity": 6245,
      "▁sections": 6246,
      "▁whale": 6247,
      "ussion": 6248,
      "▁parfe": 6249,
      "▁paw": 6250,
      "▁pauv": 6251,
      "▁rup": 6252,
      "▁rush": 6253,
      "▁plann": 6254,
      "▁plait": 6255,
      "▁uns": 6256,
      "▁unable": 6257,
      "▁ekoute": 6258,
      "osid": 6259,
      "ctural": 6260,
      "▁meant": 6261,
      "▁hey": 6262,
      "▁trous": 6263,
      "avant": 6264,
      "iences": 6265,
      "▁comb": 6266,
      "▁sujet": 6267,
      "▁race": 6268,
      "▁desire": 6269,
      "▁abe": 6270,
      "▁abdom": 6271,
      "▁shore": 6272,
      "▁shift": 6273,
      "▁rober": 6274,
      "▁rocks": 6275,
      "cker": 6276,
      "▁resanble": 6277,
      "▁laniverser": 6278,
      "▁kontra": 6279,
      "▁aval": 6280,
      "▁otos": 6281,
      "▁repar": 6282,
      "▁amen": 6283,
      "portman": 6284,
      "▁riv": 6285,
      "▁river": 6286,
      "▁deval": 6287,
      "▁devons": 6288,
      "▁aksel": 6289,
      "▁akonp": 6290,
      "▁loin": 6291,
      "▁boire": 6292,
      "▁pourrait": 6293,
      "▁concess": 6294,
      "lesi": 6295,
      "▁advers": 6296,
      "▁adilt": 6297,
      "▁labor": 6298,
      "▁labas": 6299,
      "▁labalenn": 6300,
      "▁tuer": 6301,
      "fection": 6302,
      "▁11": 6303,
      "▁13": 6304,
      "▁worker": 6305,
      "▁lalians": 6306,
      "▁lamour": 6307,
      "▁largent": 6308,
      "▁using": 6309,
      "igner": 6310,
      "▁laser": 6311,
      "asser": 6312,
      "▁president": 6313,
      "acle": 6314,
      "▁longan": 6315,
      "▁longue": 6316,
      "▁hero": 6317,
      "▁colonial": 6318,
      "▁anset": 6319,
      "▁patri": 6320,
      "▁coin": 6321,
      "▁cooper": 6322,
      "isson": 6323,
      "▁recent": 6324,
      "▁napoleons": 6325,
      "▁defend": 6326,
      "▁sakri": 6327,
      "▁office": 6328,
      "▁finan": 6329,
      "▁solution": 6330,
      "▁debout": 6331,
      "▁refuse": 6332,
      "▁refused": 6333,
      "▁autom": 6334,
      "▁plantasyon": 6335,
      "fied": 6336,
      "▁grad": 6337,
      "▁grain": 6338,
      "itted": 6339,
      "▁produced": 6340,
      "▁195": 6341,
      "▁196": 6342,
      "▁capt": 6343,
      "ological": 6344,
      "▁katastro": 6345,
      "▁milit": 6346,
      "▁chef": 6347,
      "▁cheap": 6348,
      "gged": 6349,
      "▁distance": 6350,
      "▁schools": 6351,
      "▁silence": 6352,
      "▁across": 6353,
      "▁materyel": 6354,
      "▁semin": 6355,
      "▁slip": 6356,
      "▁slog": 6357,
      "heure": 6358,
      "▁venez": 6359,
      "▁glor": 6360,
      "▁niaz": 6361,
      "▁protokol": 6362,
      "▁lenseign": 6363,
      "ouzi": 6364,
      "▁femin": 6365,
      "▁femmes": 6366,
      "▁omilie": 6367,
      "▁analy": 6368,
      "▁rakonter": 6369,
      "▁fermie": 6370,
      "▁popular": 6371,
      "▁messie": 6372,
      "▁biye": 6373,
      "▁played": 6374,
      "▁prophets": 6375,
      "▁zenosid": 6376,
      "▁mobilize": 6377,
      "▁propriet": 6378,
      "▁propriete": 6379,
      "▁sapo": 6380,
      "▁spesifik": 6381,
      "▁protection": 6382,
      "▁teleg": 6383,
      "▁walked": 6384,
      "▁especes": 6385,
      "▁sagrin": 6386,
      "▁complete": 6387,
      "▁superv": 6388,
      "▁snack": 6389,
      "▁feeling": 6390,
      "▁ouswa": 6391,
      "lamer": 6392,
      "▁liberte": 6393,
      "▁meaning": 6394,
      "▁peuple": 6395,
      "▁sibir": 6396,
      "▁chercher": 6397,
      "▁total": 6398,
      "▁returned": 6399,
      "▁mauvaises": 6400,
      "▁lantre": 6401,
      "▁foules": 6402,
      "▁tusel": 6403,
      "▁african": 6404,
      "▁foto": 6405,
      "▁prophetes": 6406,
      "▁bomb": 6407,
      "▁favour": 6408,
      "▁ancest": 6409,
      "▁lesprit": 6410,
      "▁influ": 6411,
      "▁krisifie": 6412,
      "ibility": 6413,
      "▁deklar": 6414,
      "▁laissez": 6415,
      "▁candid": 6416,
      "▁rupees": 6417,
      "▁video": 6418,
      "▁idiot": 6419,
      "▁mollie": 6420,
      "iciency": 6421,
      "▁floor": 6422,
      "▁transitional": 6423,
      "▁laparol": 6424,
      "▁legliz": 6425,
      "▁interview": 6426,
      "▁polem": 6427,
      "▁probably": 6428,
      "▁correct": 6429,
      "▁shrimp": 6430,
      "▁ipokrit": 6431,
      "▁restaurant": 6432,
      "▁prensip": 6433,
      "▁guarante": 6434,
      "▁nesesite": 6435,
      "▁teneb": 6436,
      "▁rupi": 6437,
      "▁katastrof": 6438,
      "30": 6439,
      "boy": 6440,
      "don": 6441,
      "fabet": 6442,
      "gool": 6443,
      "hod": 6444,
      "ji": 6445,
      "kwa": 6446,
      "laz": 6447,
      "lenn": 6448,
      "rr": 6449,
      "rinn": 6450,
      "rendre": 6451,
      "uter": 6452,
      "ypt": 6453,
      "zz": 6454,
      "zere": 6455,
      "▁x": 6456,
      "▁tast": 6457,
      "▁tune": 6458,
      "▁lt": 6459,
      "▁los": 6460,
      "▁pand": 6461,
      "▁sere": 6462,
      "▁site": 6463,
      "▁sons": 6464,
      "▁sandal": 6465,
      "onie": 6466,
      "onik": 6467,
      "▁dall": 6468,
      "▁dial": 6469,
      "oux": 6470,
      "inational": 6471,
      "enu": 6472,
      "▁aw": 6473,
      "▁mut": 6474,
      "▁kes": 6475,
      "▁kur": 6476,
      "▁bote": 6477,
      "▁bound": 6478,
      "▁fraz": 6479,
      "▁fenns": 6480,
      "arie": 6481,
      "▁couple": 6482,
      "▁earn": 6483,
      "otion": 6484,
      "▁zig": 6485,
      "▁anou": 6486,
      "▁nont": 6487,
      "▁nut": 6488,
      "▁nine": 6489,
      "▁nost": 6490,
      "ilsion": 6491,
      "▁ham": 6492,
      "▁enorm": 6493,
      "▁gour": 6494,
      "▁goul": 6495,
      "▁gmo": 6496,
      "▁gmos": 6497,
      "▁tight": 6498,
      "▁likou": 6499,
      "▁ox": 6500,
      "▁ocean": 6501,
      "etah": 6502,
      "ira": 6503,
      "irs": 6504,
      "irasion": 6505,
      "▁ing": 6506,
      "▁toi": 6507,
      "▁kids": 6508,
      "▁sait": 6509,
      "▁dance": 6510,
      "veux": 6511,
      "▁pouvoir": 6512,
      "▁moz": 6513,
      "▁peches": 6514,
      "▁seed": 6515,
      "▁season": 6516,
      "▁whis": 6517,
      "▁alinter": 6518,
      "▁soir": 6519,
      "idi": 6520,
      "idere": 6521,
      "ware": 6522,
      "cha": 6523,
      "chen": 6524,
      "▁pluie": 6525,
      "▁proklam": 6526,
      "ifis": 6527,
      "andime": 6528,
      "igre": 6529,
      "▁united": 6530,
      "▁ekut": 6531,
      "▁stor": 6532,
      "▁lesel": 6533,
      "opus": 6534,
      "▁tron": 6535,
      "▁tronn": 6536,
      "▁konportman": 6537,
      "▁dime": 6538,
      "▁apost": 6539,
      "▁atir": 6540,
      "▁disab": 6541,
      "▁suc": 6542,
      "▁suite": 6543,
      "▁sulevman": 6544,
      "▁desir": 6545,
      "▁above": 6546,
      "▁shock": 6547,
      "ards": 6548,
      "▁oubl": 6549,
      "▁ouvert": 6550,
      "umer": 6551,
      "ferans": 6552,
      "▁prin": 6553,
      "▁prenez": 6554,
      "▁weather": 6555,
      "▁wearing": 6556,
      "▁alles": 6557,
      "▁facil": 6558,
      "▁repas": 6559,
      "▁repiblik": 6560,
      "▁siyn": 6561,
      "▁amiz": 6562,
      "▁parts": 6563,
      "▁partie": 6564,
      "▁partout": 6565,
      "▁vinni": 6566,
      "▁rice": 6567,
      "▁estim": 6568,
      "▁lakle": 6569,
      "isein": 6570,
      "▁concept": 6571,
      "▁lots": 6572,
      "▁nov": 6573,
      "▁intans": 6574,
      "▁intention": 6575,
      "▁lalis": 6576,
      "▁lalkol": 6577,
      "▁lezo": 6578,
      "▁lezel": 6579,
      "▁obvi": 6580,
      "▁poll": 6581,
      "▁demin": 6582,
      "▁fees": 6583,
      "▁batiz": 6584,
      "▁battre": 6585,
      "▁jeetah": 6586,
      "▁elim": 6587,
      "diers": 6588,
      "▁ditu": 6589,
      "▁retour": 6590,
      "▁antre": 6591,
      "▁presyon": 6592,
      "▁madagas": 6593,
      "▁speed": 6594,
      "▁soufle": 6595,
      "▁indistri": 6596,
      "▁diam": 6597,
      "wazon": 6598,
      "▁sinon": 6599,
      "▁relasion": 6600,
      "▁kitchen": 6601,
      "▁angels": 6602,
      "▁soldiers": 6603,
      "▁express": 6604,
      "▁temwa": 6605,
      "▁temper": 6606,
      "▁transpir": 6607,
      "▁direkter": 6608,
      "▁instru": 6609,
      "▁setting": 6610,
      "▁banan": 6611,
      "▁prodikt": 6612,
      "▁voix": 6613,
      "▁voiture": 6614,
      "▁pwisans": 6615,
      "▁konsom": 6616,
      "▁konsyan": 6617,
      "▁smart": 6618,
      "▁veut": 6619,
      "▁lepre": 6620,
      "▁phys": 6621,
      "▁vivent": 6622,
      "▁sipa": 6623,
      "▁thank": 6624,
      "▁boxers": 6625,
      "▁volt": 6626,
      "▁entire": 6627,
      "▁imposs": 6628,
      "▁sitwayin": 6629,
      "▁anprann": 6630,
      "▁assure": 6631,
      "▁mazorite": 6632,
      "▁bened": 6633,
      "▁signs": 6634,
      "▁throughout": 6635,
      "▁certaines": 6636,
      "board": 6637,
      "▁finds": 6638,
      "▁anplway": 6639,
      "▁rasinn": 6640,
      "▁developed": 6641,
      "▁infirm": 6642,
      "posib": 6643,
      "▁institution": 6644,
      "▁annon": 6645,
      "▁rats": 6646,
      "▁sung": 6647,
      "▁mariam": 6648,
      "▁understood": 6649,
      "▁konstriksion": 6650,
      "▁loud": 6651,
      "▁domest": 6652,
      "▁studies": 6653,
      "▁investi": 6654,
      "▁anvole": 6655,
      "▁garcon": 6656,
      "▁terminal": 6657,
      "▁palm": 6658,
      "▁bidz": 6659,
      "▁droite": 6660,
      "▁source": 6661,
      "▁extraord": 6662,
      "▁preferab": 6663,
      "▁proprieter": 6664,
      "▁aktyel": 6665,
      "▁ordered": 6666,
      "▁lokaz": 6667,
      "▁joue": 6668,
      "▁telephone": 6669,
      "▁ofisyel": 6670,
      "▁sadisein": 6671,
      "▁obey": 6672,
      "▁kanpman": 6673,
      "▁abandone": 6674,
      "▁various": 6675,
      "▁ravine": 6676,
      "▁fund": 6677,
      "▁counter": 6678,
      "▁lelandime": 6679,
      "▁horse": 6680,
      "▁weekend": 6681,
      "▁organizations": 6682,
      "▁miting": 6683,
      "▁vegetables": 6684,
      "▁kolonyal": 6685,
      "▁forgive": 6686,
      "▁nouvelle": 6687,
      "▁tandis": 6688,
      "▁alternativ": 6689,
      "▁astronom": 6690,
      "▁christmas": 6691,
      "▁expected": 6692,
      "▁rosebelle": 6693,
      "▁averti": 6694,
      "▁warned": 6695,
      "▁privatizasyon": 6696,
      "▁primary": 6697,
      "▁relationship": 6698,
      "▁remarke": 6699,
      "▁multinational": 6700,
      "▁hyp": 6701,
      "▁continued": 6702,
      "▁pigeons": 6703,
      "▁prinsipal": 6704,
      "▁conjun": 6705,
      "▁months": 6706,
      "▁gonfle": 6707,
      "▁logic": 6708,
      "▁slowly": 6709,
      "▁miaw": 6710,
      "▁octopus": 6711,
      "▁sosial": 6712,
      "▁marmit": 6713,
      "▁sacrifice": 6714,
      "▁frightened": 6715,
      "▁welcome": 6716,
      "▁viendra": 6717,
      "▁abraham": 6718,
      "▁benefit": 6719,
      "▁duty": 6720,
      "▁unemployment": 6721,
      "▁ugc": 6722,
      "▁riddles": 6723,
      "▁konzonkt": 6724,
      "▁krwasans": 6725,
      "▁caretaker": 6726,
      "goolam": 6727,
      "▁alinteryer": 6728,
      "▁impossible": 6729,
      "12": 6730,
      "action": 6731,
      "bri": 6732,
      "fant": 6733,
      "fie": 6734,
      "gran": 6735,
      "hem": 6736,
      "long": 6737,
      "mama": 6738,
      "nat": 6739,
      "not": 6740,
      "nivo": 6741,
      "oque": 6742,
      "pin": 6743,
      "path": 6744,
      "porte": 6745,
      "presion": 6746,
      "riman": 6747,
      "rouv": 6748,
      "va": 6749,
      "vre": 6750,
      "wed": 6751,
      "ym": 6752,
      "zwa": 6753,
      "▁iv": 6754,
      "▁low": 6755,
      "▁pant": 6756,
      "▁ponn": 6757,
      "▁pini": 6758,
      "▁plez": 6759,
      "▁sie": 6760,
      "▁doz": 6761,
      "▁dod": 6762,
      "▁due": 6763,
      "▁dinner": 6764,
      "inan": 6765,
      "▁km": 6766,
      "▁ko": 6767,
      "▁kand": 6768,
      "▁bow": 6769,
      "▁bons": 6770,
      "▁thin": 6771,
      "isy": 6772,
      "isel": 6773,
      "aron": 6774,
      "itter": 6775,
      "▁cens": 6776,
      "▁cache": 6777,
      "▁eel": 6778,
      "▁epe": 6779,
      "atis": 6780,
      "▁win": 6781,
      "▁wish": 6782,
      "▁welf": 6783,
      "▁zare": 6784,
      "asin": 6785,
      "▁none": 6786,
      "▁nice": 6787,
      "▁hi": 6788,
      "▁hurt": 6789,
      "▁enst": 6790,
      "▁gall": 6791,
      "▁gourd": 6792,
      "▁gold": 6793,
      "▁gabri": 6794,
      "▁tie": 6795,
      "▁tire": 6796,
      "▁tied": 6797,
      "▁rein": 6798,
      "▁rect": 6799,
      "elin": 6800,
      "elter": 6801,
      "inger": 6802,
      "raient": 6803,
      "rip": 6804,
      "riel": 6805,
      "▁sape": 6806,
      "▁saret": 6807,
      "▁sakou": 6808,
      "olon": 6809,
      "▁lele": 6810,
      "antage": 6811,
      "izing": 6812,
      "see": 6813,
      "ieuse": 6814,
      "ica": 6815,
      "icks": 6816,
      "▁seat": 6817,
      "▁alo": 6818,
      "▁alar": 6819,
      "▁alaf": 6820,
      "using": 6821,
      "mane": 6822,
      "idence": 6823,
      "ontrer": 6824,
      "▁rimer": 6825,
      "▁plon": 6826,
      "▁plais": 6827,
      "azer": 6828,
      "azed": 6829,
      "ansyel": 6830,
      "▁forfor": 6831,
      "▁eto": 6832,
      "iteur": 6833,
      "▁qual": 6834,
      "▁stable": 6835,
      "unk": 6836,
      "uner": 6837,
      "▁chal": 6838,
      "▁chien": 6839,
      "▁chall": 6840,
      "▁meat": 6841,
      "▁mekan": 6842,
      "ops": 6843,
      "aked": 6844,
      "▁troup": 6845,
      "▁truth": 6846,
      "▁dirige": 6847,
      "▁konze": 6848,
      "okasion": 6849,
      "▁arme": 6850,
      "▁nev": 6851,
      "▁orange": 6852,
      "▁exs": 6853,
      "ules": 6854,
      "▁disl": 6855,
      "▁marcher": 6856,
      "▁desp": 6857,
      "▁aboli": 6858,
      "▁shep": 6859,
      "▁kankre": 6860,
      "▁rope": 6861,
      "▁robe": 6862,
      "ibi": 6863,
      "▁goy": 6864,
      "▁golet": 6865,
      "▁prit": 6866,
      "nee": 6867,
      "▁depres": 6868,
      "▁avans": 6869,
      "▁otom": 6870,
      "▁otnivo": 6871,
      "oret": 6872,
      "essed": 6873,
      "▁amor": 6874,
      "usted": 6875,
      "▁persist": 6876,
      "▁metod": 6877,
      "▁method": 6878,
      "▁devil": 6879,
      "▁akse": 6880,
      "▁pours": 6881,
      "▁adult": 6882,
      "▁adrwat": 6883,
      "▁labitid": 6884,
      "▁lamp": 6885,
      "▁obst": 6886,
      "▁polis": 6887,
      "▁spok": 6888,
      "▁flas": 6889,
      "▁flower": 6890,
      "▁surface": 6891,
      "▁granmama": 6892,
      "▁lapenn": 6893,
      "▁terrain": 6894,
      "▁lafiev": 6895,
      "▁papier": 6896,
      "▁lasanble": 6897,
      "▁prest": 6898,
      "▁contain": 6899,
      "▁forest": 6900,
      "rug": 6901,
      "▁laviktwar": 6902,
      "▁mauritians": 6903,
      "▁colere": 6904,
      "▁audit": 6905,
      "▁ansyen": 6906,
      "▁medikal": 6907,
      "▁konpans": 6908,
      "▁coqu": 6909,
      "▁recomp": 6910,
      "▁regular": 6911,
      "▁tomber": 6912,
      "▁parsel": 6913,
      "▁rezin": 6914,
      "▁sinbol": 6915,
      "▁grands": 6916,
      "▁betleem": 6917,
      "▁pensez": 6918,
      "▁politics": 6919,
      "▁salle": 6920,
      "phe": 6921,
      "phant": 6922,
      "▁rekones": 6923,
      "▁elev": 6924,
      "▁anguille": 6925,
      "▁exprim": 6926,
      "▁debat": 6927,
      "▁reflesi": 6928,
      "▁autor": 6929,
      "▁lagorz": 6930,
      "▁remet": 6931,
      "▁zournal": 6932,
      "▁formal": 6933,
      "▁aftern": 6934,
      "▁progres": 6935,
      "▁avanse": 6936,
      "▁konsol": 6937,
      "▁veh": 6938,
      "▁veux": 6939,
      "▁douze": 6940,
      "ofonn": 6941,
      "▁masak": 6942,
      "▁programla": 6943,
      "▁ramgoolam": 6944,
      "▁zechar": 6945,
      "yna": 6946,
      "ynman": 6947,
      "▁pilot": 6948,
      "▁frequ": 6949,
      "▁epile": 6950,
      "▁delwil": 6951,
      "▁degre": 6952,
      "▁degaze": 6953,
      "▁finding": 6954,
      "▁factory": 6955,
      "▁factories": 6956,
      "▁confl": 6957,
      "▁netway": 6958,
      "▁rediksyon": 6959,
      "▁ideas": 6960,
      "▁devlope": 6961,
      "▁bwarenar": 6962,
      "▁examples": 6963,
      "▁expert": 6964,
      "▁helped": 6965,
      "▁responsible": 6966,
      "▁chauss": 6967,
      "▁anvlop": 6968,
      "▁anviron": 6969,
      "▁garc": 6970,
      "▁garanti": 6971,
      "▁palp": 6972,
      "▁followed": 6973,
      "▁tales": 6974,
      "▁harder": 6975,
      "▁standing": 6976,
      "marin": 6977,
      "▁genet": 6978,
      "▁protect": 6979,
      "▁telefonn": 6980,
      "▁somaz": 6981,
      "▁numer": 6982,
      "▁selling": 6983,
      "▁created": 6984,
      "▁separate": 6985,
      "▁lunivers": 6986,
      "▁kwen": 6987,
      "▁indeed": 6988,
      "▁million": 6989,
      "▁reveal": 6990,
      "▁hook": 6991,
      "▁growth": 6992,
      "▁equal": 6993,
      "▁benefis": 6994,
      "▁baptist": 6995,
      "▁address": 6996,
      "▁pieds": 6997,
      "▁remembered": 6998,
      "▁brankar": 6999,
      "▁principle": 7000,
      "▁gratis": 7001,
      "▁obzerve": 7002,
      "▁satisf": 7003,
      "▁serviteurs": 7004,
      "▁reflex": 7005,
      "▁zizman": 7006,
      "▁forgot": 7007,
      "▁waiting": 7008,
      "▁companies": 7009,
      "▁mwens": 7010,
      "▁mwins": 7011,
      "▁squid": 7012,
      "▁lespwar": 7013,
      "▁souvent": 7014,
      "▁disappeared": 7015,
      "▁eternel": 7016,
      "▁medecin": 7017,
      "▁regleman": 7018,
      "▁striktir": 7019,
      "▁contribution": 7020,
      "▁products": 7021,
      "▁disease": 7022,
      "▁results": 7023,
      "▁partisipan": 7024,
      "▁dargent": 7025,
      "▁feder": 7026,
      "▁divorce": 7027,
      "▁moustache": 7028,
      "▁lutm": 7029,
      "▁chicken": 7030,
      "▁exakteman": 7031,
      "▁decrease": 7032,
      "▁revolutionary": 7033,
      "▁constitution": 7034,
      "▁ignor": 7035,
      "▁mulen": 7036,
      "▁soudain": 7037,
      "▁bungalows": 7038,
      "▁interpret": 7039,
      "▁agroindust": 7040,
      "▁longanis": 7041,
      "▁sakrifis": 7042,
      "▁plezir": 7043,
      "▁welfare": 7044,
      "▁zaregne": 7045,
      "▁gabriel": 7046,
      "▁shepher": 7047,
      "aise": 7048,
      "com": 7049,
      "dem": 7050,
      "fil": 7051,
      "har": 7052,
      "hib": 7053,
      "kin": 7054,
      "kare": 7055,
      "linn": 7056,
      "my": 7057,
      "med": 7058,
      "mad": 7059,
      "mper": 7060,
      "mante": 7061,
      "pis": 7062,
      "ply": 7063,
      "pris": 7064,
      "rary": 7065,
      "tis": 7066,
      "tik": 7067,
      "ua": 7068,
      "uz": 7069,
      "ued": 7070,
      "vol": 7071,
      "vie": 7072,
      "xi": 7073,
      "yman": 7074,
      "▁tarde": 7075,
      "▁touni": 7076,
      "▁pus": 7077,
      "▁pian": 7078,
      "▁pansion": 7079,
      "▁piet": 7080,
      "▁sann": 7081,
      "▁dus": 7082,
      "▁dine": 7083,
      "▁dram": 7084,
      "▁dail": 7085,
      "▁drug": 7086,
      "oula": 7087,
      "inct": 7088,
      "inasyonal": 7089,
      "ening": 7090,
      "▁aider": 7091,
      "▁mamb": 7092,
      "▁manti": 7093,
      "▁mieux": 7094,
      "▁mantal": 7095,
      "▁kro": 7096,
      "▁kous": 7097,
      "▁kabri": 7098,
      "▁bik": 7099,
      "▁breat": 7100,
      "▁bwi": 7101,
      "▁bros": 7102,
      "isant": 7103,
      "▁fier": 7104,
      "orasion": 7105,
      "orsion": 7106,
      "itis": 7107,
      "▁cade": 7108,
      "▁eut": 7109,
      "▁east": 7110,
      "▁wis": 7111,
      "▁wage": 7112,
      "▁wages": 7113,
      "▁winter": 7114,
      "otik": 7115,
      "▁zon": 7116,
      "▁zete": 7117,
      "asi": 7118,
      "aster": 7119,
      "▁nas": 7120,
      "▁nation": 7121,
      "▁nwit": 7122,
      "ilater": 7123,
      "ility": 7124,
      "▁hen": 7125,
      "▁hem": 7126,
      "▁hall": 7127,
      "▁lair": 7128,
      "▁dear": 7129,
      "▁deter": 7130,
      "▁dech": 7131,
      "▁deja": 7132,
      "▁vint": 7133,
      "▁inper": 7134,
      "▁inof": 7135,
      "▁rele": 7136,
      "▁reach": 7137,
      "▁reduction": 7138,
      "elie": 7139,
      "rod": 7140,
      "rovers": 7141,
      "rak": 7142,
      "▁umem": 7143,
      "▁leaving": 7144,
      "amment": 7145,
      "amantal": 7146,
      "icient": 7147,
      "▁seve": 7148,
      "adre": 7149,
      "adire": 7150,
      "tey": 7151,
      "user": 7152,
      "▁soil": 7153,
      "ourdi": 7154,
      "▁jump": 7155,
      "ikter": 7156,
      "verne": 7157,
      "▁parl": 7158,
      "▁pack": 7159,
      "▁bebet": 7160,
      "▁plin": 7161,
      "▁plane": 7162,
      "uti": 7163,
      "ansiel": 7164,
      "agre": 7165,
      "▁etablisman": 7166,
      "▁ekri": 7167,
      "▁quant": 7168,
      "▁stab": 7169,
      "▁stret": 7170,
      "▁asire": 7171,
      "resh": 7172,
      "▁chance": 7173,
      "illa": 7174,
      "illant": 7175,
      "▁lespas": 7176,
      "istoire": 7177,
      "akt": 7178,
      "aking": 7179,
      "▁dirize": 7180,
      "▁konsi": 7181,
      "▁konfi": 7182,
      "▁neither": 7183,
      "oulou": 7184,
      "▁exha": 7185,
      "▁exerc": 7186,
      "uls": 7187,
      "▁raz": 7188,
      "▁abiye": 7189,
      "▁shelter": 7190,
      "▁serve": 7191,
      "▁seremoni": 7192,
      "▁koud": 7193,
      "▁oui": 7194,
      "▁passion": 7195,
      "ibre": 7196,
      "indre": 7197,
      "▁primer": 7198,
      "▁resour": 7199,
      "▁reserve": 7200,
      "▁lanatir": 7201,
      "▁lanvir": 7202,
      "▁esay": 7203,
      "▁grins": 7204,
      "▁groupe": 7205,
      "▁wear": 7206,
      "▁weeds": 7207,
      "▁worn": 7208,
      "▁kontre": 7209,
      "▁faim": 7210,
      "▁facon": 7211,
      "▁otorite": 7212,
      "▁repran": 7213,
      "▁amn": 7214,
      "▁amount": 7215,
      "▁morce": 7216,
      "▁malen": 7217,
      "▁devwar": 7218,
      "▁akon": 7219,
      "▁akiz": 7220,
      "▁difil": 7221,
      "▁context": 7222,
      "▁memwar": 7223,
      "▁adapt": 7224,
      "▁labier": 7225,
      "▁bought": 7226,
      "▁pool": 7227,
      "astique": 7228,
      "▁lekip": 7229,
      "▁lekrit": 7230,
      "▁tulez": 7231,
      "▁intens": 7232,
      "▁eval": 7233,
      "▁lezip": 7234,
      "▁sanp": 7235,
      "▁larz": 7236,
      "▁larme": 7237,
      "▁spring": 7238,
      "▁flan": 7239,
      "▁flote": 7240,
      "▁afin": 7241,
      "▁surve": 7242,
      "▁blas": 7243,
      "▁profesion": 7244,
      "ielle": 7245,
      "icale": 7246,
      "▁territ": 7247,
      "▁teritwar": 7248,
      "▁somewhere": 7249,
      "▁lasinn": 7250,
      "▁elles": 7251,
      "▁antis": 7252,
      "▁antie": 7253,
      "▁contact": 7254,
      "riksyon": 7255,
      "▁herode": 7256,
      "aleur": 7257,
      "▁sirfas": 7258,
      "▁guilt": 7259,
      "arya": 7260,
      "▁dezene": 7261,
      "▁discussion": 7262,
      "▁pattes": 7263,
      "▁twenty": 7264,
      "uvwar": 7265,
      "▁kalkile": 7266,
      "▁26": 7267,
      "▁employ": 7268,
      "▁diable": 7269,
      "▁fasc": 7270,
      "▁sinp": 7271,
      "▁sinifikasyon": 7272,
      "ktif": 7273,
      "ktivman": 7274,
      "▁scar": 7275,
      "▁scatter": 7276,
      "gnaut": 7277,
      "▁penis": 7278,
      "▁rekom": 7279,
      "▁karot": 7280,
      "▁karant": 7281,
      "▁anges": 7282,
      "▁angaz": 7283,
      "▁lagrev": 7284,
      "▁access": 7285,
      "▁accomp": 7286,
      "▁remain": 7287,
      "▁zourdin": 7288,
      "▁instal": 7289,
      "▁kreyon": 7290,
      "▁santiman": 7291,
      "▁gradu": 7292,
      "▁overse": 7293,
      "▁fathers": 7294,
      "▁organik": 7295,
      "▁organization": 7296,
      "▁pwal": 7297,
      "▁muriel": 7298,
      "▁douleur": 7299,
      "▁puts": 7300,
      "▁vieux": 7301,
      "▁carre": 7302,
      "▁entra": 7303,
      "▁entrer": 7304,
      "▁boulverse": 7305,
      "▁impos": 7306,
      "▁promosion": 7307,
      "▁collection": 7308,
      "▁credit": 7309,
      "▁cheveux": 7310,
      "▁consult": 7311,
      "▁conscious": 7312,
      "▁supple": 7313,
      "▁governments": 7314,
      "▁mazine": 7315,
      "▁whymper": 7316,
      "▁pleased": 7317,
      "▁miryel": 7318,
      "▁tourne": 7319,
      "▁venus": 7320,
      "▁brid": 7321,
      "▁singap": 7322,
      "▁sentiment": 7323,
      "verti": 7324,
      "▁ideal": 7325,
      "▁lenfant": 7326,
      "▁davoir": 7327,
      "▁musique": 7328,
      "▁belief": 7329,
      "▁believed": 7330,
      "▁jugnaut": 7331,
      "▁2001": 7332,
      "▁lhistoire": 7333,
      "▁popilasion": 7334,
      "▁greater": 7335,
      "▁magaz": 7336,
      "▁older": 7337,
      "▁keeping": 7338,
      "▁investment": 7339,
      "▁investisman": 7340,
      "▁frank": 7341,
      "▁kondann": 7342,
      "▁kondision": 7343,
      "▁destin": 7344,
      "▁borlamer": 7345,
      "▁sapit": 7346,
      "▁homosex": 7347,
      "▁klerman": 7348,
      "▁negoti": 7349,
      "▁sexual": 7350,
      "▁soutien": 7351,
      "▁drinking": 7352,
      "▁occup": 7353,
      "▁cultural": 7354,
      "▁liberal": 7355,
      "▁touletan": 7356,
      "▁gueri": 7357,
      "▁growing": 7358,
      "▁towns": 7359,
      "▁judge": 7360,
      "▁rules": 7361,
      "▁pompe": 7362,
      "▁fondamantal": 7363,
      "▁cetait": 7364,
      "▁konvansyon": 7365,
      "▁bottle": 7366,
      "▁konplet": 7367,
      "▁sindikal": 7368,
      "▁careless": 7369,
      "▁convention": 7370,
      "ophone": 7371,
      "▁textiles": 7372,
      "▁mamzel": 7373,
      "▁surprise": 7374,
      "▁rouge": 7375,
      "▁integre": 7376,
      "▁bomarse": 7377,
      "▁allait": 7378,
      "▁treated": 7379,
      "ilingual": 7380,
      "▁engag": 7381,
      "▁democracy": 7382,
      "▁acheter": 7383,
      "▁supply": 7384,
      "▁privatization": 7385,
      "▁determine": 7386,
      "▁porc": 7387,
      "▁dabor": 7388,
      "▁lapey": 7389,
      "▁disappear": 7390,
      "▁linformasyon": 7391,
      "▁directly": 7392,
      "▁ogmantasyon": 7393,
      "▁zarb": 7394,
      "▁suffering": 7395,
      "▁miltinasyonal": 7396,
      "▁facile": 7397,
      "▁gorge": 7398,
      "▁obligatwar": 7399,
      "▁mental": 7400,
      "▁nenport": 7401,
      "▁fevrie": 7402,
      "▁individual": 7403,
      "▁electricity": 7404,
      "▁mentioned": 7405,
      "▁sabbat": 7406,
      "▁envoye": 7407,
      "▁bientot": 7408,
      "▁vendredi": 7409,
      "▁origin": 7410,
      "▁civil": 7411,
      "▁nayez": 7412,
      "▁aucun": 7413,
      "▁vineyard": 7414,
      "▁abitye": 7415,
      "▁worship": 7416,
      "▁foxwood": 7417,
      "▁mikro": 7418,
      "▁kardi": 7419,
      "▁frappe": 7420,
      "▁discovered": 7421,
      "▁commercial": 7422,
      "▁revolisyoner": 7423,
      "▁viktim": 7424,
      "▁slogan": 7425,
      "▁mozamb": 7426,
      "▁succeed": 7427,
      "▁troupo": 7428,
      "▁afternoon": 7429,
      "▁zechariah": 7430,
      "▁daily": 7431,
      "▁lanvironnman": 7432,
      "▁lekritir": 7433,
      "▁tulezur": 7434,
      "▁jugnauth": 7435,
      "aver": 7436,
      "binn": 7437,
      "dy": 7438,
      "dan": 7439,
      "eg": 7440,
      "fu": 7441,
      "fri": 7442,
      "gasion": 7443,
      "iasion": 7444,
      "kal": 7445,
      "menn": 7446,
      "mith": 7447,
      "pon": 7448,
      "pal": 7449,
      "rot": 7450,
      "rint": 7451,
      "tent": 7452,
      "uary": 7453,
      "uelle": 7454,
      "yant": 7455,
      "▁ort": 7456,
      "anal": 7457,
      "▁tile": 7458,
      "▁tamb": 7459,
      "▁lart": 7460,
      "▁py": 7461,
      "▁pist": 7462,
      "▁pme": 7463,
      "▁sote": 7464,
      "▁sass": 7465,
      "▁sight": 7466,
      "oner": 7467,
      "▁dol": 7468,
      "oug": 7469,
      "ouve": 7470,
      "inz": 7471,
      "▁aj": 7472,
      "reyer": 7473,
      "▁kateg": 7474,
      "▁bist": 7475,
      "▁bav": 7476,
      "▁bould": 7477,
      "▁thie": 7478,
      "isid": 7479,
      "▁fla": 7480,
      "▁fours": 7481,
      "arr": 7482,
      "arz": 7483,
      "▁cos": 7484,
      "▁coule": 7485,
      "▁categ": 7486,
      "atma": 7487,
      "▁ward": 7488,
      "alism": 7489,
      "▁zach": 7490,
      "▁zouz": 7491,
      "aste": 7492,
      "asons": 7493,
      "▁nie": 7494,
      "▁naze": 7495,
      "▁nasyonal": 7496,
      "▁north": 7497,
      "▁hig": 7498,
      "▁goss": 7499,
      "▁deer": 7500,
      "▁dete": 7501,
      "▁okt": 7502,
      "oma": 7503,
      "omor": 7504,
      "▁vez": 7505,
      "▁vandal": 7506,
      "▁inis": 7507,
      "▁initi": 7508,
      "▁rear": 7509,
      "▁reaz": 7510,
      "▁recher": 7511,
      "iments": 7512,
      "▁tox": 7513,
      "rire": 7514,
      "▁sauv": 7515,
      "▁ofthe": 7516,
      "oles": 7517,
      "anto": 7518,
      "ambo": 7519,
      "▁mode": 7520,
      "▁moving": 7521,
      "▁pez": 7522,
      "ican": 7523,
      "icip": 7524,
      "teen": 7525,
      "usc": 7526,
      "▁sok": 7527,
      "ids": 7528,
      "▁jan": 7529,
      "▁paz": 7530,
      "▁beer": 7531,
      "▁bever": 7532,
      "▁rene": 7533,
      "▁roule": 7534,
      "▁plaf": 7535,
      "utation": 7536,
      "erst": 7537,
      "▁unus": 7538,
      "▁unicity": 7539,
      "▁ethn": 7540,
      "▁etablir": 7541,
      "osan": 7542,
      "oskop": 7543,
      "▁stal": 7544,
      "▁stir": 7545,
      "▁stasion": 7546,
      "▁stuff": 7547,
      "ung": 7548,
      "▁assez": 7549,
      "resi": 7550,
      "▁china": 7551,
      "▁chiens": 7552,
      "▁item": 7553,
      "▁dirty": 7554,
      "ortab": 7555,
      "▁neck": 7556,
      "▁trait": 7557,
      "▁trair": 7558,
      "▁compl": 7559,
      "ulent": 7560,
      "ulated": 7561,
      "ozo": 7562,
      "▁manage": 7563,
      "▁maron": 7564,
      "▁marin": 7565,
      "▁raise": 7566,
      "▁desin": 7567,
      "▁desandan": 7568,
      "▁shut": 7569,
      "▁dois": 7570,
      "▁prese": 7571,
      "▁premi": 7572,
      "▁predir": 7573,
      "▁serye": 7574,
      "plus": 7575,
      "▁kouyon": 7576,
      "uments": 7577,
      "iberal": 7578,
      "▁prime": 7579,
      "▁prila": 7580,
      "▁lanb": 7581,
      "ending": 7582,
      "▁perl": 7583,
      "▁perpet": 7584,
      "keeper": 7585,
      "▁ava": 7586,
      "▁avoid": 7587,
      "▁repla": 7588,
      "▁amar": 7589,
      "inee": 7590,
      "mail": 7591,
      "▁malt": 7592,
      "▁malin": 7593,
      "▁estce": 7594,
      "▁akadem": 7595,
      "▁boot": 7596,
      "▁queue": 7597,
      "▁verifie": 7598,
      "▁labri": 7599,
      "▁boufonn": 7600,
      "▁donnez": 7601,
      "▁poison": 7602,
      "▁prize": 7603,
      "▁works": 7604,
      "▁lalyans": 7605,
      "▁lamwat": 7606,
      "▁spoke": 7607,
      "▁fear": 7608,
      "acha": 7609,
      "▁blie": 7610,
      "▁brand": 7611,
      "▁profonde": 7612,
      "▁professe": 7613,
      "▁interesan": 7614,
      "▁terin": 7615,
      "▁terror": 7616,
      "▁lafreyer": 7617,
      "epa": 7618,
      "▁lasas": 7619,
      "pled": 7620,
      "▁returne": 7621,
      "▁montrer": 7622,
      "▁preserv": 7623,
      "▁lavait": 7624,
      "▁sirk": 7625,
      "▁guide": 7626,
      "▁guests": 7627,
      "▁detre": 7628,
      "▁morisien": 7629,
      "▁patiraz": 7630,
      "▁twal": 7631,
      "▁sorts": 7632,
      "▁recon": 7633,
      "▁empt": 7634,
      "▁diagn": 7635,
      "▁decl": 7636,
      "▁rezim": 7637,
      "▁rezidans": 7638,
      "▁divors": 7639,
      "▁ecole": 7640,
      "▁grandpere": 7641,
      "▁beton": 7642,
      "▁petrol": 7643,
      "msm": 7644,
      "ocent": 7645,
      "▁dayer": 7646,
      "▁latas": 7647,
      "▁compla": 7648,
      "▁defi": 7649,
      "▁defl": 7650,
      "▁defet": 7651,
      "▁salomon": 7652,
      "phabet": 7653,
      "▁elections": 7654,
      "▁elephant": 7655,
      "▁solisyon": 7656,
      "▁expos": 7657,
      "▁swit": 7658,
      "▁everybody": 7659,
      "▁autonom": 7660,
      "▁accom": 7661,
      "▁accue": 7662,
      "▁acceler": 7663,
      "▁inspe": 7664,
      "▁insult": 7665,
      "▁taille": 7666,
      "▁krist": 7667,
      "▁remor": 7668,
      "▁instant": 7669,
      "▁instruction": 7670,
      "▁friz": 7671,
      "▁farming": 7672,
      "▁sugarc": 7673,
      "psyon": 7674,
      "▁banbu": 7675,
      "▁legend": 7676,
      "▁matin": 7677,
      "▁produit": 7678,
      "▁kask": 7679,
      "▁apporter": 7680,
      "▁muse": 7681,
      "arna": 7682,
      "▁payin": 7683,
      "ianse": 7684,
      "▁tells": 7685,
      "▁lazistis": 7686,
      "▁programme": 7687,
      "▁trick": 7688,
      "▁ramase": 7689,
      "▁extre": 7690,
      "▁promen": 7691,
      "▁malade": 7692,
      "▁malades": 7693,
      "▁lemal": 7694,
      "▁simply": 7695,
      "▁gerard": 7696,
      "ario": 7697,
      "▁ladrog": 7698,
      "▁valid": 7699,
      "▁histoires": 7700,
      "▁enfin": 7701,
      "▁semiz": 7702,
      "▁pleurer": 7703,
      "ribed": 7704,
      "cherent": 7705,
      "▁singers": 7706,
      "▁confirm": 7707,
      "▁rule": 7708,
      "▁sarz": 7709,
      "ception": 7710,
      "▁draw": 7711,
      "▁leva": 7712,
      "▁lenz": 7713,
      "▁artizan": 7714,
      "issez": 7715,
      "▁2000": 7716,
      "▁eats": 7717,
      "▁diskit": 7718,
      "▁diskur": 7719,
      "▁petites": 7720,
      "▁greed": 7721,
      "▁rebel": 7722,
      "▁industrial": 7723,
      "▁limon": 7724,
      "▁generation": 7725,
      "▁repondu": 7726,
      "▁catastro": 7727,
      "▁meetings": 7728,
      "▁violans": 7729,
      "▁sori": 7730,
      "▁constant": 7731,
      "▁apartenir": 7732,
      "▁prezans": 7733,
      "▁difficile": 7734,
      "jah": 7735,
      "▁bags": 7736,
      "▁fonksion": 7737,
      "market": 7738,
      "▁preparation": 7739,
      "▁caste": 7740,
      "▁kafe": 7741,
      "▁specific": 7742,
      "▁cutting": 7743,
      "▁crie": 7744,
      "▁swear": 7745,
      "▁creatures": 7746,
      "▁savon": 7747,
      "▁agreed": 7748,
      "▁zenerasion": 7749,
      "▁mindev": 7750,
      "▁fleur": 7751,
      "▁fleurs": 7752,
      "▁seems": 7753,
      "▁crucial": 7754,
      "▁commandment": 7755,
      "▁convin": 7756,
      "▁mmmmsm": 7757,
      "▁lanseynman": 7758,
      "▁warm": 7759,
      "▁receive": 7760,
      "▁neighbor": 7761,
      "▁departman": 7762,
      "▁consequ": 7763,
      "▁author": 7764,
      "▁sympt": 7765,
      "▁statement": 7766,
      "▁existence": 7767,
      "▁parfin": 7768,
      "▁likes": 7769,
      "▁victory": 7770,
      "▁alternative": 7771,
      "▁cowshed": 7772,
      "▁optim": 7773,
      "▁strike": 7774,
      "▁souvenir": 7775,
      "▁falepa": 7776,
      "▁mobilization": 7777,
      "▁mobilizasyon": 7778,
      "▁nourriture": 7779,
      "▁pouvait": 7780,
      "▁pedagog": 7781,
      "▁machine": 7782,
      "▁auntie": 7783,
      "▁climb": 7784,
      "▁participants": 7785,
      "ground": 7786,
      "▁boutey": 7787,
      "▁encourage": 7788,
      "▁european": 7789,
      "▁kaviram": 7790,
      "▁segonn": 7791,
      "▁mahatma": 7792,
      "▁diseases": 7793,
      "▁honour": 7794,
      "▁connected": 7795,
      "▁hello": 7796,
      "presyon": 7797,
      "▁amezir": 7798,
      "▁sabbath": 7799,
      "▁repeat": 7800,
      "▁itilizasyon": 7801,
      "▁neglig": 7802,
      "▁cyclone": 7803,
      "▁eklate": 7804,
      "▁management": 7805,
      "▁witchcra": 7806,
      "▁pibliye": 7807,
      "▁pavyon": 7808,
      "▁split": 7809,
      "▁mechan": 7810,
      "▁scriptures": 7811,
      "▁relizye": 7812,
      "▁fishermen": 7813,
      "▁voulu": 7814,
      "▁exkiz": 7815,
      "▁tranzisyonel": 7816,
      "▁inquiet": 7817,
      "▁willingdon": 7818,
      "▁electoral": 7819,
      "▁robert": 7820,
      "▁analyze": 7821,
      "▁proprietaire": 7822,
      "▁daller": 7823,
      "▁bidzela": 7824,
      "▁conflict": 7825,
      "▁luniversite": 7826,
      "▁zacharie": 7827,
      "▁gossip": 7828,
      "▁witchcraft": 7829,
      "aj": 7830,
      "but": 7831,
      "best": 7832,
      "born": 7833,
      "cu": 7834,
      "cot": 7835,
      "cut": 7836,
      "dra": 7837,
      "fall": 7838,
      "fast": 7839,
      "io": 7840,
      "ky": 7841,
      "mis": 7842,
      "mal": 7843,
      "mopol": 7844,
      "nman": 7845,
      "orest": 7846,
      "pter": 7847,
      "press": 7848,
      "rout": 7849,
      "rone": 7850,
      "rine": 7851,
      "rens": 7852,
      "round": 7853,
      "rations": 7854,
      "set": 7855,
      "sinn": 7856,
      "tage": 7857,
      "time": 7858,
      "uver": 7859,
      "vraz": 7860,
      "wers": 7861,
      "wise": 7862,
      "yu": 7863,
      "yar": 7864,
      "za": 7865,
      "▁tum": 7866,
      "▁tiler": 7867,
      "▁lur": 7868,
      "▁lite": 7869,
      "▁lune": 7870,
      "▁lanti": 7871,
      "▁lying": 7872,
      "▁lump": 7873,
      "▁pill": 7874,
      "▁pork": 7875,
      "erk": 7876,
      "ering": 7877,
      "erne": 7878,
      "▁sard": 7879,
      "▁dere": 7880,
      "▁dite": 7881,
      "▁dents": 7882,
      "ining": 7883,
      "inaz": 7884,
      "enik": 7885,
      "enow": 7886,
      "▁aur": 7887,
      "▁aust": 7888,
      "▁ayo": 7889,
      "▁mie": 7890,
      "▁mine": 7891,
      "▁mize": 7892,
      "▁mise": 7893,
      "▁mision": 7894,
      "▁kinn": 7895,
      "▁bod": 7896,
      "▁fonn": 7897,
      "▁ful": 7898,
      "▁faute": 7899,
      "esh": 7900,
      "ora": 7901,
      "orab": 7902,
      "itim": 7903,
      "▁cig": 7904,
      "▁cogn": 7905,
      "▁eh": 7906,
      "▁ear": 7907,
      "▁eve": 7908,
      "▁wa": 7909,
      "▁wow": 7910,
      "▁zav": 7911,
      "▁zip": 7912,
      "▁zini": 7913,
      "▁zouti": 7914,
      "▁zuti": 7915,
      "▁anver": 7916,
      "▁ange": 7917,
      "▁nim": 7918,
      "▁nene": 7919,
      "ilis": 7920,
      "iled": 7921,
      "▁hers": 7922,
      "▁hav": 7923,
      "▁hang": 7924,
      "▁harn": 7925,
      "▁honey": 7926,
      "▁laid": 7927,
      "▁gent": 7928,
      "▁gast": 7929,
      "▁depe": 7930,
      "▁defer": 7931,
      "leep": 7932,
      "▁tik": 7933,
      "▁liver": 7934,
      "▁liye": 7935,
      "▁ogre": 7936,
      "irans": 7937,
      "▁ves": 7938,
      "▁vel": 7939,
      "▁vac": 7940,
      "▁villes": 7941,
      "▁vyol": 7942,
      "▁rela": 7943,
      "▁rekou": 7944,
      "ima": 7945,
      "▁tol": 7946,
      "elizan": 7947,
      "▁kid": 7948,
      "▁savoir": 7949,
      "olision": 7950,
      "olds": 7951,
      "enth": 7952,
      "antik": 7953,
      "amine": 7954,
      "izont": 7955,
      "izib": 7956,
      "▁peyna": 7957,
      "quez": 7958,
      "icide": 7959,
      "icule": 7960,
      "▁semans": 7961,
      "ury": 7962,
      "uring": 7963,
      "urance": 7964,
      "urally": 7965,
      "apl": 7966,
      "▁alter": 7967,
      "▁alive": 7968,
      "▁soft": 7969,
      "▁jar": 7970,
      "▁jure": 7971,
      "very": 7972,
      "▁param": 7973,
      "ching": 7974,
      "chez": 7975,
      "▁rin": 7976,
      "▁rut": 7977,
      "▁rond": 7978,
      "ifts": 7979,
      "azi": 7980,
      "azman": 7981,
      "▁oncle": 7982,
      "ousian": 7983,
      "▁forse": 7984,
      "▁quun": 7985,
      "▁quality": 7986,
      "abo": 7987,
      "▁aspect": 7988,
      "▁asbest": 7989,
      "▁asleep": 7990,
      "▁feros": 7991,
      "▁chois": 7992,
      "ople": 7993,
      "oped": 7994,
      "akes": 7995,
      "▁tristes": 7996,
      "▁konkl": 7997,
      "▁dimal": 7998,
      "okrat": 7999,
      "▁arrow": 8000,
      "laient": 8001,
      "ived": 8002,
      "ivent": 8003,
      "▁exse": 8004,
      "▁exec": 8005,
      "▁tray": 8006,
      "▁mavez": 8007,
      "▁waste": 8008,
      "▁theyre": 8009,
      "▁marx": 8010,
      "▁rab": 8011,
      "▁rare": 8012,
      "▁raport": 8013,
      "▁deser": 8014,
      "▁desole": 8015,
      "▁abaz": 8016,
      "aum": 8017,
      "▁doctors": 8018,
      "▁series": 8019,
      "▁frot": 8020,
      "▁kouraz": 8021,
      "▁kanar": 8022,
      "▁kanal": 8023,
      "▁kanmem": 8024,
      "▁roof": 8025,
      "▁passo": 8026,
      "▁leres": 8027,
      "onsol": 8028,
      "▁weeks": 8029,
      "ierman": 8030,
      "▁imit": 8031,
      "▁imans": 8032,
      "enda": 8033,
      "▁worse": 8034,
      "viere": 8035,
      "▁facing": 8036,
      "▁avion": 8037,
      "▁avenue": 8038,
      "▁repoze": 8039,
      "▁agos": 8040,
      "▁amie": 8041,
      "perer": 8042,
      "▁morso": 8043,
      "▁riban": 8044,
      "▁riviere": 8045,
      "▁teeth": 8046,
      "ialite": 8047,
      "▁conc": 8048,
      "ogram": 8049,
      "▁verite": 8050,
      "▁buz": 8051,
      "▁butey": 8052,
      "▁adilter": 8053,
      "▁clong": 8054,
      "▁bouz": 8055,
      "▁prier": 8056,
      "▁lekiri": 8057,
      "▁noone": 8058,
      "▁noise": 8059,
      "▁nobody": 8060,
      "feksion": 8061,
      "▁intim": 8062,
      "▁intend": 8063,
      "▁lezlez": 8064,
      "▁canal": 8065,
      "▁spot": 8066,
      "▁demen": 8067,
      "▁demann": 8068,
      "▁demars": 8069,
      "▁feed": 8070,
      "▁propose": 8071,
      "▁flu": 8072,
      "acher": 8073,
      "▁blam": 8074,
      "▁blow": 8075,
      "▁blue": 8076,
      "▁bru": 8077,
      "▁batem": 8078,
      "▁jeu": 8079,
      "▁lafore": 8080,
      "▁lafami": 8081,
      "▁gagner": 8082,
      "▁komet": 8083,
      "▁somebody": 8084,
      "▁lasem": 8085,
      "▁laspe": 8086,
      "▁lasoup": 8087,
      "illet": 8088,
      "pleman": 8089,
      "▁retrouv": 8090,
      "▁contra": 8091,
      "▁content": 8092,
      "ruire": 8093,
      "▁spect": 8094,
      "▁spekt": 8095,
      "▁spekil": 8096,
      "▁herbes": 8097,
      "▁answers": 8098,
      "▁konpagn": 8099,
      "▁coffe": 8100,
      "▁sortit": 8101,
      "▁recomm": 8102,
      "▁mince": 8103,
      "▁regar": 8104,
      "▁childrens": 8105,
      "▁tomato": 8106,
      "▁deroule": 8107,
      "▁anyway": 8108,
      "rene": 8109,
      "▁diabet": 8110,
      "▁decou": 8111,
      "▁linf": 8112,
      "▁linet": 8113,
      "▁grander": 8114,
      "▁nomb": 8115,
      "▁nombre": 8116,
      "▁relative": 8117,
      "▁compar": 8118,
      "▁compos": 8119,
      "▁invites": 8120,
      "▁rekrit": 8121,
      "▁rekolte": 8122,
      "▁personal": 8123,
      "▁elements": 8124,
      "ricul": 8125,
      "▁finans": 8126,
      "▁expulsion": 8127,
      "▁tempor": 8128,
      "▁barik": 8129,
      "▁barbe": 8130,
      "▁panie": 8131,
      "▁accent": 8132,
      "▁accident": 8133,
      "▁insousian": 8134,
      "▁ranbours": 8135,
      "▁graines": 8136,
      "rolog": 8137,
      "▁couldnt": 8138,
      "▁disciple": 8139,
      "▁progress": 8140,
      "▁matt": 8141,
      "▁calm": 8142,
      "▁konsant": 8143,
      "▁konsidere": 8144,
      "▁apprent": 8145,
      "▁crops": 8146,
      "▁piez": 8147,
      "▁balanse": 8148,
      "▁veulent": 8149,
      "▁rapport": 8150,
      "▁pretend": 8151,
      "▁mustas": 8152,
      "▁joint": 8153,
      "▁sipli": 8154,
      "▁asking": 8155,
      "▁naturally": 8156,
      "▁scheme": 8157,
      "resser": 8158,
      "▁atta": 8159,
      "▁attract": 8160,
      "▁lazourne": 8161,
      "▁lazurne": 8162,
      "▁triyan": 8163,
      "▁tricks": 8164,
      "▁kumanse": 8165,
      "▁tanzan": 8166,
      "▁tanzant": 8167,
      "▁promesse": 8168,
      "▁lizye": 8169,
      "▁disturb": 8170,
      "raliberal": 8171,
      "▁freed": 8172,
      "▁mazanbik": 8173,
      "▁benit": 8174,
      "▁lalits": 8175,
      "▁sikse": 8176,
      "▁talked": 8177,
      "▁badam": 8178,
      "▁anfaver": 8179,
      "▁skandal": 8180,
      "▁window": 8181,
      "▁koken": 8182,
      "▁confront": 8183,
      "▁questce": 8184,
      "▁konfli": 8185,
      "▁population": 8186,
      "▁vizavi": 8187,
      "▁louvraz": 8188,
      "▁greet": 8189,
      "▁journee": 8190,
      "▁playing": 8191,
      "▁dyp": 8192,
      "▁destruction": 8193,
      "▁cattle": 8194,
      "▁learned": 8195,
      "▁mobile": 8196,
      "▁prezidan": 8197,
      "▁oneself": 8198,
      "bbed": 8199,
      "▁excell": 8200,
      "▁excuse": 8201,
      "▁midw": 8202,
      "▁caused": 8203,
      "▁causes": 8204,
      "▁izai": 8205,
      "▁proteksyon": 8206,
      "▁regarder": 8207,
      "▁ansegnman": 8208,
      "▁numbers": 8209,
      "▁espes": 8210,
      "▁opened": 8211,
      "▁utiliser": 8212,
      "▁foret": 8213,
      "▁fouy": 8214,
      "▁sidon": 8215,
      "▁younger": 8216,
      "▁spirits": 8217,
      "▁cooking": 8218,
      "▁tipul": 8219,
      "semb": 8220,
      "▁collectors": 8221,
      "▁sister": 8222,
      "▁variant": 8223,
      "▁plato": 8224,
      "▁blah": 8225,
      "▁peutetre": 8226,
      "▁repression": 8227,
      "▁crack": 8228,
      "▁elektoral": 8229,
      "▁breakfast": 8230,
      "▁saser": 8231,
      "▁bankrupt": 8232,
      "▁murder": 8233,
      "▁approach": 8234,
      "▁diminie": 8235,
      "▁precaut": 8236,
      "▁pinch": 8237,
      "▁tranzaksion": 8238,
      "▁symbol": 8239,
      "▁sympath": 8240,
      "▁forgiv": 8241,
      "erezman": 8242,
      "▁demokratik": 8243,
      "▁objects": 8244,
      "▁blessed": 8245,
      "▁issues": 8246,
      "▁dautre": 8247,
      "▁warning": 8248,
      "▁laitier": 8249,
      "▁optimal": 8250,
      "▁faithful": 8251,
      "▁throat": 8252,
      "▁false": 8253,
      "amental": 8254,
      "borl": 8255,
      "▁sitiini": 8256,
      "▁hotel": 8257,
      "▁grandmere": 8258,
      "▁enemies": 8259,
      "▁ritual": 8260,
      "▁arsiv": 8261,
      "▁arsipel": 8262,
      "▁citiz": 8263,
      "▁bouteille": 8264,
      "▁souffle": 8265,
      "▁monopoly": 8266,
      "▁ecritures": 8267,
      "▁photograph": 8268,
      "▁kiltirel": 8269,
      "▁nimero": 8270,
      "▁vakans": 8271,
      "▁kreatir": 8272,
      "▁ordinary": 8273,
      "▁judea": 8274,
      "▁judee": 8275,
      "▁including": 8276,
      "▁oreilles": 8277,
      "▁medicine": 8278,
      "▁storyteller": 8279,
      "▁environment": 8280,
      "▁lanterman": 8281,
      "▁critic": 8282,
      "▁newspaper": 8283,
      "reciation": 8284,
      "▁fifty": 8285,
      "▁septem": 8286,
      "▁comfortable": 8287,
      "▁partikilye": 8288,
      "▁aveugles": 8289,
      "▁fakilte": 8290,
      "▁tickets": 8291,
      "▁strange": 8292,
      "▁orchard": 8293,
      "▁ministry": 8294,
      "▁micro": 8295,
      "▁soufrans": 8296,
      "▁zebede": 8297,
      "▁behavior": 8298,
      "▁tribinal": 8299,
      "▁activities": 8300,
      "▁cuisine": 8301,
      "▁seminar": 8302,
      "▁glorifie": 8303,
      "▁lantrepriz": 8304,
      "▁bombay": 8305,
      "▁ltd": 8306,
      "▁fennsifer": 8307,
      "▁temwagn": 8308,
      "▁conjunctural": 8309,
      "▁konzonktirel": 8310,
      "▁lelefan": 8311,
      "▁depresyasyon": 8312,
      "▁spoken": 8313,
      "▁grinsman": 8314,
      "friend": 8315,
      "▁higher": 8316,
      "▁recherche": 8317,
      "▁beverly": 8318,
      "▁professeur": 8319,
      "▁neighborhood": 8320,
      "▁tilera": 8321,
      "▁asbestos": 8322,
      "▁sipliy": 8323,
      "▁triyanger": 8324,
      "▁tanzantan": 8325,
      "19": 8326,
      "bra": 8327,
      "boul": 8328,
      "dou": 8329,
      "fo": 8330,
      "fon": 8331,
      "gu": 8332,
      "got": 8333,
      "gas": 8334,
      "gue": 8335,
      "ires": 8336,
      "jour": 8337,
      "just": 8338,
      "los": 8339,
      "min": 8340,
      "mof": 8341,
      "ners": 8342,
      "nite": 8343,
      "oyer": 8344,
      "pant": 8345,
      "pok": 8346,
      "pla": 8347,
      "pents": 8348,
      "ppled": 8349,
      "rater": 8350,
      "ster": 8351,
      "traliberal": 8352,
      "uile": 8353,
      "vag": 8354,
      "wl": 8355,
      "wes": 8356,
      "wann": 8357,
      "yt": 8358,
      "yot": 8359,
      "yle": 8360,
      "yse": 8361,
      "zans": 8362,
      "▁ire": 8363,
      "▁ice": 8364,
      "anc": 8365,
      "ano": 8366,
      "▁lard": 8367,
      "▁lars": 8368,
      "▁lyen": 8369,
      "▁pion": 8370,
      "▁ping": 8371,
      "▁pwa": 8372,
      "▁pity": 8373,
      "▁sonn": 8374,
      "▁slo": 8375,
      "▁sannla": 8376,
      "▁dw": 8377,
      "▁dout": 8378,
      "▁dict": 8379,
      "▁dodo": 8380,
      "ena": 8381,
      "▁ai": 8382,
      "▁ara": 8383,
      "▁aig": 8384,
      "▁aki": 8385,
      "▁ade": 8386,
      "▁mante": 8387,
      "redi": 8388,
      "▁bore": 8389,
      "▁bell": 8390,
      "▁bass": 8391,
      "▁beds": 8392,
      "▁bambo": 8393,
      "▁thick": 8394,
      "isent": 8395,
      "▁furi": 8396,
      "▁faux": 8397,
      "esyon": 8398,
      "orse": 8399,
      "arily": 8400,
      "ita": 8401,
      "itaire": 8402,
      "▁ciment": 8403,
      "▁email": 8404,
      "▁theoret": 8405,
      "▁wol": 8406,
      "▁west": 8407,
      "▁waves": 8408,
      "▁waw": 8409,
      "oted": 8410,
      "otte": 8411,
      "alt": 8412,
      "▁zor": 8413,
      "▁anpri": 8414,
      "▁nt": 8415,
      "ileng": 8416,
      "▁hate": 8417,
      "▁ensemble": 8418,
      "▁enorme": 8419,
      "▁lave": 8420,
      "▁gab": 8421,
      "▁gain": 8422,
      "▁gmof": 8423,
      "▁deleg": 8424,
      "▁tiran": 8425,
      "▁oz": 8426,
      "eti": 8427,
      "etres": 8428,
      "irer": 8429,
      "▁vor": 8430,
      "▁vig": 8431,
      "▁vok": 8432,
      "▁vital": 8433,
      "▁vigne": 8434,
      "▁viennent": 8435,
      "▁inosan": 8436,
      "▁repl": 8437,
      "▁rearing": 8438,
      "▁reex": 8439,
      "ims": 8440,
      "▁tok": 8441,
      "elri": 8442,
      "▁kik": 8443,
      "rade": 8444,
      "right": 8445,
      "▁ofans": 8446,
      "▁danzere": 8447,
      "olan": 8448,
      "▁poule": 8449,
      "▁pouse": 8450,
      "▁pouss": 8451,
      "izi": 8452,
      "▁moon": 8453,
      "▁mood": 8454,
      "▁moyenn": 8455,
      "quant": 8456,
      "icit": 8457,
      "icite": 8458,
      "icial": 8459,
      "icides": 8460,
      "▁separe": 8461,
      "▁search": 8462,
      "adoo": 8463,
      "▁whip": 8464,
      "▁alb": 8465,
      "▁alth": 8466,
      "▁alfabet": 8467,
      "ussi": 8468,
      "▁yog": 8469,
      "▁jal": 8470,
      "iker": 8471,
      "ikenn": 8472,
      "waze": 8473,
      "▁paras": 8474,
      "▁parad": 8475,
      "▁parcel": 8476,
      "teryer": 8477,
      "▁pares": 8478,
      "▁paix": 8479,
      "chers": 8480,
      "▁ration": 8481,
      "▁rendre": 8482,
      "uted": 8483,
      "utely": 8484,
      "▁proc": 8485,
      "▁proced": 8486,
      "ifi": 8487,
      "ifs": 8488,
      "▁isa": 8489,
      "▁onz": 8490,
      "anson": 8491,
      "igration": 8492,
      "▁unt": 8493,
      "▁unfort": 8494,
      "▁unoff": 8495,
      "▁forz": 8496,
      "▁forme": 8497,
      "▁etat": 8498,
      "▁pup": 8499,
      "▁quitt": 8500,
      "▁quoi": 8501,
      "▁quitte": 8502,
      "osis": 8503,
      "▁storm": 8504,
      "▁stuck": 8505,
      "▁chou": 8506,
      "▁chant": 8507,
      "▁chur": 8508,
      "▁chac": 8509,
      "▁meg": 8510,
      "istan": 8511,
      "opter": 8512,
      "▁tru": 8513,
      "▁konvers": 8514,
      "▁konverti": 8515,
      "▁dimiel": 8516,
      "▁arya": 8517,
      "ivan": 8518,
      "▁nearly": 8519,
      "▁orient": 8520,
      "▁exsepte": 8521,
      "▁trape": 8522,
      "▁mait": 8523,
      "▁wash": 8524,
      "ounce": 8525,
      "rance": 8526,
      "▁atmos": 8527,
      "▁disapp": 8528,
      "▁manb": 8529,
      "▁manual": 8530,
      "▁marg": 8531,
      "▁rame": 8532,
      "▁racont": 8533,
      "▁design": 8534,
      "▁abitie": 8535,
      "▁shirt": 8536,
      "▁doig": 8537,
      "▁doivent": 8538,
      "▁zanvie": 8539,
      "▁previ": 8540,
      "▁pregn": 8541,
      "▁areas": 8542,
      "ondi": 8543,
      "▁koupe": 8544,
      "umb": 8545,
      "▁row": 8546,
      "▁noticed": 8547,
      "iber": 8548,
      "▁rester": 8549,
      "▁resident": 8550,
      "▁lanket": 8551,
      "endous": 8552,
      "▁kontab": 8553,
      "▁depoz": 8554,
      "▁depend": 8555,
      "▁perce": 8556,
      "▁otor": 8557,
      "▁travel": 8558,
      "▁agir": 8559,
      "▁amuse": 8560,
      "▁persiste": 8561,
      "▁riche": 8562,
      "▁lakes": 8563,
      "▁devrait": 8564,
      "▁bonmarse": 8565,
      "▁lock": 8566,
      "▁lobs": 8567,
      "▁verre": 8568,
      "▁labsans": 8569,
      "▁clo": 8570,
      "▁clan": 8571,
      "▁donna": 8572,
      "▁bienven": 8573,
      "▁pocket": 8574,
      "ityel": 8575,
      "▁lekz": 8576,
      "▁nose": 8577,
      "▁events": 8578,
      "▁spar": 8579,
      "▁spite": 8580,
      "▁demar": 8581,
      "▁flip": 8582,
      "▁flies": 8583,
      "▁flood": 8584,
      "▁brin": 8585,
      "▁brus": 8586,
      "▁brile": 8587,
      "▁brings": 8588,
      "▁britan": 8589,
      "▁bath": 8590,
      "▁jew": 8591,
      "ielman": 8592,
      "eping": 8593,
      "▁komansman": 8594,
      "ilding": 8595,
      "▁retablir": 8596,
      "▁antou": 8597,
      "▁antret": 8598,
      "▁contract": 8599,
      "▁contrary": 8600,
      "▁sirkile": 8601,
      "aryenn": 8602,
      "▁drill": 8603,
      "▁drunk": 8604,
      "▁colon": 8605,
      "▁aura": 8606,
      "▁ansint": 8607,
      "▁medi": 8608,
      "▁meday": 8609,
      "▁medsinn": 8610,
      "▁sortir": 8611,
      "▁regroup": 8612,
      "▁deranz": 8613,
      "▁derriere": 8614,
      "▁served": 8615,
      "▁emph": 8616,
      "▁ourselves": 8617,
      "▁fasilite": 8618,
      "ktir": 8619,
      "▁betray": 8620,
      "udes": 8621,
      "▁latizann": 8622,
      "▁invent": 8623,
      "phere": 8624,
      "▁eleman": 8625,
      "▁element": 8626,
      "ertan": 8627,
      "▁expoz": 8628,
      "▁temway": 8629,
      "▁lagren": 8630,
      "▁transm": 8631,
      "▁transpor": 8632,
      "▁directeur": 8633,
      "▁remind": 8634,
      "▁formel": 8635,
      "▁ranv": 8636,
      "▁farmer": 8637,
      "▁afterwards": 8638,
      "▁progre": 8639,
      "▁looks": 8640,
      "▁banana": 8641,
      "▁match": 8642,
      "▁belmer": 8643,
      "▁organisation": 8644,
      "▁voici": 8645,
      "▁calcul": 8646,
      "▁appel": 8647,
      "▁apporte": 8648,
      "▁appoint": 8649,
      "▁crop": 8650,
      "▁croyez": 8651,
      "▁dekonp": 8652,
      "▁dekuver": 8653,
      "▁menase": 8654,
      "ologue": 8655,
      "▁koler": 8656,
      "▁vieille": 8657,
      "ofann": 8658,
      "▁massive": 8659,
      "▁entendre": 8660,
      "▁militer": 8661,
      "▁impro": 8662,
      "▁importe": 8663,
      "▁tanki": 8664,
      "▁irzan": 8665,
      "▁distans": 8666,
      "▁hub": 8667,
      "▁azanda": 8668,
      "▁anpandan": 8669,
      "▁riske": 8670,
      "▁frek": 8671,
      "▁gerizon": 8672,
      "▁signal": 8673,
      "▁ended": 8674,
      "▁endroit": 8675,
      "▁corpor": 8676,
      "▁bright": 8677,
      "▁poto": 8678,
      "▁mesure": 8679,
      "▁biro": 8680,
      "▁sentence": 8681,
      "▁rub": 8682,
      "kteman": 8683,
      "▁drawing": 8684,
      "▁illness": 8685,
      "▁bush": 8686,
      "▁july": 8687,
      "▁konfortab": 8688,
      "▁rather": 8689,
      "▁shows": 8690,
      "▁loue": 8691,
      "iennes": 8692,
      "▁grew": 8693,
      "▁begins": 8694,
      "▁kolekter": 8695,
      "▁frame": 8696,
      "▁recording": 8697,
      "▁domenn": 8698,
      "▁string": 8699,
      "▁student": 8700,
      "▁40": 8701,
      "▁dying": 8702,
      "▁investig": 8703,
      "▁visite": 8704,
      "▁palab": 8705,
      "yani": 8706,
      "▁desten": 8707,
      "▁pasture": 8708,
      "atikman": 8709,
      "▁hunger": 8710,
      "▁extravag": 8711,
      "▁zenes": 8712,
      "▁inkon": 8713,
      "▁tanpet": 8714,
      "▁lieux": 8715,
      "▁konsek": 8716,
      "▁types": 8717,
      "▁goud": 8718,
      "▁gouverne": 8719,
      "▁arrives": 8720,
      "▁pozisyon": 8721,
      "▁navait": 8722,
      "▁espece": 8723,
      "▁sages": 8724,
      "▁normalman": 8725,
      "▁tourner": 8726,
      "▁espion": 8727,
      "▁60": 8728,
      "▁crippled": 8729,
      "▁opening": 8730,
      "▁sides": 8731,
      "▁rekonst": 8732,
      "▁abandon": 8733,
      "cksmith": 8734,
      "▁collecting": 8735,
      "▁denons": 8736,
      "▁variety": 8737,
      "▁posibilite": 8738,
      "▁fasilit": 8739,
      "▁tropikal": 8740,
      "▁lisans": 8741,
      "▁totalite": 8742,
      "▁minds": 8743,
      "▁witness": 8744,
      "▁90": 8745,
      "▁promets": 8746,
      "▁lentils": 8747,
      "▁drive": 8748,
      "▁placed": 8749,
      "▁interesting": 8750,
      "faction": 8751,
      "▁dressed": 8752,
      "▁europa": 8753,
      "▁circul": 8754,
      "ashed": 8755,
      "▁habille": 8756,
      "▁1982": 8757,
      "▁zennfi": 8758,
      "▁department": 8759,
      "▁chosen": 8760,
      "▁tutswit": 8761,
      "▁football": 8762,
      "▁closed": 8763,
      "▁tandans": 8764,
      "▁100000": 8765,
      "▁accounts": 8766,
      "▁fighting": 8767,
      "▁septam": 8768,
      "▁punish": 8769,
      "▁definir": 8770,
      "▁shouting": 8771,
      "▁thousands": 8772,
      "▁mixed": 8773,
      "▁leadership": 8774,
      "▁dousman": 8775,
      "▁medecins": 8776,
      "▁vinrent": 8777,
      "▁zepol": 8778,
      "▁mansonz": 8779,
      "▁chambre": 8780,
      "▁heshe": 8781,
      "▁voyage": 8782,
      "▁islands": 8783,
      "▁sorselri": 8784,
      "▁hurry": 8785,
      "▁faisait": 8786,
      "▁rupee": 8787,
      "▁absolutely": 8788,
      "atrice": 8789,
      "▁adopte": 8790,
      "▁tremendous": 8791,
      "▁magnet": 8792,
      "▁blese": 8793,
      "▁james": 8794,
      "kripsion": 8795,
      "▁predict": 8796,
      "▁aksidan": 8797,
      "▁synd": 8798,
      "▁kafarna": 8799,
      "▁chapter": 8800,
      "▁intelligent": 8801,
      "▁affected": 8802,
      "▁miserable": 8803,
      "▁konstitisyon": 8804,
      "▁paternal": 8805,
      "▁gaspi": 8806,
      "▁newspapers": 8807,
      "▁london": 8808,
      "▁obtenir": 8809,
      "▁scientific": 8810,
      "▁vandredi": 8811,
      "▁flowers": 8812,
      "▁dinosau": 8813,
      "▁nonsense": 8814,
      "▁initial": 8815,
      "▁crevette": 8816,
      "▁details": 8817,
      "▁fonctionnaire": 8818,
      "▁cultivation": 8819,
      "▁gauche": 8820,
      "▁manifest": 8821,
      "▁subsid": 8822,
      "▁ecoutez": 8823,
      "▁instrument": 8824,
      "▁siklonn": 8825,
      "▁sapprocherent": 8826,
      "▁otosif": 8827,
      "▁lenseignement": 8828,
      "▁ancestors": 8829,
      "▁influence": 8830,
      "▁obviously": 8831,
      "▁domestik": 8832,
      "▁kmh": 8833,
      "▁kandida": 8834,
      "▁sakouy": 8835,
      "▁despite": 8836,
      "▁inofis": 8837,
      "▁resources": 8838,
      "▁guilty": 8839,
      "▁thieves": 8840,
      "▁zouzou": 8841,
      "▁unusual": 8842,
      "▁twalet": 8843,
      "▁empty": 8844,
      "▁symptom": 8845,
      "▁austral": 8846,
      "▁herself": 8847,
      "▁pinchfield": 8848,
      "▁bamboo": 8849,
      "▁gmofree": 8850,
      "▁although": 8851,
      "▁unfortun": 8852,
      "▁unofficial": 8853,
      "▁britanik": 8854,
      "▁emphas": 8855,
      "▁kafarnaom": 8856,
      "15": 8857,
      "ae": 8858,
      "bot": 8859,
      "bonn": 8860,
      "bone": 8861,
      "bable": 8862,
      "ca": 8863,
      "cter": 8864,
      "cool": 8865,
      "cuit": 8866,
      "dite": 8867,
      "eurs": 8868,
      "fat": 8869,
      "faz": 8870,
      "gor": 8871,
      "gem": 8872,
      "gien": 8873,
      "hand": 8874,
      "hors": 8875,
      "iar": 8876,
      "lat": 8877,
      "list": 8878,
      "lok": 8879,
      "light": 8880,
      "manter": 8881,
      "mark": 8882,
      "pou": 8883,
      "pop": 8884,
      "prim": 8885,
      "sit": 8886,
      "tant": 8887,
      "uye": 8888,
      "vit": 8889,
      "wad": 8890,
      "wint": 8891,
      "yth": 8892,
      "zvous": 8893,
      "▁tes": 8894,
      "▁tiss": 8895,
      "▁tester": 8896,
      "▁lwe": 8897,
      "▁loss": 8898,
      "▁lheure": 8899,
      "▁loulou": 8900,
      "▁pate": 8901,
      "▁pins": 8902,
      "▁pipe": 8903,
      "▁ske": 8904,
      "▁sport": 8905,
      "▁sper": 8906,
      "onet": 8907,
      "▁dust": 8908,
      "▁diner": 8909,
      "▁dario": 8910,
      "inary": 8911,
      "▁aware": 8912,
      "▁mun": 8913,
      "reli": 8914,
      "▁kaye": 8915,
      "▁bours": 8916,
      "▁thor": 8917,
      "isez": 8918,
      "isyen": 8919,
      "isance": 8920,
      "▁fad": 8921,
      "▁fod": 8922,
      "▁filt": 8923,
      "▁fals": 8924,
      "esp": 8925,
      "oration": 8926,
      "arye": 8927,
      "▁cout": 8928,
      "▁cab": 8929,
      "▁cell": 8930,
      "▁zap": 8931,
      "asar": 8932,
      "▁anth": 8933,
      "▁nause": 8934,
      "ilm": 8935,
      "ilman": 8936,
      "▁hier": 8937,
      "▁hole": 8938,
      "▁enth": 8939,
      "▁lapt": 8940,
      "▁gat": 8941,
      "▁gel": 8942,
      "▁gorz": 8943,
      "▁gomon": 8944,
      "▁tipl": 8945,
      "▁tirer": 8946,
      "▁liqu": 8947,
      "▁ligne": 8948,
      "▁ole": 8949,
      "etman": 8950,
      "omb": 8951,
      "▁vast": 8952,
      "▁informe": 8953,
      "▁inposib": 8954,
      "▁reyn": 8955,
      "▁reached": 8956,
      "▁tooth": 8957,
      "elas": 8958,
      "roz": 8959,
      "rose": 8960,
      "road": 8961,
      "ropri": 8962,
      "rich": 8963,
      "rict": 8964,
      "riez": 8965,
      "▁ennuis": 8966,
      "▁safe": 8967,
      "olie": 8968,
      "olik": 8969,
      "▁levi": 8970,
      "▁andik": 8971,
      "ams": 8972,
      "iement": 8973,
      "ayt": 8974,
      "icon": 8975,
      "icac": 8976,
      "urent": 8977,
      "aph": 8978,
      "apar": 8979,
      "apte": 8980,
      "ontane": 8981,
      "▁jeter": 8982,
      "emain": 8983,
      "▁parc": 8984,
      "▁parlez": 8985,
      "▁parking": 8986,
      "▁beach": 8987,
      "chang": 8988,
      "▁rous": 8989,
      "▁rust": 8990,
      "▁rue": 8991,
      "▁rough": 8992,
      "▁roman": 8993,
      "▁plak": 8994,
      "ifique": 8995,
      "▁isol": 8996,
      "▁ondire": 8997,
      "ague": 8998,
      "erson": 8999,
      "▁unc": 9000,
      "▁unknown": 9001,
      "▁forbid": 9002,
      "▁etabl": 9003,
      "▁etudi": 9004,
      "▁ekz": 9005,
      "▁stage": 9006,
      "▁states": 9007,
      "▁stores": 9008,
      "aba": 9009,
      "▁asks": 9010,
      "▁fera": 9011,
      "▁chante": 9012,
      "▁chase": 9013,
      "▁mex": 9014,
      "▁mezon": 9015,
      "▁leson": 9016,
      "▁hegem": 9017,
      "▁konven": 9018,
      "ipl": 9019,
      "oked": 9020,
      "▁ard": 9021,
      "lare": 9022,
      "▁orn": 9023,
      "▁exer": 9024,
      "▁excess": 9025,
      "▁excl": 9026,
      "▁exek": 9027,
      "▁combien": 9028,
      "▁mail": 9029,
      "ozi": 9030,
      "irez": 9031,
      "▁maniere": 9032,
      "▁martir": 9033,
      "▁ille": 9034,
      "▁rais": 9035,
      "▁raison": 9036,
      "▁rabb": 9037,
      "▁desinn": 9038,
      "▁abom": 9039,
      "▁shr": 9040,
      "▁dof": 9041,
      "▁dore": 9042,
      "▁prete": 9043,
      "▁kapit": 9044,
      "▁fron": 9045,
      "▁frater": 9046,
      "▁kouz": 9047,
      "umat": 9048,
      "▁role": 9049,
      "▁resan": 9050,
      "▁resanti": 9051,
      "▁lanfaz": 9052,
      "▁ese": 9053,
      "▁web": 9054,
      "▁weight": 9055,
      "ieres": 9056,
      "▁kontrer": 9057,
      "▁perf": 9058,
      "▁perse": 9059,
      "▁perdre": 9060,
      "▁otonom": 9061,
      "▁repo": 9062,
      "▁sians": 9063,
      "▁agent": 9064,
      "▁agenda": 9065,
      "▁amazed": 9066,
      "olet": 9067,
      "urez": 9068,
      "perse": 9069,
      "idele": 9070,
      "▁rig": 9071,
      "▁ribb": 9072,
      "▁letters": 9073,
      "▁mala": 9074,
      "▁mald": 9075,
      "▁male": 9076,
      "▁malere": 9077,
      "▁lakot": 9078,
      "▁lakur": 9079,
      "▁lakav": 9080,
      "▁lakok": 9081,
      "▁lakoup": 9082,
      "▁devait": 9083,
      "▁devast": 9084,
      "▁devenu": 9085,
      "▁akim": 9086,
      "▁load": 9087,
      "isept": 9088,
      "▁teorik": 9089,
      "▁queen": 9090,
      "order": 9091,
      "▁concre": 9092,
      "▁concent": 9093,
      "ogne": 9094,
      "▁verze": 9095,
      "▁buried": 9096,
      "▁boud": 9097,
      "▁bouk": 9098,
      "▁poets": 9099,
      "▁prix": 9100,
      "▁noisy": 9101,
      "▁evidan": 9102,
      "▁lezer": 9103,
      "▁myth": 9104,
      "▁lamem": 9105,
      "▁polish": 9106,
      "▁spid": 9107,
      "▁spider": 9108,
      "▁spicy": 9109,
      "▁spontane": 9110,
      "▁demif": 9111,
      "▁feather": 9112,
      "▁yours": 9113,
      "▁surround": 9114,
      "▁batir": 9115,
      "▁jeun": 9116,
      "inture": 9117,
      "versman": 9118,
      "isione": 9119,
      "▁komi": 9120,
      "▁komision": 9121,
      "▁lasenn": 9122,
      "▁farms": 9123,
      "▁retar": 9124,
      "▁retard": 9125,
      "▁antour": 9126,
      "gance": 9127,
      "▁preserve": 9128,
      "riktir": 9129,
      "ruct": 9130,
      "ruption": 9131,
      "▁sirpriz": 9132,
      "▁otherwise": 9133,
      "▁dezir": 9134,
      "▁discern": 9135,
      "▁colis": 9136,
      "▁wouldnt": 9137,
      "▁twice": 9138,
      "uvre": 9139,
      "▁konpar": 9140,
      "▁konpoz": 9141,
      "▁konpasion": 9142,
      "▁coat": 9143,
      "▁cock": 9144,
      "▁coco": 9145,
      "issait": 9146,
      "▁grogne": 9147,
      "▁kalkil": 9148,
      "▁recru": 9149,
      "▁regil": 9150,
      "▁register": 9151,
      "▁28": 9152,
      "▁2yem": 9153,
      "▁servo": 9154,
      "▁services": 9155,
      "▁fash": 9156,
      "▁sinpat": 9157,
      "pliquer": 9158,
      "▁betrav": 9159,
      "▁garsonla": 9160,
      "▁livla": 9161,
      "ocal": 9162,
      "▁scrat": 9163,
      "▁latansyon": 9164,
      "▁compuls": 9165,
      "▁salon": 9166,
      "▁salte": 9167,
      "▁personaz": 9168,
      "▁realiz": 9169,
      "▁karn": 9170,
      "angard": 9171,
      "▁finance": 9172,
      "▁finansie": 9173,
      "▁anglo": 9174,
      "▁expresion": 9175,
      "▁refize": 9176,
      "▁everyday": 9177,
      "▁movements": 9178,
      "▁transf": 9179,
      "▁transpl": 9180,
      "▁accur": 9181,
      "▁rempl": 9182,
      "▁zourne": 9183,
      "▁format": 9184,
      "▁kredi": 9185,
      "▁range": 9186,
      "▁plantes": 9187,
      "▁santenn": 9188,
      "▁grap": 9189,
      "▁overt": 9190,
      "▁sett": 9191,
      "▁voila": 9192,
      "▁194": 9193,
      "▁calp": 9194,
      "▁calamar": 9195,
      "▁konserv": 9196,
      "▁ledwa": 9197,
      "▁appart": 9198,
      "▁misk": 9199,
      "▁deklare": 9200,
      "▁doute": 9201,
      "▁pretann": 9202,
      "▁capable": 9203,
      "aisse": 9204,
      "▁physi": 9205,
      "▁paye": 9206,
      "▁paying": 9207,
      "▁diego": 9208,
      "ologist": 9209,
      "▁putting": 9210,
      "▁opinion": 9211,
      "ofin": 9212,
      "▁milye": 9213,
      "▁maladie": 9214,
      "▁basic": 9215,
      "▁basket": 9216,
      "▁vitesse": 9217,
      "▁creation": 9218,
      "▁chev": 9219,
      "▁zekler": 9220,
      "▁azoute": 9221,
      "▁silver": 9222,
      "▁mazist": 9223,
      "▁explan": 9224,
      "▁acce": 9225,
      "▁slaves": 9226,
      "▁mirm": 9227,
      "▁degree": 9228,
      "▁degrad": 9229,
      "▁admision": 9230,
      "▁maye": 9231,
      "▁respond": 9232,
[...]
