<unk>	0
<s>	0
</s>	0
an	-0
▁t	-1
▁p	-2
▁l	-3
er	-4
on	-5
▁k	-6
en	-7
in	-8
▁s	-9
▁d	-10
▁a	-11
re	-12
is	-13
▁th	-14
▁b	-15
or	-16
▁f	-17
ou	-18
ar	-19
▁m	-20
▁en	-21
it	-22
▁e	-23
al	-24
as	-25
▁the	-26
ot	-27
▁ti	-28
at	-29
▁an	-30
▁ki	-31
▁w	-32
▁li	-33
es	-34
▁z	-35
▁enn	-36
▁n	-37
▁la	-38
et	-39
▁o	-40
man	-41
ir	-42
▁dan	-43
ol	-44
yon	-45
▁in	-46
iz	-47
▁pu	-48
ro	-49
ik	-50
▁h	-51
▁de	-52
▁g	-53
inn	-54
▁re	-55
▁c	-56
ra	-57
ed	-58
il	-59
ay	-60
im	-61
ann	-62
el	-63
▁pe	-64
▁sa	-65
ing	-66
▁to	-67
▁v	-68
em	-69
▁of	-70
ek	-71
om	-72
▁ek	-73
▁kon	-74
▁M	-75
ap	-76
▁zot	-77
ri	-78
ion	-79
▁finn	-80
am	-81
▁u	-82
▁so	-83
▁and	-84
le	-85
▁ena	-86
▁L	-87
ran	-88
ter	-89
▁nu	-90
▁bann	-91
az	-92
ad	-93
ver	-94
▁par	-95
▁pro	-96
▁pa	-97
ye	-98
▁lor	-99
asyon	-100
st	-101
se	-102
ur	-103
av	-104
id	-105
ist	-106
▁fer	-107
▁pl	-108
ans	-109
wa	-110
▁al	-111
▁S	-112
▁B	-113
ti	-114
rav	-115
▁P	-116
▁pou	-117
▁le	-118
ent	-119
la	-120
ite	-121
oz	-122
ravay	-123
si	-124
▁be	-125
ere	-126
▁di	-127
te	-128
ic	-129
▁mo	-130
▁that	-131
un	-132
▁wh	-133
Th	-134
▁for	-135
enn	-136
▁kap	-137
our	-138
▁se	-139
ut	-140
ow	-141
▁is	-142
▁lan	-143
▁ku	-144
ok	-145
▁on	-146
▁A	-147
ak	-148
▁travay	-149
pl	-150
fer	-151
ant	-152
▁dir	-153
ve	-154
ma	-155
▁K	-156
os	-157
and	-158
▁tu	-159
ch	-160
▁r	-161
op	-162
▁y	-163
▁C	-164
▁pre	-165
▁it	-166
▁I	-167
▁kont	-168
pre	-169
▁as	-170
out	-171
war	-172
▁st	-173
ind	-174
▁dim	-175
▁was	-176
▁kapav	-177
ct	-178
▁R	-179
▁ex	-180
pe	-181
ag	-182
syon	-183
ig	-184
ab	-185
▁me	-186
onn	-187
▁kan	-188
ie	-189
▁ar	-190
ly	-191
est	-192
Li	-193
unn	-194
▁at	-195
ort	-196
▁av	-197
▁N	-198
ith	-199
ki	-200
iv	-201
ce	-202
pi	-203
yen	-204
oul	-205
ation	-206
The	-207
las	-208
ont	-209
yer	-210
▁tr	-211
▁biz	-212
▁T	-213
▁“	-214
▁kot	-215
▁2	-216
nd	-217
▁pol	-218
ayn	-219
▁1	-220
▁dimunn	-221
ul	-222
▁F	-223
▁D	-224
▁sek	-225
▁vinn	-226
▁zan	-227
▁or	-228
ers	-229
▁you	-230
▁ne	-231
▁su	-232
di	-233
▁G	-234
ini	-235
▁had	-236
us	-237
00	-238
bl	-239
En	-240
ill	-241
isyon	-242
▁ser	-243
▁kr	-244
od	-245
ski	-246
uv	-247
▁si	-248
▁kuma	-249
▁polit	-250
▁with	-251
vi	-252
ze	-253
▁dis	-254
▁(	-255
qu	-256
me	-257
vern	-258
ole	-259
▁are	-260
▁man	-261
▁they	-262
ard	-263
▁bu	-264
▁san	-265
▁depi	-266
her	-267
▁lang	-268
port	-269
▁ap	-270
▁Z	-271
▁travayer	-272
ate	-273
ck	-274
imo	-275
ize	-276
ater	-277
gh	-278
▁mem	-279
all	-280
ave	-281
▁he	-282
▁ak	-283
▁politik	-284
▁lal	-285
▁J	-286
..	-287
▁we	-288
if	-289
mans	-290
▁not	-291
▁this	-292
onom	-293
▁lek	-294
oris	-295
▁get	-296
▁res	-297
▁wor	-298
▁E	-299
▁per	-300
▁osi	-301
▁klas	-302
▁pli	-303
▁avek	-304
▁bizin	-305
ram	-306
▁ot	-307
Sa	-308
de	-309
▁ch	-310
sy	-311
Me	-312
▁zis	-313
▁"	-314
ould	-315
▁were	-316
▁com	-317
▁kou	-318
gan	-319
▁Moris	-320
ku	-321
▁ler	-322
▁have	-323
▁ab	-324
vernman	-325
▁do	-326
▁sh	-327
tan	-328
ital	-329
▁pr	-330
▁met	-331
for	-332
▁ag	-333
▁zanimo	-334
uvernman	-335
ke	-336
ous	-337
ien	-338
ron	-339
mem	-340
▁am	-341
▁im	-342
▁lot	-343
▁his	-344
imal	-345
▁gran	-346
art	-347
li	-348
▁gayn	-349
ne	-350
▁dev	-351
▁pran	-352
ment	-353
▁kriz	-354
▁their	-355
lo	-356
ond	-357
▁all	-358
▁pri	-359
▁prop	-360
▁ro	-361
alite	-362
oleon	-363
▁prod	-364
▁go	-365
▁work	-366
apoleon	-367
Zot	-368
▁by	-369
Nu	-370
rik	-371
▁parti	-372
rom	-373
ust	-374
▁les	-375
ci	-376
arm	-377
▁ran	-378
Al	-379
are	-380
▁prog	-381
▁ver	-382
ide	-383
ure	-384
▁them	-385
▁seki	-386
ge	-387
one	-388
▁mar	-389
au	-390
▁part	-391
▁langaz	-392
ore	-393
▁ou	-394
▁konp	-395
▁fas	-396
Wh	-397
rwa	-398
ikasyon	-399
ong	-400
▁from	-401
▁animal	-402
zot	-403
▁et	-404
▁ra	-405
▁lap	-406
▁let	-407
▁inter	-408
▁el	-409
sion	-410
▁rez	-411
ru	-412
▁ant	-413
▁nou	-414
ep	-415
▁des	-416
▁qu	-417
izasyon	-418
▁der	-419
▁koz	-420
▁lam	-421
▁sir	-422
Enn	-423
ven	-424
▁there	-425
ip	-426
ons	-427
oun	-428
inis	-429
▁bon	-430
▁plis	-431
▁will	-432
▁lak	-433
Mo	-434
▁j	-435
▁donn	-436
ame	-437
▁tou	-438
▁buku	-439
▁sosy	-440
▁program	-441
Dan	-442
ain	-443
end	-444
igh	-445
istem	-446
oy	-447
▁pas	-448
▁lezot	-449
▁U	-450
iti	-451
▁som	-452
▁byen	-453
ell	-454
▁up	-455
▁Napoleon	-456
▁las	-457
▁int	-458
▁lab	-459
iman	-460
▁lag	-461
per	-462
eta	-463
▁out	-464
▁19	-465
AL	-466
rans	-467
▁lar	-468
▁kapital	-469
ordi	-470
ough	-471
▁kom	-472
vo	-473
▁inn	-474
An	-475
now	-476
▁but	-477
▁animals	-478
fan	-479
van	-480
ener	-481
▁sistem	-482
▁W	-483
ble	-484
fe	-485
Kan	-486
ich	-487
kor	-488
▁been	-489
waz	-490
▁ri	-491
▁un	-492
Alor	-493
blem	-494
ox	-495
▁Lal	-496
MM	-497
▁lin	-498
▁mil	-499
ool	-500
way	-501
▁lo	-502
▁apre	-503
agn	-504
ity	-505
▁truv	-506
▁problem	-507
mand	-508
▁can	-509
▁zanfan	-510
ree	-511
▁tra	-512
▁when	-513
▁servi	-514
▁parski	-515
IT	-516
▁O	-517
▁pei	-518
ction	-519
▁prof	-520
yn	-521
ris	-522
▁organ	-523
ez	-524
ces	-525
Bann	-526
ret	-527
▁ans	-528
▁ari	-529
▁amenn	-530
ound	-531
▁fam	-532
um	-533
▁dem	-534
▁bizen	-535
der	-536
yal	-537
▁us	-538
▁mont	-539
ase	-540
sel	-541
yel	-542
▁ter	-543
▁Kre	-544
▁mwa	-545
It	-546
...	-547
ine	-548
ses	-549
▁An	-550
▁fa	-551
▁po	-552
▁difer	-553
▁later	-554
ake	-555
lop	-556
ren	-557
▁dif	-558
▁rev	-559
ism	-560
par	-561
ally	-562
▁which	-563
▁ad	-564
kenn	-565
▁bat	-566
▁pat	-567
▁elek	-568
”.	-569
ars	-570
▁tw	-571
ALIT	-572
▁Minis	-573
▁lalit	-574
zan	-575
afer	-576
▁kone	-577
▁what	-578
ry	-579
▁ub	-580
▁one	-581
indik	-582
th	-583
ber	-584
▁who	-585
▁kumans	-586
ight	-587
ud	-588
pli	-589
▁Ma	-590
▁ret	-591
▁gagn	-592
▁plan	-593
ka	-594
▁Kreol	-595
▁devlop	-596
▁ever	-597
▁nuvo	-598
wen	-599
▁dez	-600
▁sel	-601
▁200	-602
▁has	-603
▁avan	-604
▁zafer	-605
ue	-606
ild	-607
▁sp	-608
▁Leta	-609
asyonal	-610
▁diferan	-611
fet	-612
gar	-613
ght	-614
oxer	-615
▁Guvernman	-616
▁form	-617
▁sindik	-618
Ena	-619
urz	-620
▁dek	-621
ba	-622
ire	-623
adir	-624
amar	-625
ement	-626
uriti	-627
▁would	-628
▁kalite	-629
urn	-630
vers	-631
▁baz	-632
▁pen	-633
▁te	-634
They	-635
▁lep	-636
▁farm	-637
ical	-638
andan	-639
▁ankor	-640
ger	-641
lis	-642
bil	-643
mye	-644
inal	-645
yans	-646
▁fwa	-647
▁apel	-648
▁bien	-649
▁LALIT	-650
▁sosyal	-651
▁fini	-652
▁inst	-653
ev	-654
▁bl	-655
tu	-656
ete	-657
asion	-658
amarad	-659
estyon	-660
ile	-661
ote	-662
▁con	-663
▁laf	-664
▁ubyen	-665
▁sekter	-666
so	-667
▁H	-668
res	-669
▁af	-670
uvman	-671
▁demand	-672
iksyon	-673
▁Mauriti	-674
So	-675
pt	-676
▁gr	-677
▁gro	-678
portan	-679
▁3	-680
get	-681
ime	-682
ople	-683
▁him	-684
▁zordi	-685
▁patron	-686
▁fe	-687
aler	-688
▁Par	-689
▁Lalit	-690
▁other	-691
▁ekonom	-692
rol	-693
orti	-694
▁MMM	-695
▁rek	-696
▁two	-697
Ki	-698
And	-699
ach	-700
eser	-701
payn	-702
tern	-703
xt	-704
Eski	-705
mann	-706
rir	-707
▁no	-708
wazi	-709
▁det	-710
▁say	-711
▁cris	-712
▁sanz	-713
▁time	-714
▁lerla	-715
kot	-716
du	-717
ord	-718
ings	-719
▁Ram	-720
▁rep	-721
istri	-722
▁drwa	-723
▁lane	-724
▁more	-725
zi	-726
ler	-727
ves	-728
▁any	-729
▁led	-730
▁tel	-731
▁burz	-732
▁about	-733
▁Travay	-734
▁ekonomik	-735
).	-736
▁5	-737
ood	-738
▁our	-739
▁sak	-740
mi	-741
wn	-742
▁dire	-743
▁repre	-744
gn	-745
▁V	-746
▁day	-747
ste	-748
iter	-749
zant	-750
▁lav	-751
other	-752
▁disk	-753
▁very	-754
▁people	-755
ack	-756
ary	-757
zir	-758
ball	-759
▁ansam	-760
nowball	-761
age	-762
oll	-763
This	-764
▁dern	-765
▁pres	-766
▁rant	-767
▁some	-768
▁lekol	-769
▁muvman	-770
In	-771
ank	-772
tir	-773
mant	-774
▁kol	-775
▁set	-776
koton	-777
▁like	-778
▁fason	-779
oulkoton	-780
Ti	-781
we	-782
oli	-783
raz	-784
form	-785
izan	-786
onomi	-787
▁divan	-788
own	-789
oze	-790
▁Ch	-791
▁now	-792
eneral	-793
▁kiman	-794
▁ziska	-795
He	-796
int	-797
pen	-798
ansyon	-799
▁Boxer	-800
▁konpran	-801
ast	-802
▁mal	-803
▁pig	-804
▁kote	-805
▁lepok	-806
▁Mauritius	-807
ld	-808
sa	-809
▁à	-810
But	-811
▁cont	-812
▁long	-813
▁trou	-814
▁your	-815
▁kouma	-816
▁sorti	-817
▁crisis	-818
▁kimanyer	-819
▁guvernman	-820
arn	-821
yin	-822
▁Li	-823
inye	-824
ozisyon	-825
▁kestyon	-826
Ler	-827
ice	-828
▁ev	-829
aliz	-830
idze	-831
reat	-832
▁men	-833
▁rap	-834
▁konf	-835
▁pena	-836
▁koumans	-837
”,	-838
ple	-839
▁bec	-840
▁ref	-841
▁expl	-842
ess	-843
ivo	-844
rev	-845
▁lat	-846
▁akoz	-847
▁vini	-848
▁inportan	-849
gle	-850
▁ac	-851
edir	-852
▁Zan	-853
▁ind	-854
ced	-855
king	-856
▁spe	-857
ition	-858
▁mater	-859
okr	-860
uri	-861
▁St	-862
▁ye	-863
▁dep	-864
ision	-865
▁lalwa	-866
▁letan	-867
▁okenn	-868
af	-869
▁my	-870
ones	-871
▁ete	-872
▁lis	-873
▁rel	-874
▁land	-875
ations	-876
▁aster	-877
ll	-878
▁kit	-879
▁rod	-880
▁montre	-881
ier	-882
nel	-883
rit	-884
ult	-885
▁Mo	-886
▁es	-887
▁bal	-888
▁def	-889
rough	-890
▁into	-891
▁tran	-892
▁again	-893
▁right	-894
met	-895
atik	-896
vwar	-897
▁said	-898
▁intern	-899
▁Snowball	-900
go	-901
Par	-902
gre	-903
wat	-904
tere	-905
▁dib	-906
▁exp	-907
▁how	-908
▁liv	-909
▁med	-910
▁sol	-911
memtan	-912
▁lakaz	-913
▁manze	-914
▁kanpayn	-915
▁burzwazi	-916
As	-917
▁ta	-918
istor	-919
▁clas	-920
▁arive	-921
▁disik	-922
▁Boulkoton	-923
ho	-924
ign	-925
ive	-926
ose	-927
What	-928
▁isi	-929
▁even	-930
▁mobil	-931
▁sindika	-932
▁4	-933
ane	-934
ese	-935
ric	-936
yem	-937
oson	-938
pare	-939
raver	-940
▁down	-941
▁langu	-942
gs	-943
tor	-944
▁og	-945
nder	-946
▁inv	-947
▁mor	-948
ablis	-949
▁pers	-950
▁koson	-951
vernment	-952
▁maternel	-953
que	-954
zur	-955
Apre	-956
▁lad	-957
▁lem	-958
▁way	-959
▁lavi	-960
▁every	-961
),	-962
SM	-963
▁In	-964
anen	-965
▁ase	-966
▁kas	-967
▁pan	-968
▁anpl	-969
▁gard	-970
▁just	-971
▁then	-972
▁sirtu	-973
ithanen	-974
▁lekonomi	-975
fi	-976
ome	-977
able	-978
rate	-979
▁bou	-980
▁pap	-981
▁sin	-982
▁viz	-983
▁also	-984
▁pandan	-985
▁kamarad	-986
".	-987
,00	-988
ang	-989
ely	-990
pet	-991
,000	-992
▁liz	-993
▁sugar	-994
▁under	-995
Si	-996
ac	-997
og	-998
ance	-999
irst	-1000
▁tro	-1001
▁pare	-1002
▁child	-1003
▁could	-1004
▁premye	-1005
indistri	-1006
▁eleksyon	-1007
rup	-1008
ten	-1009
▁sw	-1010
▁she	-1011
▁perdi	-1012
▁kapitalist	-1013
▁-	-1014
▁pi	-1015
hing	-1016
ward	-1017
▁nes	-1018
▁sem	-1019
▁back	-1020
▁trans	-1021
▁atraver	-1022
ene	-1023
ost	-1024
▁mu	-1025
pres	-1026
▁bet	-1027
▁its	-1028
▁zame	-1029
ral	-1030
tif	-1031
tra	-1032
▁Re	-1033
ikil	-1034
▁Med	-1035
▁mad	-1036
▁anvi	-1037
▁over	-1038
▁dernye	-1039
pa	-1040
ick	-1041
▁20	-1042
▁er	-1043
ated	-1044
fore	-1045
wenn	-1046
▁Mar	-1047
▁vit	-1048
▁look	-1049
▁otur	-1050
▁kontan	-1051
jp	-1052
oo	-1053
ama	-1054
▁az	-1055
hojp	-1056
▁Com	-1057
▁mas	-1058
izyon	-1059
▁ariv	-1060
▁imen	-1061
▁plas	-1062
▁priv	-1063
▁serv	-1064
▁these	-1065
hojpuri	-1066
▁through	-1067
les	-1068
ause	-1069
▁Kon	-1070
▁Pre	-1071
▁ris	-1072
▁sey	-1073
▁kons	-1074
▁wind	-1075
▁import	-1076
gal	-1077
tle	-1078
uth	-1079
▁Se	-1080
ions	-1081
▁sik	-1082
▁list	-1083
▁pliz	-1084
▁lintere	-1085
▁sosyete	-1086
▁Bhojpuri	-1087
Pa	-1088
▁6	-1089
ala	-1090
erv	-1091
fwa	-1092
sey	-1093
▁il	-1094
isie	-1095
oloz	-1096
▁ban	-1097
▁off	-1098
▁sant	-1099
▁dimann	-1100
▁organiz	-1101
ady	-1102
red	-1103
tiv	-1104
▁Su	-1105
ativ	-1106
cial	-1107
eren	-1108
gool	-1109
▁anp	-1110
▁did	-1111
▁lex	-1112
▁new	-1113
Lerla	-1114
▁pigs	-1115
goolam	-1116
▁where	-1117
▁Sithanen	-1118
sh	-1119
ert	-1120
▁fl	-1121
ctor	-1122
▁mon	-1123
There	-1124
▁kler	-1125
▁koze	-1126
erenger	-1127
▁lagrev	-1128
duc	-1129
kou	-1130
riz	-1131
▁if	-1132
enir	-1133
onns	-1134
ount	-1135
riye	-1136
ures	-1137
▁Kom	-1138
▁ale	-1139
▁est	-1140
▁nom	-1141
▁rey	-1142
▁tul	-1143
▁know	-1144
▁pibl	-1145
▁konst	-1146
▁marse	-1147
▁nepli	-1148
▁produ	-1149
▁vedir	-1150
▁prodiksyon	-1151
Pu	-1152
mar	-1153
akor	-1154
ekoy	-1155
rann	-1156
▁own	-1157
▁viv	-1158
▁after	-1159
▁paret	-1160
▁trouv	-1161
ablisman	-1162
ket	-1163
sip	-1164
uve	-1165
▁En	-1166
▁Me	-1167
▁ko	-1168
fors	-1169
▁dit	-1170
▁kum	-1171
▁vre	-1172
▁call	-1173
▁deza	-1174
▁here	-1175
▁term	-1176
▁Bidze	-1177
▁first	-1178
▁parey	-1179
▁ledikasyon	-1180
ib	-1181
day	-1182
▁ni	-1183
▁min	-1184
▁tem	-1185
chool	-1186
riyer	-1187
▁byin	-1188
▁take	-1189
▁class	-1190
▁revol	-1191
▁zwenn	-1192
▁Zanimo	-1193
▁anmemtan	-1194
▁Ramgoolam	-1195
▁important	-1196
De	-1197
kl	-1198
arde	-1199
ferm	-1200
▁lit	-1201
aking	-1202
conom	-1203
toral	-1204
▁blok	-1205
▁resp	-1206
▁seri	-1207
▁than	-1208
▁anfet	-1209
▁direk	-1210
itisyon	-1211
▁laferm	-1212
▁kontrol	-1213
▁reprezant	-1214
.1	-1215
We	-1216
bs	-1217
po	-1218
ike	-1219
oup	-1220
rad	-1221
soz	-1222
▁10	-1223
elop	-1224
ence	-1225
plwa	-1226
▁Pal	-1227
▁end	-1228
▁ide	-1229
▁pey	-1230
▁sur	-1231
▁deba	-1232
▁limem	-1233
ins	-1234
old	-1235
▁Af	-1236
▁ins	-1237
▁maz	-1238
▁nat	-1239
▁obl	-1240
▁pos	-1241
▁size	-1242
▁truve	-1243
▁before	-1244
▁planter	-1245
▁working	-1246
Il	-1247
Se	-1248
▁'	-1249
ink	-1250
▁bo	-1251
apre	-1252
▁dec	-1253
▁hap	-1254
▁kar	-1255
▁reg	-1256
▁grav	-1257
▁kind	-1258
▁lesp	-1259
▁mars	-1260
▁same	-1261
▁Jones	-1262
▁Jonns	-1263
▁zeneral	-1264
▁children	-1265
he	-1266
wit	-1267
▁ru	-1268
eter	-1269
▁zur	-1270
▁text	-1271
apital	-1272
▁reysi	-1273
▁school	-1274
AN	-1275
No	-1276
amb	-1277
mer	-1278
▁ka	-1279
▁ma	-1280
When	-1281
olis	-1282
ouse	-1283
▁sit	-1284
▁tom	-1285
▁aret	-1286
▁much	-1287
▁need	-1288
▁only	-1289
▁dakor	-1290
▁deryer	-1291
▁strate	-1292
▁Berenger	-1293
anp	-1294
▁op	-1295
lock	-1296
▁deb	-1297
▁net	-1298
▁enpe	-1299
▁eski	-1300
▁good	-1301
▁konn	-1302
▁laba	-1303
▁posi	-1304
▁zour	-1305
ferans	-1306
▁prive	-1307
▁years	-1308
▁dimoun	-1309
▁lemond	-1310
▁ogmant	-1311
▁because	-1312
▁develop	-1313
ganizasyon	-1314
Mem	-1315
ies	-1316
iye	-1317
orm	-1318
sep	-1319
▁PM	-1320
▁hu	-1321
ower	-1322
▁bos	-1323
▁her	-1324
▁red	-1325
▁dans	-1326
▁real	-1327
▁Parti	-1328
▁demokr	-1329
▁econom	-1330
▁puvwar	-1331
overnment	-1332
▁organize	-1333
▁devlopman	-1334
fa	-1335
▁br	-1336
▁sy	-1337
itik	-1338
▁199	-1339
▁Ben	-1340
▁Las	-1341
reder	-1342
▁came	-1343
▁come	-1344
▁made	-1345
▁make	-1346
▁mezir	-1347
▁semenn	-1348
ducation	-1349
▁lanplwa	-1350
▁setadir	-1351
▁tablisman	-1352
ER	-1353
Wi	-1354
ia	-1355
wi	-1356
alk	-1357
asi	-1358
bal	-1359
gna	-1360
▁du	-1361
That	-1362
ages	-1363
olle	-1364
ugna	-1365
▁see	-1366
▁ule	-1367
▁aste	-1368
▁inpe	-1369
▁kree	-1370
▁manb	-1371
▁plit	-1372
selves	-1373
ugnauth	-1374
▁analiz	-1375
▁lafors	-1376
▁permet	-1377
eg	-1378
Yes	-1379
mit	-1380
por	-1381
vel	-1382
▁dr	-1383
lman	-1384
▁fin	-1385
▁ren	-1386
▁sal	-1387
▁tax	-1388
Aster	-1389
▁being	-1390
▁kifer	-1391
▁konti	-1392
▁krwar	-1393
▁moman	-1394
▁never	-1395
▁revand	-1396
▁elektoral	-1397
▁7	-1398
sif	-1399
▁sm	-1400
ante	-1401
cess	-1402
▁Ind	-1403
▁bar	-1404
▁dom	-1405
▁don	-1406
▁inc	-1407
▁mir	-1408
▁non	-1409
▁qui	-1410
▁ferm	-1411
▁gete	-1412
yasyon	-1413
▁rezon	-1414
istorik	-1415
▁Palest	-1416
▁differ	-1417
▁should	-1418
Napoleon	-1419
▁workers	-1420
▁internasyonal	-1421
.-	-1422
nn	-1423
rop	-1424
agos	-1425
idan	-1426
kont	-1427
mill	-1428
self	-1429
▁MSM	-1430
▁att	-1431
▁old	-1432
▁ple	-1433
▁put	-1434
ready	-1435
▁done	-1436
▁prepar	-1437
▁listwar	-1438
▁language	-1439
▁lorganizasyon	-1440
be	-1441
gl	-1442
▁US	-1443
ourn	-1444
rael	-1445
▁tir	-1446
▁grup	-1447
▁kann	-1448
▁must	-1449
▁prot	-1450
▁turn	-1451
▁intro	-1452
▁lapat	-1453
▁latet	-1454
▁somet	-1455
▁called	-1456
▁happen	-1457
▁prodir	-1458
▁batiman	-1459
▁neseser	-1460
▁Travayis	-1461
▁Government	-1462
On	-1463
Non	-1464
ace	-1465
ilt	-1466
ish	-1467
olon	-1468
ploy	-1469
ting	-1470
▁Baz	-1471
▁Ler	-1472
▁fri	-1473
▁rec	-1474
▁sec	-1475
▁sou	-1476
▁too	-1477
anble	-1478
▁does	-1479
▁prin	-1480
▁pros	-1481
▁tann	-1482
▁agrik	-1483
▁ladan	-1484
▁boukou	-1485
▁istorik	-1486
▁sanzman	-1487
▁kontinye	-1488
▁sindikal	-1489
▁windmill	-1490
At	-1491
Tu	-1492
Mal	-1493
ise	-1494
wir	-1495
ekte	-1496
ever	-1497
itan	-1498
▁big	-1499
▁lok	-1500
▁sil	-1501
▁swa	-1502
imans	-1503
▁Farm	-1504
▁fact	-1505
▁kond	-1506
etadir	-1507
▁diver	-1508
▁round	-1509
▁Chagos	-1510
▁Freder	-1511
▁mother	-1512
▁tultan	-1513
▁Medical	-1514
▁already	-1515
▁seksyon	-1516
▁Jugnauth	-1517
▁kapitalis	-1518
▁themselves	-1519
You	-1520
ale	-1521
ath	-1522
lek	-1523
rim	-1524
tre	-1525
▁vo	-1526
isye	-1527
▁che	-1528
▁kre	-1529
▁lir	-1530
▁ros	-1531
▁vot	-1532
lobal	-1533
orite	-1534
▁Lind	-1535
▁fami	-1536
▁panse	-1537
▁proze	-1538
ational	-1539
▁aprann	-1540
▁though	-1541
▁asterla	-1542
RS	-1543
és	-1544
anz	-1545
ful	-1546
orn	-1547
ual	-1548
cted	-1549
ider	-1550
iste	-1551
izon	-1552
▁Die	-1553
▁bel	-1554
▁oki	-1555
▁pay	-1556
▁sut	-1557
▁une	-1558
▁vil	-1559
Zordi	-1560
▁rest	-1561
▁tand	-1562
▁count	-1563
▁larzan	-1564
▁privat	-1565
▁telman	-1566
▁agrikol	-1567
▁another	-1568
▁lindistri	-1569
SD	-1570
ds	-1571
ens	-1572
ida	-1573
onk	-1574
yol	-1575
▁ob	-1576
ayni	-1577
yone	-1578
▁Pro	-1579
▁pet	-1580
▁zom	-1581
thing	-1582
▁ling	-1583
▁atann	-1584
▁kolon	-1585
▁onivo	-1586
▁partu	-1587
quealer	-1588
▁aksyon	-1589
▁demands	-1590
▁kominal	-1591
▁konpayni	-1592
▁different	-1593
ON	-1594
ux	-1595
den	-1596
yan	-1597
▁pw	-1598
ants	-1599
opil	-1600
orek	-1601
▁pour	-1602
istans	-1603
ondyal	-1604
▁Angle	-1605
▁ekrir	-1606
▁lisien	-1607
▁little	-1608
▁diminye	-1609
▁kontiyn	-1610
▁revandikasyon	-1611
Le	-1612
▁9	-1613
▁é	-1614
Sek	-1615
ern	-1616
ial	-1617
ved	-1618
▁Al	-1619
▁cl	-1620
▁ed	-1621
▁ef	-1622
▁sc	-1623
tire	-1624
ural	-1625
▁197	-1626
▁Pil	-1627
▁mom	-1628
ontan	-1629
▁Zini	-1630
▁many	-1631
▁mout	-1632
▁move	-1633
▁prez	-1634
▁sime	-1635
▁zenn	-1636
ronpet	-1637
▁Diego	-1638
▁dibut	-1639
▁fasil	-1640
▁konsy	-1641
▁lasam	-1642
▁whole	-1643
▁Animal	-1644
▁altern	-1645
▁dirizan	-1646
edikasyon	-1647
ft	-1648
oc	-1649
▁8	-1650
ezi	-1651
oko	-1652
ref	-1653
rer	-1654
rib	-1655
olog	-1656
rade	-1657
term	-1658
▁Zot	-1659
▁tan	-1660
▁usi	-1661
ution	-1662
▁disc	-1663
▁dogs	-1664
▁hard	-1665
▁lefe	-1666
olienn	-1667
▁lamas	-1668
▁parmi	-1669
▁profi	-1670
▁sante	-1671
ityasyon	-1672
▁lapolis	-1673
▁underst	-1674
▁diversif	-1675
▁mobilizasyon	-1676
je	-1677
dir	-1678
ikt	-1679
lan	-1680
ute	-1681
▁De	-1682
▁Is	-1683
▁Mr	-1684
anye	-1685
cept	-1686
dget	-1687
ient	-1688
▁201	-1689
▁Pat	-1690
▁laz	-1691
▁lop	-1692
▁poz	-1693
▁use	-1694
olozi	-1695
▁exam	-1696
▁kwar	-1697
▁medy	-1698
▁prom	-1699
▁stru	-1700
enerzi	-1701
▁learn	-1702
▁posib	-1703
▁rapel	-1704
▁remar	-1705
▁still	-1706
▁think	-1707
ization	-1708
peryans	-1709
▁bosses	-1710
▁budget	-1711
▁global	-1712
▁moment	-1713
▁reponn	-1714
ployment	-1715
▁nasyonal	-1716
▁stratezi	-1717
▁political	-1718
PT	-1719
ob	-1720
How	-1721
Tou	-1722
ets	-1723
til	-1724
urs	-1725
▁Rs	-1726
▁em	-1727
ates	-1728
isip	-1729
lain	-1730
ozik	-1731
▁Laf	-1732
▁acc	-1733
▁beg	-1734
▁gal	-1735
▁giv	-1736
▁sar	-1737
▁tak	-1738
▁tim	-1739
imunn	-1740
irite	-1741
ormal	-1742
▁cour	-1743
▁lide	-1744
▁past	-1745
▁rann	-1746
▁vann	-1747
▁Sugar	-1748
▁block	-1749
▁lizie	-1750
▁rapor	-1751
▁rekon	-1752
▁santi	-1753
▁Intern	-1754
▁prezan	-1755
▁patrona	-1756
Guvernman	-1757
▁Squealer	-1758
▁pozisyon	-1759
",	-1760
If	-1761
Zis	-1762
kil	-1763
ody	-1764
▁Un	-1765
▁co	-1766
▁ke	-1767
Then	-1768
imer	-1769
part	-1770
ried	-1771
stem	-1772
▁bir	-1773
▁bro	-1774
▁cle	-1775
▁mer	-1776
▁Fran	-1777
▁deor	-1778
▁well	-1779
▁went	-1780
ctions	-1781
ennman	-1782
ikilte	-1783
ollege	-1784
▁human	-1785
▁kumsa	-1786
▁saler	-1787
▁strik	-1788
▁three	-1789
inalman	-1790
▁contin	-1791
▁invest	-1792
▁textil	-1793
▁eolienn	-1794
▁lenerzi	-1795
▁militer	-1796
▁sikriyer	-1797
▁difikilte	-1798
▁sityasyon	-1799
cy	-1800
ys	-1801
idi	-1802
ors	-1803
▁Dr	-1804
iliz	-1805
itab	-1806
▁ank	-1807
▁kad	-1808
▁tar	-1809
▁vie	-1810
elman	-1811
rades	-1812
ustry	-1813
▁Coll	-1814
▁swiv	-1815
▁Patil	-1816
▁exanp	-1817
▁extra	-1818
▁going	-1819
▁great	-1820
▁indiv	-1821
▁lager	-1822
▁lamer	-1823
▁manif	-1824
▁nanye	-1825
▁tuzur	-1826
▁diskur	-1827
▁malgre	-1828
▁piblik	-1829
▁preske	-1830
▁profeser	-1831
▁lexperyans	-1832
ix	-1833
Zan	-1834
fic	-1835
ows	-1836
ush	-1837
Seki	-1838
ared	-1839
azet	-1840
imes	-1841
ousa	-1842
▁Lab	-1843
▁ele	-1844
▁kat	-1845
kingt	-1846
▁food	-1847
▁last	-1848
vement	-1849
▁Lerop	-1850
▁build	-1851
▁ferme	-1852
▁night	-1853
▁party	-1854
▁tranz	-1855
▁system	-1856
▁College	-1857
▁against	-1858
▁Pilkingt	-1859
▁institisyon	-1860
.19	-1861
All	-1862
cul	-1863
ede	-1864
oof	-1865
oth	-1866
rig	-1867
▁Le	-1868
bell	-1869
isil	-1870
onse	-1871
▁art	-1872
▁bas	-1873
▁pur	-1874
▁tap	-1875
Pekoy	-1876
onsab	-1877
paret	-1878
▁anba	-1879
▁bour	-1880
▁okip	-1881
▁read	-1882
▁room	-1883
▁spes	-1884
▁such	-1885
▁trwa	-1886
▁used	-1887
gether	-1888
▁thing	-1889
▁vilaz	-1890
▁kitsoz	-1891
▁lontan	-1892
▁person	-1893
▁within	-1894
estasyon	-1895
osyasyon	-1896
▁capital	-1897
▁Travayer	-1898
▁interest	-1899
▁understand	-1900
."	-1901
wh	-1902
Lal	-1903
Pre	-1904
ait	-1905
zam	-1906
▁Pa	-1907
▁So	-1908
plis	-1909
poze	-1910
ways	-1911
▁neg	-1912
▁ras	-1913
▁sup	-1914
▁tip	-1915
▁tot	-1916
faver	-1917
ivers	-1918
sible	-1919
▁Eski	-1920
▁baze	-1921
▁meas	-1922
▁sans	-1923
▁sing	-1924
ricult	-1925
▁anpes	-1926
▁dapre	-1927
▁kriye	-1928
▁place	-1929
▁plant	-1930
▁plito	-1931
▁popil	-1932
▁lapres	-1933
▁oblize	-1934
▁Tronpet	-1935
▁anfaver	-1936
▁difisil	-1937
▁economy	-1938
▁disparet	-1939
▁together	-1940
▁education	-1941
Ek	-1942
sp	-1943
Ala	-1944
Sak	-1945
che	-1946
ech	-1947
ela	-1948
▁No	-1949
▁PT	-1950
ason	-1951
ours	-1952
▁100	-1953
▁The	-1954
▁dra	-1955
▁rol	-1956
▁rul	-1957
lover	-1958
manse	-1959
septe	-1960
venir	-1961
▁karo	-1962
▁pwen	-1963
▁year	-1964
▁State	-1965
▁antan	-1966
▁apart	-1967
▁komin	-1968
▁menas	-1969
imanter	-1970
versite	-1971
▁Premye	-1972
▁always	-1973
▁manyer	-1974
▁prinsip	-1975
▁rekonet	-1976
▁languages	-1977
▁revolisyon	-1978
Is	-1979
up	-1980
cts	-1981
kon	-1982
pep	-1983
pos	-1984
pro	-1985
tic	-1986
ues	-1987
val	-1988
yet	-1989
eder	-1990
este	-1991
most	-1992
ying	-1993
▁abs	-1994
▁adm	-1995
▁dor	-1996
▁que	-1997
Boxer	-1998
ather	-1999
ating	-2000
inter	-2001
ments	-2002
▁days	-2003
▁dest	-2004
▁etid	-2005
▁high	-2006
▁lord	-2007
▁most	-2008
▁next	-2009
▁seem	-2010
▁tong	-2011
▁tout	-2012
Dimunn	-2013
ention	-2014
▁miray	-2015
▁power	-2016
▁Collen	-2017
▁better	-2018
▁selman	-2019
▁serten	-2020
▁lagazet	-2021
▁without	-2022
▁Minister	-2023
▁partisip	-2024
▁demokrasi	-2025
2.	-2026
La	-2027
gy	-2028
ty	-2029
Kou	-2030
bin	-2031
eor	-2032
kre	-2033
lev	-2034
pan	-2035
rog	-2036
row	-2037
uma	-2038
▁Ki	-2039
▁La	-2040
▁UN	-2041
▁ce	-2042
Depi	-2043
amem	-2044
ange	-2045
annk	-2046
atir	-2047
ille	-2048
▁198	-2049
▁LPT	-2050
▁Lak	-2051
▁ann	-2052
▁dil	-2053
▁fiz	-2054
▁len	-2055
▁sim	-2056
▁tut	-2057
Marde	-2058
asite	-2059
kuraz	-2060
ouple	-2061
ually	-2062
uvwar	-2063
▁Gran	-2064
▁Tref	-2065
▁anal	-2066
▁bank	-2067
▁bato	-2068
▁mama	-2069
▁prov	-2070
▁stud	-2071
▁lekel	-2072
▁means	-2073
▁small	-2074
Setadir	-2075
▁anplas	-2076
▁deside	-2077
▁histor	-2078
▁mouton	-2079
▁please	-2080
▁aksepte	-2081
▁realize	-2082
▁responsab	-2083
5.	-2084
ES	-2085
eb	-2086
ph	-2087
For	-2088
Nou	-2089
avi	-2090
eng	-2091
iod	-2092
ked	-2093
med	-2094
ped	-2095
une	-2096
▁bi	-2097
arly	-2098
ents	-2099
klir	-2100
▁Nav	-2101
▁del	-2102
▁hal	-2103
▁may	-2104
▁mul	-2105
▁twa	-2106
▁atak	-2107
▁bene	-2108
▁kand	-2109
▁manz	-2110
▁tant	-2111
▁toul	-2112
▁vyol	-2113
ertain	-2114
▁gayne	-2115
▁lamor	-2116
▁lepep	-2117
▁liber	-2118
▁start	-2119
▁teach	-2120
▁around	-2121
▁course	-2122
▁kikenn	-2123
▁lizinn	-2124
▁normal	-2125
▁sector	-2126
▁servis	-2127
▁sipoze	-2128
▁Lalyans	-2129
▁realite	-2130
▁evennman	-2131
iniversite	-2132
▁Palestinn	-2133
▁kondisyon	-2134
▁production	-2135
0.	-2136
Ex	-2137
▁Y	-2138
Let	-2139
cil	-2140
zer	-2141
▁It	-2142
adem	-2143
plas	-2144
▁Mal	-2145
▁deg	-2146
▁lao	-2147
▁sat	-2148
▁tus	-2149
▁zwe	-2150
▁Zezi	-2151
▁gram	-2152
▁lwen	-2153
▁mind	-2154
▁reyn	-2155
▁uver	-2156
▁vote	-2157
Travay	-2158
▁Misie	-2159
▁Pekoy	-2160
▁lafen	-2161
▁lavil	-2162
▁nouvo	-2163
▁sheep	-2164
▁terri	-2165
▁those	-2166
imanyer	-2167
▁Franse	-2168
▁explik	-2169
▁lisans	-2170
▁period	-2171
▁plizir	-2172
▁propoz	-2173
▁tongue	-2174
▁Parlman	-2175
▁kandida	-2176
▁kapasite	-2177
▁alimanter	-2178
▁something	-2179
AS	-2180
aj	-2181
ami	-2182
iel	-2183
its	-2184
mie	-2185
sed	-2186
ull	-2187
win	-2188
yes	-2189
▁Nu	-2190
Bien	-2191
aman	-2192
amer	-2193
amin	-2194
anti	-2195
ayer	-2196
cing	-2197
ifye	-2198
ling	-2199
ront	-2200
ween	-2201
▁ass	-2202
▁bed	-2203
▁got	-2204
▁hel	-2205
▁hor	-2206
▁kik	-2207
▁ont	-2208
▁pot	-2209
▁sif	-2210
▁tit	-2211
▁tur	-2212
Where	-2213
artik	-2214
zamen	-2215
▁appe	-2216
▁azir	-2217
▁dilo	-2218
▁find	-2219
▁fors	-2220
▁keep	-2221
▁lame	-2222
▁lans	-2223
▁lera	-2224
▁nivo	-2225
▁sert	-2226
▁silv	-2227
▁talk	-2228
▁tell	-2229
▁want	-2230
▁week	-2231
ansyel	-2232
▁Navin	-2233
▁brans	-2234
▁dormi	-2235
bellion	-2236
▁anonse	-2237
▁konfli	-2238
▁kritik	-2239
▁lespri	-2240
▁reform	-2241
▁things	-2242
▁country	-2243
▁landrwa	-2244
▁militan	-2245
▁mondyal	-2246
▁comrades	-2247
▁mazorite	-2248
▁movement	-2249
▁silvouple	-2250
0,	-2251
gg	-2252
of	-2253
Now	-2254
amy	-2255
ass	-2256
geo	-2257
led	-2258
men	-2259
oke	-2260
▁au	-2261
blic	-2262
ters	-2263
tyel	-2264
▁Kan	-2265
▁Man	-2266
▁Sun	-2267
▁bre	-2268
▁fig	-2269
▁ink	-2270
▁kil	-2271
▁lev	-2272
▁ram	-2273
▁ses	-2274
▁vag	-2275
Kouma	-2276
Lalit	-2277
house	-2278
iltir	-2279
isman	-2280
mante	-2281
odrig	-2282
ously	-2283
▁dist	-2284
▁each	-2285
▁foll	-2286
▁kout	-2287
▁legs	-2288
▁once	-2289
▁pase	-2290
▁sour	-2291
aksyon	-2292
annkaz	-2293
▁aband	-2294
▁benef	-2295
▁creat	-2296
▁found	-2297
▁lefet	-2298
▁liter	-2299
▁lozik	-2300
▁reste	-2301
▁sanze	-2302
▁somaz	-2303
leksyon	-2304
▁afekte	-2305
▁finans	-2306
▁lartik	-2307
▁prizon	-2308
▁return	-2309
▁between	-2310
▁himself	-2311
▁propoze	-2312
▁finalman	-2313
▁grannkaz	-2314
0%	-2315
1,	-2316
CO	-2317
cc	-2318
ès	-2319
:00	-2320
MMM	-2321
ept	-2322
hed	-2323
hip	-2324
isi	-2325
ode	-2326
ork	-2327
ted	-2328
▁15	-2329
▁Be	-2330
▁Ne	-2331
▁eg	-2332
▁ve	-2333
▁ze	-2334
Kuma	-2335
Zoko	-2336
ampa	-2337
arch	-2338
hers	-2339
iser	-2340
ited	-2341
izer	-2342
liye	-2343
▁Eng	-2344
▁act	-2345
▁bis	-2346
▁cre	-2347
▁dok	-2348
▁esp	-2349
▁inf	-2350
▁mat	-2351
▁ord	-2352
▁sen	-2353
▁vol	-2354
▁zet	-2355
isann	-2356
jamin	-2357
▁PMSD	-2358
▁agre	-2359
▁away	-2360
▁buze	-2361
▁cons	-2362
▁lead	-2363
▁plat	-2364
▁side	-2365
▁took	-2366
▁yard	-2367
▁zoli	-2368
antite	-2369
▁antye	-2370
▁campa	-2371
▁group	-2372
▁letid	-2373
▁order	-2374
▁quest	-2375
▁tipti	-2376
▁Rodrig	-2377
▁almost	-2378
▁announ	-2379
▁making	-2380
▁propri	-2381
▁ranpli	-2382
▁rezyon	-2383
Kimanyer	-2384
▁ankuraz	-2385
▁bourgeo	-2386
▁prepare	-2387
▁presyon	-2388
▁travers	-2389
▁campaign	-2390
▁desizyon	-2391
▁sekirite	-2392
▁sistemik	-2393
▁government	-2394
▁ogmantasyon	-2395
.”	-2396
Kon	-2397
Les	-2398
Lor	-2399
ara	-2400
ari	-2401
jor	-2402
rez	-2403
ros	-2404
vir	-2405
▁Pr	-2406
▁jo	-2407
▁ét	-2408
anda	-2409
blik	-2410
cher	-2411
lesi	-2412
rant	-2413
▁Sik	-2414
▁dou	-2415
▁fek	-2416
denly	-2417
ilite	-2418
istik	-2419
iting	-2420
wards	-2421
wayen	-2422
▁Marx	-2423
▁able	-2424
▁anti	-2425
▁avoy	-2426
▁bate	-2427
▁free	-2428
▁half	-2429
▁soon	-2430
▁tule	-2431
▁vikt	-2432
▁vous	-2433
▁zist	-2434
Malini	-2435
Pandan	-2436
Parski	-2437
olozik	-2438
▁Afric	-2439
▁Marde	-2440
▁belie	-2441
▁exper	-2442
▁larme	-2443
▁lingw	-2444
▁today	-2445
olisyon	-2446
riksyon	-2447
▁Clover	-2448
▁Israel	-2449
▁anterm	-2450
▁defann	-2451
▁inklir	-2452
▁market	-2453
▁others	-2454
▁parfwa	-2455
▁pratik	-2456
▁second	-2457
▁Lindsey	-2458
▁lalyans	-2459
▁ogmante	-2460
▁retourn	-2461
▁measures	-2462
▁farmhouse	-2463
▁Ledikasyon	-2464
Be	-2465
PM	-2466
RA	-2467
als	-2468
erm	-2469
ils	-2470
mis	-2471
tex	-2472
ung	-2473
▁lu	-2474
ivil	-2475
lish	-2476
oney	-2477
ples	-2478
ries	-2479
▁Dan	-2480
▁Nou	-2481
▁inp	-2482
▁kok	-2483
▁kor	-2484
▁num	-2485
▁saw	-2486
ights	-2487
inist	-2488
liber	-2489
uring	-2490
wazir	-2491
▁Lang	-2492
▁best	-2493
▁bout	-2494
▁conf	-2495
▁deta	-2496
▁give	-2497
▁grow	-2498
▁koum	-2499
▁lape	-2500
▁lapl	-2501
▁open	-2502
▁rese	-2503
▁says	-2504
andans	-2505
ansion	-2506
olitik	-2507
▁Lamer	-2508
▁depre	-2509
▁money	-2510
▁point	-2511
▁sulev	-2512
▁while	-2513
diksyon	-2514
portans	-2515
▁Dimans	-2516
▁andeor	-2517
▁banane	-2518
▁enough	-2519
▁instit	-2520
▁medyom	-2521
▁social	-2522
▁devlope	-2523
▁reflesi	-2524
▁individi	-2525
▁alternativ	-2526
▁Internasyonal	-2527
.“	-2528
Af	-2529
bo	-2530
ws	-2531
Biz	-2532
Ils	-2533
Man	-2534
abl	-2535
aze	-2536
cks	-2537
eni	-2538
imi	-2539
ium	-2540
ory	-2541
▁Je	-2542
▁We	-2543
▁gu	-2544
▁ol	-2545
▁vi	-2546
iner	-2547
priz	-2548
ress	-2549
uist	-2550
zanp	-2551
▁Jes	-2552
▁Rad	-2553
▁Sak	-2554
▁Sid	-2555
▁beh	-2556
▁gar	-2557
▁iss	-2558
▁kur	-2559
▁son	-2560
▁suf	-2561
atron	-2562
aving	-2563
ourne	-2564
zidan	-2565
▁Bann	-2566
▁alor	-2567
▁barn	-2568
▁fane	-2569
▁four	-2570
▁hand	-2571
▁lerb	-2572
▁meet	-2573
▁morn	-2574
▁mwen	-2575
▁rupi	-2576
▁sirk	-2577
▁stop	-2578
▁tini	-2579
▁upon	-2580
▁Lakur	-2581
▁aktiv	-2582
▁drwat	-2583
▁given	-2584
▁lafin	-2585
▁level	-2586
▁lider	-2587
▁might	-2588
▁monte	-2589
▁price	-2590
▁quite	-2591
▁speak	-2592
▁valer	-2593
▁world	-2594
isannla	-2595
liberal	-2596
riksion	-2597
vansyon	-2598
▁Komite	-2599
▁become	-2600
▁burzwa	-2601
▁detrwa	-2602
▁diffic	-2603
▁kiksoz	-2604
▁komers	-2605
▁kontin	-2606
▁lakour	-2607
▁milyon	-2608
▁natire	-2609
▁English	-2610
▁explike	-2611
▁klerman	-2612
▁plizyer	-2613
▁prezant	-2614
▁remarke	-2615
▁trankil	-2616
▁Benjamin	-2617
▁Benzamen	-2618
▁Frederik	-2619
▁anything	-2620
▁terrible	-2621
▁Frederick	-2622
▁bourgeoisie	-2623
Ak	-2624
NT	-2625
RE	-2626
Kom	-2627
MSM	-2628
ena	-2629
ily	-2630
iyn	-2631
ouv	-2632
pie	-2633
riv	-2634
und	-2635
was	-2636
▁Ad	-2637
▁Pe	-2638
▁sk	-2639
asts	-2640
ched	-2641
ilta	-2642
itif	-2643
rwat	-2644
stit	-2645
swit	-2646
▁Act	-2647
▁Ash	-2648
▁Biz	-2649
▁Bud	-2650
▁IRS	-2651
▁USA	-2652
▁div	-2653
▁etc	-2654
▁far	-2655
▁fis	-2656
▁lil	-2657
▁pie	-2658
▁pye	-2659
▁tre	-2660
ardin	-2661
aryen	-2662
omann	-2663
sions	-2664
▁2009	-2665
▁asiz	-2666
▁else	-2667
▁lake	-2668
▁pret	-2669
▁sent	-2670
▁sign	-2671
▁sold	-2672
▁sort	-2673
▁wall	-2674
▁Konst	-2675
▁bliye	-2676
▁comes	-2677
▁kuran	-2678
▁papye	-2679
▁suvan	-2680
▁total	-2681
▁words	-2682
itional	-2683
▁Labour	-2684
▁balans	-2685
▁dezyem	-2686
▁follow	-2687
▁friend	-2688
▁gramat	-2689
▁tusala	-2690
▁Kamarad	-2691
▁example	-2692
▁konsyan	-2693
▁kumanse	-2694
▁looking	-2695
ederasyon	-2696
▁everyone	-2697
▁industry	-2698
▁tranzisyon	-2699
-3	-2700
AT	-2701
Do	-2702
ME	-2703
Ma	-2704
na	-2705
Why	-2706
apa	-2707
ety	-2708
ori	-2709
rat	-2710
yaz	-2711
▁12	-2712
▁Iz	-2713
▁Sa	-2714
▁fo	-2715
body	-2716
bron	-2717
ersi	-2718
plet	-2719
room	-2720
side	-2721
▁Bat	-2722
▁Fin	-2723
▁Rev	-2724
▁add	-2725
▁leg	-2726
▁nam	-2727
▁ner	-2728
▁sud	-2729
▁val	-2730
Samem	-2731
These	-2732
aring	-2733
ciety	-2734
ended	-2735
ether	-2736
gland	-2737
istan	-2738
isyer	-2739
mitte	-2740
press	-2741
rease	-2742
where	-2743
▁Paul	-2744
▁Prav	-2745
▁azut	-2746
▁char	-2747
▁ditu	-2748
▁head	-2749
▁leve	-2750
▁life	-2751
▁lost	-2752
▁mill	-2753
▁ousa	-2754
▁poul	-2755
▁riye	-2756
▁stra	-2757
▁tick	-2758
Patron	-2759
alking	-2760
bilite	-2761
▁Afrik	-2762
▁bidze	-2763
▁diman	-2764
▁enter	-2765
▁korek	-2766
▁lavwa	-2767
▁meyer	-2768
▁minit	-2769
▁mulen	-2770
▁otour	-2771
▁papay	-2772
▁separ	-2773
▁taken	-2774
▁ubyin	-2775
▁Sunday	-2776
▁medium	-2777
▁prefer	-2778
▁propos	-2779
▁swazir	-2780
interyer	-2781
▁England	-2782
▁Lamerik	-2783
▁certain	-2784
▁prodwir	-2785
▁rezilta	-2786
▁santral	-2787
▁thought	-2788
▁agricult	-2789
▁demisyon	-2790
▁relasyon	-2791
▁capitalist	-2792
▁kapitalism	-2793
▁privatizasyon	-2794
IN	-2795
IS	-2796
RB	-2797
TO	-2798
to	-2799
Bon	-2800
Dez	-2801
Kum	-2802
Ram	-2803
aps	-2804
cti	-2805
elf	-2806
faz	-2807
iet	-2808
ina	-2809
lez	-2810
uku	-2811
ère	-2812
▁11	-2813
▁As	-2814
▁Gu	-2815
▁Jo	-2816
▁Ut	-2817
▁ir	-2818
▁ré	-2819
▁sl	-2820
dern	-2821
enti	-2822
fort	-2823
itid	-2824
ness	-2825
ésus	-2826
▁And	-2827
▁Enn	-2828
▁Mad	-2829
▁Raj	-2830
▁arg	-2831
▁bus	-2832
▁ent	-2833
▁fat	-2834
▁few	-2835
▁fil	-2836
▁gre	-2837
▁mis	-2838
▁pir	-2839
▁sib	-2840
▁suc	-2841
▁ton	-2842
▁tri	-2843
After	-2844
Dapre	-2845
Korek	-2846
antaz	-2847
gobin	-2848
osyal	-2849
rench	-2850
tirel	-2851
▁book	-2852
▁fond	-2853
▁kart	-2854
▁krim	-2855
▁live	-2856
▁ofer	-2857
▁oper	-2858
▁seen	-2859
▁stat	-2860
▁trak	-2861
▁writ	-2862
onnman	-2863
piblik	-2864
utions	-2865
▁asked	-2866
▁check	-2867
▁defin	-2868
▁dibwa	-2869
▁lapar	-2870
▁lapes	-2871
▁legal	-2872
▁mizer	-2873
▁peser	-2874
▁rezim	-2875
▁stand	-2876
▁trade	-2877
▁vizit	-2878
syasyon	-2879
▁French	-2880
▁Lafrik	-2881
▁aktyel	-2882
▁dekrir	-2883
▁discus	-2884
▁labank	-2885
▁naryen	-2886
▁necess	-2887
▁prodik	-2888
▁ruling	-2889
Anmemtan	-2890
▁Mariliz	-2891
▁classes	-2892
▁control	-2893
▁forward	-2894
▁kontrib	-2895
▁lasante	-2896
▁pibliye	-2897
▁Prezidan	-2898
▁Sikriyer	-2899
▁happened	-2900
▁kolonyal	-2901
▁planters	-2902
▁striktir	-2903
▁Mauritian	-2904
▁difficult	-2905
▁prinsipal	-2906
▁lopozisyon	-2907
▁revolisyoner	-2908
.3	-2909
19	-2910
ah	-2911
cl	-2912
gr	-2913
yo	-2914
Com	-2915
Kot	-2916
She	-2917
ark	-2918
ats	-2919
git	-2920
irm	-2921
lab	-2922
rap	-2923
▁30	-2924
▁Ar	-2925
▁Bl	-2926
▁Pu	-2927
With	-2928
ggle	-2929
ised	-2930
izye	-2931
oliv	-2932
osye	-2933
outh	-2934
▁Con	-2935
▁For	-2936
▁Mau	-2937
▁ave	-2938
▁bag	-2939
▁bay	-2940
▁bul	-2941
▁buy	-2942
▁car	-2943
▁enc	-2944
▁fos	-2945
▁gos	-2946
▁kut	-2947
▁rem	-2948
▁sle	-2949
▁vas	-2950
Anfet	-2951
Dayer	-2952
akter	-2953
arson	-2954
ither	-2955
vesti	-2956
▁Plan	-2957
▁abit	-2958
▁both	-2959
▁bwar	-2960
▁chek	-2961
▁cond	-2962
▁fons	-2963
▁fore	-2964
▁goes	-2965
▁incl	-2966
▁left	-2967
▁papa	-2968
▁send	-2969
▁show	-2970
▁sinp	-2971
▁tour	-2972
cially	-2973
egobin	-2974
uistic	-2975
▁Ashok	-2976
▁admir	-2977
▁began	-2978
▁death	-2979
▁dekou	-2980
▁domin	-2981
▁etran	-2982
▁figir	-2983
▁laspe	-2984
▁leker	-2985
▁lokal	-2986
▁mwens	-2987
▁remem	-2988
▁tempo	-2989
▁tigit	-2990
▁until	-2991
urzwazi	-2992
▁Lasinn	-2993
▁Rights	-2994
▁Sakunn	-2995
▁Sosyal	-2996
▁Subron	-2997
▁bateau	-2998
▁coming	-2999
▁determ	-3000
▁export	-3001
▁konpre	-3002
▁lanfaz	-3003
▁modern	-3004
▁number	-3005
▁pankor	-3006
▁perfor	-3007
▁progre	-3008
▁really	-3009
rikiltir	-3010
▁Pravind	-3011
▁kantite	-3012
▁pansyon	-3013
▁personn	-3014
▁tandans	-3015
▁veritab	-3016
▁vyolans	-3017
▁Palestin	-3018
▁economic	-3019
▁introdir	-3020
▁struggle	-3021
▁suddenly	-3022
▁sulevman	-3023
▁rediksyon	-3024
▁relations	-3025
▁sometimes	-3026
▁linportans	-3027
▁propozisyon	-3028
▁manifestasyon	-3029
▁diversifikasyon	-3030
.(	-3031
EB	-3032
One	-3033
arv	-3034
ato	-3035
iri	-3036
mil	-3037
▁Ag	-3038
▁Ah	-3039
▁Ti	-3040
▁kl	-3041
Ever	-3042
Finn	-3043
elev	-3044
esan	-3045
fect	-3046
ined	-3047
oman	-3048
opol	-3049
orld	-3050
oser	-3051
oupe	-3052
oura	-3053
ping	-3054
utes	-3055
wins	-3056
▁ang	-3057
▁bom	-3058
▁cat	-3059
▁fav	-3060
▁fel	-3061
▁fet	-3062
▁fre	-3063
▁run	-3064
▁sef	-3065
0,000	-3066
Kumsa	-3067
LALIT	-3068
ablir	-3069
aient	-3070
alist	-3071
ately	-3072
ative	-3073
ences	-3074
izion	-3075
verti	-3076
▁Coun	-3077
▁Prof	-3078
▁asir	-3079
▁cann	-3080
▁etan	-3081
▁five	-3082
▁fizi	-3083
▁full	-3084
▁mamb	-3085
▁nwar	-3086
▁pous	-3087
▁tifi	-3088
▁tous	-3089
▁tret	-3090
▁youn	-3091
mittee	-3092
peryal	-3093
▁Jésus	-3094
▁South	-3095
▁aswar	-3096
▁begin	-3097
▁desid	-3098
▁doing	-3099
▁heard	-3100
▁kolek	-3101
▁lapey	-3102
▁madam	-3103
▁natir	-3104
▁seval	-3105
▁tapaz	-3106
▁zefor	-3107
Kamarad	-3108
duction	-3109
presyon	-3110
▁Budget	-3111
▁Izrael	-3112
▁behind	-3113
▁beings	-3114
▁desann	-3115
▁except	-3116
▁kontra	-3117
▁laport	-3118
▁plitar	-3119
▁prodwi	-3120
▁seemed	-3121
▁sertin	-3122
▁speech	-3123
pecially	-3124
▁Council	-3125
▁explwat	-3126
▁investi	-3127
▁monopol	-3128
▁nothing	-3129
▁tranble	-3130
▁whether	-3131
▁continue	-3132
▁ideolozi	-3133
▁possible	-3134
▁remember	-3135
▁Education	-3136
▁Lindistri	-3137
▁Rebellion	-3138
▁necessary	-3139
▁demokratik	-3140
▁everything	-3141
▁lisansiman	-3142
▁Pilkingtonn	-3143
▁agricultural	-3144
▁konpreansyon	-3145
IK	-3146
OL	-3147
Re	-3148
SP	-3149
Sir	-3150
YON	-3151
act	-3152
air	-3153
ask	-3154
fin	-3155
ift	-3156
nas	-3157
nes	-3158
oni	-3159
rof	-3160
ude	-3161
uro	-3162
wet	-3163
▁18	-3164
▁25	-3165
▁Or	-3166
▁Tr	-3167
▁id	-3168
Buku	-3169
anik	-3170
atif	-3171
dire	-3172
elle	-3173
ison	-3174
izir	-3175
ject	-3176
lall	-3177
omin	-3178
oran	-3179
rete	-3180
rime	-3181
seyn	-3182
ther	-3183
ysis	-3184
▁Lek	-3185
▁bor	-3186
▁cap	-3187
▁dog	-3188
▁feb	-3189
▁fim	-3190
▁gol	-3191
▁gun	-3192
▁kal	-3193
▁kud	-3194
▁lib	-3195
▁lim	-3196
▁nek	-3197
▁sum	-3198
▁why	-3199
▁zen	-3200
esans	-3201
ivyer	-3202
pepre	-3203
sesis	-3204
teman	-3205
▁Amer	-3206
▁Brit	-3207
▁Kist	-3208
▁chal	-3209
▁corn	-3210
▁cows	-3211
▁dead	-3212
▁dife	-3213
▁dile	-3214
▁eyes	-3215
▁fonk	-3216
▁hoof	-3217
▁inde	-3218
▁larg	-3219
▁main	-3220
▁mank	-3221
▁plen	-3222
▁sipa	-3223
▁sole	-3224
▁swar	-3225
▁trad	-3226
▁woof	-3227
ership	-3228
nasamy	-3229
wasans	-3230
▁World	-3231
▁allow	-3232
▁amene	-3233
▁among	-3234
▁anons	-3235
▁espes	-3236
▁expoz	-3237
▁lekor	-3238
▁lotel	-3239
▁month	-3240
▁retur	-3241
▁sarye	-3242
▁tanto	-3243
▁tusel	-3244
▁zener	-3245
▁zoliv	-3246
Asterla	-3247
ciation	-3248
mission	-3249
▁Malini	-3250
▁Nasyon	-3251
▁birokr	-3252
▁change	-3253
▁inform	-3254
▁kontex	-3255
▁labour	-3256
▁souris	-3257
Snowball	-3258
▁dimande	-3259
▁dimounn	-3260
▁lavenir	-3261
▁morning	-3262
▁nerport	-3263
▁prezans	-3264
▁private	-3265
▁prosenn	-3266
▁rankont	-3267
▁society	-3268
Boulkoton	-3269
▁Seegobin	-3270
▁konsyans	-3271
▁krwasans	-3272
▁partikil	-3273
▁question	-3274
▁buildings	-3275
▁Kistnasamy	-3276
▁Pilkington	-3277
▁employment	-3278
▁popilasyon	-3279
'.	-3280
Av	-3281
Un	-3282
bb	-3283
bu	-3284
ps	-3285
Can	-3286
Lot	-3287
Per	-3288
bol	-3289
cip	-3290
don	-3291
ges	-3292
lar	-3293
let	-3294
rip	-3295
yne	-3296
yod	-3297
zek	-3298
zon	-3299
▁AN	-3300
▁Pl	-3301
▁dé	-3302
▁zu	-3303
ESCO	-3304
Klas	-3305
Leta	-3306
Lind	-3307
Some	-3308
byen	-3309
ened	-3310
idar	-3311
ikal	-3312
imem	-3313
medi	-3314
orik	-3315
ouis	-3316
over	-3317
pris	-3318
rang	-3319
reet	-3320
shed	-3321
sive	-3322
zman	-3323
▁196	-3324
▁Lar	-3325
▁Maz	-3326
▁ext	-3327
▁fla	-3328
▁gen	-3329
▁kne	-3330
▁kup	-3331
▁rad	-3332
▁sub	-3333
Thank	-3334
ently	-3335
iling	-3336
isyel	-3337
itwar	-3338
ontre	-3339
▁Angl	-3340
▁Drwa	-3341
▁Jean	-3342
▁Mont	-3343
▁Will	-3344
▁agro	-3345
▁apar	-3346
▁fall	-3347
▁gave	-3348
▁inpl	-3349
▁jobs	-3350
▁lite	-3351
▁mari	-3352
▁nomb	-3353
▁peye	-3354
▁told	-3355
▁zonn	-3356
ential	-3357
ilegal	-3358
ortman	-3359
riktir	-3360
▁issue	-3361
▁lapay	-3362
▁large	-3363
▁lipie	-3364
▁minis	-3365
▁ouver	-3366
▁regle	-3367
▁times	-3368
▁usual	-3369
▁volon	-3370
isation	-3371
onesans	-3372
▁Beasts	-3373
▁anplwa	-3374
▁azanda	-3375
▁depann	-3376
▁dernie	-3377
▁detrir	-3378
▁during	-3379
▁horses	-3380
▁instru	-3381
▁itself	-3382
▁komann	-3383
▁langar	-3384
▁linite	-3385
▁peryod	-3386
▁profes	-3387
▁trouve	-3388
▁garanti	-3389
▁general	-3390
▁support	-3391
▁tulezur	-3392
▁Repiblik	-3393
▁aktivite	-3394
▁analysis	-3395
▁appeared	-3396
▁enportan	-3397
▁kominote	-3398
▁konesans	-3399
▁mobilize	-3400
▁polisyer	-3401
▁agreement	-3402
▁interests	-3403
▁kumansman	-3404
▁lavortman	-3405
▁represyon	-3406
▁lingwistik	-3407
▁Konstitisyon	-3408
.2	-3409
4.	-3410
8,	-3411
AR	-3412
Ah	-3413
OR	-3414
Oh	-3415
TM	-3416
ee	-3417
rr	-3418
ya	-3419
Get	-3420
MAN	-3421
Pou	-3422
Tus	-3423
acy	-3424
ade	-3425
ape	-3426
ayt	-3427
dem	-3428
els	-3429
lex	-3430
olt	-3431
ouz	-3432
ply	-3433
ril	-3434
sie	-3435
▁Im	-3436
Avan	-3437
Avek	-3438
PMSD	-3439
abor	-3440
akes	-3441
bers	-3442
bles	-3443
cked	-3444
esaz	-3445
ifie	-3446
ifik	-3447
iver	-3448
klav	-3449
land	-3450
lass	-3451
urer	-3452
used	-3453
▁...	-3454
▁CEB	-3455
▁Fox	-3456
▁New	-3457
▁VRS	-3458
▁aut	-3459
▁din	-3460
▁dre	-3461
▁ekl	-3462
▁exc	-3463
▁fou	-3464
▁hop	-3465
▁ils	-3466
▁lay	-3467
▁ped	-3468
▁sor	-3469
▁sot	-3470
▁stu	-3471
▁vid	-3472
▁won	-3473
Kifer	-3474
andal	-3475
anter	-3476
aught	-3477
izman	-3478
mance	-3479
ology	-3480
ortir	-3481
▁Euro	-3482
▁Sant	-3483
▁body	-3484
▁cane	-3485
▁comp	-3486
▁depl	-3487
▁furn	-3488
▁gone	-3489
▁hold	-3490
▁imin	-3491
▁kraz	-3492
▁larz	-3493
▁lili	-3494
▁mint	-3495
▁pass	-3496
▁rule	-3497
▁sabo	-3498
▁sayt	-3499
▁sont	-3500
▁uswa	-3501
▁zurn	-3502
Malgre	-3503
antinn	-3504
ciples	-3505
manite	-3506
zantan	-3507
▁Alain	-3508
▁Bonom	-3509
▁Louis	-3510
▁balye	-3511
▁boner	-3512
▁chang	-3513
▁cried	-3514
▁disap	-3515
▁imans	-3516
▁komye	-3517
▁lesel	-3518
▁medya	-3519
▁mwins	-3520
▁refiz	-3521
▁respe	-3522
▁seleb	-3523
▁since	-3524
▁sivil	-3525
▁study	-3526
▁tiket	-3527
▁young	-3528
ilasyon	-3529
okasyon	-3530
▁UNESCO	-3531
▁dezord	-3532
▁either	-3533
▁garson	-3534
▁having	-3535
▁ilegal	-3536
▁includ	-3537
▁konpet	-3538
▁ladrog	-3539
▁lamone	-3540
▁lepase	-3541
▁lespas	-3542
▁lisyen	-3543
▁partou	-3544
▁primer	-3545
▁ranfor	-3546
▁remark	-3547
▁renion	-3548
▁repran	-3549
▁sakenn	-3550
▁unions	-3551
▁vreman	-3552
Travayer	-3553
omannman	-3554
▁Command	-3555
▁Lafrans	-3556
▁etidyan	-3557
▁history	-3558
▁however	-3559
▁outside	-3560
▁present	-3561
▁reynion	-3562
▁sectors	-3563
▁Morisyen	-3564
▁dekouver	-3565
▁limanite	-3566
▁particul	-3567
▁prosesis	-3568
▁rasanble	-3569
▁Konferans	-3570
▁Travayist	-3571
▁sosyalism	-3572
▁sosyalist	-3573
▁especially	-3574
▁rekonesans	-3575
▁development	-3576
▁liniversite	-3577
▁depresyasyon	-3578
!”	-3579
3,	-3580
OK	-3581
cu	-3582
ey	-3583
su	-3584
Lag	-3585
Mar	-3586
Ver	-3587
aba	-3588
anb	-3589
ash	-3590
bat	-3591
com	-3592
dan	-3593
eld	-3594
esi	-3595
fen	-3596
ian	-3597
oud	-3598
viv	-3599
▁Bo	-3600
▁IN	-3601
▁Ok	-3602
▁ph	-3603
Kriz	-3604
Zame	-3605
apav	-3606
aper	-3607
atis	-3608
ided	-3609
ired	-3610
isit	-3611
itar	-3612
nivo	-3613
onte	-3614
osid	-3615
oute	-3616
ring	-3617
rong	-3618
rown	-3619
sans	-3620
trwa	-3621
uval	-3622
▁2-3	-3623
▁CNT	-3624
▁Gar	-3625
▁Ger	-3626
▁Nov	-3627
▁Pin	-3628
▁Sam	-3629
▁air	-3630
▁cru	-3631
▁cry	-3632
▁den	-3633
▁fon	-3634
▁fra	-3635
▁hay	-3636
▁lez	-3637
▁mel	-3638
▁pra	-3639
▁ral	-3640
▁sis	-3641
▁slo	-3642
▁yer	-3643
Apart	-3644
Moris	-3645
Ubyen	-3646
ached	-3647
alize	-3648
duced	-3649
esite	-3650
field	-3651
ocide	-3652
onder	-3653
point	-3654
▁Klas	-3655
▁Port	-3656
▁Timi	-3657
▁adop	-3658
▁arri	-3659
▁avec	-3660
▁blan	-3661
▁boat	-3662
▁deep	-3663
▁erer	-3664
▁face	-3665
▁fode	-3666
▁gren	-3667
▁hear	-3668
▁home	-3669
▁kare	-3670
▁knew	-3671
▁name	-3672
▁port	-3673
▁post	-3674
▁poze	-3675
▁rema	-3676
▁situ	-3677
▁siyn	-3678
▁spek	-3679
▁test	-3680
▁zuti	-3681
Parfwa	-3682
inistr	-3683
inking	-3684
istrib	-3685
unning	-3686
▁Frans	-3687
▁Jesus	-3688
▁break	-3689
▁clear	-3690
▁danze	-3691
▁ennmi	-3692
▁exist	-3693
▁front	-3694
▁inpoz	-3695
▁known	-3696
▁konse	-3697
▁paran	-3698
▁pedag	-3699
▁quick	-3700
▁renuv	-3701
▁samem	-3702
▁stone	-3703
▁tande	-3704
▁voice	-3705
▁water	-3706
Lindsey	-3707
ication	-3708
ipasyon	-3709
▁Africa	-3710
▁Social	-3711
▁create	-3712
▁deklas	-3713
▁immedi	-3714
▁kasiet	-3715
▁konsep	-3716
▁nouvel	-3717
▁partaz	-3718
▁perman	-3719
▁profit	-3720
▁regrup	-3721
▁rights	-3722
▁saying	-3723
▁summer	-3724
▁taking	-3725
istriyel	-3726
▁100,000	-3727
▁Bizlall	-3728
▁Comrade	-3729
▁anplway	-3730
▁complet	-3731
▁continu	-3732
▁explain	-3733
▁minutes	-3734
▁ofisyel	-3735
▁ranplas	-3736
▁talking	-3737
▁toultan	-3738
▁viktwar	-3739
formasyon	-3740
▁Angleter	-3741
▁Lasanble	-3742
▁demontre	-3743
▁diferans	-3744
▁fonksyon	-3745
▁kisannla	-3746
▁kontinie	-3747
▁koumadir	-3748
▁ranforsi	-3749
▁solisyon	-3750
▁teritwar	-3751
▁Komannman	-3752
▁announced	-3753
▁direksion	-3754
▁interesan	-3755
▁alinteryer	-3756
▁linguistic	-3757
▁posibilite	-3758
▁investisman	-3759
▁lasosyasyon	-3760
▁explwatasyon	-3761
▁International	-3762
4,	-3763
6,	-3764
Ch	-3765
IC	-3766
OT	-3767
Ou	-3768
St	-3769
To	-3770
WF	-3771
sk	-3772
ua	-3773
ée	-3774
Som	-3775
Vee	-3776
ana	-3777
ays	-3778
cal	-3779
cri	-3780
ekn	-3781
gne	-3782
net	-3783
ogn	-3784
oto	-3785
tou	-3786
ugh	-3787
upe	-3788
▁Em	-3789
▁Sh	-3790
▁TH	-3791
▁To	-3792
▁ba	-3793
▁sn	-3794
abet	-3795
arsi	-3796
avan	-3797
ches	-3798
enar	-3799
ergy	-3800
inar	-3801
inif	-3802
ipar	-3803
izik	-3804
mare	-3805
oler	-3806
omen	-3807
oses	-3808
reas	-3809
rice	-3810
ussi	-3811
utik	-3812
vent	-3813
▁Dis	-3814
▁Ena	-3815
▁Ero	-3816
▁Fam	-3817
▁aim	-3818
▁ala	-3819
▁anb	-3820
▁bad	-3821
▁ble	-3822
▁bri	-3823
▁clo	-3824
▁cor	-3825
▁ede	-3826
▁enf	-3827
▁equ	-3828
▁fit	-3829
▁fut	-3830
▁kop	-3831
▁log	-3832
▁lui	-3833
▁mod	-3834
▁rid	-3835
▁sea	-3836
▁ste	-3837
▁vye	-3838
Bizin	-3839
Ziska	-3840
ience	-3841
ikman	-3842
iness	-3843
porte	-3844
▁2007	-3845
▁Best	-3846
▁Bwar	-3847
▁Cent	-3848
▁akse	-3849
▁boss	-3850
▁brok	-3851
▁care	-3852
▁deux	-3853
▁enst	-3854
▁expe	-3855
▁fiel	-3856
▁fwet	-3857
▁gate	-3858
▁harv	-3859
▁help	-3860
▁hour	-3861
▁huge	-3862
▁infl	-3863
▁itil	-3864
▁kole	-3865
▁less	-3866
▁lyen	-3867
▁napa	-3868
▁plus	-3869
▁pren	-3870
▁quar	-3871
▁sell	-3872
▁sink	-3873
▁song	-3874
▁tail	-3875
▁temw	-3876
▁thus	-3877
▁trav	-3878
▁unem	-3879
▁walk	-3880
aurant	-3881
ements	-3882
liance	-3883
yerman	-3884
▁Grand	-3885
▁Mazor	-3886
▁absol	-3887
▁appro	-3888
▁arete	-3889
▁baraz	-3890
▁batay	-3891
▁bring	-3892
▁comme	-3893
▁dayer	-3894
▁gener	-3895
▁hours	-3896
▁house	-3897
▁konpl	-3898
▁lakur	-3899
▁lekip	-3900
▁lives	-3901
▁malad	-3902
▁mesaz	-3903
▁milye	-3904
▁offic	-3905
▁press	-3906
▁prote	-3907
▁ramas	-3908
▁refer	-3909
▁rezud	-3910
▁salad	-3911
▁sleep	-3912
▁solda	-3913
▁stood	-3914
▁sufer	-3915
▁terms	-3916
▁tourn	-3917
▁tousa	-3918
▁vites	-3919
▁zelev	-3920
Express	-3921
idarite	-3922
izanpli	-3923
olision	-3924
▁Finans	-3925
▁ansyen	-3926
▁apepre	-3927
▁biznes	-3928
▁crises	-3929
▁diskit	-3930
▁factor	-3931
▁flight	-3932
▁galupe	-3933
▁ground	-3934
▁kasyet	-3935
▁komite	-3936
▁lantre	-3937
▁lanvir	-3938
▁lapenn	-3939
▁looked	-3940
▁menase	-3941
▁public	-3942
▁repres	-3943
▁slogan	-3944
▁sutyen	-3945
epandans	-3946
▁apartir	-3947
▁artizan	-3948
▁diskour	-3949
▁evening	-3950
▁harvest	-3951
▁konplis	-3952
▁labutik	-3953
▁laparol	-3954
▁lespwar	-3955
▁liberte	-3956
▁special	-3957
▁spesial	-3958
▁sutenir	-3959
▁Bwarenar	-3960
▁consider	-3961
▁konverti	-3962
▁laplipar	-3963
▁lavantaz	-3964
▁nesesite	-3965
▁platform	-3966
▁resevwar	-3967
▁strategy	-3968
Ledikasyon	-3969
▁Committee	-3970
▁direksyon	-3971
▁konferans	-3972
inifikasyon	-3973
▁Commission	-3974
▁particular	-3975
▁refleksyon	-3976
▁indistriyel	-3977
▁lagrikiltir	-3978
▁Commandments	-3979
▁international	-3980
▁responsabilite	-3981
-1	-3982
.)	-3983
1.	-3984
EN	-3985
PP	-3986
Pe	-3987
aw	-3988
ef	-3989
ff	-3990
ni	-3991
nt	-3992
pr	-3993
▁:	-3994
Des	-3995
His	-3996
Lap	-3997
Pro	-3998
Pur	-3999
cia	-4000
eds	-4001
enj	-4002
lle	-4003
ock	-4004
pir	-4005
poy	-4006
ule	-4007
wel	-4008
yez	-4009
▁Hu	-4010
▁ez	-4011
▁kn	-4012
▁ty	-4013
▁va	-4014
▁wi	-4015
.198	-4016
Akoz	-4017
Even	-4018
Only	-4019
anse	-4020
apor	-4021
arey	-4022
bour	-4023
ennj	-4024
etan	-4025
ices	-4026
itor	-4027
krip	-4028
lies	-4029
menc	-4030
mend	-4031
rams	-4032
renn	-4033
rupt	-4034
syel	-4035
vyon	-4036
wood	-4037
éren	-4038
▁Sek	-4039
▁Ter	-4040
▁WTO	-4041
▁ago	-4042
▁bes	-4043
▁cut	-4044
▁eas	-4045
▁eli	-4046
▁env	-4047
▁fur	-4048
▁kri	-4049
▁occ	-4050
▁pla	-4051
▁top	-4052
▁yet	-4053
Every	-4054
acity	-4055
atwar	-4056
clock	-4057
cture	-4058
ities	-4059
itive	-4060
jects	-4061
ollie	-4062
pread	-4063
riman	-4064
verse	-4065
▁Part	-4066
▁beau	-4067
▁biye	-4068
▁case	-4069
▁clos	-4070
▁cost	-4071
▁deli	-4072
▁emer	-4073
▁exak	-4074
▁hens	-4075
▁lari	-4076
▁leta	-4077
▁lete	-4078
▁otan	-4079
▁play	-4080
▁poem	-4081
▁ranz	-4082
▁rate	-4083
▁touy	-4084
Anplis	-4085
Tusala	-4086
Zanimo	-4087
avedir	-4088
elfare	-4089
rought	-4090
verite	-4091
▁Major	-4092
▁aboli	-4093
▁award	-4094
▁baton	-4095
▁broke	-4096
▁close	-4097
▁colle	-4098
▁detay	-4099
▁diriz	-4100
▁early	-4101
▁fatig	-4102
▁gives	-4103
▁kredi	-4104
▁latab	-4105
▁lokaz	-4106
▁major	-4107
▁neigh	-4108
▁oblig	-4109
▁obliz	-4110
▁parol	-4111
▁resol	-4112
▁retir	-4113
▁sever	-4114
▁shall	-4115
▁shift	-4116
▁soley	-4117
▁stall	-4118
▁strat	-4119
▁traka	-4120
presion	-4121
érenger	-4122
▁Amerik	-4123
▁Europe	-4124
▁Garcia	-4125
▁Rivyer	-4126
▁amizir	-4127
▁anplis	-4128
▁banann	-4129
▁compan	-4130
▁compet	-4131
▁depite	-4132
▁desela	-4133
▁destro	-4134
▁ekzanp	-4135
▁febles	-4136
▁garden	-4137
▁gratis	-4138
▁konven	-4139
▁lafnet	-4140
▁laliyn	-4141
▁lamwat	-4142
▁lesans	-4143
▁longer	-4144
▁nesans	-4145
▁orders	-4146
▁pavyon	-4147
▁profon	-4148
▁pwason	-4149
▁rantre	-4150
▁recogn	-4151
▁redwir	-4152
▁resers	-4153
▁reserv	-4154
▁secret	-4155
▁single	-4156
▁spread	-4157
▁vizavi	-4158
Sithanen	-4159
ansasyon	-4160
iversity	-4161
kripsyon	-4162
▁Foxwood	-4163
▁Mondyal	-4164
▁anprann	-4165
▁believe	-4166
▁disappe	-4167
▁diskite	-4168
▁distrib	-4169
▁ideolog	-4170
▁individ	-4171
▁opuvwar	-4172
▁process	-4173
▁sirkons	-4174
▁started	-4175
▁usually	-4176
▁volonte	-4177
▁written	-4178
▁Britanik	-4179
▁Industry	-4180
▁abandonn	-4181
▁finansye	-4182
▁genocide	-4183
▁increase	-4184
▁konsider	-4185
▁konstrir	-4186
▁kontenir	-4187
▁mintenir	-4188
▁position	-4189
▁prizonye	-4190
▁problems	-4191
▁relizyon	-4192
▁renuvlab	-4193
▁respekte	-4194
▁retourne	-4195
▁terminal	-4196
▁condition	-4197
▁historical	-4198
▁lantrepriz	-4199
▁partikilye	-4200
▁restaurant	-4201
▁institutions	-4202
▁tranzisyonel	-4203
▁understanding	-4204
?”	-4205
My	-4206
SI	-4207
Tr	-4208
ex	-4209
hn	-4210
py	-4211
ta	-4212
.1.	-4213
Are	-4214
arz	-4215
aut	-4216
aya	-4217
ban	-4218
bli	-4219
det	-4220
ead	-4221
ero	-4222
ham	-4223
ict	-4224
ité	-4225
kwa	-4226
lah	-4227
mon	-4228
orz	-4229
ouk	-4230
rin	-4231
tik	-4232
tob	-4233
ump	-4234
vey	-4235
▁AG	-4236
▁DI	-4237
▁DY	-4238
▁Ed	-4239
▁He	-4240
▁Ph	-4241
▁Si	-4242
▁iz	-4243
Lane	-4244
Long	-4245
Mais	-4246
Rara	-4247
Tout	-4248
ader	-4249
akoz	-4250
aves	-4251
dies	-4252
eons	-4253
erty	-4254
gram	-4255
head	-4256
ides	-4257
iens	-4258
ipal	-4259
ized	-4260
lare	-4261
rali	-4262
raze	-4263
ross	-4264
▁All	-4265
▁Can	-4266
▁Dav	-4267
▁Fer	-4268
▁GWF	-4269
▁Kat	-4270
▁Kot	-4271
▁Les	-4272
▁Lez	-4273
▁Mir	-4274
▁Rem	-4275
▁You	-4276
▁anv	-4277
▁apr	-4278
▁ear	-4279
▁gaz	-4280
▁gra	-4281
▁hed	-4282
▁job	-4283
▁nef	-4284
▁por	-4285
▁rat	-4286
▁sav	-4287
▁van	-4288
Ankor	-4289
Letan	-4290
Mersi	-4291
amant	-4292
eptam	-4293
marse	-4294
posed	-4295
poynt	-4296
tered	-4297
vance	-4298
▁2000	-4299
▁Alor	-4300
▁Ares	-4301
▁Mars	-4302
▁Nwel	-4303
▁Rada	-4304
▁Rara	-4305
▁Serv	-4306
▁Sing	-4307
▁Zamb	-4308
▁bonn	-4309
▁cent	-4310
▁conc	-4311
▁deal	-4312
▁dres	-4313
▁drol	-4314
▁enem	-4315
▁felt	-4316
▁fire	-4317
▁fish	-4318
▁foot	-4319
▁gets	-4320
▁indi	-4321
▁inte	-4322
▁kept	-4323
▁koul	-4324
▁kwen	-4325
▁liye	-4326
▁lyin	-4327
▁mass	-4328
▁pans	-4329
▁prim	-4330
▁pwis	-4331
▁siti	-4332
▁sove	-4333
▁sure	-4334
▁tekn	-4335
▁thir	-4336
▁tras	-4337
▁très	-4338
▁vand	-4339
▁vant	-4340
▁warn	-4341
Premye	-4342
ersonn	-4343
everly	-4344
inport	-4345
manter	-4346
overed	-4347
ramsci	-4348
▁Forum	-4349
▁Lider	-4350
▁Novam	-4351
▁Oktob	-4352
▁Seven	-4353
▁agree	-4354
▁aksel	-4355
▁based	-4356
▁depas	-4357
▁ekout	-4358
▁elekt	-4359
▁finis	-4360
▁furni	-4361
▁infer	-4362
▁invit	-4363
▁kontr	-4364
▁labou	-4365
▁lakor	-4366
▁misie	-4367
▁often	-4368
▁pizon	-4369
▁radyo	-4370
▁rimer	-4371
▁sanse	-4372
▁satis	-4373
▁sekre	-4374
▁stati	-4375
▁terin	-4376
▁union	-4377
egalite	-4378
planter	-4379
setadir	-4380
▁Krekre	-4381
▁Medine	-4382
▁Muvman	-4383
▁abitye	-4384
▁accept	-4385
▁attack	-4386
▁avanse	-4387
▁broken	-4388
▁cannot	-4389
▁defend	-4390
▁demars	-4391
▁dokter	-4392
▁esklav	-4393
▁future	-4394
▁kitfwa	-4395
▁koloni	-4396
▁konpar	-4397
▁lamour	-4398
▁living	-4399
▁manier	-4400
▁mindev	-4401
▁passed	-4402
▁predir	-4403
▁premie	-4404
▁protez	-4405
▁provok	-4406
▁rakont	-4407
▁realiz	-4408
▁rekolt	-4409
▁sutyin	-4410
▁zardin	-4411
utionary	-4412
▁Beverly	-4413
▁Maurice	-4414
▁Santral	-4415
▁balance	-4416
▁commenc	-4417
▁dokiman	-4418
▁encoura	-4419
▁enfants	-4420
▁further	-4421
▁konsern	-4422
▁kumadir	-4423
▁lamizik	-4424
▁lanatir	-4425
▁mansyon	-4426
▁marsand	-4427
▁natirel	-4428
▁pigeons	-4429
▁politic	-4430
▁prensip	-4431
▁profits	-4432
▁running	-4433
▁serious	-4434
▁sitting	-4435
▁someone	-4436
▁textile	-4437
▁tickets	-4438
▁zistwar	-4439
opozisyon	-4440
▁Eleksyon	-4441
▁Komisyon	-4442
▁gramatin	-4443
▁inperyal	-4444
▁kolektif	-4445
▁kreasyon	-4446
▁property	-4447
▁rezyonal	-4448
▁following	-4449
▁fondamant	-4450
▁intervenir	-4451
▁lokipasyon	-4452
▁natirelman	-4453
▁revolision	-4454
▁solidarite	-4455
▁Liniversite	-4456
▁konstriksion	-4457
▁konstriksyon	-4458
▁mobilization	-4459
▁organizasyon	-4460
▁diversification	-4461
▁sirkonskripsyon	-4462
%.	-4463
8.	-4464
Ar	-4465
EP	-4466
LF	-4467
LO	-4468
RI	-4469
ST	-4470
WA	-4471
ai	-4472
bi	-4473
ij	-4474
ov	-4475
ré	-4476
ug	-4477
Las	-4478
Lek	-4479
Sin	-4480
aza	-4481
ele	-4482
fli	-4483
icy	-4484
ixe	-4485
kiz	-4486
mun	-4487
oka	-4488
oss	-4489
rel	-4490
siv	-4491
the	-4492
unt	-4493
wiv	-4494
▁23	-4495
▁Av	-4496
▁Cl	-4497
▁ON	-4498
▁ge	-4499
Kote	-4500
Pena	-4501
Sure	-4502
Whym	-4503
agne	-4504
arse	-4505
bard	-4506
egwi	-4507
erve	-4508
finn	-4509
four	-4510
haps	-4511
ific	-4512
ikle	-4513
ious	-4514
kuma	-4515
lack	-4516
mwen	-4517
oriz	-4518
rial	-4519
uand	-4520
ular	-4521
veni	-4522
wala	-4523
wing	-4524
zour	-4525
▁Ang	-4526
▁Dep	-4527
▁Fev	-4528
▁How	-4529
▁PME	-4530
▁Pri	-4531
▁Rez	-4532
▁Sad	-4533
▁Spe	-4534
▁adv	-4535
▁afe	-4536
▁boy	-4537
▁buz	-4538
▁dip	-4539
▁fen	-4540
▁flo	-4541
▁kus	-4542
▁mit	-4543
▁mot	-4544
▁sti	-4545
▁swe	-4546
▁été	-4547
Alors	-4548
Komie	-4549
Parti	-4550
ament	-4551
cause	-4552
ciple	-4553
eding	-4554
eland	-4555
emoni	-4556
endre	-4557
iller	-4558
imier	-4559
ksyon	-4560
okrat	-4561
ontur	-4562
organ	-4563
tiary	-4564
uriel	-4565
venue	-4566
▁2005	-4567
▁Fund	-4568
▁Lend	-4569
▁acqu	-4570
▁apro	-4571
▁atas	-4572
▁atir	-4573
▁dele	-4574
▁evit	-4575
▁fait	-4576
▁feel	-4577
▁feet	-4578
▁flag	-4579
▁foto	-4580
▁fron	-4581
▁gens	-4582
▁harm	-4583
▁hung	-4584
▁kill	-4585
▁konk	-4586
▁konz	-4587
▁late	-4588
▁lekz	-4589
▁mean	-4590
▁mess	-4591
▁mice	-4592
▁news	-4593
▁ones	-4594
▁poor	-4595
▁purs	-4596
▁resi	-4597
▁sifi	-4598
▁slow	-4599
▁task	-4600
▁trik	-4601
▁viol	-4602
▁wait	-4603
▁wave	-4604
Dezyem	-4605
Purtan	-4606
Sistem	-4607
Thanks	-4608
ctural	-4609
tivman	-4610
▁Misye	-4611
▁Pinch	-4612
▁andan	-4613
▁antre	-4614
▁batir	-4615
▁colon	-4616
▁const	-4617
▁debus	-4618
▁defet	-4619
▁deval	-4620
▁disip	-4621
▁expil	-4622
▁extre	-4623
▁grand	-4624
▁hands	-4625
▁heart	-4626
▁intel	-4627
▁kinds	-4628
▁koste	-4629
▁leave	-4630
▁legim	-4631
▁light	-4632
▁livre	-4633
▁makes	-4634
▁masif	-4635
▁metod	-4636
▁scale	-4637
▁short	-4638
▁sibir	-4639
▁store	-4640
▁straw	-4641
▁takes	-4642
▁telev	-4643
▁tonbe	-4644
▁white	-4645
Savedir	-4646
Whymper	-4647
ikasion	-4648
kapital	-4649
mansman	-4650
▁Lallah	-4651
▁Septam	-4652
▁adopte	-4653
▁afebli	-4654
▁charge	-4655
▁depart	-4656
▁derule	-4657
▁dibout	-4658
▁direct	-4659
▁etidye	-4660
▁existe	-4661
▁exprim	-4662
▁growth	-4663
▁intend	-4664
▁kiltir	-4665
▁konsey	-4666
▁kontak	-4667
▁kumkwa	-4668
▁lamars	-4669
▁miting	-4670
▁planet	-4671
▁plezir	-4672
▁separe	-4673
▁simple	-4674
▁sirviv	-4675
▁suffer	-4676
▁viktim	-4677
▁window	-4678
▁zizman	-4679
Finalman	-4680
▁African	-4681
▁Fevriye	-4682
▁allowed	-4683
▁argiman	-4684
▁asontur	-4685
▁deklare	-4686
▁egalite	-4687
▁fishing	-4688
▁instead	-4689
▁konteni	-4690
▁konvenk	-4691
▁laburer	-4692
▁lentere	-4693
▁lopital	-4694
▁meeting	-4695
▁mention	-4696
▁negosye	-4697
▁ninport	-4698
▁parties	-4699
▁quickly	-4700
▁schools	-4701
▁selebre	-4702
▁singing	-4703
▁sirkile	-4704
▁success	-4705
▁towards	-4706
feransyel	-4707
mantasyon	-4708
▁Nasyonal	-4709
▁National	-4710
▁gramaten	-4711
▁interese	-4712
▁lisansye	-4713
▁reaksyon	-4714
▁restoran	-4715
▁Napoleons	-4716
▁benefisye	-4717
▁countries	-4718
▁demisyone	-4719
▁diskisyon	-4720
▁happening	-4721
▁ideolozik	-4722
▁inegalite	-4723
▁manifeste	-4724
▁situation	-4725
▁tradisyon	-4726
▁zurnalist	-4727
▁Pinchfield	-4728
▁federasyon	-4729
▁partisipan	-4730
▁deplizanpli	-4731
▁exportasyon	-4732
▁fondamantal	-4733
▁immediately	-4734
▁negosyasyon	-4735
▁performance	-4736
▁reprezantan	-4737
▁lanvironnman	-4738
▁preferansyel	-4739
▁unemployment	-4740
0-	-4741
AC	-4742
GC	-4743
MO	-4744
Or	-4745
RO	-4746
TU	-4747
io	-4748
pu	-4749
.2.	-4750
Anu	-4751
Fas	-4752
Laf	-4753
Pli	-4754
Rez	-4755
Suv	-4756
VER	-4757
ail	-4758
amp	-4759
aym	-4760
bar	-4761
ext	-4762
ged	-4763
hib	-4764
iaw	-4765
ife	-4766
ika	-4767
ior	-4768
kom	-4769
lam	-4770
onp	-4771
oph	-4772
orl	-4773
pok	-4774
sib	-4775
sit	-4776
vin	-4777
wis	-4778
▁16	-4779
▁21	-4780
▁IC	-4781
▁Ou	-4782
▁Zi	-4783
▁ep	-4784
▁fu	-4785
▁ut	-4786
Donk	-4787
Elle	-4788
Fode	-4789
Kont	-4790
Prog	-4791
arth	-4792
bsid	-4793
fied	-4794
iced	-4795
iraz	-4796
less	-4797
lier	-4798
look	-4799
ogra	-4800
onne	-4801
pens	-4802
pire	-4803
pose	-4804
rast	-4805
sing	-4806
turn	-4807
yond	-4808
zans	-4809
zere	-4810
▁Ala	-4811
▁Ane	-4812
▁Dev	-4813
▁ONG	-4814
▁PRB	-4815
▁Pak	-4816
▁Tou	-4817
▁ach	-4818
▁aki	-4819
▁aks	-4820
▁apl	-4821
▁ask	-4822
▁bil	-4823
▁blo	-4824
▁bra	-4825
▁bun	-4826
▁bur	-4827
▁eat	-4828
▁ekz	-4829
▁fem	-4830
▁gou	-4831
▁hid	-4832
▁isn	-4833
▁loz	-4834
▁max	-4835
▁mid	-4836
▁paz	-4837
▁pik	-4838
▁pom	-4839
▁rav	-4840
▁rum	-4841
▁seg	-4842
▁sex	-4843
▁sok	-4844
▁sov	-4845
ASYON	-4846
Bidze	-4847
Lezot	-4848
Minis	-4849
Somet	-4850
ansiv	-4851
astic	-4852
ctive	-4853
drwat	-4854
essed	-4855
fully	-4856
ictor	-4857
idans	-4858
iklet	-4859
inyon	-4860
ished	-4861
izans	-4862
ondie	-4863
ories	-4864
ority	-4865
oxers	-4866
ritir	-4867
viron	-4868
wayin	-4869
yeter	-4870
zurne	-4871
▁Elek	-4872
▁John	-4873
▁Pier	-4874
▁Rose	-4875
▁Sinn	-4876
▁Wind	-4877
▁Zonn	-4878
▁area	-4879
▁asas	-4880
▁bese	-4881
▁biro	-4882
▁bles	-4883
▁cart	-4884
▁crit	-4885
▁door	-4886
▁drop	-4887
▁egal	-4888
▁fixe	-4889
▁fonn	-4890
▁frer	-4891
▁koup	-4892
▁lant	-4893
▁larm	-4894
▁leur	-4895
▁lind	-4896
▁loto	-4897
▁mant	-4898
▁opoz	-4899
▁road	-4900
▁sarz	-4901
▁self	-4902
▁site	-4903
▁sosi	-4904
▁souf	-4905
▁trap	-4906
▁tune	-4907
▁view	-4908
▁weak	-4909
▁zard	-4910
ablish	-4911
atever	-4912
eksyon	-4913
iktwar	-4914
ingdon	-4915
ounded	-4916
risite	-4917
▁2009,	-4918
▁Could	-4919
▁David	-4920
▁India	-4921
▁Langu	-4922
▁Loser	-4923
▁Party	-4924
▁Where	-4925
▁Ziyet	-4926
▁ahead	-4927
▁akote	-4928
▁along	-4929
▁asize	-4930
▁avait	-4931
▁becom	-4932
▁black	-4933
▁chall	-4934
▁ditor	-4935
▁ertan	-4936
▁faire	-4937
▁frans	-4938
▁golet	-4939
▁impos	-4940
▁indep	-4941
▁invol	-4942
▁koken	-4943
▁kudme	-4944
▁kuyon	-4945
▁lamem	-4946
▁latas	-4947
▁offer	-4948
▁okipe	-4949
▁plans	-4950
▁quiet	-4951
▁rapid	-4952
▁ready	-4953
▁remet	-4954
▁sezon	-4955
▁votre	-4956
▁wages	-4957
Because	-4958
Mauriti	-4959
Program	-4960
ekirite	-4961
eration	-4962
inasyon	-4963
myerman	-4964
ropriye	-4965
seynman	-4966
stitute	-4967
▁Bondie	-4968
▁Labank	-4969
▁abitan	-4970
▁adrwat	-4971
▁ansarz	-4972
▁anyone	-4973
▁arrang	-4974
▁assure	-4975
▁beyond	-4976
▁blocks	-4977
▁brital	-4978
▁depans	-4979
▁domine	-4980
▁forced	-4981
▁forces	-4982
▁harder	-4983
▁indust	-4984
▁inport	-4985
▁kartye	-4986
▁kolinn	-4987
▁lafami	-4988
▁lanket	-4989
▁laplaz	-4990
▁lexanp	-4991
▁mazine	-4992
▁mwayen	-4993
▁police	-4994
▁result	-4995
▁retret	-4996
▁sinbol	-4997
▁taught	-4998
▁teorik	-4999
▁timama	-5000
▁vremem	-5001
▁worked	-5002
▁zotmem	-5003
Berenger	-5004
uthority	-5005
▁Central	-5006
▁Program	-5007
▁Welfare	-5008
▁brought	-5009
▁definir	-5010
▁dernyer	-5011
▁earlier	-5012
▁estates	-5013
▁finally	-5014
▁galoupe	-5015
▁lazurne	-5016
▁members	-5017
▁parsyel	-5018
▁plizier	-5019
▁polisye	-5020
▁pouvwar	-5021
▁pretann	-5022
▁resaman	-5023
▁seminar	-5024
▁skandal	-5025
▁temwayn	-5026
riculture	-5027
sociation	-5028
▁Bérenger	-5029
▁Morisyin	-5030
▁finished	-5031
▁konfront	-5032
▁learning	-5033
▁official	-5034
▁research	-5035
▁speaking	-5036
▁transfer	-5037
▁transpor	-5038
▁Chagosyen	-5039
▁Elektoral	-5040
▁alokasyon	-5041
▁ankestyon	-5042
▁birokrasi	-5043
▁determine	-5044
▁direction	-5045
▁disciples	-5046
▁exakteman	-5047
▁potansyel	-5048
▁rebellion	-5049
▁Lopozisyon	-5050
▁Willingdon	-5051
▁difficulty	-5052
▁plantasyon	-5053
▁Palestinyen	-5054
▁Palestinyin	-5055
▁elektrisite	-5056
▁introdiksyon	-5057
▁konpansasyon	-5058
▁linformasyon	-5059
%,	-5060
2,	-5061
6.	-5062
?"	-5063
By	-5064
IL	-5065
OU	-5066
Pl	-5067
Su	-5068
ax	-5069
ii	-5070
mm	-5071
yt	-5072
?”.	-5073
Ind	-5074
Kat	-5075
Kre	-5076
Lar	-5077
Not	-5078
San	-5079
Swa	-5080
UTM	-5081
Who	-5082
app	-5083
apt	-5084
bre	-5085
div	-5086
eme	-5087
epu	-5088
esp	-5089
eti	-5090
iem	-5091
iss	-5092
jun	-5093
ker	-5094
lok	-5095
lot	-5096
oma	-5097
rut	-5098
vye	-5099
wil	-5100
ées	-5101
▁".	-5102
▁CS	-5103
▁CT	-5104
▁MC	-5105
▁PL	-5106
▁Ro	-5107
▁UK	-5108
▁ca	-5109
▁na	-5110
▁pm	-5111
Dern	-5112
Part	-5113
Plis	-5114
Puis	-5115
Trwa	-5116
ains	-5117
alet	-5118
alis	-5119
alth	-5120
ariz	-5121
ateg	-5122
blok	-5123
bout	-5124
ello	-5125
ency	-5126
enez	-5127
ette	-5128
ians	-5129
iled	-5130
ines	-5131
menn	-5132
oday	-5133
onst	-5134
orth	-5135
rist	-5136
stra	-5137
teid	-5138
text	-5139
ulti	-5140
urne	-5141
veau	-5142
zerv	-5143
▁Bal	-5144
▁Ban	-5145
▁Bul	-5146
▁Car	-5147
▁Lag	-5148
▁Laz	-5149
▁Len	-5150
▁Pol	-5151
▁SME	-5152
▁Set	-5153
▁Sol	-5154
▁Tri	-5155
▁bez	-5156
▁bit	-5157
▁doz	-5158
▁ker	-5159
▁kes	-5160
▁lod	-5161
▁lof	-5162
▁paw	-5163
▁rar	-5164
▁six	-5165
▁ten	-5166
▁try	-5167
▁web	-5168
Okenn	-5169
agann	-5170
artin	-5171
athna	-5172
cious	-5173
ekrir	-5174
ested	-5175
ident	-5176
irans	-5177
isipe	-5178
istis	-5179
izinn	-5180
konte	-5181
leter	-5182
orpor	-5183
oster	-5184
posib	-5185
tiful	-5186
ushed	-5187
▁2001	-5188
▁Grup	-5189
▁Kavi	-5190
▁Kaya	-5191
▁Lond	-5192
▁Lost	-5193
▁Moli	-5194
▁That	-5195
▁Zoko	-5196
▁agos	-5197
▁bare	-5198
▁clim	-5199
▁doub	-5200
▁exch	-5201
▁foul	-5202
▁grin	-5203
▁koni	-5204
▁ledo	-5205
▁milk	-5206
▁nwit	-5207
▁olig	-5208
▁pays	-5209
▁pron	-5210
▁rece	-5211
▁reve	-5212
▁rise	-5213
▁rouz	-5214
▁sede	-5215
▁sers	-5216
▁shop	-5217
▁stab	-5218
▁swit	-5219
▁syez	-5220
▁tris	-5221
▁true	-5222
▁vari	-5223
▁vers	-5224
▁voir	-5225
▁wage	-5226
▁ways	-5227
▁zarm	-5228
aksion	-5229
anzman	-5230
astrof	-5231
ctoral	-5232
ikleer	-5233
ording	-5234
orkers	-5235
owshed	-5236
rasyon	-5237
ratezi	-5238
ration	-5239
retayn	-5240
sesyon	-5241
▁Lindi	-5242
▁Madam	-5243
▁Organ	-5244
▁Rajni	-5245
▁Trade	-5246
▁Venez	-5247
▁Would	-5248
▁aktif	-5249
▁aussi	-5250
▁avoka	-5251
▁basis	-5252
▁built	-5253
▁cover	-5254
▁degos	-5255
▁demar	-5256
▁depar	-5257
▁disan	-5258
▁dream	-5259
▁drink	-5260
▁earth	-5261
▁enemy	-5262
▁enorm	-5263
▁fight	-5264
▁final	-5265
▁flies	-5266
▁green	-5267
▁iltra	-5268
▁knows	-5269
▁kolez	-5270
▁kreat	-5271
▁kuver	-5272
▁lepor	-5273
▁lerwa	-5274
▁limit	-5275
▁logic	-5276
▁loser	-5277
▁lower	-5278
▁march	-5279
▁mouth	-5280
▁newsp	-5281
▁ralye	-5282
▁regar	-5283
▁riske	-5284
▁saret	-5285
▁shout	-5286
▁sight	-5287
▁sorry	-5288
▁super	-5289
▁train	-5290
▁tulde	-5291
▁value	-5292
Personn	-5293
Tantinn	-5294
kontrer	-5295
ulation	-5296
vention	-5297
zeneral	-5298
▁Battle	-5299
▁Boxers	-5300
▁Martin	-5301
▁Singap	-5302
▁Street	-5303
▁across	-5304
▁akadem	-5305
▁azordi	-5306
▁bungal	-5307
▁conces	-5308
▁convin	-5309
▁debate	-5310
▁deklar	-5311
▁effort	-5312
▁eklate	-5313
▁energy	-5314
▁etanol	-5315
▁evidan	-5316
▁expres	-5317
▁fisher	-5318
▁inifye	-5319
▁island	-5320
▁konple	-5321
▁konpoz	-5322
▁konsom	-5323
▁kontab	-5324
▁koumsa	-5325
▁lalinn	-5326
▁lozman	-5327
▁masinn	-5328
▁matter	-5329
▁months	-5330
▁petrol	-5331
▁practi	-5332
▁reason	-5333
▁repons	-5334
▁retire	-5335
▁revinn	-5336
▁silans	-5337
▁sosial	-5338
▁souvan	-5339
▁specul	-5340
▁ticket	-5341
▁timber	-5342
▁turned	-5343
▁twalet	-5344
▁winter	-5345
▁worker	-5346
elandime	-5347
idansyel	-5348
ilingual	-5349
lekonomi	-5350
▁Advance	-5351
▁Politik	-5352
▁Prathna	-5353
▁Whymper	-5354
▁Zeneral	-5355
▁akseler	-5356
▁benefit	-5357
▁bomarse	-5358
▁bulvers	-5359
▁chalenj	-5360
▁concern	-5361
▁danzere	-5362
▁decided	-5363
▁destroy	-5364
▁dominan	-5365
▁etablir	-5366
▁favoriz	-5367
▁konseye	-5368
▁lamonte	-5369
▁lingwis	-5370
▁measure	-5371
▁noticed	-5372
▁parents	-5373
▁patiraz	-5374
▁politis	-5375
▁primary	-5376
▁produce	-5377
▁sertenn	-5378
▁service	-5379
▁studies	-5380
▁surpris	-5381
▁teacher	-5382
▁toulede	-5383
Mauritius	-5384
Sometimes	-5385
junctural	-5386
▁Amerikin	-5387
▁Lostrali	-5388
▁abandone	-5389
▁actually	-5390
▁building	-5391
▁business	-5392
▁capacity	-5393
▁decrease	-5394
▁desizion	-5395
▁interpre	-5396
▁kontiyne	-5397
▁lalimier	-5398
▁lokazyon	-5399
▁particip	-5400
▁persiste	-5401
▁produced	-5402
▁proteste	-5403
▁referans	-5404
▁retablir	-5405
▁sections	-5406
▁teachers	-5407
▁totalite	-5408
▁toutswit	-5409
rastriktir	-5410
▁Langleter	-5411
▁Zanimoism	-5412
▁absoliman	-5413
▁chekpoynt	-5414
▁developed	-5415
▁katastrof	-5416
▁komersyal	-5417
▁konsesyon	-5418
▁mentioned	-5419
▁neighbour	-5420
▁questions	-5421
▁structure	-5422
▁Konvansyon	-5423
▁Revolision	-5424
▁University	-5425
▁conditions	-5426
▁discovered	-5427
▁discussion	-5428
▁individyel	-5429
▁kontribiye	-5430
▁zeneralize	-5431
▁alternative	-5432
▁lindepandans	-5433
▁globalizasyon	-5434
▁revolutionary	-5435
50	-5436
53	-5437
65	-5438
9,	-5439
AP	-5440
ED	-5441
Je	-5442
Mr	-5443
Of	-5444
Ot	-5445
WU	-5446
ha	-5447
iy	-5448
ls	-5449
lu	-5450
my	-5451
oi	-5452
ts	-5453
”?	-5454
.5.	-5455
Kit	-5456
Lab	-5457
Mad	-5458
ada	-5459
bas	-5460
bel	-5461
bon	-5462
eth	-5463
fas	-5464
got	-5465
ibi	-5466
ila	-5467
ips	-5468
kan	-5469
lad	-5470
ois	-5471
ook	-5472
orb	-5473
ove	-5474
ror	-5475
sir	-5476
sky	-5477
tel	-5478
ury	-5479
use	-5480
uvo	-5481
wal	-5482
▁14	-5483
▁17	-5484
▁60	-5485
▁Ek	-5486
▁Gr	-5487
▁PU	-5488
▁Th	-5489
▁ax	-5490
Blok	-5491
Gran	-5492
Just	-5493
Once	-5494
Tref	-5495
ably	-5496
agni	-5497
andi	-5498
anga	-5499
anta	-5500
armi	-5501
atin	-5502
cent	-5503
ctiv	-5504
empt	-5505
fast	-5506
gard	-5507
gran	-5508
iler	-5509
isaz	-5510
ises	-5511
ixed	-5512
izef	-5513
leng	-5514
olid	-5515
otes	-5516
oule	-5517
outi	-5518
pite	-5519
pman	-5520
prem	-5521
redi	-5522
sire	-5523
ving	-5524
work	-5525
yenn	-5526
yete	-5527
▁193	-5528
▁194	-5529
▁But	-5530
▁Cla	-5531
▁Des	-5532
▁Gos	-5533
▁IRA	-5534
▁Kar	-5535
▁Lor	-5536
▁MLF	-5537
▁Per	-5538
▁Rag	-5539
▁Rel	-5540
▁THE	-5541
▁UGC	-5542
▁age	-5543
▁ami	-5544
▁cal	-5545
▁dat	-5546
▁dol	-5547
▁ens	-5548
▁eye	-5549
▁fro	-5550
▁ful	-5551
▁jus	-5552
▁law	-5553
▁lye	-5554
▁neo	-5555
▁obs	-5556
▁onz	-5557
▁opt	-5558
▁pal	-5559
▁sap	-5560
▁sul	-5561
▁ven	-5562
▁wat	-5563
▁waw	-5564
Bizen	-5565
Kapav	-5566
Parey	-5567
Sirtu	-5568
Suvan	-5569
Trans	-5570
Trwaz	-5571
acter	-5572
alawi	-5573
ances	-5574
chard	-5575
cific	-5576
ekter	-5577
emenn	-5578
ening	-5579
esyon	-5580
etman	-5581
fabet	-5582
ggles	-5583
illed	-5584
illes	-5585
imero	-5586
istre	-5587
mezir	-5588
milye	-5589
otsky	-5590
ousma	-5591
payni	-5592
ultan	-5593
urity	-5594
wayaz	-5595
▁1990	-5596
▁2004	-5597
▁Blok	-5598
▁Food	-5599
▁Four	-5600
▁Gaza	-5601
▁Hero	-5602
▁Imin	-5603
▁Moiz	-5604
▁Rama	-5605
▁Repu	-5606
▁Revi	-5607
▁Tech	-5608
▁What	-5609
▁alye	-5610
▁aran	-5611
▁beds	-5612
▁beer	-5613
▁bord	-5614
▁cher	-5615
▁city	-5616
▁coun	-5617
▁crop	-5618
▁defe	-5619
▁dekl	-5620
▁delo	-5621
▁demi	-5622
▁didn	-5623
▁dime	-5624
▁effe	-5625
▁fant	-5626
▁fool	-5627
▁heav	-5628
▁hind	-5629
▁hope	-5630
▁imag	-5631
▁linz	-5632
▁lose	-5633
▁love	-5634
▁lwin	-5635
▁mach	-5636
▁meal	-5637
▁mete	-5638
▁mous	-5639
▁near	-5640
▁nine	-5641
▁park	-5642
▁pell	-5643
▁pile	-5644
▁pool	-5645
▁priz	-5646
▁pwin	-5647
▁rich	-5648
▁rock	-5649
▁roul	-5650
▁rupe	-5651
▁sapo	-5652
▁seat	-5653
▁stal	-5654
▁stir	-5655
▁surs	-5656
▁swen	-5657
▁taxi	-5658
▁tire	-5659
▁town	-5660
▁type	-5661
▁warm	-5662
▁whis	-5663
▁whom	-5664
▁wife	-5665
▁word	-5666
▁zone	-5667
Kankre	-5668
Premie	-5669
Selman	-5670
ademic	-5671
arante	-5672
eksion	-5673
idaman	-5674
inning	-5675
ipsyon	-5676
isions	-5677
nology	-5678
tasyon	-5679
tering	-5680
teryer	-5681
ulsion	-5682
yanger	-5683
▁2011,	-5684
▁Afgan	-5685
▁Avril	-5686
▁Batay	-5687
▁Class	-5688
▁Duval	-5689
▁Nomin	-5690
▁Power	-5691
▁Trans	-5692
▁alone	-5693
▁analy	-5694
▁asire	-5695
▁attra	-5696
▁azute	-5697
▁banan	-5698
▁basen	-5699
▁blood	-5700
▁books	-5701
▁decla	-5702
▁deviz	-5703
▁dizef	-5704
▁doesn	-5705
▁ekute	-5706
▁exact	-5707
▁filoz	-5708
▁hoofs	-5709
▁kanar	-5710
▁komie	-5711
▁kraze	-5712
▁kuraz	-5713
▁lapel	-5714
▁lapli	-5715
▁laugh	-5716
▁lazwa	-5717
▁leres	-5718
▁manip	-5719
▁mazer	-5720
▁mirak	-5721
▁moris	-5722
▁mouse	-5723
▁named	-5724
▁parad	-5725
▁patri	-5726
▁permi	-5727
▁piece	-5728
▁plore	-5729
▁posed	-5730
▁recom	-5731
▁regil	-5732
▁repla	-5733
▁resan	-5734
▁siper	-5735
▁somey	-5736
▁table	-5737
▁tandi	-5738
▁telef	-5739
▁using	-5740
▁vande	-5741
▁wants	-5742
▁wrong	-5743
Apartir	-5744
Kestyon	-5745
Mariliz	-5746
Tronpet	-5747
erezman	-5748
ghtened	-5749
iversel	-5750
mandman	-5751
ministr	-5752
onsible	-5753
politik	-5754
tyalite	-5755
viously	-5756
▁Altern	-5757
▁Avenue	-5758
▁Depart	-5759
▁Lezlez	-5760
▁Malawi	-5761
▁Mollie	-5762
▁Paloma	-5763
▁Premie	-5764
▁United	-5765
▁Zanvye	-5766
▁anseyn	-5767
▁arrive	-5768
▁corner	-5769
▁deranz	-5770
▁dispar	-5771
▁dominn	-5772
▁eleman	-5773
▁encore	-5774
▁entire	-5775
▁facing	-5776
▁fakter	-5777
▁favour	-5778
▁forgot	-5779
▁formel	-5780
▁hungry	-5781
▁instal	-5782
▁interv	-5783
▁invite	-5784
▁konbat	-5785
▁labier	-5786
▁lalist	-5787
▁lanwit	-5788
▁memwar	-5789
▁notice	-5790
▁orater	-5791
▁perpet	-5792
▁promes	-5793
▁record	-5794
▁renyon	-5795
▁rezerv	-5796
▁rezion	-5797
▁rushed	-5798
▁signal	-5799
▁sirtou	-5800
▁strata	-5801
▁street	-5802
▁strike	-5803
▁tortir	-5804
▁tulede	-5805
▁victor	-5806
Burzwazi	-5807
Kisannla	-5808
burzwazi	-5809
onktirel	-5810
portance	-5811
▁Bretayn	-5812
▁Cowshed	-5813
▁Danfour	-5814
▁Gramsci	-5815
▁Trotsky	-5816
▁actions	-5817
▁attempt	-5818
▁balanse	-5819
▁bankrut	-5820
▁carried	-5821
▁compens	-5822
▁comrade	-5823
▁created	-5824
▁etranze	-5825
▁foreign	-5826
▁increas	-5827
▁kanpman	-5828
▁kareman	-5829
▁medikal	-5830
▁mobiliz	-5831
▁natural	-5832
▁nikleer	-5833
▁nouveau	-5834
▁orchard	-5835
▁perform	-5836
▁presize	-5837
▁prezerv	-5838
▁propose	-5839
▁rakonte	-5840
▁reading	-5841
▁relativ	-5842
▁relizye	-5843
▁various	-5844
▁verifie	-5845
▁writing	-5846
▁zenosid	-5847
radiksyon	-5848
▁Alliance	-5849
▁Konpayni	-5850
▁Republic	-5851
▁akademik	-5852
▁anpandan	-5853
▁bonmarse	-5854
▁chalennj	-5855
▁commencé	-5856
▁direkter	-5857
▁enterese	-5858
▁exchange	-5859
▁expected	-5860
▁karakter	-5861
▁kontrole	-5862
▁koumanse	-5863
▁lamwatye	-5864
▁lasanble	-5865
▁literacy	-5866
▁literesi	-5867
▁moralite	-5868
▁paralize	-5869
▁prepared	-5870
▁pressure	-5871
▁profitab	-5872
▁regleman	-5873
▁spesifik	-5874
▁straight	-5875
▁thinking	-5876
▁zistifye	-5877
▁apropriye	-5878
▁beginning	-5879
▁britalite	-5880
▁character	-5881
▁continued	-5882
▁determinn	-5883
▁electoral	-5884
▁existence	-5885
▁marsandiz	-5886
▁principle	-5887
▁prodikter	-5888
▁propagann	-5889
▁rezistans	-5890
olonizasyon	-5891
▁Convention	-5892
▁Employment	-5893
▁Nomination	-5894
▁Revolisyon	-5895
▁capitalism	-5896
▁completely	-5897
▁developman	-5898
▁diversifye	-5899
▁experience	-5900
▁importance	-5901
▁indepandan	-5902
▁insekirite	-5903
▁lanseynman	-5904
▁obligatwar	-5905
▁performans	-5906
▁proprieter	-5907
▁rezolisyon	-5908
▁Agriculture	-5909
▁capitalists	-5910
▁information	-5911
▁instruction	-5912
▁piblikasyon	-5913
▁propriyeter	-5914
▁spekilasyon	-5915
▁transitional	-5916
▁globalisation	-5917
▁privatization	-5918
,”	-5919
.5	-5920
3.	-5921
30	-5922
9.	-5923
AY	-5924
Am	-5925
Bi	-5926
GO	-5927
IE	-5928
Ne	-5929
Ol	-5930
PO	-5931
SA	-5932
WC	-5933
éd	-5934
’.	-5935
.3.	-5936
.”.	-5937
500	-5938
Abe	-5939
Ben	-5940
Con	-5941
End	-5942
ING	-5943
Our	-5944
Pye	-5945
REE	-5946
Ter	-5947
aff	-5948
arr	-5949
asa	-5950
asc	-5951
awn	-5952
bes	-5953
cle	-5954
ded	-5955
dle	-5956
dom	-5957
eah	-5958
ega	-5959
ema	-5960
eri	-5961
esh	-5962
fam	-5963
iez	-5964
kar	-5965
kur	-5966
low	-5967
mas	-5968
onz	-5969
osi	-5970
oti	-5971
rak	-5972
tes	-5973
tey	-5974
wed	-5975
yar	-5976
ziz	-5977
▁13	-5978
▁Co	-5979
▁Cy	-5980
▁Do	-5981
▁Il	-5982
▁Ob	-5983
▁SM	-5984
▁Sy	-5985
▁Tu	-5986
▁Wh	-5987
▁Wi	-5988
▁cr	-5989
▁je	-5990
▁ju	-5991
▁wr	-5992
.200	-5993
Bato	-5994
Deza	-5995
Here	-5996
Well	-5997
Your	-5998
alay	-5999
anne	-6000
ardo	-6001
ards	-6002
ased	-6003
aspi	-6004
augh	-6005
azir	-6006
bled	-6007
ccup	-6008
cond	-6009
cost	-6010
diom	-6011
duce	-6012
edya	-6013
elix	-6014
ense	-6015
fall	-6016
fold	-6017
gent	-6018
gest	-6019
gged	-6020
ging	-6021
heid	-6022
hood	-6023
ilye	-6024
inel	-6025
inie	-6026
irit	-6027
irme	-6028
kriz	-6029
laim	-6030
line	-6031
many	-6032
orey	-6033
pans	-6034
prop	-6035
rent	-6036
rway	-6037
shir	-6038
sian	-6039
soci	-6040
tegr	-6041
tive	-6042
uela	-6043
unch	-6044
unwa	-6045
wazo	-6046
what	-6047
wide	-6048
yant	-6049
▁(19	-6050
▁AND	-6051
▁Air	-6052
▁CSR	-6053
▁Day	-6054
▁Lap	-6055
▁MIE	-6056
▁Mrs	-6057
▁Sal	-6058
▁Sir	-6059
▁Vas	-6060
▁Zin	-6061
▁avo	-6062
▁bot	-6063
▁col	-6064
▁dam	-6065
▁dus	-6066
▁fay	-6067
▁faz	-6068
▁fif	-6069
▁god	-6070
▁hat	-6071
▁imp	-6072
▁lie	-6073
▁lur	-6074
▁map	-6075
▁mek	-6076
▁nor	-6077
▁pus	-6078
▁seo	-6079
▁vak	-6080
▁zar	-6081
,000,	-6082
Duval	-6083
Exkiz	-6084
First	-6085
Lasal	-6086
Madam	-6087
Today	-6088
Which	-6089
acher	-6090
alkil	-6091
ander	-6092
angaz	-6093
antre	-6094
appoo	-6095
asant	-6096
asons	-6097
eless	-6098
ellig	-6099
erood	-6100
ferle	-6101
ichel	-6102
icism	-6103
iency	-6104
ikenn	-6105
ikter	-6106
iltin	-6107
inier	-6108
ining	-6109
inisy	-6110
ivier	-6111
luzer	-6112
orrow	-6113
osean	-6114
osyon	-6115
ought	-6116
pital	-6117
razil	-6118
redit	-6119
riyem	-6120
sorti	-6121
using	-6122
usted	-6123
utely	-6124
yeman	-6125
zante	-6126
▁2006	-6127
▁2008	-6128
▁Agal	-6129
▁Agre	-6130
▁Apre	-6131
▁Bord	-6132
▁Bush	-6133
▁Jack	-6134
▁Mama	-6135
▁News	-6136
▁Pres	-6137
▁Priv	-6138
▁Tele	-6139
▁This	-6140
▁Trap	-6141
▁Week	-6142
▁York	-6143
▁answ	-6144
▁argu	-6145
▁bwat	-6146
▁cela	-6147
▁cold	-6148
▁dign	-6149
▁easy	-6150
▁elir	-6151
▁evol	-6152
▁fail	-6153
▁fell	-6154
▁fier	-6155
▁firm	-6156
▁flat	-6157
▁fouy	-6158
▁gall	-6159
▁hill	-6160
▁idea	-6161
▁kado	-6162
▁kase	-6163
▁klim	-6164
▁kota	-6165
▁lakw	-6166
▁lenz	-6167
▁lies	-6168
▁line	-6169
▁mais	-6170
▁mark	-6171
▁nous	-6172
▁pain	-6173
▁peyi	-6174
▁plot	-6175
▁prec	-6176
▁pred	-6177
▁prev	-6178
▁puis	-6179
▁quel	-6180
▁ranv	-6181
▁reel	-6182
▁rezo	-6183
▁ribb	-6184
▁sann	-6185
▁senk	-6186
▁sikl	-6187
▁sisp	-6188
▁soul	-6189
▁spok	-6190
▁step	-6191
▁stil	-6192
▁stup	-6193
▁tide	-6194
▁tomb	-6195
▁tree	-6196
▁trin	-6197
▁util	-6198
▁vize	-6199
▁wood	-6200
Dernye	-6201
Dimans	-6202
Freder	-6203
Sakenn	-6204
action	-6205
enosid	-6206
ically	-6207
istwar	-6208
lezour	-6209
oolell	-6210
oretic	-6211
ousand	-6212
ouvman	-6213
palite	-6214
puvwar	-6215
renses	-6216
rwayab	-6217
ulated	-6218
yelman	-6219
▁2001,	-6220
▁2010,	-6221
▁Apart	-6222
▁Board	-6223
▁China	-6224
▁Death	-6225
▁Disik	-6226
▁Feder	-6227
▁Ferme	-6228
▁Human	-6229
▁Kifer	-6230
▁Lerla	-6231
▁Liter	-6232
▁Madag	-6233
▁Mardi	-6234
▁Monty	-6235
▁Moses	-6236
▁Samdi	-6237
▁Trust	-6238
▁Valay	-6239
▁alors	-6240
▁antet	-6241
▁arpan	-6242
▁atase	-6243
▁blese	-6244
▁clean	-6245
▁concl	-6246
▁cruel	-6247
▁dabor	-6248
▁debat	-6249
▁dible	-6250
▁dinam	-6251
▁dress	-6252
▁equal	-6253
▁esanz	-6254
▁event	-6255
▁examp	-6256
▁famil	-6257
▁femme	-6258
▁field	-6259
▁flung	-6260
▁force	-6261
▁gagne	-6262
▁grass	-6263
▁grene	-6264
▁happy	-6265
▁ideas	-6266
▁initi	-6267
▁irzan	-6268
▁jusqu	-6269
▁konze	-6270
▁latak	-6271
▁leurs	-6272
▁lizye	-6273
▁loder	-6274
▁lying	-6275
▁manda	-6276
▁marye	-6277
▁masak	-6278
▁maxim	-6279
▁mersi	-6280
▁milti	-6281
▁moved	-6282
▁needs	-6283
▁omwen	-6284
▁oport	-6285
▁paint	-6286
▁paper	-6287
▁pikan	-6288
▁porte	-6289
▁presi	-6290
▁riban	-6291
▁rupee	-6292
▁sanki	-6293
▁sense	-6294
▁somer	-6295
▁sound	-6296
▁spite	-6297
▁tears	-6298
▁teren	-6299
▁terib	-6300
▁trava	-6301
▁walls	-6302
▁women	-6303
▁zorey	-6304
▁zwazo	-6305
Another	-6306
Certain	-6307
andredi	-6308
aspiyaz	-6309
conomic	-6310
ctively	-6311
endency	-6312
esearch	-6313
ination	-6314
itasyon	-6315
mendous	-6316
ountain	-6317
riminal	-6318
stasyon	-6319
unwaree	-6320
▁50,000	-6321
▁Bappoo	-6322
▁Christ	-6323
▁Father	-6324
▁Indian	-6325
▁Leader	-6326
▁Lekiri	-6327
▁Losean	-6328
▁Mauric	-6329
▁Pierre	-6330
▁Ragini	-6331
▁Sindik	-6332
▁antrav	-6333
▁appear	-6334
▁begins	-6335
▁clever	-6336
▁commit	-6337
▁commun	-6338
▁denons	-6339
▁deziem	-6340
▁double	-6341
▁entend	-6342
▁espere	-6343
▁estate	-6344
▁extrem	-6345
▁family	-6346
▁fatige	-6347
▁fields	-6348
▁heures	-6349
▁indeed	-6350
▁inside	-6351
▁kalkil	-6352
▁kouraz	-6353
▁kouver	-6354
▁labous	-6355
▁lafoul	-6356
▁lagorz	-6357
▁lakrwa	-6358
▁lavant	-6359
▁lesiel	-6360
▁lexame	-6361
▁maison	-6362
▁mantal	-6363
▁mazinn	-6364
▁melanz	-6365
▁mosyon	-6366
▁nearly	-6367
▁obzerv	-6368
▁oprime	-6369
▁plante	-6370
▁podiom	-6371
▁quarry	-6372
▁reazir	-6373
▁reflex	-6374
▁rekrit	-6375
▁report	-6376
▁resurs	-6377
▁reveni	-6378
▁sesyon	-6379
▁sheets	-6380
▁sibsid	-6381
▁sinpat	-6382
▁spirit	-6383
▁strong	-6384
▁turist	-6385
▁unable	-6386
▁vakans	-6387
▁warned	-6388
▁wonder	-6389
▁zarden	-6390
anzantan	-6391
detriman	-6392
rantisaz	-6393
▁Agalega	-6394
▁KaviRam	-6395
▁Service	-6396
▁Telecom	-6397
▁TrapTou	-6398
▁biggest	-6399
▁bombard	-6400
▁changed	-6401
▁changes	-6402
▁clearly	-6403
▁company	-6404
▁deferle	-6405
▁dekrete	-6406
▁delavan	-6407
▁distans	-6408
▁farmers	-6409
▁fermtir	-6410
▁friends	-6411
▁inplike	-6412
▁inporte	-6413
▁integre	-6414
▁intelek	-6415
▁labsans	-6416
▁leaving	-6417
▁lekzanp	-6418
▁letters	-6419
▁montagn	-6420
▁organik	-6421
▁pasture	-6422
▁pedagog	-6423
▁pellets	-6424
▁perfect	-6425
▁perhaps	-6426
▁persist	-6427
▁popiler	-6428
▁prevent	-6429
▁provoke	-6430
▁purswiv	-6431
▁reduced	-6432
▁results	-6433
▁returne	-6434
▁sendika	-6435
▁several	-6436
▁spesyal	-6437
▁stasyon	-6438
▁sufrans	-6439
▁termine	-6440
▁terminn	-6441
▁victory	-6442
▁walking	-6443
alization	-6444
inisyativ	-6445
uneration	-6446
▁Language	-6447
▁Lekonomi	-6448
▁Pakistan	-6449
▁Valayden	-6450
▁academic	-6451
▁acquired	-6452
▁aranzman	-6453
▁believed	-6454
▁constant	-6455
▁declared	-6456
▁distance	-6457
▁drinking	-6458
▁enormous	-6459
▁esansyel	-6460
▁etranzer	-6461
▁fasilman	-6462
▁included	-6463
▁inferyer	-6464
▁intellig	-6465
▁kiltirel	-6466
▁komanter	-6467
▁konfyans	-6468
▁lasemenn	-6469
▁lasirans	-6470
▁lazourne	-6471
▁politics	-6472
▁practice	-6473
▁projects	-6474
▁resanble	-6475
▁revandik	-6476
▁students	-6477
▁supposed	-6478
▁tantativ	-6479
▁teaching	-6480
▁textiles	-6481
▁whatever	-6482
▁windfall	-6483
kapitalist	-6484
▁Agreement	-6485
▁Animalism	-6486
▁Relations	-6487
▁Triyanger	-6488
▁Venezuela	-6489
▁administr	-6490
▁attention	-6491
▁beautiful	-6492
▁breakfast	-6493
▁bungalows	-6494
▁conscious	-6495
▁creatures	-6496
▁criticism	-6497
▁decisions	-6498
▁depandans	-6499
▁elections	-6500
▁encourage	-6501
▁expulsion	-6502
▁factories	-6503
▁finansman	-6504
▁iniversel	-6505
▁koripsyon	-6506
▁lakwizinn	-6507
▁laviktwar	-6508
▁pedagozik	-6509
▁profesion	-6510
▁promuvwar	-6511
▁propriete	-6512
▁reduction	-6513
▁sitiasion	-6514
▁struggles	-6515
▁Afganistan	-6516
▁bulversman	-6517
▁definisyon	-6518
▁distribiye	-6519
▁dominasyon	-6520
▁frightened	-6521
▁industries	-6522
▁introduced	-6523
▁investment	-6524
▁kominalism	-6525
▁koumansman	-6526
▁leadership	-6527
▁ledikasion	-6528
▁lekzistans	-6529
▁liberasyon	-6530
▁politikman	-6531
▁proteksyon	-6532
▁reprezante	-6533
▁transition	-6534
▁tremendous	-6535
okratizasyon	-6536
▁Association	-6537
▁competition	-6538
▁institution	-6539
▁itilizasyon	-6540
▁kredibilite	-6541
▁nasyonalist	-6542
▁preparasyon	-6543
▁recognition	-6544
▁responsible	-6545
▁rezidansyel	-6546
▁speculation	-6547
▁tradisyonel	-6548
▁tranzaksyon	-6549
▁depreciation	-6550
▁kontestasyon	-6551
▁konzonktirel	-6552
▁organization	-6553
▁participants	-6554
▁preferential	-6555
▁sinifikasyon	-6556
▁infrastriktir	-6557
▁kontradiksyon	-6558
▁organizations	-6559
!"	-6560
):	-6561
AK	-6562
Ag	-6563
EA	-6564
EC	-6565
EL	-6566
GM	-6567
HD	-6568
ID	-6569
IM	-6570
MA	-6571
RC	-6572
ja	-6573
jo	-6574
ks	-6575
oe	-6576
td	-6577
té	-6578
yu	-6579
ét	-6580
’,	-6581
▁’	-6582
.4.	-6583
100	-6584
200	-6585
ALP	-6586
Abs	-6587
Abu	-6588
ERN	-6589
Fer	-6590
Hmm	-6591
IOT	-6592
Isi	-6593
Lak	-6594
Lep	-6595
Mir	-6596
ONS	-6597
Osi	-6598
Pet	-6599
Rem	-6600
Res	-6601
SIF	-6602
SPA	-6603
Sel	-6604
UST	-6605
Une	-6606
ali	-6607
ams	-6608
ata	-6609
aux	-6610
bai	-6611
bou	-6612
cid	-6613
ckl	-6614
dec	-6615
edi	-6616
erc	-6617
fat	-6618
fis	-6619
kad	-6620
key	-6621
lin	-6622
liz	-6623
lor	-6624
ofi	-6625
ony	-6626
oon	-6627
ots	-6628
plo	-6629
pon	-6630
rie	-6631
rrr	-6632
sil	-6633
tak	-6634
tar	-6635
ton	-6636
udd	-6637
uff	-6638
uly	-6639
vez	-6640
yab	-6641
zes	-6642
zis	-6643
▁",	-6644
▁..	-6645
▁2.	-6646
▁50	-6647
▁61	-6648
▁70	-6649
▁AM	-6650
▁Ac	-6651
▁EN	-6652
▁Et	-6653
▁Ha	-6654
▁Mi	-6655
▁Ol	-6656
▁Sk	-6657
▁fr	-6658
▁mé	-6659
Bonn	-6660
Byen	-6661
From	-6662
Manb	-6663
Many	-6664
Moli	-6665
Otur	-6666
adoo	-6667
aged	-6668
ague	-6669
alep	-6670
ancy	-6671
apua	-6672
arda	-6673
asse	-6674
aton	-6675
band	-6676
beeg	-6677
cker	-6678
devi	-6679
ding	-6680
dtan	-6681
enty	-6682
eran	-6683
esel	-6684
gies	-6685
gliz	-6686
gner	-6687
hert	-6688
igne	-6689
ilip	-6690
ilte	-6691
inaz	-6692
inea	-6693
isna	-6694
ists	-6695
lera	-6696
mail	-6697
okol	-6698
omon	-6699
onan	-6700
plom	-6701
post	-6702
ques	-6703
rese	-6704
roit	-6705
ruye	-6706
seum	-6707
taym	-6708
▁50%	-6709
▁AGR	-6710
▁Ara	-6711
▁Bel	-6712
▁Bir	-6713
▁Bon	-6714
▁CWA	-6715
▁DAN	-6716
▁Dez	-6717
▁Est	-6718
▁Get	-6719
▁God	-6720
▁Gre	-6721
▁Ist	-6722
▁Jer	-6723
▁Lem	-6724
▁Let	-6725
▁Lev	-6726
▁Ltd	-6727
▁MCB	-6728
▁Mem	-6729
▁Mer	-6730
▁Moz	-6731
▁Mum	-6732
▁Ory	-6733
▁PRO	-6734
▁Pas	-6735
▁Pla	-6736
▁Ref	-6737
▁Rol	-6738
▁Roz	-6739
▁SMF	-6740
▁Sch	-6741
▁Ser	-6742
▁Tax	-6743
▁dri	-6744
▁dut	-6745
▁ero	-6746
▁ess	-6747
▁fey	-6748
▁fid	-6749
▁fly	-6750
▁fol	-6751
▁hos	-6752
▁kaz	-6753
▁low	-6754
▁ous	-6755
▁pez	-6756
▁pop	-6757
▁pov	-6758
▁pré	-6759
▁pwa	-6760
▁rit	-6761
▁rob	-6762
▁sez	-6763
▁tab	-6764
▁vis	-6765
▁yes	-6766
▁zak	-6767
▁zer	-6768
About	-6769
Antre	-6770
Bonom	-6771
Dabor	-6772
Laugh	-6773
Manif	-6774
Nepli	-6775
Never	-6776
Rapor	-6777
Since	-6778
Vwala	-6779
Zegwi	-6780
adays	-6781
ademi	-6782
adire	-6783
annri	-6784
antif	-6785
antye	-6786
astik	-6787
atory	-6788
bsayt	-6789
cribe	-6790
divan	-6791
elled	-6792
epend	-6793
extil	-6794
forme	-6795
ility	-6796
iminn	-6797
imoun	-6798
istes	-6799
ledge	-6800
moris	-6801
nolog	-6802
olinn	-6803
ortab	-6804
osion	-6805
oston	-6806
parti	-6807
print	-6808
range	-6809
ratik	-6810
reman	-6811
reyer	-6812
rezil	-6813
ribed	-6814
risis	-6815
shert	-6816
stead	-6817
tific	-6818
ulman	-6819
▁1976	-6820
▁1983	-6821
▁Bibi	-6822
▁Eyol	-6823
▁Here	-6824
▁Meet	-6825
▁Mond	-6826
▁Prot	-6827
▁They	-6828
▁Wall	-6829
▁akim	-6830
▁akon	-6831
▁alaf	-6832
▁ater	-6833
▁azan	-6834
▁bill	-6835
▁boul	-6836
▁coll	-6837
▁died	-6838
▁diri	-6839
▁dite	-6840
▁docu	-6841
▁dout	-6842
▁douz	-6843
▁earn	-6844
▁ears	-6845
▁eggs	-6846
▁ekut	-6847
▁eman	-6848
▁eval	-6849
▁fann	-6850
▁fine	-6851
▁fler	-6852
▁glis	-6853
▁golf	-6854
▁harn	-6855
▁impl	-6856
▁kafe	-6857
▁kour	-6858
▁kris	-6859
▁laid	-6860
▁laws	-6861
▁luck	-6862
▁ment	-6863
▁mize	-6864
▁mort	-6865
▁olie	-6866
▁olye	-6867
▁otor	-6868
▁pann	-6869
▁para	-6870
▁peut	-6871
▁pyez	-6872
▁rame	-6873
▁roof	-6874
▁sack	-6875
▁sand	-6876
▁sete	-6877
▁shar	-6878
▁shut	-6879
▁soil	-6880
▁stor	-6881
▁tast	-6882
▁toil	-6883
▁tonn	-6884
▁trot	-6885
▁vole	-6886
▁vwaz	-6887
Clover	-6888
Demand	-6889
VERSIF	-6890
abitid	-6891
adizan	-6892
ambous	-6893
annick	-6894
antage	-6895
azeste	-6896
elling	-6897
erativ	-6898
estion	-6899
etatik	-6900
igneur	-6901
iksion	-6902
ildren	-6903
itable	-6904
okrasi	-6905
olling	-6906
opiler	-6907
ounced	-6908
ouvraz	-6909
redite	-6910
riving	-6911
verser	-6912
yanism	-6913
▁3,000	-6914
▁Brans	-6915
▁Desam	-6916
▁Komie	-6917
▁Later	-6918
▁Liber	-6919
▁Marda	-6920
▁Mersi	-6921
▁Miami	-6922
▁Moham	-6923
▁Obeeg	-6924
▁Paper	-6925
▁Pride	-6926
▁Rapor	-6927
▁Sesel	-6928
▁Sever	-6929
▁Stand	-6930
▁Willi	-6931
▁Zordi	-6932
▁activ	-6933
▁aller	-6934
▁alter	-6935
▁apenn	-6936
▁artis	-6937
▁aside	-6938
▁assem	-6939
▁assum	-6940
▁bazar	-6941
▁board	-6942
▁bound	-6943
▁briye	-6944
▁cloth	-6945
▁conse	-6946
▁danse	-6947
▁defen	-6948
▁dekor	-6949
▁delok	-6950
▁dipin	-6951
▁ended	-6952
▁exerc	-6953
▁fardo	-6954
▁farms	-6955
▁fayit	-6956
▁hedge	-6957
▁inkli	-6958
▁kasir	-6959
▁kateg	-6960
▁kokin	-6961
▁koler	-6962
▁konba	-6963
▁lafis	-6964
▁larez	-6965
▁lavan	-6966
▁least	-6967
▁ledan	-6968
▁linst	-6969
▁litiz	-6970
▁local	-6971
▁manke	-6972
▁merit	-6973
▁milit	-6974
▁minim	-6975
▁model	-6976
▁moral	-6977
▁médec	-6978
▁names	-6979
▁nuvel	-6980
▁ouswa	-6981
▁paral	-6982
▁partn	-6983
▁petet	-6984
▁petit	-6985
▁polic	-6986
▁quand	-6987
▁rekil	-6988
▁relas	-6989
▁relig	-6990
▁repar	-6991
▁resid	-6992
▁reyne	-6993
▁reyni	-6994
▁salte	-6995
▁sazes	-6996
▁seeds	-6997
▁seven	-6998
▁sikse	-6999
▁sinon	-7000
▁slept	-7001
▁speed	-7002
▁spoke	-7003
▁stret	-7004
▁thank	-7005
▁third	-7006
▁throw	-7007
▁tired	-7008
▁title	-7009
▁toute	-7010
▁trant	-7011
▁trase	-7012
▁treat	-7013
▁trenn	-7014
▁tried	-7015
▁verze	-7016
▁visit	-7017
▁vivan	-7018
▁vizib	-7019
▁weeks	-7020
▁whose	-7021
▁worth	-7022
▁write	-7023
▁zouti	-7024
Atraver	-7025
However	-7026
IKASYON	-7027
Labsans	-7028
Without	-7029
abilite	-7030
amental	-7031
chester	-7032
ference	-7033
isteman	-7034
itoryal	-7035
klizyon	-7036
lingual	-7037
ordiner	-7038
paynman	-7039
ruction	-7040
uddenly	-7041
ustrial	-7042
▁Action	-7043
▁Boston	-7044
▁Corpor	-7045
▁Edward	-7046
▁Guinea	-7047
▁Integr	-7048
▁Konsey	-7049
▁Linyon	-7050
▁Miryel	-7051
▁Mumbai	-7052
▁Muriel	-7053
▁Siprem	-7054
▁Thanks	-7055
▁absorb	-7056
▁adrese	-7057
▁aftern	-7058
▁answit	-7059
▁antour	-7060
▁anyway	-7061
▁battle	-7062
▁became	-7063
▁biltin	-7064
▁blesir	-7065
▁boykot	-7066
▁credit	-7067
▁dekole	-7068
▁dekret	-7069
▁delege	-7070
▁delwil	-7071
▁demant	-7072
▁design	-7073
▁dezesp	-7074
▁dinite	-7075
▁easily	-7076
▁expann	-7077
▁expect	-7078
▁father	-7079
▁fonsye	-7080
▁galoup	-7081
▁gramer	-7082
▁grinse	-7083
▁groups	-7084
▁health	-7085
▁hedges	-7086
▁hiding	-7087
▁issues	-7088
▁jardin	-7089
▁kanmem	-7090
▁killed	-7091
▁kolaps	-7092
▁konfor	-7093
▁konser	-7094
▁kuyonn	-7095
▁ladire	-7096
▁lafime	-7097
▁learnt	-7098
▁linfli	-7099
▁listen	-7100
▁maryaz	-7101
▁master	-7102
▁middle	-7103
▁museum	-7104
▁nature	-7105
▁needed	-7106
▁ofisye	-7107
▁omilye	-7108
▁ondire	-7109
▁peniri	-7110
▁petite	-7111
▁placed	-7112
▁places	-7113
▁plizum	-7114
▁proper	-7115
▁prosen	-7116
▁rasion	-7117
▁refize	-7118
▁reklam	-7119
▁revini	-7120
▁segonn	-7121
▁served	-7122
▁sirman	-7123
▁spoken	-7124
▁sprang	-7125
▁taktik	-7126
▁thirty	-7127
▁tilera	-7128
▁tousel	-7129
▁trying	-7130
▁turism	-7131
▁veikil	-7132
▁vyeyes	-7133
▁vyolan	-7134
Antretan	-7135
Comrades	-7136
Everyone	-7137
Jugnauth	-7138
Laughter	-7139
Okontrer	-7140
Tendency	-7141
Travayis	-7142
ektivman	-7143
yenasyon	-7144
▁Boolell	-7145
▁Farming	-7146
▁Finance	-7147
▁Istorik	-7148
▁Kominis	-7149
▁Marxist	-7150
▁Montagn	-7151
▁Tantinn	-7152
▁Workers	-7153
▁address	-7154
▁alfabet	-7155
▁analize	-7156
▁ankoler	-7157
▁becomes	-7158
▁command	-7159
▁content	-7160
▁context	-7161
▁counter	-7162
▁crucial	-7163
▁debates	-7164
▁debruye	-7165
▁decreas	-7166
▁deklans	-7167
▁demonst	-7168
▁despite	-7169
▁drastic	-7170
▁dropped	-7171
▁effects	-7172
▁ekolozi	-7173
▁exactly	-7174
▁expilse	-7175
▁ezemoni	-7176
▁feeling	-7177
▁getting	-7178
▁gravite	-7179
▁harness	-7180
▁inposib	-7181
▁konfese	-7182
▁konfirm	-7183
▁konport	-7184
▁konstan	-7185
▁krinier	-7186
▁lafamiy	-7187
▁leaders	-7188
▁minimem	-7189
▁moments	-7190
▁opening	-7191
▁ordered	-7192
▁ordiner	-7193
▁organic	-7194
▁parlman	-7195
▁periods	-7196
▁pozitif	-7197
▁pwisans	-7198
▁reached	-7199
▁reasons	-7200
▁ribbons	-7201
▁santenn	-7202
▁savedir	-7203
▁silence	-7204
▁similer	-7205
▁student	-7206
▁tutswit	-7207
▁univers	-7208
▁waiting	-7209
▁wearing	-7210
▁weather	-7211
Certainly	-7212
formasion	-7213
ifikasyon	-7214
linteryer	-7215
stitution	-7216
vironment	-7217
▁Aneerood	-7218
▁Bunwaree	-7219
▁DIVERSIF	-7220
▁Eyolyenn	-7221
▁Medpoint	-7222
▁Research	-7223
▁Vandredi	-7224
▁accepted	-7225
▁amandman	-7226
▁antretan	-7227
▁attended	-7228
▁bisiklet	-7229
▁bleating	-7230
▁colonial	-7231
▁directly	-7232
▁evidaman	-7233
▁guarante	-7234
▁hospital	-7235
▁idantite	-7236
▁involved	-7237
▁konpagni	-7238
▁lafreyer	-7239
▁laparans	-7240
▁lekritir	-7241
▁lotorite	-7242
▁mansyone	-7243
▁mansyonn	-7244
▁meetings	-7245
▁mornings	-7246
▁occasion	-7247
▁overtaym	-7248
▁personal	-7249
▁petisyon	-7250
▁polisyon	-7251
▁prezante	-7252
▁proposes	-7253
▁remained	-7254
▁remarkab	-7255
▁resortir	-7256
▁sendikal	-7257
▁serviter	-7258
▁sitwayen	-7259
▁somebody	-7260
▁somewhat	-7261
▁specific	-7262
▁telefonn	-7263
▁thousand	-7264
▁tomorrow	-7265
▁totalman	-7266
▁traverse	-7267
Government	-7268
Premyerman	-7269
gmantasyon	-7270
▁Authority	-7271
▁Christmas	-7272
▁Institute	-7273
▁Mauricien	-7274
▁Minisipal	-7275
▁Obeegadoo	-7276
▁Rezistans	-7277
▁Rodrigues	-7278
▁aktyelman	-7279
▁anzeneral	-7280
▁completed	-7281
▁confessed	-7282
▁destroyed	-7283
▁enpresion	-7284
▁establish	-7285
▁fonksyone	-7286
▁including	-7287
▁landetman	-7288
▁langazman	-7289
▁laranzman	-7290
▁movements	-7291
▁odetriman	-7292
▁piblikman	-7293
▁privatize	-7294
▁schooling	-7295
▁sikolozik	-7296
▁tanzantan	-7297
▁theoretic	-7298
riktirasyon	-7299
▁Alternativ	-7300
▁Integrated	-7301
▁Manchester	-7302
▁alternatif	-7303
▁appearance	-7304
▁aprantisaz	-7305
▁arestasyon	-7306
▁concession	-7307
▁diskredite	-7308
▁everywhere	-7309
▁expression	-7310
▁kominalist	-7311
▁linisyativ	-7312
▁politisyen	-7313
▁remembered	-7314
▁reparasyon	-7315
▁repression	-7316
▁retirement	-7317
▁separation	-7318
▁sinpatizan	-7319
▁understood	-7320
▁zenerasyon	-7321
▁Corporation	-7322
▁Minispalite	-7323
▁devalyasyon	-7324
▁disappeared	-7325
▁intelektyel	-7326
▁ladireksyon	-7327
▁tranzaksion	-7328
▁Remuneration	-7329
▁conjunctural	-7330
▁introduction	-7331
▁kontribisyon	-7332
▁dekolonizasyon	-7333
-5	-7334
-7	-7335
.'	-7336
0’	-7337
10	-7338
12	-7339
5,	-7340
9%	-7341
BC	-7342
EF	-7343
EK	-7344
ET	-7345
Em	-7346
Et	-7347
FC	-7348
FT	-7349
II	-7350
Po	-7351
SC	-7352
ca	-7353
eh	-7354
hu	-7355
mo	-7356
wo	-7357
zz	-7358
én	-7359
”)	-7360
”;	-7361
▁i	-7362
-15	-7363
.30	-7364
32.	-7365
70,	-7366
ARM	-7367
ASI	-7368
Acc	-7369
Any	-7370
Dem	-7371
Det	-7372
Don	-7373
ECO	-7374
Fam	-7375
ILU	-7376
IST	-7377
Its	-7378
Lam	-7379
Len	-7380
Met	-7381
Tut	-7382
abb	-7383
acc	-7384
ado	-7385
ago	-7386
aud	-7387
aye	-7388
bed	-7389
bet	-7390
bik	-7391
bly	-7392
bor	-7393
cap	-7394
cun	-7395
dif	-7396
emn	-7397
emp	-7398
erp	-7399
fle	-7400
gas	-7401
gro	-7402
han	-7403
hoa	-7404
ied	-7405
iew	-7406
ird	-7407
isy	-7408
joy	-7409
lac	-7410
ley	-7411
lib	-7412
lik	-7413
lip	-7414
lob	-7415
okh	-7416
ope	-7417
paw	-7418
pip	-7419
rar	-7420
rem	-7421
rid	-7422
saw	-7423
ser	-7424
son	-7425
spe	-7426
tin	-7427
tro	-7428
uck	-7429
uel	-7430
uls	-7431
utn	-7432
wif	-7433
yna	-7434
ysi	-7435
ène	-7436
”).	-7437
▁(“	-7438
▁1,	-7439
▁2,	-7440
▁22	-7441
▁26	-7442
▁40	-7443
▁43	-7444
▁44	-7445
▁79	-7446
▁AK	-7447
▁Ak	-7448
▁BA	-7449
▁BI	-7450
▁Ba	-7451
▁EK	-7452
▁Ef	-7453
▁Ex	-7454
▁Ga	-7455
▁Lw	-7456
▁MO	-7457
▁TV	-7458
▁dy	-7459
▁ho	-7460
▁oe	-7461
▁ul	-7462
▁zi	-7463
).19	-7464
.192	-7465
.197	-7466
Antu	-7467
EMAN	-7468
Fran	-7469
Laba	-7470
Look	-7471
Make	-7472
Miaw	-7473
Paul	-7474
Sann	-7475
Timi	-7476
adel	-7477
aire	-7478
airs	-7479
alou	-7480
amen	-7481
anim	-7482
apab	-7483
aret	-7484
arna	-7485
asan	-7486
ases	-7487
ator	-7488
avez	-7489
bann	-7490
cean	-7491
chen	-7492
come	-7493
ctic	-7494
emik	-7495
enab	-7496
enns	-7497
enou	-7498
epte	-7499
esto	-7500
eyir	-7501
fair	-7502
fami	-7503
hone	-7504
ifle	-7505
indy	-7506
irah	-7507
itil	-7508
itim	-7509
itiv	-7510
itye	-7511
kare	-7512
know	-7513
koni	-7514
kter	-7515
lait	-7516
leep	-7517
leve	-7518
like	-7519
mayn	-7520
ocra	-7521
onik	-7522
otur	-7523
pect	-7524
pler	-7525
pond	-7526
ponn	-7527
rary	-7528
rect	-7529
rint	-7530
rose	-7531
rupe	-7532
segn	-7533
serv	-7534
sinn	-7535
sych	-7536
syin	-7537
tain	-7538
teur	-7539
thus	-7540
tify	-7541
tudi	-7542
uted	-7543
venn	-7544
vinn	-7545
voir	-7546
winn	-7547
wise	-7548
zene	-7549
▁104	-7550
▁195	-7551
▁20%	-7552
▁Cal	-7553
▁Che	-7554
▁DWC	-7555
▁ICT	-7556
▁IND	-7557
▁Inn	-7558
▁Kab	-7559
▁Kir	-7560
▁Kou	-7561
▁Lel	-7562
▁Lir	-7563
▁May	-7564
▁Mov	-7565
▁Méd	-7566
▁Non	-7567
▁Nor	-7568
▁Oct	-7569
▁One	-7570
▁Ost	-7571
▁PTr	-7572
▁Ris	-7573
▁Rog	-7574
▁SLO	-7575
▁Ste	-7576
▁TEC	-7577
▁UTM	-7578
▁Vil	-7579
▁War	-7580
▁Yes	-7581
▁Zap	-7582
▁app	-7583
▁aux	-7584
▁axe	-7585
▁cir	-7586
▁cur	-7587
▁dak	-7588
▁ded	-7589
▁diz	-7590
▁epe	-7591
▁ere	-7592
▁fan	-7593
▁fir	-7594
▁fle	-7595
▁fun	-7596
▁gir	-7597
▁gru	-7598
▁hon	-7599
▁hun	-7600
▁hur	-7601
▁ign	-7602
▁ire	-7603
▁jou	-7604
▁kab	-7605
▁lel	-7606
▁lid	-7607
▁lon	-7608
▁mam	-7609
▁mou	-7610
▁mud	-7611
▁mur	-7612
▁oto	-7613
▁peu	-7614
▁rik	-7615
▁sof	-7616
▁sym	-7617
▁tal	-7618
▁vey	-7619
▁vir	-7620
▁war	-7621
▁wel	-7622
▁win	-7623
Could	-7624
Estra	-7625
Great	-7626
Jones	-7627
Lapli	-7628
Larme	-7629
Lefet	-7630
Onivo	-7631
Parfe	-7632
Parmi	-7633
Petet	-7634
Tandi	-7635
Three	-7636
ademy	-7637
afrik	-7638
alepa	-7639
apers	-7640
arinn	-7641
arsik	-7642
artir	-7643
ascar	-7644
ashed	-7645
aster	-7646
ature	-7647
autre	-7648
ccupy	-7649
ching	-7650
cting	-7651
endav	-7652
enewa	-7653
engne	-7654
ersis	-7655
erson	-7656
estik	-7657
eziem	-7658
iblik	-7659
icate	-7660
icted	-7661
idian	-7662
ilans	-7663
ilter	-7664
inary	-7665
inion	-7666
istra	-7667
itate	-7668
known	-7669
kredi	-7670
labor	-7671
lamem	-7672
laugh	-7673
level	-7674
ocrat	-7675
oking	-7676
ondye	-7677
order	-7678
oresp	-7679
ouses	-7680
outik	-7681
rance	-7682
randi	-7683
renaz	-7684
reter	-7685
right	-7686
sawmy	-7687
tancy	-7688
uding	-7689
usion	-7690
uvent	-7691
vious	-7692
wazon	-7693
wenns	-7694
yaliz	-7695
èrent	-7696
▁1982	-7697
▁1997	-7698
▁Alex	-7699
▁Angi	-7700
▁Anti	-7701
▁Bang	-7702
▁CTSP	-7703
▁Depi	-7704
▁Devi	-7705
▁Eric	-7706
▁FARM	-7707
▁Fler	-7708
▁Gokh	-7709
▁Hare	-7710
▁Jesi	-7711
▁Kiba	-7712
▁King	-7713
▁Kong	-7714
▁Kont	-7715
▁Land	-7716
▁MSPA	-7717
▁Main	-7718
▁Papa	-7719
▁Père	-7720
▁RIOT	-7721
▁SILU	-7722
▁Sann	-7723
▁Seki	-7724
▁Tort	-7725
▁Tove	-7726
▁Unit	-7727
▁West	-7728
▁Yosi	-7729
▁Zedi	-7730
▁akiz	-7731
▁anim	-7732
▁arme	-7733
▁bags	-7734
▁bear	-7735
▁bran	-7736
▁bril	-7737
▁buck	-7738
▁bush	-7739
▁card	-7740
▁cash	-7741
▁cast	-7742
▁ceux	-7743
▁cogn	-7744
▁crow	-7745
▁dark	-7746
▁dere	-7747
▁dikt	-7748
▁donk	-7749
▁draw	-7750
▁edik	-7751
▁elle	-7752
▁ener	-7753
▁exek	-7754
▁fair	-7755
▁feed	-7756
▁fort	-7757
▁frak	-7758
▁gato	-7759
▁grad	-7760
▁held	-7761
▁hero	-7762
▁hers	-7763
▁iden	-7764
▁imig	-7765
▁inch	-7766
▁inev	-7767
▁izol	-7768
▁kids	-7769
▁korn	-7770
▁lars	-7771
▁lobi	-7772
▁mans	-7773
▁mare	-7774
▁miaw	-7775
▁midi	-7776
▁mise	-7777
▁nene	-7778
▁obje	-7779
▁ofet	-7780
▁paid	-7781
▁parc	-7782
▁peiz	-7783
▁perm	-7784
▁peur	-7785
▁pion	-7786
▁piti	-7787
▁pomd	-7788
▁poto	-7789
▁près	-7790
▁publ	-7791
▁race	-7792
▁repe	-7793
▁retr	-7794
▁rode	-7795
▁safe	-7796
▁sale	-7797
▁shot	-7798
▁siez	-7799
▁spar	-7800
▁stay	-7801
▁stok	-7802
▁stre	-7803
▁sugg	-7804
▁syek	-7805
▁tale	-7806
▁thro	-7807
▁tool	-7808
▁vont	-7809
▁wild	-7810
Aksyon	-7811
Dimoun	-7812
During	-7813
Estrac	-7814
Kangas	-7815
Kitfwa	-7816
Lapres	-7817
Lontan	-7818
Miryel	-7819
Mollie	-7820
Muriel	-7821
Normal	-7822
Sirman	-7823
alsing	-7824
anplas	-7825
barred	-7826
cation	-7827
cribed	-7828
ducing	-7829
eously	-7830
global	-7831
ilding	-7832
inding	-7833
itical	-7834
ocracy	-7835
orsyon	-7836
osyete	-7837
parski	-7838
pleman	-7839
presye	-7840
prises	-7841
ptions	-7842
ranzer	-7843
selman	-7844
servis	-7845
terman	-7846
though	-7847
tivite	-7848
utnabb	-7849
▁10:00	-7850
▁1976,	-7851
▁2,000	-7852
▁2005,	-7853
▁2007,	-7854
▁Bizen	-7855
▁Civil	-7856
▁Deerp	-7857
▁First	-7858
▁Ganga	-7859
▁Kisna	-7860
▁Manor	-7861
▁Meeah	-7862
▁Miray	-7863
▁Mixed	-7864
▁Obama	-7865
▁Paris	-7866
▁There	-7867
▁Virah	-7868
▁Zafer	-7869
▁Zambi	-7870
▁Zurne	-7871
▁above	-7872
▁accum	-7873
▁accur	-7874
▁achie	-7875
▁added	-7876
▁admet	-7877
▁admit	-7878
▁adres	-7879
▁agrav	-7880
▁aliyn	-7881
▁amare	-7882
▁anter	-7883
▁anver	-7884
▁aplik	-7885
▁aprof	-7886
▁attit	-7887
▁bagas	-7888
▁bebet	-7889
▁begun	-7890
▁bilan	-7891
▁bloke	-7892
▁bould	-7893
▁bouse	-7894
▁bouze	-7895
▁brile	-7896
▁burst	-7897
▁canne	-7898
▁carry	-7899
▁cette	-7900
▁cheek	-7901
▁cheke	-7902
▁chose	-7903
▁condu	-7904
▁conne	-7905
▁decor	-7906
▁degre	-7907
▁deleg	-7908
▁devan	-7909
▁disud	-7910
▁divor	-7911
▁doubt	-7912
▁dozen	-7913
▁elect	-7914
▁ennde	-7915
▁entel	-7916
▁eroik	-7917
▁exhib	-7918
▁expen	-7919
▁facil	-7920
▁faver	-7921
▁feros	-7922
▁fizik	-7923
▁floor	-7924
▁flote	-7925
▁forms	-7926
▁forth	-7927
▁godon	-7928
▁grown	-7929
▁heure	-7930
▁horse	-7931
▁kanta	-7932
▁kilom	-7933
▁knoll	-7934
▁kreol	-7935
▁kuler	-7936
▁labaz	-7937
▁lagon	-7938
▁lavey	-7939
▁letap	-7940
▁lezwa	-7941
▁lived	-7942
▁liver	-7943
▁malen	-7944
▁meday	-7945
▁mills	-7946
▁misye	-7947
▁nouri	-7948
▁owner	-7949
▁papie	-7950
▁parfe	-7951
▁parts	-7952
▁pirog	-7953
▁plann	-7954
▁pronn	-7955
▁psych	-7956
▁raced	-7957
▁range	-7958
▁rasis	-7959
▁rekou	-7960
▁repro	-7961
▁reyel	-7962
▁salon	-7963
▁seems	-7964
▁selon	-7965
▁serye	-7966
▁share	-7967
▁sides	-7968
▁siyne	-7969
▁smart	-7970
▁smell	-7971
▁snuff	-7972
▁sorts	-7973
▁stick	-7974
▁succe	-7975
▁syans	-7976
▁thick	-7977
▁turis	-7978
▁ultra	-7979
▁valab	-7980
▁vient	-7981
▁works	-7982
▁worse	-7983
▁zegwi	-7984
Instead	-7985
Kapital	-7986
Patrona	-7987
Perfect	-7988
Politik	-7989
Univers	-7990
asantry	-7991
asional	-7992
atikman	-7993
ficient	-7994
idisyer	-7995
iverser	-7996
liament	-7997
looking	-7998
nologie	-7999
quences	-8000
sepsyon	-8001
▁Americ	-8002
▁Claude	-8003
▁Demand	-8004
▁Diskur	-8005
▁Kabine	-8006
▁Kirpip	-8007
▁Médine	-8008
▁People	-8009
▁Public	-8010
▁Rogers	-8011
▁Second	-8012
▁Sinndi	-8013
▁Speech	-8014
▁States	-8015
▁Strate	-8016
▁accoun	-8017
▁action	-8018
▁affair	-8019
▁akeyir	-8020
▁alepok	-8021
▁amezir	-8022
▁ansyin	-8023
▁antret	-8024
▁aprose	-8025
▁artist	-8026
▁asleep	-8027
▁asosye	-8028
▁associ	-8029
▁autour	-8030
▁autres	-8031
▁azenou	-8032
▁azoute	-8033
▁baryer	-8034
▁bayant	-8035
▁bezwin	-8036
▁bondye	-8037
▁bourik	-8038
▁caused	-8039
▁chance	-8040
▁circul	-8041
▁confer	-8042
▁conver	-8043
▁deadly	-8044
▁defors	-8045
▁degrev	-8046
▁demare	-8047
▁eklere	-8048
▁emerge	-8049
▁etidie	-8050
▁etonan	-8051
▁etranz	-8052
▁evolye	-8053
▁expoze	-8054
▁fallen	-8055
▁fertil	-8056
▁gallop	-8057
▁gather	-8058
▁grandi	-8059
▁grogne	-8060
▁helped	-8061
▁honour	-8062
▁indien	-8063
▁initil	-8064
▁karyer	-8065
▁konfes	-8066
▁koresp	-8067
▁kouler	-8068
▁kouyon	-8069
▁lakoup	-8070
▁lalanp	-8071
▁lekiri	-8072
▁limite	-8073
▁masses	-8074
▁milyar	-8075
▁mosion	-8076
▁negoti	-8077
▁nobody	-8078
▁object	-8079
▁overth	-8080
▁papaye	-8081
▁parfin	-8082
▁parwas	-8083
▁pawpaw	-8084
▁peyman	-8085
▁pieces	-8086
▁policy	-8087
▁preker	-8088
▁pretex	-8089
▁prohib	-8090
▁promet	-8091
▁racing	-8092
▁raised	-8093
▁regard	-8094
▁regayn	-8095
▁remind	-8096
▁retour	-8097
▁satisf	-8098
▁season	-8099
▁series	-8100
▁sexyel	-8101
▁showed	-8102
▁sirkil	-8103
▁slowly	-8104
▁spring	-8105
▁stable	-8106
▁stalls	-8107
▁status	-8108
▁sticks	-8109
▁stupid	-8110
▁succes	-8111
▁superv	-8112
▁talked	-8113
▁teknik	-8114
▁temper	-8115
▁temwin	-8116
▁testim	-8117
▁toilet	-8118
▁tradir	-8119
▁twenty	-8120
▁unfold	-8121
▁vizyon	-8122
Describe	-8123
Lekonomi	-8124
Squealer	-8125
Suddenly	-8126
Trwazyem	-8127
antasyon	-8128
chnology	-8129
enewable	-8130
fortable	-8131
rezistre	-8132
sipasyon	-8133
stratezi	-8134
▁Academy	-8135
▁Bambous	-8136
▁Capital	-8137
▁Gokhool	-8138
▁Komiser	-8139
▁Lalmayn	-8140
▁Nations	-8141
▁Prenses	-8142
▁Project	-8143
▁Sundays	-8144
▁Yannick	-8145
▁abandon	-8146
▁aksidan	-8147
▁analyze	-8148
▁anticip	-8149
▁asasina	-8150
▁bedroom	-8151
▁cheaper	-8152
▁clothes	-8153
▁comment	-8154
▁compare	-8155
▁concept	-8156
▁contain	-8157
▁contrib	-8158
▁correct	-8159
▁dignity	-8160
▁diminie	-8161
▁dragged	-8162
▁ekziste	-8163
▁eliminn	-8164
▁entendu	-8165
▁etidian	-8166
▁factory	-8167
▁foolish	-8168
▁greater	-8169
▁happens	-8170
▁herself	-8171
▁holding	-8172
▁insidan	-8173
▁kitchen	-8174
▁konkret	-8175
▁konstat	-8176
▁landime	-8177
▁lanpler	-8178
▁lansanb	-8179
▁learned	-8180
▁louvraz	-8181
▁mansonz	-8182
▁markets	-8183
▁message	-8184
▁million	-8185
▁mouvman	-8186
▁needles	-8187
▁numbers	-8188
▁pansion	-8189
▁partaze	-8190
▁pension	-8191
▁peuvent	-8192
▁plengne	-8193
▁progres	-8194
▁protest	-8195
▁rapidly	-8196
▁rations	-8197
▁reality	-8198
▁receive	-8199
▁refused	-8200
▁regrupe	-8201
▁regular	-8202
▁renifle	-8203
▁resanti	-8204
▁ridikil	-8205
▁rumours	-8206
▁sezonye	-8207
▁siklonn	-8208
▁sirpriz	-8209
▁strange	-8210
▁syantif	-8211
▁touzour	-8212
▁trakase	-8213
▁tretman	-8214
▁unknown	-8215
▁vieille	-8216
▁websayt	-8217
▁étaient	-8218
According	-8219
Lelandime	-8220
Ramgoolam	-8221
endavello	-8222
▁Economic	-8223
▁Etranzer	-8224
▁European	-8225
▁Lazistis	-8226
▁Mohammed	-8227
▁Mountain	-8228
▁Seigneur	-8229
▁Sekreter	-8230
▁Sidafrik	-8231
▁Sindikal	-8232
▁Skutnabb	-8233
▁Standard	-8234
▁Tertiary	-8235
▁Williams	-8236
▁adverser	-8237
▁agresyon	-8238
▁anplwaye	-8239
▁antisipe	-8240
▁anywhere	-8241
▁aparteid	-8242
▁atansion	-8243
▁bankrupt	-8244
▁birokrat	-8245
▁contrary	-8246
▁creating	-8247
▁defansiv	-8248
▁depresye	-8249
▁derulman	-8250
▁ekolozik	-8251
▁esklavaz	-8252
▁existing	-8253
▁familyal	-8254
▁filozofi	-8255
▁gaspiyaz	-8256
▁imposing	-8257
▁inferior	-8258
▁instance	-8259
▁intended	-8260
▁internal	-8261
▁kategori	-8262
▁klimatik	-8263
▁kominike	-8264
▁konsolid	-8265
▁kriminel	-8266
▁laboutik	-8267
▁lafarinn	-8268
▁lakolinn	-8269
▁lamwatie	-8270
▁lapratik	-8271
▁larezyon	-8272
▁lekipman	-8273
▁lemwayen	-8274
▁lidersip	-8275
▁lofansiv	-8276
▁monopoly	-8277
▁nowadays	-8278
▁oligarsi	-8279
▁pensions	-8280
▁permanan	-8281
▁personel	-8282
▁policies	-8283
▁prosedir	-8284
▁reducing	-8285
▁rekomann	-8286
▁relative	-8287
▁resolved	-8288
▁returned	-8289
▁santiman	-8290
▁secretly	-8291
▁security	-8292
▁seremoni	-8293
▁services	-8294
▁soufrans	-8295
▁subjects	-8296
▁surprise	-8297
▁swadizan	-8298
▁systemic	-8299
▁tidezene	-8300
▁transmet	-8301
▁utiliser	-8302
Prodiksyon	-8303
Université	-8304
koumansman	-8305
▁Departman	-8306
▁Samazeste	-8307
▁Worldwide	-8308
▁advantage	-8309
▁afternoon	-8310
▁announces	-8311
▁companies	-8312
▁departman	-8313
▁discussed	-8314
▁diskision	-8315
▁documents	-8316
▁elsewhere	-8317
▁everybody	-8318
▁expilsion	-8319
▁explained	-8320
▁inkrwayab	-8321
▁interpret	-8322
▁introduce	-8323
▁knowledge	-8324
▁komannman	-8325
▁kondikter	-8326
▁konfortab	-8327
▁konpetans	-8328
▁koperativ	-8329
▁koresponn	-8330
▁lanterman	-8331
▁lidership	-8332
▁minisipal	-8333
▁normalman	-8334
▁obviously	-8335
▁organized	-8336
▁patriarsi	-8337
▁peasantry	-8338
▁peizannri	-8339
▁permanans	-8340
▁plizumwen	-8341
▁presizyon	-8342
▁prodiktif	-8343
▁proposals	-8344
▁recommend	-8345
▁reformist	-8346
▁represent	-8347
▁simpleman	-8348
▁somewhere	-8349
▁suffering	-8350
▁therefore	-8351
▁Federation	-8352
▁Liberasyon	-8353
▁Madagascar	-8354
▁Virahsawmy	-8355
▁absolutely	-8356
▁difference	-8357
▁inperyalis	-8358
▁konpetitif	-8359
▁konportman	-8360
▁laniverser	-8361
▁linfliyans	-8362
▁malerezman	-8363
▁newspapers	-8364
▁presizeman	-8365
▁principles	-8366
▁profession	-8367
▁proporsyon	-8368
▁relativman	-8369
▁televizyon	-8370
▁travailler	-8371
Transitional	-8372
▁Deerpalsing	-8373
▁accountancy	-8374
▁accumulated	-8375
▁arrangement	-8376
▁comfortable	-8377
▁demantelman	-8378
▁enstriksion	-8379
▁generations	-8380
▁inportasyon	-8381
▁intelligent	-8382
▁interesting	-8383
▁personelman	-8384
▁preferences	-8385
▁profesionel	-8386
▁rasanbleman	-8387
▁Constitution	-8388
▁compensation	-8389
▁consequences	-8390
▁emansipasyon	-8391
▁intervansyon	-8392
▁manipilasyon	-8393
▁neighbouring	-8394
▁protestasyon	-8395
▁relationship	-8396
▁sikolozikman	-8397
▁Collendavello	-8398
▁konfrontasyon	-8399
"-	-8400
',	-8401
,"	-8402
-4	-8403
-8	-8404
.6	-8405
.7	-8406
47	-8407
48	-8408
6%	-8409
80	-8410
;(	-8411
AV	-8412
BM	-8413
CS	-8414
DE	-8415
EM	-8416
Es	-8417
Ev	-8418
Hi	-8419
IA	-8420
IU	-8421
Im	-8422
KI	-8423
MI	-8424
NP	-8425
OA	-8426
Ok	-8427
PL	-8428
RY	-8429
TH	-8430
UA	-8431
UV	-8432
aa	-8433
br	-8434
do	-8435
fu	-8436
ga	-8437
nk	-8438
uf	-8439
uz	-8440
vd	-8441
yl	-8442
ég	-8443
▁.	-8444
-19	-8445
:30	-8446
ANS	-8447
Alo	-8448
Ann	-8449
Ase	-8450
Ayo	-8451
Bal	-8452
Bou	-8453
Car	-8454
Dis	-8455
ERE	-8456
FFC	-8457
Fin	-8458
ICE	-8459
IND	-8460
ION	-8461
Lad	-8462
Lan	-8463
Maz	-8464
Mer	-8465
Mil	-8466
NRB	-8467
Old	-8468
Pil	-8469
Raj	-8470
TUC	-8471
Tem	-8472
Tit	-8473
Tro	-8474
Two	-8475
YER	-8476
ads	-8477
aks	-8478
alt	-8479
ani	-8480
auc	-8481
ayd	-8482
bit	-8483
bok	-8484
bra	-8485
but	-8486
bye	-8487
con	-8488
des	-8489
dia	-8490
dio	-8491
dis	-8492
dou	-8493
ehl	-8494
ekt	-8495
enh	-8496
enk	-8497
enz	-8498
erk	-8499
fed	-8500
fel	-8501
fit	-8502
gic	-8503
gob	-8504
gth	-8505
how	-8506
ita	-8507
ivi	-8508
izi	-8509
kal	-8510
kat	-8511
klo	-8512
leg	-8513
oir	-8514
oks	-8515
oum	-8516
ouy	-8517
ozi	-8518
pat	-8519
put	-8520
reg	-8521
rug	-8522
sam	-8523
see	-8524
set	-8525
tal	-8526
tez	-8527
uep	-8528
unk	-8529
upi	-8530
urg	-8531
usc	-8532
vit	-8533
yas	-8534
zik	-8535
▁--	-8536
▁24	-8537
▁28	-8538
▁3.	-8539
▁34	-8540
▁37	-8541
▁47	-8542
▁65	-8543
▁At	-8544
▁Ay	-8545
▁CH	-8546
▁If	-8547
▁KI	-8548
▁My	-8549
▁OF	-8550
▁Of	-8551
▁Oh	-8552
▁On	-8553
▁PA	-8554
▁Sc	-8555
▁Sp	-8556
▁TU	-8557
▁Te	-8558
▁da	-8559
▁ja	-8560
▁ur	-8561
▁uv	-8562
▁vu	-8563
▁éc	-8564
..”.	-8565
Ares	-8566
Dire	-8567
Does	-8568
Ensu	-8569
Excu	-8570
FREE	-8571
Fini	-8572
Four	-8573
Have	-8574
IKOL	-8575
Last	-8576
Lors	-8577
Mari	-8578
Marx	-8579
More	-8580
Most	-8581
NMAN	-8582
None	-8583
Nuvo	-8584
Pard	-8585
Plan	-8586
Pran	-8587
Pres	-8588
Rado	-8589
Rama	-8590
SYON	-8591
Sert	-8592
Sori	-8593
Tran	-8594
Tule	-8595
Zezi	-8596
Zour	-8597
ades	-8598
agre	-8599
aked	-8600
aled	-8601
alin	-8602
ames	-8603
andy	-8604
ansa	-8605
anto	-8606
apar	-8607
apel	-8608
apou	-8609
aram	-8610
aris	-8611
arke	-8612
atic	-8613
atma	-8614
avek	-8615
aygr	-8616
bari	-8617
beau	-8618
bere	-8619
bert	-8620
binn	-8621
blan	-8622
call	-8623
cers	-8624
coul	-8625
ctly	-8626
demi	-8627
ders	-8628
dhoa	-8629
dorz	-8630
down	-8631
ekre	-8632
eleb	-8633
ells	-8634
ends	-8635
ennd	-8636
enne	-8637
ezon	-8638
fice	-8639
ford	-8640
forl	-8641
iaou	-8642
icul	-8643
idal	-8644
iger	-8645
ikte	-8646
ilez	-8647
ilib	-8648
inde	-8649
ique	-8650
isid	-8651
ival	-8652
izib	-8653
izur	-8654
krir	-8655
lied	-8656
long	-8657
ming	-8658
oice	-8659
oire	-8660
oise	-8661
oley	-8662
olik	-8663
ondi	-8664
orab	-8665
oral	-8666
osen	-8667
oted	-8668
oter	-8669
oyal	-8670
pact	-8671
pany	-8672
pipe	-8673
plit	-8674
pran	-8675
ptab	-8676
rait	-8677
rape	-8678
rimp	-8679
roix	-8680
ruit	-8681
sayt	-8682
sess	-8683
sote	-8684
teen	-8685
tled	-8686
tles	-8687
umph	-8688
ured	-8689
uvre	-8690
vyet	-8691
wann	-8692
wate	-8693
ères	-8694
érie	-8695
▁30%	-8696
▁40%	-8697
▁80%	-8698
▁800	-8699
▁90%	-8700
▁Aug	-8701
▁Bak	-8702
▁Bol	-8703
▁Cap	-8704
▁Cre	-8705
▁DPP	-8706
▁Deg	-8707
▁Der	-8708
▁Dir	-8709
▁Dur	-8710
▁Ele	-8711
▁FOR	-8712
▁Feb	-8713
▁Fet	-8714
▁GMO	-8715
▁Goo	-8716
▁Hon	-8717
▁Jac	-8718
▁Jud	-8719
▁KON	-8720
▁Kaf	-8721
▁Kam	-8722
▁LAP	-8723
▁LOR	-8724
▁Lat	-8725
▁Law	-8726
▁MBC	-8727
▁Mil	-8728
▁NGO	-8729
▁Nev	-8730
▁OGM	-8731
▁OUA	-8732
▁POL	-8733
▁PPP	-8734
▁Pan	-8735
▁Pei	-8736
▁Pon	-8737
▁Red	-8738
▁Res	-8739
▁Ros	-8740
▁SER	-8741
▁San	-8742
▁Suz	-8743
▁Tim	-8744
▁Ton	-8745
▁abe	-8746
▁amb	-8747
▁anf	-8748
▁anu	-8749
▁ces	-8750
▁cin	-8751
▁cou	-8752
▁cow	-8753
▁dos	-8754
▁dro	-8755
▁dub	-8756
▁dwa	-8757
▁egz	-8758
▁eng	-8759
▁fal	-8760
▁feu	-8761
▁fuy	-8762
▁gau	-8763
▁gid	-8764
▁gri	-8765
▁ham	-8766
▁hom	-8767
▁hot	-8768
▁key	-8769
▁kli	-8770
▁kwa	-8771
▁lum	-8772
▁lwe	-8773
▁mak	-8774
▁moi	-8775
▁nen	-8776
▁oil	-8777
▁ole	-8778
▁pad	-8779
▁pil	-8780
▁pis	-8781
▁pit	-8782
▁plu	-8783
▁pun	-8784
▁pup	-8785
▁raf	-8786
▁raz	-8787
▁riy	-8788
▁sed	-8789
▁sun	-8790
▁tuy	-8791
▁vac	-8792
▁zim	-8793
▁zin	-8794
▁ziz	-8795
.1980	-8796
.1986	-8797
.2001	-8798
Belle	-8799
Hello	-8800
Jonns	-8801
Komye	-8802
Kreol	-8803
Lager	-8804
Lalwa	-8805
Later	-8806
Lepok	-8807
Limem	-8808
Medya	-8809
Rajni	-8810
Somaz	-8811
Those	-8812
Trade	-8813
Would	-8814
acing	-8815
acles	-8816
aferm	-8817
afood	-8818
agrik	-8819
ainst	-8820
ality	-8821
amais	-8822
anbik	-8823
anket	-8824
antik	-8825
anyaz	-8826
archy	-8827
arest	-8828
armit	-8829
asinn	-8830
assin	-8831
asure	-8832
attle	-8833
bably	-8834
basad	-8835
berte	-8836
bokus	-8837
candy	-8838
cheur	-8839
chron	-8840
class	-8841
coult	-8842
ember	-8843
enyon	-8844
esant	-8845
estin	-8846
going	-8847
hroom	-8848
icked	-8849
idere	-8850
idire	-8851
illay	-8852
iment	-8853
inese	-8854
inien	-8855
inite	-8856
ising	-8857
itali	-8858
ivite	-8859
izale	-8860
izant	-8861
izing	-8862
jaury	-8863
lager	-8864
lepok	-8865
lerla	-8866
linik	-8867
marin	-8868
mennt	-8869
milio	-8870
ndire	-8871
ofonn	-8872
olled	-8873
omenn	-8874
oples	-8875
ordin	-8876
oseph	-8877
otesk	-8878
ouval	-8879
ozion	-8880
ozyon	-8881
pliye	-8882
preci	-8883
queal	-8884
ralia	-8885
riana	-8886
rifis	-8887
rimes	-8888
rrrnk	-8889
shirt	-8890
sipel	-8891
sirtu	-8892
staff	-8893
uille	-8894
wason	-8895
wayom	-8896
▁15%.	-8897
▁1951	-8898
▁1973	-8899
▁2011	-8900
▁2012	-8901
▁7:00	-8902
▁Anex	-8903
▁Aust	-8904
▁Blue	-8905
▁Blvd	-8906
▁CALP	-8907
▁Cehl	-8908
▁Cres	-8909
▁Cure	-8910
▁Deta	-8911
▁Fact	-8912
▁Fron	-8913
▁Geor	-8914
▁Gool	-8915
▁Guim	-8916
▁Imen	-8917
▁Jame	-8918
▁June	-8919
▁Just	-8920
▁Lazi	-8921
▁Lion	-8922
▁Lome	-8923
▁Lwes	-8924
▁Mary	-8925
▁Mimi	-8926
▁Nabl	-8927
▁Nord	-8928
▁Nurs	-8929
▁Nuvo	-8930
▁Rivi	-8931
▁Rock	-8932
▁Synd	-8933
▁UASI	-8934
▁Zame	-8935
▁Zide	-8936
▁abst	-8937
▁affe	-8938
▁aims	-8939
▁amis	-8940
▁arch	-8941
▁aren	-8942
▁bamb	-8943
▁base	-8944
▁boar	-8945
▁born	-8946
▁brav	-8947
▁capt	-8948
▁chat	-8949
▁clou	-8950
▁defi	-8951
▁dema	-8952
▁devi	-8953
▁dine	-8954
▁diyl	-8955
▁edge	-8956
▁efas	-8957
▁efik	-8958
▁elve	-8959
▁esek	-8960
▁exha	-8961
▁fast	-8962
▁fear	-8963
▁file	-8964
▁fled	-8965
▁flot	-8966
▁fois	-8967
▁forb	-8968
▁fran	-8969
▁fren	-8970
▁fund	-8971
▁gain	-8972
▁geet	-8973
▁geri	-8974
▁grev	-8975
▁grim	-8976
▁hang	-8977
▁hide	-8978
▁hole	-8979
▁horn	-8980
▁hund	-8981
▁inex	-8982
▁insp	-8983
▁iron	-8984
▁kalm	-8985
▁kite	-8986
▁kogn	-8987
▁koko	-8988
▁konv	-8989
▁kopi	-8990
▁korl	-8991
▁krev	-8992
▁lapo	-8993
▁lent	-8994
▁lieu	-8995
▁linn	-8996
▁loss	-8997
▁lour	-8998
▁lump	-8999
▁malt	-9000
▁mane	-9001
▁mann	-9002
▁mash	-9003
▁minn	-9004
▁mway	-9005
▁mère	-9006
▁niaz	-9007
▁nose	-9008
▁note	-9009
▁nuri	-9010
▁obst	-9011
▁obze	-9012
▁penn	-9013
▁pens	-9014
▁poll	-9015
▁prés	-9016
▁pyes	-9017
▁rage	-9018
▁rats	-9019
▁rebu	-9020
▁requ	-9021
▁rien	-9022
▁ritm	-9023
▁rope	-9024
▁rubb	-9025
▁sang	-9026
▁sank	-9027
▁save	-9028
▁sere	-9029
▁sezi	-9030
▁shif	-9031
▁shir	-9032
▁skil	-9033
▁slip	-9034
▁sote	-9035
▁soup	-9036
▁sous	-9037
▁spor	-9038
▁spot	-9039
▁staf	-9040
▁suiv	-9041
▁syon	-9042
▁tase	-9043
▁ters	-9044
▁teti	-9045
▁thor	-9046
▁trop	-9047
▁vast	-9048
▁vide	-9049
▁wake	-9050
▁zako	-9051
▁zape	-9052
▁zero	-9053
Almost	-9054
Anplas	-9055
Antuka	-9056
Apepre	-9057
Boukou	-9058
Dekrir	-9059
Excuse	-9060
Kikenn	-9061
Krekre	-9062
Langaz	-9063
Longay	-9064
Muvman	-9065
Pardon	-9066
USTICE	-9067
Zanfan	-9068
accord	-9069
adress	-9070
ansman	-9071
antman	-9072
avenir	-9073
dimunn	-9074
ellent	-9075
erdtan	-9076
ienced	-9077
ifesto	-9078
ikilye	-9079
iladel	-9080
isance	-9081
ishing	-9082
konpet	-9083
lopman	-9084
lowers	-9085
ografi	-9086
onomik	-9087
ontrer	-9088
ophone	-9089
others	-9090
oughly	-9091
pensed	-9092
people	-9093
phones	-9094
rasion	-9095
reform	-9096
rength	-9097
rennte	-9098
tenant	-9099
ternal	-9100
travay	-9101
ulsory	-9102
vertir	-9103
vyetik	-9104
waziem	-9105
weiser	-9106
zektiv	-9107
▁1990,	-9108
▁1990.	-9109
▁1993,	-9110
▁1994,	-9111
▁2002,	-9112
▁2004.	-9113
▁2009.	-9114
▁2018,	-9115
▁Aster	-9116
▁Bazar	-9117
▁Bluep	-9118
▁Cindy	-9119
▁Fariz	-9120
▁Fatma	-9121
▁Felix	-9122
▁Group	-9123
▁House	-9124
▁Joint	-9125
▁Kotez	-9126
▁Kouma	-9127
▁Lakor	-9128
▁Larme	-9129
▁Liman	-9130
▁Limem	-9131
▁Mapou	-9132
▁Marie	-9133
▁Order	-9134
▁Other	-9135
▁Papua	-9136
▁Peros	-9137
▁Privy	-9138
▁Prote	-9139
▁Radio	-9140
▁Raman	-9141
▁Rozil	-9142
▁Russi	-9143
▁Sadou	-9144
▁Times	-9145
▁Union	-9146
▁Vilaz	-9147
▁White	-9148
▁Winds	-9149
▁absan	-9150
▁akize	-9151
▁alarm	-9152
▁anfen	-9153
▁angaz	-9154
▁appar	-9155
▁après	-9156
▁avant	-9157
▁avion	-9158
▁balot	-9159
▁banbu	-9160
▁barik	-9161
▁basic	-9162
▁belle	-9163
▁birds	-9164
▁bread	-9165
▁catch	-9166
▁celeb	-9167
▁cheap	-9168
▁chick	-9169
▁chien	-9170
▁claim	-9171
▁compl	-9172
▁conce	-9173
▁crept	-9174
▁crime	-9175
▁dekul	-9176
▁desir	-9177
▁devet	-9178
▁dikte	-9179
▁dimal	-9180
▁disab	-9181
▁ditou	-9182
▁diviz	-9183
▁dolar	-9184
▁dosye	-9185
▁draft	-9186
▁ducks	-9187
▁dusma	-9188
▁dying	-9189
▁ekzam	-9190
▁elver	-9191
▁enjoy	-9192
▁etann	-9193
▁exkiz	-9194
▁exziz	-9195
▁faith	-9196
▁famiy	-9197
▁fidel	-9198
▁fouti	-9199
▁fries	-9200
▁geese	-9201
▁glass	-9202
▁glise	-9203
▁grasa	-9204
▁grave	-9205
▁guide	-9206
▁guilt	-9207
▁hated	-9208
▁heads	-9209
▁heavy	-9210
▁inite	-9211
▁joint	-9212
▁komik	-9213
▁konte	-9214
▁koute	-9215
▁kozri	-9216
▁kupab	-9217
▁lagar	-9218
▁lakoz	-9219
▁lalis	-9220
▁lasas	-9221
▁lazou	-9222
▁lever	-9223
▁likou	-9224
▁manev	-9225
▁maron	-9226
▁miser	-9227
▁monok	-9228
▁morde	-9229
▁motos	-9230
▁mulin	-9231
▁multi	-9232
▁niouz	-9233
▁noisy	-9234
▁notes	-9235
▁numem	-9236
▁opere	-9237
▁oppos	-9238
▁orfel	-9239
▁plane	-9240
▁plump	-9241
▁prokl	-9242
▁purch	-9243
▁radio	-9244
▁raise	-9245
▁rates	-9246
▁rebel	-9247
▁rekor	-9248
▁remiz	-9249
▁repet	-9250
▁repoz	-9251
▁rezet	-9252
▁rezis	-9253
▁rules	-9254
▁rwinn	-9255
▁sakre	-9256
▁salye	-9257
▁selil	-9258
▁serve	-9259
▁servo	-9260
▁shock	-9261
▁shows	-9262
▁smash	-9263
▁smoke	-9264
▁solid	-9265
▁songs	-9266
▁space	-9267
▁spent	-9268
▁stops	-9269
▁sweyn	-9270
▁swing	-9271
▁tails	-9272
▁taler	-9273
▁tarde	-9274
▁tarif	-9275
▁teeth	-9276
▁teleg	-9277
▁tengn	-9278
▁teori	-9279
▁toler	-9280
▁tooth	-9281
▁trale	-9282
▁triko	-9283
▁twice	-9284
▁veget	-9285
▁watch	-9286
▁waves	-9287
▁whips	-9288
▁woman	-9289
▁yards	-9290
▁était	-9291
▁étudi	-9292
Absence	-9293
Bonzour	-9294
Comment	-9295
Comrade	-9296
Ensuite	-9297
Gramsci	-9298
Kanpayn	-9299
Lagazet	-9300
Lorsque	-9301
Perhaps	-9302
Resaman	-9303
Someone	-9304
Through	-9305
agement	-9306
apavyon	-9307
aternel	-9308
aygroup	-9309
cklings	-9310
erasyon	-9311
ipalite	-9312
irasyon	-9313
istance	-9314
iterane	-9315
ordizur	-9316
peratir	-9317
pletman	-9318
relizye	-9319
rennman	-9320
segnman	-9321
theless	-9322
▁August	-9323
▁Brazil	-9324
▁Brezil	-9325
▁Crisis	-9326
▁Deziem	-9327
▁Dezyem	-9328
▁Energy	-9329
▁Falepa	-9330
▁France	-9331
▁Gaetan	-9332
▁Gerard	-9333
▁Impact	-9334
▁Indyen	-9335
▁Indyin	-9336
▁Jessie	-9337
▁Joseph	-9338
▁Klinik	-9339
▁Kongre	-9340
▁Larisi	-9341
▁Litali	-9342
▁Michel	-9343
▁Miting	-9344
▁Monday	-9345
▁Nation	-9346
▁Nimero	-9347
▁Pillay	-9348
▁Roland	-9349
▁Scheme	-9350
▁Segner	-9351
▁Sistem	-9352
▁Stalin	-9353
▁Textil	-9354
▁Unions	-9355
▁Zardin	-9356
▁Zizman	-9357
▁access	-9358
▁accord	-9359
▁agreed	-9360
▁aksion	-9361
▁alafin	-9362
▁anpart	-9363
▁anvole	-9364
▁apples	-9365
▁asking	-9366
▁aterir	-9367
▁averti	-9368
▁banana	-9369
▁banbou	-9370
▁belong	-9371
▁bigger	-9372
▁bought	-9373
▁boutey	-9374
▁brings	-9375
▁caught	-9376
▁chiens	-9377
▁climbs	-9378
▁cocker	-9379
▁deblok	-9380
▁decree	-9381
▁deeper	-9382
▁degree	-9383
▁depase	-9384
▁devwar	-9385
▁dibien	-9386
▁diplom	-9387
▁distur	-9388
▁divize	-9389
▁domenn	-9390
▁effect	-9391
▁employ	-9392
▁enstal	-9393
▁envite	-9394
▁estime	-9395
▁explan	-9396
▁fairly	-9397
▁fermie	-9398
▁flying	-9399
▁gazing	-9400
▁grenie	-9401
▁inplik	-9402
▁itiliz	-9403
▁izinaz	-9404
▁jamais	-9405
▁kicked	-9406
▁kombat	-9407
▁kongre	-9408
▁konsta	-9409
▁konver	-9410
▁labriz	-9411
▁ladder	-9412
▁lagren	-9413
▁lakord	-9414
▁lamare	-9415
▁lanpir	-9416
▁lapant	-9417
▁lapert	-9418
▁lasenn	-9419
▁leaves	-9420
▁legliz	-9421
▁lemonn	-9422
▁letour	-9423
▁letter	-9424
▁lexamp	-9425
▁loster	-9426
▁martir	-9427
▁milite	-9428
▁milked	-9429
▁miltin	-9430
▁mister	-9431
▁mostly	-9432
▁mwayin	-9433
▁nasyon	-9434
▁needle	-9435
▁nights	-9436
▁nonpli	-9437
▁observ	-9438
▁opsyon	-9439
▁option	-9440
▁partir	-9441
▁paspor	-9442
▁pasyon	-9443
▁paying	-9444
▁plough	-9445
▁poison	-9446
▁polisi	-9447
▁presed	-9448
▁pretty	-9449
▁prices	-9450
▁proces	-9451
▁prompt	-9452
▁propaz	-9453
▁proved	-9454
▁purtan	-9455
▁pwiske	-9456
▁rafinn	-9457
▁rather	-9458
▁ration	-9459
▁receiv	-9460
▁recent	-9461
▁remain	-9462
▁repriz	-9463
▁rikord	-9464
▁ripost	-9465
▁sakouy	-9466
▁santre	-9467
▁senbol	-9468
▁serman	-9469
▁sifraz	-9470
▁simply	-9471
▁sirfas	-9472
▁solemn	-9473
▁sorrow	-9474
▁soufle	-9475
▁thanks	-9476
▁theirs	-9477
▁threat	-9478
▁thrown	-9479
▁traces	-9480
▁transl	-9481
▁vested	-9482
▁vwayaz	-9483
▁walked	-9484
▁wanted	-9485
Benzamen	-9486
Bonnvenn	-9487
Children	-9488
Frederik	-9489
arisiens	-9490
elopment	-9491
ficiency	-9492
laughter	-9493
sitwayen	-9494
▁AGRIKOL	-9495
▁Adriana	-9496
▁Afrikin	-9497
▁Against	-9498
▁Balancy	-9499
▁Chinese	-9500
▁Company	-9501
▁Demands	-9502
▁Finding	-9503
▁Germany	-9504
▁Grangob	-9505
▁Lespayn	-9506
▁Neville	-9507
▁Nursing	-9508
▁Popiler	-9509
▁Raddhoa	-9510
▁Refizye	-9511
▁Riviere	-9512
▁Rolling	-9513
▁Setadir	-9514
▁Sikdorz	-9515
▁Society	-9516
▁Zambian	-9517
▁account	-9518
▁agrandi	-9519
▁ankomin	-9520
▁answers	-9521
▁antanki	-9522
▁antrenn	-9523
▁anviron	-9524
▁appreci	-9525
▁avaient	-9526
▁barbari	-9527
▁bonbard	-9528
▁boulder	-9529
▁careful	-9530
▁central	-9531
▁closely	-9532
▁compart	-9533
▁constit	-9534
▁contact	-9535
▁covered	-9536
▁cutting	-9537
▁dansent	-9538
▁dedrwat	-9539
▁deroule	-9540
▁detenir	-9541
▁diboute	-9542
▁dinamik	-9543
▁discern	-9544
▁discuss	-9545
▁diskrim	-9546
▁dispans	-9547
▁distrik	-9548
▁drawing	-9549
▁element	-9550
▁entered	-9551
▁equally	-9552
▁express	-9553
▁failure	-9554
▁fasilit	-9555
▁figures	-9556
▁flights	-9557
▁gouvern	-9558
▁gravity	-9559
▁grotesk	-9560
▁growing	-9561
▁hanging	-9562
▁hundred	-9563
▁imagine	-9564
▁importe	-9565
▁inikman	-9566
▁inskrir	-9567
▁kominik	-9568
▁konklir	-9569
▁konsept	-9570
▁kontwar	-9571
▁krisyal	-9572
▁krrrrnk	-9573
▁lantman	-9574
▁laparey	-9575
▁larises	-9576
▁larmwar	-9577
▁latitid	-9578
▁lekilib	-9579
▁managed	-9580
▁massive	-9581
▁militar	-9582
▁minimum	-9583
▁mwayenn	-9584
▁negatif	-9585
▁nenport	-9586
▁onwards	-9587
▁partner	-9588
▁polemik	-9589
▁popilis	-9590
▁posedan	-9591
▁postpon	-9592
▁presion	-9593
▁profite	-9594
▁project	-9595
▁pronons	-9596
▁prosper	-9597
▁proteze	-9598
▁purpose	-9599
▁putting	-9600
▁quietly	-9601
▁ranvers	-9602
▁ranvway	-9603
▁ratrape	-9604
▁respect	-9605
▁respond	-9606
▁retrouv	-9607
▁revolte	-9608
▁reziste	-9609
▁rezonab	-9610
▁ridicul	-9611
▁saritab	-9612
▁selling	-9613
▁servant	-9614
▁servite	-9615
▁setting	-9616
▁settled	-9617
▁shouted	-9618
▁sispann	-9619
▁snuffed	-9620
▁spektak	-9621
▁stopped	-9622
▁stories	-9623
▁subject	-9624
▁succeed	-9625
▁tansion	-9626
▁tansyon	-9627
▁tersyer	-9628
▁treated	-9629
▁triumph	-9630
▁trouver	-9631
▁tutotur	-9632
▁viziter	-9633
▁wounded	-9634
Therefore	-9635
demokrasi	-9636
ependence	-9637
establish	-9638
itableman	-9639
▁Ameriken	-9640
▁Bancoult	-9641
▁Bluebell	-9642
▁Crescent	-9643
▁Curepipe	-9644
▁Ekonomik	-9645
▁Farizien	-9646
▁Guimbeau	-9647
▁Larenyon	-9648
▁Limanite	-9649
▁Literacy	-9650
▁Mozanbik	-9651
▁Planters	-9652
▁Profeser	-9653
▁Sovyetik	-9654
▁Tortoise	-9655
▁although	-9656
▁announce	-9657
▁ansilans	-9658
▁approach	-9659
▁aprouval	-9660
▁atansyon	-9661
▁attached	-9662
▁bananier	-9663
▁bathroom	-9664
▁becoming	-9665
▁boarding	-9666
▁chercher	-9667
▁delibere	-9668
▁demokrat	-9669
▁director	-9670
▁discoura	-9671
▁disorder	-9672
▁domestik	-9673
▁downturn	-9674
▁edikatif	-9675
▁electric	-9676
▁energies	-9677
▁establis	-9678
▁evenings	-9679
▁extended	-9680
▁fenomenn	-9681
▁fizikman	-9682
▁fondater	-9683
▁hayfield	-9684
▁identify	-9685
▁inevitab	-9686
▁interven	-9687
▁involves	-9688
▁kognitif	-9689
▁konfirme	-9690
▁konparti	-9691
▁konplike	-9692
▁konserne	-9693
▁konstate	-9694
▁ladesant	-9695
▁lakorite	-9696
▁lanprint	-9697
▁larivier	-9698
▁larivyer	-9699
▁linguist	-9700
▁lokazion	-9701
▁lowering	-9702
▁mitasyon	-9703
▁moderniz	-9704
▁morisyin	-9705
▁médecins	-9706
▁organism	-9707
▁passport	-9708
▁perpetye	-9709
▁platbann	-9710
▁pleasure	-9711
▁pomdeter	-9712
▁previous	-9713
▁prezidan	-9714
▁privilez	-9715
▁probably	-9716
▁progress	-9717
▁proposed	-9718
▁referred	-9719
▁relasion	-9720
▁represif	-9721
▁sakrifis	-9722
▁segonder	-9723
▁servants	-9724
▁simultan	-9725
▁sinbolik	-9726
▁siperyer	-9727
▁solision	-9728
▁speeches	-9729
▁spesifye	-9730
▁strength	-9731
▁thoughts	-9732
▁totality	-9733
▁treacher	-9734
▁volonter	-9735
▁zisteman	-9736
agrikilter	-9737
bilizasyon	-9738
sifikasyon	-9739
▁Alexander	-9740
▁Apartheid	-9741
▁Australia	-9742
▁Bestluzer	-9743
▁Blueprint	-9744
▁Budweiser	-9745
▁Gooljaury	-9746
▁Manifesto	-9747
▁Playgroup	-9748
▁Political	-9749
▁Singapore	-9750
▁Transport	-9751
▁according	-9752
▁anplwayer	-9753
▁authority	-9754
▁benefited	-9755
▁challennj	-9756
▁cognitive	-9757
▁committed	-9758
▁conferred	-9759
▁connected	-9760
▁convinced	-9761
▁detansyon	-9762
▁dezespwar	-9763
▁disappear	-9764
▁dispensed	-9765
▁editoryal	-9766
▁excellent	-9767
▁explozion	-9768
▁fisherman	-9769
▁fishermen	-9770
▁forgotten	-9771
▁formasyon	-9772
▁immediate	-9773
▁increased	-9774
▁inscribed	-9775
▁inspekter	-9776
▁konfizyon	-9777
▁konsidere	-9778
▁konstitye	-9779
▁lasosyete	-9780
▁latansyon	-9781
▁lavangard	-9782
▁lekontrer	-9783
▁lekzersis	-9784
▁lelandime	-9785
▁linteryer	-9786
▁losterite	-9787
▁miserable	-9788
▁newspaper	-9789
▁operasyon	-9790
▁otherwise	-9791
▁ourselves	-9792
▁partisipe	-9793
▁performed	-9794
▁pozisyonn	-9795
▁proposing	-9796
▁protected	-9797
▁pursantaz	-9798
▁rediksion	-9799
▁reflexion	-9800
▁regrupman	-9801
▁rekoumans	-9802
▁religious	-9803
▁renewable	-9804
▁respected	-9805
▁sinpleman	-9806
▁sipozeman	-9807
▁sitiasyon	-9808
▁syantifik	-9809
▁temwanyaz	-9810
▁temwaynaz	-9811
▁terrified	-9812
▁thousands	-9813
▁toulezour	-9814
Okoumansman	-9815
▁Federasyon	-9816
▁Mediterane	-9817
▁Parliament	-9818
▁Sugarcandy	-9819
▁additional	-9820
▁admiration	-9821
▁afterwards	-9822
▁anrezistre	-9823
▁asosyasyon	-9824
▁compulsory	-9825
▁considered	-9826
▁continuing	-9827
▁dekriminal	-9828
▁delokalize	-9829
▁direkteman	-9830
▁etablisman	-9831
▁exhibition	-9832
▁explaining	-9833
▁gouvernman	-9834
▁headphones	-9835
▁ideologues	-9836
▁impossible	-9837
▁informater	-9838
▁interested	-9839
▁konsomater	-9840
▁kreativite	-9841
▁lenpresion	-9842
▁lexpresyon	-9843
▁monokiltir	-9844
▁motosiklet	-9845
▁nominasyon	-9846
▁oportinist	-9847
▁parlmanter	-9848
▁premyerman	-9849
▁pronounced	-9850
▁psychology	-9851
▁rebuilding	-9852
▁rezolision	-9853
▁sibvansyon	-9854
▁successful	-9855
▁tanperatir	-9856
▁technology	-9857
▁televizion	-9858
▁thoroughly	-9859
▁throughout	-9860
▁tradiksyon	-9861
ministrasyon	-9862
organizasyon	-9863
▁Lagrikiltir	-9864
▁assumptions	-9865
▁campaigning	-9866
▁countryside	-9867
▁deklarasyon	-9868
▁destriksyon	-9869
▁destruction	-9870
▁drastically	-9871
▁explikasyon	-9872
▁foundations	-9873
▁inperyalist	-9874
▁katastrofik	-9875
▁konpetisyon	-9876
▁organizater	-9877
▁pedagogical	-9878
▁programatik	-9879
▁reservation	-9880
▁residential	-9881
▁selebrasyon	-9882
▁sindikalist	-9883
▁theoretical	-9884
▁threatening	-9885
Manifestasyon	-9886
▁Independence	-9887
▁Konstriksyon	-9888
▁Lindepandans	-9889
▁associations	-9890
▁kolonizasyon	-9891
▁konstitisyon	-9892
▁occasionally	-9893
▁organizasion	-9894
▁potansyelman	-9895
▁prinsipalman	-9896
▁prodiktivite	-9897
▁satisfaksyon	-9898
▁successfully	-9899
▁consciousness	-9900
▁fragmantasyon	-9901
▁institisyonel	-9902
▁miltinasyonal	-9903
▁neighbourhood	-9904
▁partisipasyon	-9905
▁Collendavelloo	-9906
▁simultaneously	-9907
▁restriktirasyon	-9908
,“	-9909
.,	-9910
.4	-9911
20	-9912
39	-9913
5%	-9914
94	-9915
Dr	-9916
HT	-9917
Jo	-9918
Ku	-9919
LD	-9920
NW	-9921
OD	-9922
OM	-9923
OP	-9924
PU	-9925
WH	-9926
WP	-9927
by	-9928
ec	-9929
ei	-9930
mu	-9931
sc	-9932
sm	-9933
tr	-9934
vé	-9935
ww	-9936
”-	-9937
▁”	-9938
-30	-9939
.18	-9940
.9.	-9941
300	-9942
600	-9943
ACP	-9944
ANG	-9945
ARZ	-9946
ATS	-9947
Ash	-9948
Bir	-9949
CEA	-9950
Cla	-9951
Did	-9952
Dus	-9953
EST	-9954
FTS	-9955
GHT	-9956
HDC	-9957
IES	-9958
INA	-9959
IRA	-9960
IRS	-9961
LOG	-9962
LPT	-9963
Lis	-9964
Mrs	-9965
OLU	-9966
OOD	-9967
ORT	-9968
OSP	-9969
OUR	-9970
Pri	-9971
RAL	-9972
RAV	-9973
RNW	-9974
ReA	-9975
Rel	-9976
Sal	-9977
Sam	-9978
Sou	-9979
Sut	-9980
THE	-9981
Twa	-9982
Viv	-9983
WII	-9984
WPS	-9985
YST	-9986
aig	-9987
aly	-9988
amz	-9989
asy	-9990
cer	-9991
cut	-9992
dep	-9993
dev	-9994
eat	-9995
edy	-9996
emb	-9997
emi	-9998
enu	-9999
7,	-10000
BL	-10001
UN	-10002
MSI	-10003
OME	-10004
ett	-10005
fiz	-10006
fri	-10007
gis	-10008
gos	-10009
gun	-10010
hol	-10011
iar	-10012
ici	-10013
ids	-10014
ief	-10015
ieu	-10016
iev	-10017
ige	-10018
iii	-10019
kip	-10020
kri	-10021
kup	-10022
lak	-10023
lap	-10024
lim	-10025
mal	-10026
maz	-10027
mes	-10028
mir	-10029
ndo	-10030
nee	-10031
neg	-10032
odi	-10033
oit	-10034
olo	-10035
omb	-10036
onc	-10037
pas	-10038
pel	-10039
pes	-10040
pit	-10041
poz	-10042
pur	-10043
ras	-10044
rew	-10045
rot	-10046
sub	-10047
swa	-10048
sye	-10049
tie	-10050
tiz	-10051
uba	-10052
uer	-10053
ula	-10054
ulu	-10055
ume	-10056
urd	-10057
vil	-10058
vwa	-10059
wan	-10060
yot	-10061
▁57	-10062
▁Am	-10063
▁Az	-10064
▁BL	-10065
▁Bh	-10066
▁Br	-10067
▁ER	-10068
▁Ec	-10069
▁II	-10070
▁Kh	-10071
▁LE	-10072
▁MA	-10073
▁Ng	-10074
▁Ot	-10075
▁PR	-10076
▁SA	-10077
▁SC	-10078
▁SU	-10079
▁aw	-10080
▁ec	-10081
▁eu	-10082
▁gl	-10083
▁ik	-10084
▁ip	-10085
▁lb	-10086
▁vs	-10087
-199	-10088
Ariv	-10089
Drwa	-10090
EROP	-10091
Enpe	-10092
Etan	-10093
Gram	-10094
HDWU	-10095
ICAL	-10096
ICAT	-10097
IMAL	-10098
Jean	-10099
aco	-10100
afe	-10101
eau	-10102
tru	-10103
▁1%	-10104
▁4,	-10105
Cher	-10106
City	-10107
GATS	-10108
Kond	-10109
Lave	-10110
Lefe	-10111
Lide	-10112
MENT	-10113
Mama	-10114
Manm	-10115
Nann	-10116
OSPH	-10117
Olie	-10118
PLWA	-10119
Plas	-10120
Plus	-10121
Prof	-10122
Slow	-10123
Toul	-10124
abaz	-10125
abil	-10126
alem	-10127
amby	-10128
amet	-10129
anze	-10130
appy	-10131
apye	-10132
arzi	-10133
atem	-10134
aten	-10135
atus	-10136
aven	-10137
avir	-10138
ayan	-10139
ayaz	-10140
azed	-10141
baba	-10142
chan	-10143
cidé	-10144
cies	-10145
deau	-10146
donn	-10147
douk	-10148
elie	-10149
elve	-10150
embl	-10151
emer	-10152
enda	-10153
enes	-10154
enhe	-10155
enri	-10156
ente	-10157
epol	-10158
ered	-10159
erto	-10160
eski	-10161
esse	-10162
fere	-10163
fois	-10164
fonn	-10165
gann	-10166
gayn	-10167
gers	-10168
grin	-10169
icle	-10170
igin	-10171
ikse	-10172
ilan	-10173
ills	-10174
imin	-10175
ingu	-10176
innd	-10177
inst	-10178
ipel	-10179
ires	-10180
izie	-10181
jour	-10182
kler	-10183
liyn	-10184
lles	-10185
mars	-10186
mind	-10187
mité	-10188
nest	-10189
nite	-10190
ocol	-10191
odha	-10192
oeil	-10193
onna	-10194
onpi	-10195
onze	-10196
osan	-10197
ouri	-10198
oyne	-10199
.6.	-10200
Ant	-10201
INN	-10202
ITU	-10203
PSM	-10204
dme	-10205
ffe	-10206
ogi	-10207
umb	-10208
yle	-10209
▁5.	-10210
▁6,	-10211
▁WS	-10212
?”.“	-10213
Take	-10214
azer	-10215
died	-10216
free	-10217
gren	-10218
kors	-10219
leem	-10220
lope	-10221
mark	-10222
ozef	-10223
pair	-10224
path	-10225
piye	-10226
pled	-10227
prev	-10228
psom	-10229
quar	-10230
quet	-10231
quoi	-10232
razy	-10233
riel	-10234
riem	-10235
rill	-10236
riss	-10237
sime	-10238
size	-10239
sone	-10240
ster	-10241
stik	-10242
teem	-10243
tenn	-10244
they	-10245
tman	-10246
twar	-10247
uler	-10248
unte	-10249
uses	-10250
uter	-10251
vann	-10252
vous	-10253
waye	-10254
yama	-10255
yeze	-10256
yton	-10257
zenn	-10258
zzle	-10259
èces	-10260
▁120	-10261
▁13,	-10262
▁15%	-10263
▁3-4	-10264
▁300	-10265
▁36%	-10266
▁50-	-10267
▁99%	-10268
▁AKM	-10269
▁ARE	-10270
▁Are	-10271
▁Ass	-10272
▁Aut	-10273
▁BAI	-10274
▁BLS	-10275
▁BPO	-10276
▁Bil	-10277
▁Bus	-10278
▁DEP	-10279
▁Dem	-10280
▁Dut	-10281
▁ENN	-10282
▁ERA	-10283
▁Eas	-10284
▁Eel	-10285
▁FMI	-10286
▁Fav	-10287
▁Fei	-10288
▁Fem	-10289
▁GTU	-10290
▁HSC	-10291
▁IBL	-10292
▁Jon	-10293
▁Lan	-10294
▁Lep	-10295
▁Mel	-10296
▁NRB	-10297
▁Nad	-10298
▁Pay	-10299
iA	-10300
1).	-10301
ASO	-10302
Dev	-10303
EMS	-10304
Pal	-10305
Rev	-10306
WAR	-10307
▁3,	-10308
▁32	-10309
▁5-	-10310
▁51	-10311
▁7,	-10312
▁mi	-10313
Apar	-10314
Gete	-10315
acha	-10316
ache	-10317
asso	-10318
back	-10319
lete	-10320
nwar	-10321
plik	-10322
ptom	-10323
resh	-10324
uiet	-10325
▁65.	-10326
▁Bay	-10327
▁Pel	-10328
▁Pen	-10329
▁Pli	-10330
▁Sem	-10331
▁Sim	-10332
▁Sou	-10333
▁Tan	-10334
▁Tex	-10335
▁Tik	-10336
▁Tur	-10337
▁Vij	-10338
▁Zen	-10339
▁Ziz	-10340
▁ape	-10341
▁ben	-10342
▁cer	-10343
▁cet	-10344
▁cré	-10345
▁due	-10346
▁dur	-10347
▁dém	-10348
▁enk	-10349
▁era	-10350
▁fac	-10351
▁fot	-10352
▁fox	-10353
▁gay	-10354
▁hit	-10355
▁hum	-10356
▁hus	-10357
▁ill	-10358
▁jip	-10359
▁jum	-10360
▁kle	-10361
▁luv	-10362
▁lux	-10363
▁mag	-10364
▁mix	-10365
▁niv	-10366
▁oku	-10367
▁orl	-10368
▁owe	-10369
▁pul	-10370
▁pét	-10371
▁rac	-10372
▁ron	-10373
▁rou	-10374
▁rég	-10375
▁squ	-10376
▁syn	-10377
▁tam	-10378
▁tiz	-10379
▁tok	-10380
▁tor	-10381
▁vik	-10382
▁vom	-10383
▁wag	-10384
▁wis	-10385
▁wit	-10386
.1994	-10387
4-199	-10388
ARZAN	-10389
Again	-10390
Alain	-10391
Ashok	-10392
Bliye	-10393
Concl	-10394
Diman	-10395
Elles	-10396
Ennmi	-10397
Felix	-10398
Ganga	-10399
Hu	-10400
PRB	-10401
lal	-10402
may	-10403
▁),	-10404
▁45	-10405
Byin	-10406
Koze	-10407
Olye	-10408
byin	-10409
udes	-10410
érit	-10411
▁90,	-10412
▁PTR	-10413
▁joy	-10414
▁pip	-10415
▁www	-10416
Intro	-10417
Koman	-10418
Ladan	-10419
Lavey	-10420
MSIRI	-10421
Moham	-10422
OLUME	-10423
Partu	-10424
Peyna	-10425
RAVAY	-10426
Rapel	-10427
Sinon	-10428
Tante	-10429
Telev	-10430
Their	-10431
acked	-10432
acoas	-10433
adone	-10434
aging	-10435
alman	-10436
alter	-10437
amble	-10438
amyon	-10439
amzel	-10440
ansis	-10441
apart	-10442
arbre	-10443
archs	-10444
arkal	-10445
artis	-10446
aryin	-10447
askar	-10448
atist	-10449
azine	-10450
azman	-10451
azyon	-10452
berto	-10453
cibly	-10454
clone	-10455
crire	-10456
cteur	-10457
cuits	-10458
debin	-10459
detay	-10460
difye	-10461
direk	-10462
ekans	-10463
ektif	-10464
ektik	-10465
elver	-10466
elyor	-10467
enhua	-10468
ented	-10469
entir	-10470
eping	-10471
ering	-10472
ersed	-10473
ezord	-10474
fwala	-10475
icine	-10476
idemi	-10477
iforn	-10478
ijing	-10479
ilege	-10480
ileng	-10481
iltra	-10482
ilyon	-10483
imyer	-10484
inawa	-10485
inery	-10486
inism	-10487
inney	-10488
isans	-10489
isson	-10490
istas	-10491
ketch	-10492
kitan	-10493
konst	-10494
lanse	-10495
logun	-10496
matin	-10497
meure	-10498
milie	-10499
là	-10500
ANT	-10501
FER	-10502
Too	-10503
elt	-10504
ète	-10505
Vous	-10506
aded	-10507
adyo	-10508
aske	-10509
cass	-10510
coup	-10511
erts	-10512
olez	-10513
ovri	-10514
role	-10515
ship	-10516
year	-10517
▁She	-10518
▁jud	-10519
3,000	-10520
alais	-10521
bines	-10522
erton	-10523
estiv	-10524
ichoo	-10525
notes	-10526
ograf	-10527
omand	-10528
oming	-10529
onman	-10530
onpri	-10531
orlwi	-10532
ortal	-10533
otour	-10534
ouler	-10535
oulou	-10536
oumwa	-10537
ounds	-10538
oured	-10539
piece	-10540
plied	-10541
ploye	-10542
ponns	-10543
ptise	-10544
rique	-10545
rivin	-10546
rizon	-10547
rière	-10548
ronik	-10549
ruary	-10550
samem	-10551
sault	-10552
seyne	-10553
sibil	-10554
singh	-10555
ticle	-10556
tique	-10557
toine	-10558
torye	-10559
trade	-10560
trans	-10561
upied	-10562
urnam	-10563
yonel	-10564
ziska	-10565
▁104,	-10566
▁1965	-10567
▁1970	-10568
▁1971	-10569
▁1987	-10570
▁2010	-10571
▁5:00	-10572
▁AGOA	-10573
▁Apar	-10574
▁Arab	-10575
▁Arim	-10576
▁Baie	-10577
▁Bank	-10578
▁Bell	-10579
▁Beth	-10580
▁Bill	-10581
▁Biro	-10582
▁Bonn	-10583
▁Camp	-10584
▁Cane	-10585
▁Coke	-10586
▁EReA	-10587
▁FINN	-10588
▁Flor	-10589
▁GRNW	-10590
▁Gonn	-10591
▁Gugg	-10592
▁Horl	-10593
▁Hugo	-10594
▁ICAC	-10595
▁Irak	-10596
▁Kawn	-10597
▁Klib	-10598
▁LANG	-10599
AND	-10600
See	-10601
bwa	-10602
kol	-10603
kwi	-10604
urt	-10605
ials	-10606
isse	-10607
lide	-10608
wale	-10609
▁Ale	-10610
▁CON	-10611
▁MAN	-10612
▁USS	-10613
▁anr	-10614
▁kwi	-10615
grown	-10616
idden	-10617
kolon	-10618
oranz	-10619
ropri	-10620
▁1999	-10621
▁2002	-10622
▁Dieu	-10623
▁LIND	-10624
▁Lake	-10625
▁Lare	-10626
▁Levy	-10627
▁Long	-10628
▁Lord	-10629
▁Mill	-10630
▁Mons	-10631
▁NHDC	-10632
▁NTUC	-10633
▁Nand	-10634
▁Olig	-10635
▁Otor	-10636
▁Park	-10637
▁Peer	-10638
▁Plat	-10639
▁Plus	-10640
▁Prin	-10641
▁RCEA	-10642
▁Resp	-10643
▁SYST	-10644
▁Sanb	-10645
▁Seet	-10646
▁Sook	-10647
▁Ster	-10648
▁Term	-10649
▁Touy	-10650
▁Tran	-10651
▁When	-10652
▁Zenn	-10653
▁adap	-10654
▁amar	-10655
▁amen	-10656
▁avez	-10657
▁avwe	-10658
▁awar	-10659
▁beni	-10660
▁bicy	-10661
▁bird	-10662
▁blie	-10663
▁blue	-10664
▁bogi	-10665
▁bois	-10666
▁bros	-10667
▁cach	-10668
▁chef	-10669
▁cinq	-10670
▁cong	-10671
▁coup	-10672
▁date	-10673
▁defo	-10674
▁demo	-10675
▁dess	-10676
▁diil	-10677
▁dont	-10678
▁doom	-10679
▁dous	-10680
▁drag	-10681
▁dram	-10682
▁drew	-10683
▁duty	-10684
▁dyal	-10685
▁eats	-10686
▁edmi	-10687
▁ekri	-10688
▁elit	-10689
▁enan	-10690
▁esey	-10691
▁evid	-10692
▁exec	-10693
▁ezem	-10694
▁fera	-10695
▁flew	-10696
▁flut	-10697
▁font	-10698
▁frap	-10699
15.	-10700
GMO	-10701
Tul	-10702
off	-10703
▁35	-10704
▁8,	-10705
Kler	-10706
MAAS	-10707
ités	-10708
ocus	-10709
▁4-5	-10710
▁70.	-10711
▁Esp	-10712
▁cas	-10713
▁sad	-10714
Toute	-10715
mense	-10716
osing	-10717
pects	-10718
plase	-10719
seign	-10720
which	-10721
▁1975	-10722
▁Leon	-10723
▁Manb	-10724
▁Samy	-10725
▁alph	-10726
▁emin	-10727
▁ensp	-10728
▁fraz	-10729
▁frit	-10730
▁furi	-10731
▁gamb	-10732
▁gift	-10733
▁glad	-10734
▁glan	-10735
▁glas	-10736
▁grap	-10737
▁grew	-10738
▁horl	-10739
▁hous	-10740
▁hudd	-10741
▁inko	-10742
▁item	-10743
▁jaws	-10744
▁jour	-10745
▁kary	-10746
▁kenz	-10747
▁keys	-10748
▁kile	-10749
▁king	-10750
▁klot	-10751
▁kurt	-10752
▁lali	-10753
▁laun	-10754
▁legz	-10755
▁lest	-10756
▁lift	-10757
▁liku	-10758
▁loin	-10759
▁lonn	-10760
▁loud	-10761
▁louk	-10762
▁mand	-10763
▁mens	-10764
▁mist	-10765
▁mord	-10766
▁mult	-10767
▁musc	-10768
▁neve	-10769
▁nice	-10770
▁nome	-10771
▁nuit	-10772
▁oeil	-10773
▁omaz	-10774
▁onto	-10775
▁pack	-10776
▁path	-10777
▁pend	-10778
▁perf	-10779
▁pire	-10780
▁plim	-10781
▁plin	-10782
▁ponp	-10783
▁pull	-10784
▁pwal	-10785
▁pwiz	-10786
▁rabb	-10787
▁raft	-10788
▁ranb	-10789
▁redi	-10790
▁revi	-10791
▁rows	-10792
▁réun	-10793
▁seed	-10794
▁seek	-10795
▁sens	-10796
▁sera	-10797
▁seul	-10798
▁sick	-10799
isted	-10800
reath	-10801
wayal	-10802
▁8:00	-10803
▁sinn	-10804
▁sits	-10805
▁snif	-10806
▁sofa	-10807
▁sofe	-10808
▁soft	-10809
▁soke	-10810
▁sonn	-10811
▁sout	-10812
▁sown	-10813
▁star	-10814
▁staz	-10815
▁sung	-10816
▁tame	-10817
▁thin	-10818
▁tied	-10819
▁ties	-10820
▁tike	-10821
▁tipe	-10822
▁tipt	-10823
▁tort	-10824
▁trem	-10825
▁trip	-10826
▁trok	-10827
▁trom	-10828
▁tuer	-10829
▁tusa	-10830
▁umem	-10831
▁unch	-10832
▁unex	-10833
▁upro	-10834
▁upst	-10835
▁vary	-10836
▁venu	-10837
▁veut	-10838
▁veye	-10839
▁vite	-10840
▁vyab	-10841
▁wear	-10842
▁weys	-10843
▁whip	-10844
▁wide	-10845
▁wire	-10846
▁woke	-10847
▁zete	-10848
▁zini	-10849
▁zwif	-10850
▁zwin	-10851
Alafen	-10852
Amizir	-10853
Annual	-10854
Before	-10855
Claude	-10856
Detrwa	-10857
Dimann	-10858
Dousma	-10859
ECOLOG	-10860
Israel	-10861
Komite	-10862
Lagrev	-10863
Member	-10864
Ondire	-10865
Palest	-10866
Partou	-10867
People	-10868
Perfor	-10869
Plitar	-10870
Sakula	-10871
Sekter	-10872
Slowly	-10873
Social	-10874
Toutes	-10875
Tultan	-10876
abliss	-10877
akilte	-10878
alized	-10879
anpayn	-10880
apolis	-10881
arezon	-10882
arnaom	-10883
arning	-10884
astrop	-10885
ateral	-10886
basman	-10887
cheurs	-10888
culiar	-10889
desann	-10890
douana	-10891
dousma	-10892
endent	-10893
ending	-10894
enheim	-10895
ennent	-10896
ervwar	-10897
fetime	-10898
fortun	-10899
geting	-10900
houses	-10901
ikatir	-10902
ilater	-10903
ilbert	-10904
illing	-10905
iments	-10906
indaba	-10907
indevi	-10908
indust	-10909
isible	-10910
ission	-10911
isting	-10912
istrar	-10913
izaman	-10914
keting	-10915
killer	-10916
klavaz	-10917
lained	-10918
lanbik	-10919
langaz	-10920
marsan	-10921
ograph	-10922
ontane	-10923
ontrol	-10924
orrupt	-10925
ournée	-10926
person	-10927
ployed	-10928
portun	-10929
produc	-10930
propri	-10931
quence	-10932
quille	-10933
radict	-10934
rograd	-10935
ronger	-10936
rovers	-10937
rupted	-10938
rémité	-10939
sidire	-10940
sistem	-10941
sively	-10942
subtra	-10943
terday	-10944
uation	-10945
ulties	-10946
untary	-10947
urally	-10948
vanced	-10949
venirs	-10950
verner	-10951
wazyem	-10952
yolans	-10953
ysical	-10954
érieur	-10955
▁1,200	-10956
▁1978,	-10957
▁1982,	-10958
▁1995,	-10959
▁1996,	-10960
▁1998.	-10961
▁20-30	-10962
▁2000,	-10963
▁2007.	-10964
▁2008.	-10965
▁2013.	-10966
▁Award	-10967
▁Belle	-10968
▁Bizin	-10969
▁CHINA	-10970
▁Chady	-10971
▁Cyril	-10972
▁Dayer	-10973
▁Derek	-10974
▁Enron	-10975
▁Enter	-10976
▁Filip	-10977
▁Haiti	-10978
▁Hares	-10979
▁Itali	-10980
▁LEROP	-10981
▁Latin	-10982
▁Lendi	-10983
▁MMMSP	-10984
▁March	-10985
▁Marin	-10986
▁Multi	-10987
▁North	-10988
▁PROPO	-10989
▁Panel	-10990
▁Plato	-10991
▁Prime	-10992
▁Radyo	-10993
▁Sivil	-10994
▁Soley	-10995
▁Tante	-10996
▁Terre	-10997
▁Texas	-10998
▁Timol	-10999
▁Torti	-11000
▁Under	-11001
▁Uteem	-11002
▁Verts	-11003
▁Vijay	-11004
▁Women	-11005
▁Zozef	-11006
▁abneg	-11007
▁abone	-11008
▁accom	-11009
▁aimed	-11010
▁alive	-11011
▁allég	-11012
▁aloud	-11013
▁angle	-11014
▁angry	-11015
▁anime	-11016
▁ankre	-11017
▁antag	-11018
▁antou	-11019
▁anvoy	-11020
▁anyel	-11021
▁apele	-11022
▁apros	-11023
▁arsiv	-11024
▁aspir	-11025
▁atake	-11026
▁autre	-11027
▁avyon	-11028
▁balan	-11029
▁bandi	-11030
▁barem	-11031
▁beach	-11032
▁below	-11033
▁bient	-11034
▁birth	-11035
▁bizar	-11036
▁bizou	-11037
▁bonis	-11038
▁bonom	-11039
▁bonte	-11040
▁boots	-11041
▁butey	-11042
▁categ	-11043
▁cause	-11044
▁cells	-11045
▁coffe	-11046
▁coins	-11047
▁color	-11048
▁court	-11049
▁crazy	-11050
▁croix	-11051
▁crops	-11052
▁daily	-11053
▁debaz	-11054
▁dedye	-11055
▁deger	-11056
▁delay	-11057
▁demag	-11058
▁demin	-11059
▁demon	-11060
▁depoz	-11061
▁deriv	-11062
▁detas	-11063
▁deter	-11064
▁dirab	-11065
▁divid	-11066
▁dolok	-11067
▁domaz	-11068
▁drese	-11069
▁drove	-11070
▁drunk	-11071
▁duler	-11072
▁efase	-11073
▁ekrit	-11074
▁ekzek	-11075
▁envit	-11076
▁excit	-11077
▁faces	-11078
▁feray	-11079
▁fired	-11080
▁fitir	-11081
▁foste	-11082
▁freed	-11083
▁fware	-11084
▁galon	-11085
▁garaz	-11086
▁gazez	-11087
▁girls	-11088
▁gomon	-11089
▁goute	-11090
▁holid	-11091
▁hoped	-11092
▁ideal	-11093
▁ignor	-11094
▁imper	-11095
▁impro	-11096
▁infli	-11097
▁inher	-11098
▁inple	-11099
▁insit	-11100
▁inspe	-11101
▁integ	-11102
▁intim	-11103
▁jours	-11104
▁kabri	-11105
▁kanal	-11106
▁kapab	-11107
▁kofor	-11108
▁koleg	-11109
▁komet	-11110
▁krash	-11111
▁kwins	-11112
▁ladig	-11113
▁laenn	-11114
▁lagos	-11115
▁lakes	-11116
▁lakle	-11117
▁lakot	-11118
▁lantu	-11119
▁larut	-11120
▁lasal	-11121
▁leads	-11122
▁lebra	-11123
▁lemet	-11124
▁leren	-11125
▁letaz	-11126
▁lezel	-11127
▁liked	-11128
▁limaz	-11129
▁linet	-11130
▁lizur	-11131
▁lotla	-11132
▁macho	-11133
▁maske	-11134
▁mason	-11135
▁matla	-11136
▁maybe	-11137
▁meant	-11138
▁melas	-11139
▁memor	-11140
▁mixed	-11141
▁modes	-11142
▁monde	-11143
▁moust	-11144
▁moves	-11145
▁ocean	-11146
▁okler	-11147
▁opens	-11148
▁opoze	-11149
▁panik	-11150
▁panvi	-11151
▁paraz	-11152
▁pares	-11153
▁parle	-11154
▁peace	-11155
▁penet	-11156
▁persu	-11157
▁petal	-11158
▁petar	-11159
▁phone	-11160
▁pilot	-11161
▁plato	-11162
▁poyne	-11163
▁prend	-11164
▁prese	-11165
▁print	-11166
▁prost	-11167
▁prouv	-11168
▁pruve	-11169
▁pwent	-11170
▁ranze	-11171
▁reach	-11172
▁rebor	-11173
▁reget	-11174
▁rekey	-11175
▁rekta	-11176
▁relev	-11177
▁retar	-11178
▁roman	-11179
▁rooms	-11180
▁roule	-11181
▁sacri	-11182
▁salam	-11183
▁salie	-11184
▁scien	-11185
▁scrap	-11186
▁seans	-11187
▁segne	-11188
▁sells	-11189
▁semiz	-11190
▁sharp	-11191
▁shown	-11192
▁sible	-11193
▁sipor	-11194
▁sirvi	-11195
▁sitan	-11196
▁skull	-11197
▁slope	-11198
▁soler	-11199
▁sosyo	-11200
▁spare	-11201
▁speck	-11202
▁spell	-11203
▁spend	-11204
▁spesi	-11205
▁split	-11206
▁starv	-11207
▁steyt	-11208
▁stole	-11209
▁storm	-11210
▁stout	-11211
▁strol	-11212
▁suite	-11213
▁sweat	-11214
▁swete	-11215
▁swivi	-11216
▁syeze	-11217
▁tante	-11218
▁tasty	-11219
▁tells	-11220
▁teste	-11221
▁tight	-11222
▁tiran	-11223
▁tools	-11224
▁torti	-11225
▁toule	-11226
▁travo	-11227
▁trick	-11228
▁truly	-11229
▁unity	-11230
▁upset	-11231
▁utter	-11232
▁valid	-11233
▁ville	-11234
▁vital	-11235
▁vivas	-11236
▁waste	-11237
▁weeds	-11238
▁wheat	-11239
▁whisk	-11240
▁winnd	-11241
▁worst	-11242
▁yours	-11243
▁zenes	-11244
▁zepol	-11245
▁ziman	-11246
▁zimaz	-11247
▁zurne	-11248
4-1995.	-11249
Already	-11250
Alright	-11251
Dimounn	-11252
Finally	-11253
General	-11254
ICATION	-11255
Klerman	-11256
Lapolis	-11257
Militan	-11258
Mohamed	-11259
OSPHERE	-11260
Problem	-11261
Remarke	-11262
Seksyon	-11263
Tandans	-11264
Whereas	-11265
Zenosid	-11266
actions	-11267
akteman	-11268
atively	-11269
azorite	-11270
binezon	-11271
bsidies	-11272
cherche	-11273
ciously	-11274
dabitid	-11275
ekpoynt	-11276
enseign	-11277
estival	-11278
iciency	-11279
ificant	-11280
ifornia	-11281
inistry	-11282
ipelago	-11283
istrict	-11284
itating	-11285
lookers	-11286
mittees	-11287
onasion	-11288
onksyon	-11289
otalite	-11290
otasyon	-11291
pointed	-11292
realite	-11293
reation	-11294
spekter	-11295
taining	-11296
utation	-11297
wendevi	-11298
zektwar	-11299
zenosid	-11300
▁1,000,	-11301
▁80,000	-11302
▁ANIMAL	-11303
▁Analiz	-11304
▁Arafat	-11305
▁Assess	-11306
▁Awards	-11307
▁Balram	-11308
▁Belmon	-11309
▁Benson	-11310
▁Cancun	-11311
▁Chavez	-11312
▁Clelie	-11313
▁Common	-11314
▁Commun	-11315
▁Creole	-11316
▁Depite	-11317
▁Dimunn	-11318
▁Durban	-11319
▁Edited	-11320
▁Estate	-11321
▁Favory	-11322
▁Foster	-11323
▁Garson	-11324
▁George	-11325
▁Innkom	-11326
▁Jameel	-11327
▁Jersey	-11328
▁Joness	-11329
▁Kanada	-11330
▁Karann	-11331
▁Karonn	-11332
▁LARZAN	-11333
▁Laferm	-11334
▁Lagrev	-11335
▁Laswed	-11336
▁Latinn	-11337
▁London	-11338
▁Malgre	-11339
▁Mamzel	-11340
▁Nablus	-11341
▁Occupy	-11342
▁Orders	-11343
▁Otonom	-11344
▁PLHDWU	-11345
▁Philip	-11346
▁Piblik	-11347
▁Porlwi	-11348
▁Prizon	-11349
▁Puvwar	-11350
▁Ramano	-11351
▁Remake	-11352
▁Richel	-11353
▁Rwayom	-11354
▁SERIES	-11355
▁Sector	-11356
▁Shrimp	-11357
▁Sirman	-11358
▁VOLUME	-11359
▁Vacoas	-11360
▁Wenhua	-11361
▁Zapone	-11362
▁abitie	-11363
▁absird	-11364
▁abstra	-11365
▁abstre	-11366
▁affect	-11367
▁agenda	-11368
▁agents	-11369
▁alabaz	-11370
▁allows	-11371
▁amount	-11372
▁angaze	-11373
▁answer	-11374
▁apovri	-11375
▁aspect	-11376
▁attend	-11377
▁baking	-11378
▁barley	-11379
▁baying	-11380
▁belief	-11381
▁biskwi	-11382
▁bricks	-11383
▁buried	-11384
▁butted	-11385
▁buying	-11386
▁bwason	-11387
▁centre	-11388
▁choice	-11389
▁closed	-11390
▁common	-11391
▁compar	-11392
▁confes	-11393
▁contro	-11394
▁county	-11395
▁couple	-11396
▁crimes	-11397
▁danbwa	-11398
▁dashed	-11399
▁debark	-11400
▁defans	-11401
▁defons	-11402
▁degaze	-11403
▁depoze	-11404
▁detail	-11405
▁devenu	-11406
▁devwal	-11407
▁dezast	-11408
▁dezene	-11409
▁dibyen	-11410
▁dimans	-11411
▁dirize	-11412
▁distin	-11413
▁divors	-11414
▁donkey	-11415
▁donner	-11416
▁douler	-11417
▁dusman	-11418
▁décidé	-11419
▁eating	-11420
▁efikas	-11421
▁ekoloz	-11422
▁elabor	-11423
▁elarzi	-11424
▁eleven	-11425
▁emerze	-11426
▁ensure	-11427
▁exepte	-11428
▁extent	-11429
▁faster	-11430
▁fermal	-11431
▁feyton	-11432
▁fierce	-11433
▁filled	-11434
▁firing	-11435
▁firmly	-11436
▁flaunt	-11437
▁formal	-11438
▁former	-11439
▁formil	-11440
▁fought	-11441
▁frazil	-11442
▁gauche	-11443
▁giving	-11444
▁growls	-11445
▁halted	-11446
▁hardly	-11447
▁heaven	-11448
▁heroic	-11449
▁highly	-11450
▁hunger	-11451
▁imilye	-11452
▁income	-11453
▁infliz	-11454
▁inosan	-11455
▁inpoze	-11456
▁intans	-11457
▁kaninn	-11458
▁kikfwa	-11459
▁kisann	-11460
▁klasik	-11461
▁kliyan	-11462
▁koeran	-11463
▁komant	-11464
▁konble	-11465
▁kondir	-11466
▁konfig	-11467
▁konket	-11468
▁konkur	-11469
▁konplo	-11470
▁koudme	-11471
▁kouran	-11472
▁kreyon	-11473
▁laburs	-11474
▁lafore	-11475
▁laglas	-11476
▁lagrin	-11477
▁lalign	-11478
▁lalkol	-11479
▁lanklo	-11480
▁lanons	-11481
▁lansar	-11482
▁larenn	-11483
▁lashed	-11484
▁latant	-11485
▁libere	-11486
▁lintel	-11487
▁locked	-11488
▁losean	-11489
▁lowest	-11490
▁luvraz	-11491
▁lwazir	-11492
▁mainly	-11493
▁manage	-11494
▁marché	-11495
▁marmit	-11496
▁marsan	-11497
▁mental	-11498
▁merely	-11499
▁metriz	-11500
▁mighty	-11501
▁miltil	-11502
▁modord	-11503
▁moving	-11504
▁murder	-11505
▁myself	-11506
▁myster	-11507
▁nefast	-11508
▁nimero	-11509
▁oclock	-11510
▁offers	-11511
▁office	-11512
▁okuran	-11513
▁orange	-11514
▁orient	-11515
▁origin	-11516
▁oryant	-11517
▁parcel	-11518
▁pardon	-11519
▁partly	-11520
▁patrol	-11521
▁paused	-11522
▁peizan	-11523
▁permit	-11524
▁pisinn	-11525
▁pistas	-11526
▁pièces	-11527
▁played	-11528
▁pofinn	-11529
▁points	-11530
▁porter	-11531
▁posses	-11532
▁postal	-11533
▁potato	-11534
▁pouvez	-11535
▁preavi	-11536
▁presip	-11537
▁prezid	-11538
▁prison	-11539
▁promne	-11540
▁promot	-11541
▁proven	-11542
▁quelqu	-11543
▁radeau	-11544
▁ralant	-11545
▁ramenn	-11546
▁ranvoy	-11547
▁rasyon	-11548
▁razwar	-11549
▁rebell	-11550
▁refren	-11551
▁regime	-11552
▁relans	-11553
▁repeat	-11554
▁resort	-11555
▁resour	-11556
▁revolt	-11557
▁reward	-11558
▁rezime	-11559
▁rising	-11560
▁rumour	-11561
▁répond	-11562
▁sagren	-11563
▁sagrin	-11564
▁santer	-11565
▁sarbon	-11566
▁seldom	-11567
▁serser	-11568
▁shared	-11569
▁shrill	-11570
▁sinema	-11571
▁sketch	-11572
▁slaves	-11573
▁soleil	-11574
▁sooner	-11575
▁source	-11576
▁stones	-11577
▁string	-11578
▁suleve	-11579
▁supply	-11580
▁tables	-11581
▁talker	-11582
▁tavern	-11583
▁terror	-11584
▁throat	-11585
▁tirwar	-11586
▁toiled	-11587
▁tourne	-11588
▁toutes	-11589
▁traver	-11590
▁tricks	-11591
▁turnan	-11592
▁twatir	-11593
▁twelve	-11594
▁tyrann	-11595
▁unanim	-11596
▁underp	-11597
▁vandab	-11598
▁violan	-11599
▁voices	-11600
▁weight	-11601
▁welfer	-11602
,000,000	-11603
Alliance	-11604
Anverite	-11605
Benjamin	-11606
Bérenger	-11607
Dezyeman	-11608
Direkter	-11609
Komanter	-11610
Lasanble	-11611
Laverite	-11612
Lerlamem	-11613
Merkredi	-11614
Moreover	-11615
Prezidan	-11616
Relasion	-11617
Tertiary	-11618
Toutswit	-11619
aiguille	-11620
capacity	-11621
enteryer	-11622
finisyon	-11623
ideolozi	-11624
idership	-11625
inperyal	-11626
inyasyon	-11627
konstans	-11628
nasyonal	-11629
ondasyon	-11630
pozisyon	-11631
▁Afriken	-11632
▁Akademi	-11633
▁Animals	-11634
▁Antoine	-11635
▁Beijing	-11636
▁Bellamy	-11637
▁Dirzans	-11638
▁Drought	-11639
▁Eastern	-11640
▁FARMING	-11641
▁General	-11642
▁Goomany	-11643
▁Jacques	-11644
▁Justice	-11645
▁Kawnsil	-11646
▁Lapolis	-11647
▁Lasante	-11648
▁Lavenir	-11649
▁Meeting	-11650
▁Montayn	-11651
▁Okinawa	-11652
▁Ostrali	-11653
▁Otorite	-11654
▁Parsyel	-11655
▁Roberto	-11656
▁SYSTEMS	-11657
▁Salomon	-11658
▁Sanndia	-11659
▁Seattle	-11660
▁Seminar	-11661
▁Solitid	-11662
▁Suzanne	-11663
▁ability	-11664
▁acheter	-11665
▁adisyon	-11666
▁advance	-11667
▁affairs	-11668
▁aktivis	-11669
▁amelyor	-11670
▁ansekre	-11671
▁anseyne	-11672
▁antisip	-11673
▁apresie	-11674
▁apresye	-11675
▁arrière	-11676
▁assured	-11677
▁attract	-11678
▁beneath	-11679
▁brother	-11680
▁buckets	-11681
▁busines	-11682
▁cachent	-11683
▁capable	-11684
▁conduct	-11685
▁confess	-11686
▁congrat	-11687
▁contemp	-11688
▁cooking	-11689
▁creates	-11690
▁dabitid	-11691
▁dangers	-11692
▁danplwa	-11693
▁dekuraz	-11694
▁deliver	-11695
▁demeure	-11696
▁deregle	-11697
▁despair	-11698
▁devoted	-11699
▁dezakor	-11700
▁dirzans	-11701
▁discrim	-11702
▁divorce	-11703
▁dominer	-11704
▁driving	-11705
▁efforts	-11706
▁egziste	-11707
▁ekrivin	-11708
▁enemies	-11709
▁examinn	-11710
▁exclaim	-11711
▁existan	-11712
▁exprime	-11713
▁felisit	-11714
▁filozof	-11715
▁follows	-11716
▁fraktir	-11717
▁frengan	-11718
▁furious	-11719
▁glances	-11720
▁grander	-11721
▁granper	-11722
▁grounds	-11723
▁harmful	-11724
▁heading	-11725
▁hearing	-11726
▁helping	-11727
▁heureux	-11728
▁highest	-11729
▁housing	-11730
▁husband	-11731
▁ikonpri	-11732
▁imazine	-11733
▁imigran	-11734
▁immense	-11735
▁imports	-11736
▁include	-11737
▁inkapab	-11738
▁instale	-11739
▁install	-11740
▁instant	-11741
▁intends	-11742
▁islands	-11743
▁izolwar	-11744
▁journée	-11745
▁justice	-11746
▁keeping	-11747
▁kestion	-11748
▁kilomet	-11749
▁kondann	-11750
▁konekte	-11751
▁konserv	-11752
▁kontant	-11753
▁kontrer	-11754
▁konvers	-11755
▁koronpi	-11756
▁kreatir	-11757
▁labouzi	-11758
▁lagitar	-11759
▁lamizer	-11760
▁lansman	-11761
▁lantern	-11762
▁leading	-11763
▁lekolaz	-11764
▁lemoman	-11765
▁lempsom	-11766
▁lezitim	-11767
▁malprop	-11768
▁maximem	-11769
▁menasan	-11770
▁mothers	-11771
▁muscles	-11772
▁nearest	-11773
▁neither	-11774
▁nuritir	-11775
▁opinion	-11776
▁opposed	-11777
▁optimal	-11778
▁orfelen	-11779
▁otorize	-11780
▁otorout	-11781
▁painted	-11782
▁parking	-11783
▁parkour	-11784
▁partout	-11785
▁peoples	-11786
▁persons	-11787
▁playing	-11788
▁poisson	-11789
▁porkers	-11790
▁pouvoir	-11791
▁predict	-11792
▁prendre	-11793
▁prezide	-11794
▁product	-11795
▁promote	-11796
▁provayd	-11797
▁provide	-11798
▁quelque	-11799
▁ranfors	-11800
▁raptise	-11801
▁reflete	-11802
▁regilie	-11803
▁rekonst	-11804
▁respekt	-11805
▁rubbish	-11806
▁sacking	-11807
▁section	-11808
▁seeming	-11809
▁sharply	-11810
▁shiftaz	-11811
▁sifizan	-11812
▁sinkron	-11813
▁slipped	-11814
▁smaller	-11815
▁sortent	-11816
▁sounded	-11817
▁sources	-11818
▁sparrow	-11819
▁spinney	-11820
▁stirred	-11821
▁streets	-11822
▁strikes	-11823
▁studied	-11824
▁sumarin	-11825
▁sutenab	-11826
▁sympath	-11827
▁tantinn	-11828
▁tombent	-11829
▁tongues	-11830
▁totally	-11831
▁traizon	-11832
▁trilyon	-11833
▁tristes	-11834
▁trouble	-11835
▁uttered	-11836
▁violans	-11837
▁violent	-11838
▁volunte	-11839
▁watched	-11840
▁younger	-11841
▁zestyon	-11842
▁zintere	-11843
Frederick	-11844
Kondisyon	-11845
Lindistri	-11846
Normalman	-11847
Palestinn	-11848
Tablisman	-11849
Tanzantan	-11850
Toulezour	-11851
alimanter	-11852
antyelman	-11853
ikatirist	-11854
onpaynman	-11855
orruption	-11856
ouvernman	-11857
pansasyon	-11858
prezantan	-11859
▁Alawenns	-11860
▁American	-11861
▁Aparteid	-11862
▁Banndouk	-11863
▁Burzwazi	-11864
▁February	-11865
▁Katriyem	-11866
▁Kimanyer	-11867
▁Lakademi	-11868
▁Ministry	-11869
▁Monsanto	-11870
▁Movement	-11871
▁Novartis	-11872
▁Peerally	-11873
▁Protocol	-11874
▁Ramlogun	-11875
▁Services	-11876
▁Sterling	-11877
▁Terminal	-11878
▁accurate	-11879
▁accusing	-11880
▁addition	-11881
▁admiring	-11882
▁advanced	-11883
▁aksantye	-11884
▁akselere	-11885
▁aksyoner	-11886
▁alphabet	-11887
▁andezord	-11888
▁approval	-11889
▁artistik	-11890
▁assemble	-11891
▁attempts	-11892
▁attitude	-11893
▁beaucoup	-11894
▁biscuits	-11895
▁bleeding	-11896
▁boutique	-11897
▁branches	-11898
▁challenj	-11899
▁closures	-11900
▁cockerel	-11901
▁concerns	-11902
▁controls	-11903
▁convince	-11904
▁creature	-11905
▁critical	-11906
▁defeated	-11907
▁deklanse	-11908
▁demonstr	-11909
▁derrière	-11910
▁dramatik	-11911
▁election	-11912
▁exercise	-11913
▁explwate	-11914
▁ezemonik	-11915
▁faithful	-11916
▁fasilite	-11917
▁fighting	-11918
▁followed	-11919
▁gathered	-11920
▁golfkors	-11921
▁gosizant	-11922
▁greatest	-11923
▁historic	-11924
▁hoisting	-11925
▁includes	-11926
▁inpinite	-11927
▁internet	-11928
▁kimanier	-11929
▁komersan	-11930
▁kominalo	-11931
▁konplete	-11932
▁konpozan	-11933
▁konteste	-11934
▁kontinan	-11935
▁kreasion	-11936
▁lapentir	-11937
▁launched	-11938
▁laverite	-11939
▁lazistis	-11940
▁lepidemi	-11941
▁lifetime	-11942
▁memories	-11943
▁mentenir	-11944
▁miracles	-11945
▁misterye	-11946
▁mordefen	-11947
▁mouthful	-11948
▁nasional	-11949
▁occupied	-11950
▁officers	-11951
▁partizan	-11952
▁peculiar	-11953
▁perkitan	-11954
▁petrolye	-11955
▁planifye	-11956
▁planning	-11957
▁pourquoi	-11958
▁preferab	-11959
▁prepares	-11960
▁presents	-11961
▁products	-11962
▁profound	-11963
▁promptly	-11964
▁protokol	-11965
▁pwendevi	-11966
▁rafinnri	-11967
▁ranplase	-11968
▁reaction	-11969
▁realized	-11970
▁redakter	-11971
▁regarded	-11972
▁replaced	-11973
▁reportaz	-11974
▁represiv	-11975
▁retiring	-11976
▁rezidans	-11977
▁risponns	-11978
▁saldebin	-11979
▁separate	-11980
▁servitid	-11981
▁shopping	-11982
▁shouting	-11983
▁sitwayin	-11984
▁soutenir	-11985
▁spelling	-11986
▁stirring	-11987
▁stronger	-11988
▁studying	-11989
▁synchron	-11990
▁tertiary	-11991
▁throwing	-11992
▁tilanbik	-11993
▁touletan	-11994
▁transpir	-11995
▁trwaziem	-11996
▁trwazyem	-11997
▁turbines	-11998
▁uttering	-11999
▁uvertman	-12000
▁vacation	-12001
▁viktorye	-12002
▁zardinye	-12003
▁zeografi	-12004
▁zidisyer	-12005
▁zurnalis	-12006
▁établiss	-12007
Afterwards	-12008
ECOLOGICAL	-12009
Especially	-12010
Federasyon	-12011
Trwazyeman	-12012
alyenasyon	-12013
ledikasyon	-12014
linguistic	-12015
production	-12016
radictions	-12017
ricultural	-12018
▁Administr	-12019
▁BIOSPHERE	-12020
▁Chagosyin	-12021
▁Kafarnaom	-12022
▁Languages	-12023
▁Oligarchs	-12024
▁Pelindaba	-12025
▁Richelieu	-12026
▁Severenns	-12027
▁Singapour	-12028
▁Snowballs	-12029
▁Socialist	-12030
▁Syndicate	-12031
▁admission	-12032
▁aktyalite	-12033
▁antreliyn	-12034
▁appointed	-12035
▁aprofondi	-12036
▁bestluzer	-12037
▁boulverse	-12038
▁bourgeois	-12039
▁budgetary	-12040
▁catastrop	-12041
▁certainly	-12042
▁committee	-12043
▁continues	-12044
▁defensive	-12045
▁democracy	-12046
▁departure	-12047
▁dimansyon	-12048
▁directeur	-12049
▁dispanser	-12050
▁ducklings	-12051
▁dyalektik	-12052
▁ekonomist	-12053
▁entelizan	-12054
▁essential	-12055
▁evolisyon	-12056
▁exception	-12057
▁exhausted	-12058
▁expensive	-12059
▁exsepsyon	-12060
▁fantastic	-12061
▁fantastik	-12062
▁flagstaff	-12063
▁forbidden	-12064
▁formelman	-12065
▁generally	-12066
▁granmatin	-12067
▁inflasyon	-12068
▁inflation	-12069
▁instances	-12070
▁intention	-12071
▁interview	-12072
▁investing	-12073
▁investors	-12074
▁konfesion	-12075
▁konfesyon	-12076
▁konfizion	-12077
▁konkretiz	-12078
▁konsekans	-12079
▁lakanpayn	-12080
▁laliberte	-12081
▁lesklavaz	-12082
▁lexistans	-12083
▁literatir	-12084
▁machinery	-12085
▁marketing	-12086
▁naturally	-12087
▁negotiate	-12088
▁onlookers	-12089
▁operasion	-12090
▁permisyon	-12091
▁pretended	-12092
▁prezidans	-12093
▁privately	-12094
▁privilege	-12095
▁producers	-12096
▁producing	-12097
▁profonder	-12098
▁promosion	-12099
▁protested	-12100
▁published	-12101
▁recherche	-12102
▁regilariz	-12103
▁rekonpans	-12104
▁rekritman	-12105
▁remaining	-12106
▁retrograd	-12107
▁rezervwar	-12108
▁serviteur	-12109
▁shoulders	-12110
▁sifizaman	-12111
▁signatory	-12112
▁socialism	-12113
▁socialist	-12114
▁soubasman	-12115
▁stretched	-12116
▁subsidies	-12117
▁succeeded	-12118
▁teknolozi	-12119
▁testimony	-12120
▁toutotour	-12121
▁transform	-12122
▁winndforl	-12123
▁yesterday	-12124
▁étudiants	-12125
konpetisyon	-12126
morisyanism	-12127
nasyonalism	-12128
▁1994-1995.	-12129
▁Assessment	-12130
▁California	-12131
▁Conference	-12132
▁Department	-12133
▁Efektivman	-12134
▁Gonndouana	-12135
▁Guggenheim	-12136
▁Industrial	-12137
▁Lemapavyon	-12138
▁Technology	-12139
▁admirasion	-12140
▁alyenasyon	-12141
▁antretenir	-12142
▁appreciate	-12143
▁approached	-12144
▁birokratik	-12145
▁competence	-12146
▁conclusion	-12147
▁conversion	-12148
▁daktyalite	-12149
▁destroying	-12150
▁dipwendevi	-12151
▁directions	-12152
▁efektivman	-12153
▁enpresione	-12154
▁evalyasyon	-12155
▁excitement	-12156
▁expozision	-12157
▁facilitate	-12158
▁fertilizan	-12159
▁fonksyoner	-12160
▁generation	-12161
▁increasing	-12162
▁individual	-12163
▁industrial	-12164
▁inspection	-12165
▁instructed	-12166
▁investiser	-12167
▁karakteriz	-12168
▁konbinezon	-12169
▁konklizyon	-12170
▁konparezon	-12171
▁konpletman	-12172
▁konplisite	-12173
▁kontrovers	-12174
▁lansegnman	-12175
▁lenportans	-12176
▁limitasyon	-12177
▁miltipliye	-12178
▁mysterious	-12179
▁neseserman	-12180
▁ofisyelman	-12181
▁oportinism	-12182
▁organizing	-12183
▁overthrown	-12184
▁partikilie	-12185
▁patriarkal	-12186
▁permission	-12187
▁plantasion	-12188
▁population	-12189
▁prodiksion	-12190
▁resistance	-12191
▁resolution	-12192
▁retournent	-12193
▁ridiculous	-12194
▁santralize	-12195
▁scientific	-12196
▁sispansyon	-12197
▁striktirel	-12198
▁successive	-12199
▁sufficient	-12200
▁supposedly	-12201
▁teknolozik	-12202
▁trankilman	-12203
▁transforme	-12204
▁trazektwar	-12205
▁unemployed	-12206
▁university	-12207
▁zenerasion	-12208
Nevertheless	-12209
enseignement	-12210
organization	-12211
▁Development	-12212
▁Environment	-12213
▁Governments	-12214
▁Lasosyasyon	-12215
▁agriculture	-12216
▁anticipated	-12217
▁apresyasyon	-12218
▁concessions	-12219
▁demonstrate	-12220
▁destriksion	-12221
▁disparisyon	-12222
▁environment	-12223
▁established	-12224
▁experienced	-12225
▁explikasion	-12226
▁fundamental	-12227
▁governments	-12228
▁imagination	-12229
▁inperyalism	-12230
▁instriksyon	-12231
▁interrupted	-12232
▁investments	-12233
▁konpartiman	-12234
▁konsomasion	-12235
▁lantrennman	-12236
▁lanvironman	-12237
▁lintelizans	-12238
▁obzervasyon	-12239
▁permanently	-12240
▁personalite	-12241
▁politicians	-12242
▁profesyonel	-12243
▁proficiency	-12244
▁prohibiting	-12245
▁ralantisman	-12246
▁resolutions	-12247
▁rezervasion	-12248
▁sirkonstans	-12249
▁supervision	-12250
▁temperature	-12251
▁traditional	-12252
▁understands	-12253
▁Minisipalite	-12254
▁Organisation	-12255
▁Organization	-12256
▁akselerasyon	-12257
▁anpartikilye	-12258
▁collectively	-12259
▁colonization	-12260
▁considerable	-12261
▁difficulties	-12262
▁disappearing	-12263
▁distribisyon	-12264
▁elektoralist	-12265
▁extraordiner	-12266
▁guvernmantal	-12267
▁instructions	-12268
▁konseptyaliz	-12269
▁kontribision	-12270
▁lenformasion	-12271
▁organisation	-12272
▁prezervasyon	-12273
▁professional	-12274
▁prostitisyon	-12275
▁ranforsisman	-12276
▁transactions	-12277
▁transferring	-12278
▁universities	-12279
▁veritableman	-12280
iversifikasyon	-12281
▁institutional	-12282
▁konfederasyon	-12283
▁konfigirasyon	-12284
▁sistematikman	-12285
Demokratizasyon	-12286
demokratizasyon	-12287
▁Konstitisyonel	-12288
▁administrasion	-12289
▁contradictions	-12290
▁interpretasyon	-12291
▁santralizasyon	-12292
▁transformasyon	-12293
▁DIVERSIFICATION	-12294
▁DIVERSIFIKASYON	-12295
▁synchronization	-12296
-18	-12297
0-4	-12298
153	-12299
28.	-12300
3.2	-12301
46.	-12302
99.	-12303
?'.	-12304
AIM	-12305
ATE	-12306
ATU	-12307
AWU	-12308
BOU	-12309
CID	-12310
CSG	-12311
Chi	-12312
DWC	-12313
GAR	-12314
GWF	-12315
HRC	-12316
ICU	-12317
IDS	-12318
IIL	-12319
IMO	-12320
IRE	-12321
MEA	-12322
MLF	-12323
NOL	-12324
OGM	-12325
OSA	-12326
Pov	-12327
RAM	-12328
RIZ	-12329
UVO	-12330
VII	-12331
ZIN	-12332
awt	-12333
hui	-12334
moi	-12335
ugd	-12336
éta	-12337
”;“	-12338
▁:”	-12339
-30%	-12340
.5%,	-12341
100.	-12342
46.7	-12343
650.	-12344
:30?	-12345
BAIM	-12346
Beau	-12347
Biro	-12348
CALP	-12349
CSOU	-12350
EADE	-12351
ECOS	-12352
ESSI	-12353
GRAM	-12354
Gaza	-12355
ICUL	-12356
IILM	-12357
IKRI	-12358
ISTO	-12359
Impl	-12360
Inde	-12361
KONS	-12362
Kolo	-12363
Lots	-12364
NOLO	-12365
Next	-12366
Poor	-12367
SACP	-12368
SATU	-12369
Such	-12370
Tusa	-12371
UVER	-12372
Very	-12373
WANT	-12374
amps	-12375
arko	-12376
asko	-12377
chua	-12378
clar	-12379
cois	-12380
conf	-12381
jobl	-12382
lacq	-12383
lict	-12384
naud	-12385
ohol	-12386
papa	-12387
pati	-12388
près	-12389
rewd	-12390
rrck	-12391
sito	-12392
swiv	-12393
urdy	-12394
ysic	-12395
▁".“	-12396
▁1%.	-12397
▁189	-12398
▁234	-12399
OB	-12400
.”“	-12401
Laz	-12402
dey	-12403
izo	-12404
▁EG	-12405
Erez	-12406
Pros	-12407
ario	-12408
onde	-12409
sant	-12410
teri	-12411
wiya	-12412
▁470	-12413
▁61-	-12414
▁79,	-12415
▁91.	-12416
▁ANC	-12417
▁ATM	-12418
▁Aaa	-12419
▁Arv	-12420
▁BEN	-12421
▁DET	-12422
▁Eta	-12423
▁GRC	-12424
▁Joe	-12425
▁KOL	-12426
▁LAT	-12427
▁LEG	-12428
▁MAR	-12429
▁MAT	-12430
▁Mex	-12431
▁NIU	-12432
▁Off	-12433
▁PSA	-12434
▁SAD	-12435
▁SBM	-12436
▁Sen	-12437
▁VAT	-12438
▁WSF	-12439
▁agr	-12440
▁déc	-12441
▁epw	-12442
▁réc	-12443
▁urg	-12444
▁zug	-12445
.1853	-12446
.1919	-12447
.1921	-12448
.1947	-12449
.1984	-12450
50...	-12451
Anfen	-12452
Angro	-12453
Ansam	-12454
Après	-12455
CESSI	-12456
Caraj	-12457
Carol	-12458
Comme	-12459
Dusma	-12460
EPORT	-12461
Human	-12462
ISTRI	-12463
ISYON	-12464
Konst	-12465
Konsy	-12466
LEMAN	-12467
Lafin	-12468
Lekol	-12469
Lepor	-12470
Mesaz	-12471
Metod	-12472
Moses	-12473
OUGHT	-12474
Omwen	-12475
Other	-12476
Papua	-12477
Pilat	-12478
Rezon	-12479
Samdi	-12480
Selon	-12481
Slide	-12482
Sugar	-12483
TEMAN	-12484
Tempo	-12485
Trete	-12486
USTRY	-12487
Until	-12488
Zurne	-12489
adaaf	-12490
aires	-12491
alsit	-12492
année	-12493
apeti	-12494
aucra	-12495
avoir	-12496
awiya	-12497
ayson	-12498
aytoo	-12499
);	-12500
)?	-12501
IV	-12502
Mod	-12503
bay	-12504
eep	-12505
iny	-12506
vio	-12507
yos	-12508
▁("	-12509
▁(2	-12510
▁55	-12511
▁EV	-12512
▁Id	-12513
Curi	-12514
Peoy	-12515
Yeah	-12516
date	-12517
engn	-12518
heen	-12519
ibin	-12520
lvio	-12521
omme	-12522
qual	-12523
roes	-12524
viol	-12525
▁37%	-12526
▁CSG	-12527
▁EVM	-12528
▁Gop	-12529
▁HIV	-12530
▁Jan	-12531
▁bum	-12532
▁bwa	-12533
▁ego	-12534
▁idi	-12535
▁kod	-12536
Lindi	-12537
allow	-12538
besil	-12539
bisid	-12540
books	-12541
ckers	-12542
cohol	-12543
ctics	-12544
dator	-12545
disan	-12546
ditor	-12547
edyat	-12548
egliz	-12549
elfth	-12550
erila	-12551
erkle	-12552
erksh	-12553
famil	-12554
forse	-12555
fuels	-12556
gosie	-12557
grite	-12558
happy	-12559
homme	-12560
human	-12561
iasko	-12562
igher	-12563
ijenn	-12564
ilité	-12565
imant	-12566
imène	-12567
irmal	-12568
iserd	-12569
komen	-12570
licts	-12571
lines	-12572
loads	-12573
nesty	-12574
nouri	-12575
odded	-12576
osoph	-12577
ossil	-12578
quill	-12579
rezon	-12580
rrrck	-12581
sitek	-12582
tennk	-12583
tidal	-12584
undun	-12585
urgat	-12586
useum	-12587
uxemb	-12588
versy	-12589
vival	-12590
woman	-12591
xtrem	-12592
èvent	-12593
▁101.	-12594
▁1848	-12595
▁1937	-12596
▁1943	-12597
▁1944	-12598
▁1953	-12599
rd	-12600
90,	-12601
Ask	-12602
Has	-12603
Sup	-12604
iva	-12605
nds	-12606
piy	-12607
▁2:	-12608
▁TO	-12609
Pliz	-12610
diad	-12611
iers	-12612
olom	-12613
pies	-12614
pwis	-12615
utey	-12616
▁Den	-12617
▁Dok	-12618
▁Jin	-12619
▁MCA	-12620
▁Tel	-12621
Butey	-12622
anged	-12623
brush	-12624
ersye	-12625
ertan	-12626
olton	-12627
oulen	-12628
▁1964	-12629
▁2.00	-12630
▁20%,	-12631
▁30-3	-12632
▁70.6	-12633
▁93.2	-12634
▁Aaaa	-12635
▁Akoz	-12636
▁Angu	-12637
▁Anna	-12638
▁Asha	-12639
▁Aunt	-12640
▁Ayoy	-12641
▁Bakh	-12642
▁Bapt	-12643
▁Bato	-12644
▁Belm	-12645
▁Bois	-12646
▁Bulk	-12647
▁Clif	-12648
▁Coka	-12649
▁DIRE	-12650
▁Dany	-12651
▁ERiA	-12652
▁Elle	-12653
▁FOOD	-12654
▁Finl	-12655
▁Flot	-12656
▁Hoss	-12657
▁INST	-12658
▁IWPS	-12659
▁Insu	-12660
▁Jude	-12661
▁July	-12662
▁KONT	-12663
▁KREE	-12664
▁Keep	-12665
▁LEGS	-12666
▁LIST	-12667
▁LOME	-12668
▁Lape	-12669
▁Loks	-12670
▁Lulu	-12671
▁Maya	-12672
▁Mids	-12673
▁Miss	-12674
▁NUVO	-12675
▁Nita	-12676
▁Peut	-12677
▁Spev	-12678
▁Teof	-12679
▁Zann	-12680
▁Zwif	-12681
▁ages	-12682
▁akal	-12683
▁biyo	-12684
▁bron	-12685
▁cade	-12686
▁coal	-12687
▁cryp	-12688
▁dawn	-12689
▁dois	-12690
▁doit	-12691
▁doux	-12692
▁drug	-12693
▁dyke	-12694
▁ecst	-12695
▁enth	-12696
▁excl	-12697
▁exit	-12698
▁ezit	-12699
?”,	-12700
Wel	-12701
abi	-12702
vie	-12703
▁64	-12704
▁Ka	-12705
▁NP	-12706
▁RA	-12707
▁km	-12708
Gayn	-12709
Wind	-12710
Zoli	-12711
alab	-12712
anab	-12713
bonn	-12714
esus	-12715
okip	-12716
time	-12717
▁70,	-12718
▁Lig	-12719
▁Nam	-12720
▁Tit	-12721
▁cup	-12722
▁hab	-12723
▁lob	-12724
▁sly	-12725
Jesus	-12726
Papye	-12727
allas	-12728
estan	-12729
estim	-12730
estiz	-12731
igite	-12732
ityer	-12733
monte	-12734
psyon	-12735
ultra	-12736
▁Area	-12737
▁Aziz	-12738
▁Dann	-12739
▁Konn	-12740
▁Zone	-12741
▁aler	-12742
▁aras	-12743
▁exag	-12744
▁faud	-12745
▁fele	-12746
▁fils	-12747
▁flor	-12748
▁genu	-12749
▁geto	-12750
▁girl	-12751
▁grif	-12752
▁guns	-12753
▁inqu	-12754
▁irig	-12755
▁irle	-12756
▁join	-12757
▁juin	-12758
▁kamp	-12759
▁kash	-12760
▁koki	-12761
▁kous	-12762
▁kupe	-12763
▁kute	-12764
▁lack	-12765
▁ladi	-12766
▁limp	-12767
▁lion	-12768
▁lots	-12769
▁miyn	-12770
▁mizo	-12771
▁murm	-12772
▁myrr	-12773
▁naiv	-12774
▁oter	-12775
▁otom	-12776
▁padd	-12777
▁pert	-12778
▁peze	-12779
▁phil	-12780
▁rado	-12781
▁rear	-12782
▁reki	-12783
▁rent	-12784
▁role	-12785
▁runs	-12786
▁senp	-12787
▁sibt	-12788
▁siek	-12789
▁skip	-12790
▁skop	-12791
▁sums	-12792
▁swiy	-12793
▁tabu	-12794
▁tard	-12795
▁tata	-12796
▁thie	-12797
▁zerm	-12798
▁’70,	-12799
ONN	-12800
Top	-12801
alj	-12802
baz	-12803
mos	-12804
top	-12805
▁Du	-12806
▁IT	-12807
▁KO	-12808
Land	-12809
atch	-12810
atom	-12811
chis	-12812
cket	-12813
morn	-12814
okun	-12815
ruct	-12816
spic	-12817
vive	-12818
wari	-12819
zyas	-12820
▁373	-12821
▁Bis	-12822
▁Cot	-12823
▁Hop	-12824
▁Kas	-12825
▁Kor	-12826
▁Ray	-12827
▁Ret	-12828
▁asy	-12829
▁nok	-12830
▁sch	-12831
▁tas	-12832
Absol	-12833
abalj	-12834
abeth	-12835
aling	-12836
antom	-12837
avant	-12838
bserv	-12839
osite	-12840
tifye	-12841
urzwa	-12842
▁Bore	-12843
▁Kans	-12844
▁Kons	-12845
▁Sami	-12846
▁WWII	-12847
▁alal	-12848
▁asom	-12849
▁donc	-12850
▁kinn	-12851
▁load	-12852
▁pale	-12853
▁prej	-12854
▁swas	-12855
▁unle	-12856
10,000	-12857
15.99.	-12858
46.75.	-12859
Alafin	-12860
Anyway	-12861
Balram	-12862
Beasts	-12863
COSATU	-12864
Deswit	-12865
Emilio	-12866
Empire	-12867
Franse	-12868
ICULTU	-12869
ISTORY	-12870
Indeed	-12871
KTEMAN	-12872
Konfli	-12873
Konsey	-12874
Lafoul	-12875
Lagrin	-12876
Lisyen	-12877
Masinn	-12878
Mazinn	-12879
Miting	-12880
Naryen	-12881
Piblik	-12882
Rasion	-12883
Resers	-12884
Second	-12885
Souvan	-12886
Textil	-12887
Tulede	-12888
Wadire	-12889
acious	-12890
aditif	-12891
adrwat	-12892
ailand	-12893
allied	-12894
andana	-12895
aracha	-12896
argent	-12897
cendre	-12898
cherer	-12899
FL	-12900
Out	-12901
RAC	-12902
Wow	-12903
akt	-12904
kok	-12905
osé	-12906
sur	-12907
tok	-12908
tut	-12909
▁od	-12910
0-40	-12911
Port	-12912
Thou	-12913
VRAC	-12914
atib	-12915
empl	-12916
orze	-12917
shev	-12918
unic	-12919
▁40-	-12920
▁Aun	-12921
▁Isn	-12922
▁Why	-12923
▁bow	-12924
▁clu	-12925
▁fok	-12926
▁rib	-12927
▁sho	-12928
anted	-12929
avann	-12930
azion	-12931
ennes	-12932
ennsi	-12933
ennte	-12934
igard	-12935
sione	-12936
ussel	-12937
ustom	-12938
uting	-12939
▁2:00	-12940
▁Grek	-12941
▁Izai	-12942
▁José	-12943
▁Tyer	-12944
▁bore	-12945
▁cand	-12946
▁dear	-12947
▁deku	-12948
▁ekru	-12949
▁lese	-12950
▁moon	-12951
▁nour	-12952
▁sees	-12953
▁senn	-12954
▁whim	-12955
conced	-12956
ctised	-12957
ctives	-12958
curity	-12959
edding	-12960
elming	-12961
ersyal	-12962
etleem	-12963
fizyon	-12964
gisonn	-12965
ground	-12966
hookun	-12967
icitor	-12968
idatir	-12969
igeria	-12970
ipment	-12971
irming	-12972
iyling	-12973
izalem	-12974
jmennt	-12975
kofonn	-12976
konfli	-12977
labour	-12978
lafami	-12979
lamist	-12980
launch	-12981
ledges	-12982
mosfer	-12983
nesses	-12984
okrizi	-12985
orious	-12986
osophy	-12987
oudain	-12988
ourage	-12989
ousian	-12990
owards	-12991
oyalty	-12992
partou	-12993
piness	-12994
pizale	-12995
plikab	-12996
pooran	-12997
proval	-12998
pwisan	-12999
,'	-13000
15	-13001
ITE	-13002
WTO	-13003
eli	-13004
gra	-13005
hic	-13006
ics	-13007
ilo	-13008
lag	-13009
mod	-13010
ney	-13011
sak	-13012
▁"9	-13013
▁eb	-13014
Lwen	-13015
icit	-13016
lenn	-13017
odaz	-13018
oked	-13019
resi	-13020
sent	-13021
sied	-13022
▁"9"	-13023
▁6-7	-13024
▁Pou	-13025
▁Wie	-13026
▁bef	-13027
▁cla	-13028
▁die	-13029
▁fic	-13030
▁kla	-13031
▁lus	-13032
▁pow	-13033
▁sla	-13034
Start	-13035
alloo	-13036
aries	-13037
fodaz	-13038
mater	-13039
tible	-13040
▁1960	-13041
▁AGRO	-13042
▁Laol	-13043
▁Road	-13044
▁Serz	-13045
▁bite	-13046
▁burn	-13047
▁drom	-13048
▁fite	-13049
▁hier	-13050
▁insi	-13051
▁leis	-13052
▁modi	-13053
▁mole	-13054
▁ward	-13055
lizour	-13056
randon	-13057
ravind	-13058
rezerv	-13059
ridges	-13060
rivwaz	-13061
rowned	-13062
rusted	-13063
tained	-13064
tifika	-13065
umping	-13066
urance	-13067
ventis	-13068
wealth	-13069
zektif	-13070
étaire	-13071
▁1,500	-13072
▁10-15	-13073
▁1943;	-13074
▁1948,	-13075
▁1960’	-13076
▁1964.	-13077
▁1964;	-13078
▁1977,	-13079
▁1983,	-13080
▁1998,	-13081
▁1999,	-13082
▁2004,	-13083
▁2008,	-13084
▁4.5%,	-13085
▁4:30?	-13086
▁ABAIM	-13087
▁Adapt	-13088
▁Ahnee	-13089
▁Allow	-13090
▁Arbit	-13091
▁Avant	-13092
▁Ayoyo	-13093
▁Aziza	-13094
▁BENEF	-13095
▁Batis	-13096
▁Bheen	-13097
▁Bisso	-13098
▁Boliv	-13099
Au	-13100
HO	-13101
LA	-13102
Rod	-13103
Tra	-13104
aus	-13105
gid	-13106
sée	-13107
usi	-13108
waw	-13109
▁27	-13110
▁IF	-13111
▁SO	-13112
▁ép	-13113
Clas	-13114
Dans	-13115
Sant	-13116
asta	-13117
egal	-13118
emes	-13119
ites	-13120
orut	-13121
tien	-13122
▁20-	-13123
▁Ali	-13124
▁Bas	-13125
▁Cel	-13126
▁Civ	-13127
▁ENA	-13128
▁IFB	-13129
▁Sin	-13130
▁Sri	-13131
▁WHO	-13132
▁aid	-13133
▁cab	-13134
▁kid	-13135
▁zek	-13136
ables	-13137
ushpa	-13138
▁Bick	-13139
▁CITU	-13140
▁Donk	-13141
▁Pool	-13142
▁Zuma	-13143
▁adul	-13144
▁alas	-13145
▁arte	-13146
▁chas	-13147
▁kans	-13148
▁pies	-13149
▁worl	-13150
▁yenn	-13151
Dernie	-13152
Trakil	-13153
atures	-13154
aussée	-13155
shevik	-13156
▁1961,	-13157
▁Carol	-13158
▁Clair	-13159
▁Clint	-13160
▁Cyber	-13161
▁EIILM	-13162
▁Espan	-13163
▁FCSOU	-13164
▁Flacq	-13165
▁GUVER	-13166
▁Grego	-13167
▁Harel	-13168
▁Henri	-13169
▁Huwar	-13170
▁Imamb	-13171
▁Judas	-13172
▁Judea	-13173
▁Kamla	-13174
▁Kibin	-13175
▁Koupe	-13176
▁LAPAT	-13177
▁LATER	-13178
▁Lalma	-13179
▁Lekol	-13180
▁Lenin	-13181
▁Lenor	-13182
▁Lepen	-13183
▁Lezip	-13184
▁Lirak	-13185
▁Meade	-13186
▁Nancy	-13187
▁Occup	-13188
▁Ocean	-13189
▁Offic	-13190
▁Onivo	-13191
▁Oryan	-13192
▁PLMEA	-13193
▁POLIT	-13194
▁Peace	-13195
▁Place	-13196
▁Right	-13197
▁River	-13198
▁Romin	-13199
2%	-13200
Ad	-13201
!..	-13202
Tri	-13203
hun	-13204
lye	-13205
nal	-13206
oor	-13207
oux	-13208
rac	-13209
sen	-13210
sia	-13211
uré	-13212
▁KL	-13213
Ling	-13214
Mize	-13215
Size	-13216
alez	-13217
apen	-13218
aste	-13219
ctac	-13220
eply	-13221
ezar	-13222
orme	-13223
urin	-13224
vyol	-13225
ware	-13226
ètre	-13227
▁Bar	-13228
▁MES	-13229
▁hes	-13230
▁lix	-13231
▁ril	-13232
aming	-13233
arite	-13234
finis	-13235
ifyab	-13236
inate	-13237
inees	-13238
inner	-13239
orses	-13240
orter	-13241
track	-13242
trenn	-13243
▁Ally	-13244
▁Bark	-13245
▁Frer	-13246
▁Trom	-13247
▁amal	-13248
▁esay	-13249
▁proj	-13250
▁ress	-13251
▁reti	-13252
▁till	-13253
horses	-13254
normal	-13255
oodhun	-13256
urinam	-13257
vyolan	-13258
▁Dario	-13259
▁Found	-13260
▁SIKRI	-13261
▁SUGAR	-13262
▁Scien	-13263
▁Sezar	-13264
▁Shake	-13265
▁Shiva	-13266
▁Sirtu	-13267
▁Spain	-13268
▁Speak	-13269
▁Tamby	-13270
▁Today	-13271
▁Tranz	-13272
▁Wiehe	-13273
▁abuse	-13274
▁advis	-13275
▁agent	-13276
▁akonp	-13277
▁aksan	-13278
▁alleg	-13279
▁amalg	-13280
▁anris	-13281
▁anrwe	-13282
▁antie	-13283
▁apiye	-13284
▁apruv	-13285
▁araze	-13286
▁arbit	-13287
▁argue	-13288
▁asyum	-13289
▁aucun	-13290
▁avoir	-13291
▁aware	-13292
▁baaba	-13293
▁barks	-13294
▁bayan	-13295
▁baynd	-13296
▁blown	-13297
▁borde	-13298
▁bourb	-13299
28	-13300
:(	-13301
7).	-13302
Ris	-13303
ify	-13304
jet	-13305
lon	-13306
non	-13307
oin	-13308
oue	-13309
pak	-13310
ura	-13311
uts	-13312
yuj	-13313
DERN	-13314
Lord	-13315
Swit	-13316
Vinn	-13317
adar	-13318
itin	-13319
itir	-13320
nman	-13321
orer	-13322
pill	-13323
seur	-13324
stal	-13325
uvel	-13326
yuji	-13327
zeri	-13328
▁BAY	-13329
▁Pov	-13330
▁Sat	-13331
▁Wik	-13332
▁Zer	-13333
▁ast	-13334
▁bak	-13335
▁fye	-13336
▁suv	-13337
Leson	-13338
ameer	-13339
padar	-13340
▁470.	-13341
▁Cole	-13342
▁Kriz	-13343
▁ease	-13344
▁feri	-13345
▁link	-13346
▁mang	-13347
▁misk	-13348
▁pano	-13349
▁pill	-13350
▁sape	-13351
▁seas	-13352
▁teat	-13353
▁vwal	-13354
alizaz	-13355
andale	-13356
issent	-13357
outinn	-13358
▁Colon	-13359
▁Kapav	-13360
▁Miaou	-13361
▁Nitin	-13362
▁Nuvel	-13363
▁aston	-13364
▁brake	-13365
▁bronz	-13366
▁brood	-13367
▁buses	-13368
▁calme	-13369
▁cards	-13370
▁cases	-13371
▁centr	-13372
▁chaff	-13373
▁cloué	-13374
▁corde	-13375
▁coupe	-13376
▁croit	-13377
▁cross	-13378
▁crush	-13379
▁dealt	-13380
▁dereg	-13381
▁diale	-13382
▁disad	-13383
▁dosie	-13384
▁doule	-13385
▁drive	-13386
▁edike	-13387
▁epise	-13388
▁escap	-13389
▁essay	-13390
▁exite	-13391
▁explo	-13392
▁expre	-13393
▁ezanp	-13394
▁faced	-13395
▁false	-13396
▁fanal	-13397
▁fariz	-13398
▁femel	-13399
Ce	-13400
EE	-13401
SN	-13402
Um	-13403
YC	-13404
oa	-13405
IYC	-13406
Kar	-13407
Ser	-13408
hot	-13409
ued	-13410
èle	-13411
▁là	-13412
Born	-13413
eral	-13414
etah	-13415
ietn	-13416
ives	-13417
loss	-13418
ocal	-13419
oper	-13420
teau	-13421
wano	-13422
▁Jul	-13423
▁ack	-13424
▁bio	-13425
▁ini	-13426
▁tat	-13427
ERNEL	-13428
alism	-13429
itiye	-13430
udder	-13431
ystem	-13432
▁6.30	-13433
▁Bala	-13434
▁DEPI	-13435
▁Juli	-13436
▁Phar	-13437
▁Zida	-13438
▁abiz	-13439
▁akil	-13440
▁akor	-13441
▁asim	-13442
▁aval	-13443
▁glob	-13444
▁grat	-13445
▁isol	-13446
▁jack	-13447
▁tanp	-13448
Bornes	-13449
Pilate	-13450
System	-13451
diplom	-13452
ietnam	-13453
levman	-13454
seeing	-13455
▁1979,	-13456
▁Gayan	-13457
▁Local	-13458
▁Nando	-13459
▁fetis	-13460
▁fifty	-13461
▁fikse	-13462
▁filed	-13463
▁fimie	-13464
▁flags	-13465
▁flora	-13466
▁focus	-13467
▁forom	-13468
▁fresh	-13469
▁fruit	-13470
▁fuels	-13471
▁fully	-13472
▁gains	-13473
▁games	-13474
▁gayar	-13475
▁gazed	-13476
▁gembl	-13477
▁godam	-13478
▁gradu	-13479
▁graph	-13480
▁greet	-13481
▁grimp	-13482
▁grosi	-13483
▁guess	-13484
▁haven	-13485
▁helps	-13486
▁hired	-13487
▁homes	-13488
▁hopes	-13489
▁hotel	-13490
▁ident	-13491
▁indif	-13492
▁influ	-13493
▁iresp	-13494
▁irrig	-13495
▁jouer	-13496
▁judge	-13497
▁juice	-13498
▁kalme	-13499
")	-13500
25	-13501
:4	-13502
Ab	-13503
Di	-13504
Ic	-13505
TI	-13506
YE	-13507
Ye	-13508
▁%	-13509
Bat	-13510
Med	-13511
del	-13512
los	-13513
pol	-13514
rye	-13515
zen	-13516
▁PS	-13517
:45.	-13518
Icac	-13519
alor	-13520
osor	-13521
sour	-13522
▁Mat	-13523
▁RAP	-13524
▁Ral	-13525
▁Rav	-13526
▁dig	-13527
Antan	-13528
Years	-13529
peace	-13530
teist	-13531
verne	-13532
▁Sush	-13533
▁atom	-13534
▁emph	-13535
▁fash	-13536
▁gout	-13537
▁pank	-13538
▁zann	-13539
factor	-13540
orbike	-13541
oryant	-13542
retire	-13543
yanist	-13544
▁2002.	-13545
▁Ralph	-13546
▁Tamar	-13547
▁Thron	-13548
▁alenn	-13549
▁andik	-13550
▁brink	-13551
▁fault	-13552
▁kaser	-13553
▁klima	-13554
▁knack	-13555
▁knees	-13556
▁komen	-13557
▁kopen	-13558
▁koule	-13559
▁koupe	-13560
▁krann	-13561
▁krent	-13562
▁kriel	-13563
▁krwaz	-13564
▁kutim	-13565
▁lafor	-13566
▁lakel	-13567
▁lanze	-13568
▁lapor	-13569
▁lasto	-13570
▁lawsu	-13571
▁lelan	-13572
▁lenor	-13573
▁lesuf	-13574
▁ligne	-13575
▁loads	-13576
▁lucky	-13577
▁lunch	-13578
▁manti	-13579
▁meals	-13580
▁mempa	-13581
▁mezon	-13582
▁miaou	-13583
▁mille	-13584
▁motto	-13585
▁mwano	-13586
▁navir	-13587
▁nimer	-13588
▁nivod	-13589
▁occur	-13590
▁ofans	-13591
▁older	-13592
▁ordin	-13593
▁otman	-13594
▁outdo	-13595
▁padok	-13596
▁palab	-13597
▁parce	-13598
▁parwa	-13599
75	-13600
Az	-13601
DR	-13602
Gu	-13603
Iz	-13604
fo	-13605
èt	-13606
▁)	-13607
!”.	-13608
bot	-13609
gad	-13610
idz	-13611
isl	-13612
kin	-13613
éch	-13614
▁1:	-13615
Zane	-13616
agat	-13617
arye	-13618
cest	-13619
istr	-13620
olen	-13621
tora	-13622
▁Kik	-13623
▁Our	-13624
▁Zak	-13625
▁arr	-13626
▁mye	-13627
▁thr	-13628
▁zir	-13629
.1974	-13630
Boner	-13631
ECOSO	-13632
aders	-13633
ambre	-13634
ennet	-13635
gados	-13636
yning	-13637
▁Banh	-13638
▁Bové	-13639
▁Rape	-13640
▁atan	-13641
▁bidz	-13642
▁diyn	-13643
▁ming	-13644
▁traf	-13645
▁valu	-13646
▁yell	-13647
Azordi	-13648
ECOSOC	-13649
Izrael	-13650
eshore	-13651
ighted	-13652
oliere	-13653
▁2000.	-13654
▁Porto	-13655
▁appet	-13656
▁bayer	-13657
▁brass	-13658
▁chant	-13659
▁drawn	-13660
▁feder	-13661
▁grins	-13662
▁passa	-13663
▁passé	-13664
▁perse	-13665
▁persi	-13666
▁peyna	-13667
▁pilye	-13668
▁pitie	-13669
▁piyaz	-13670
▁plonz	-13671
▁polar	-13672
▁punct	-13673
▁rafal	-13674
▁rally	-13675
▁raven	-13676
▁rayot	-13677
▁regis	-13678
▁rigid	-13679
▁rises	-13680
▁rocks	-13681
▁sandw	-13682
▁savez	-13683
▁savon	-13684
▁scope	-13685
▁shalt	-13686
▁shirt	-13687
▁shops	-13688
▁siman	-13689
▁sniff	-13690
▁solar	-13691
▁solve	-13692
▁souet	-13693
▁souff	-13694
▁spelt	-13695
▁state	-13696
▁story	-13697
▁stump	-13698
▁sujet	-13699
LY	-13700
Rs	-13701
ui	-13702
yk	-13703
Big	-13704
NTA	-13705
TLY	-13706
bir	-13707
cit	-13708
tem	-13709
▁9%	-13710
▁PE	-13711
CTLY	-13712
Tand	-13713
dman	-13714
imus	-13715
onee	-13716
otap	-13717
outs	-13718
rici	-13719
west	-13720
xual	-13721
▁12,	-13722
▁20,	-13723
▁850	-13724
▁Gro	-13725
▁JNP	-13726
▁anx	-13727
▁cit	-13728
▁rer	-13729
▁zoz	-13730
Nanye	-13731
accom	-13732
chief	-13733
iding	-13734
ineux	-13735
oruba	-13736
oused	-13737
poses	-13738
retur	-13739
round	-13740
uelqu	-13741
▁dict	-13742
▁grud	-13743
▁ilay	-13744
▁lied	-13745
▁mons	-13746
▁soir	-13747
Tandis	-13748
called	-13749
inimus	-13750
jected	-13751
mended	-13752
uechua	-13753
▁Disid	-13754
▁Sookn	-13755
▁akses	-13756
▁atant	-13757
▁lakup	-13758
▁risen	-13759
▁sutir	-13760
▁suver	-13761
▁talan	-13762
▁tales	-13763
▁temps	-13764
▁tipto	-13765
▁towns	-13766
▁trape	-13767
▁trees	-13768
▁truth	-13769
▁tubes	-13770
▁tutol	-13771
▁unexp	-13772
▁upris	-13773
▁vague	-13774
▁venge	-13775
▁voler	-13776
▁vomye	-13777
▁voyez	-13778
▁whinn	-13779
▁wiski	-13780
▁zalou	-13781
Batiman	-13782
Bearing	-13783
Bizlall	-13784
Despite	-13785
Erezman	-13786
Flowers	-13787
JUSTICE	-13788
Keshore	-13789
Kontrer	-13790
Letansa	-13791
Malthus	-13792
Planter	-13793
Plizier	-13794
Pravind	-13795
Prenses	-13796
Prosenn	-13797
Soudain	-13798
Suppose	-13799
"?	-13800
1)	-13801
BU	-13802
lé	-13803
".-	-13804
BER	-13805
Rib	-13806
Six	-13807
Son	-13808
aka	-13809
bag	-13810
cat	-13811
lit	-13812
sik	-13813
▁ID	-13814
fred	-13815
hand	-13816
▁Kla	-13817
▁Ver	-13818
▁Zil	-13819
▁cul	-13820
▁meb	-13821
▁mes	-13822
elong	-13823
jourd	-13824
okoom	-13825
siere	-13826
ulent	-13827
vante	-13828
▁Erop	-13829
▁alok	-13830
▁anym	-13831
▁brik	-13832
▁buys	-13833
▁cult	-13834
▁enri	-13835
▁heap	-13836
▁idle	-13837
▁inak	-13838
▁kaka	-13839
▁lort	-13840
▁mild	-13841
▁pier	-13842
▁puts	-13843
▁reku	-13844
▁vent	-13845
Recall	-13846
anding	-13847
ookoom	-13848
▁Klaus	-13849
▁Pilat	-13850
▁ankad	-13851
▁dekre	-13852
▁feels	-13853
▁sinag	-13854
Sutenir	-13855
Toultan	-13856
Towards	-13857
Tutswit	-13858
Whether	-13859
abaljas	-13860
ability	-13861
ambique	-13862
ametric	-13863
antages	-13864
atemala	-13865
beisans	-13866
blesome	-13867
bonnter	-13868
borhood	-13869
cklayer	-13870
comfort	-13871
ctional	-13872
ducated	-13873
dumping	-13874
edience	-13875
enbokus	-13876
epalloo	-13877
ersedes	-13878
esegner	-13879
failing	-13880
fortune	-13881
gentina	-13882
ibalism	-13883
idarity	-13884
idasyon	-13885
ighteen	-13886
ikayson	-13887
ikomann	-13888
inasion	-13889
inatwar	-13890
irelman	-13891
istoire	-13892
iteresi	-13893
itherto	-13894
itively	-13895
ivalans	-13896
liances	-13897
lophone	-13898
morning	-13899
?,	-13900
Cy	-13901
Pla	-13902
Rim	-13903
Set	-13904
biz	-13905
wnd	-13906
yor	-13907
zet	-13908
▁2?	-13909
Each	-13910
ales	-13911
aumi	-13912
cake	-13913
ools	-13914
pier	-13915
tery	-13916
veye	-13917
▁Flo	-13918
▁Her	-13919
▁Mou	-13920
▁Sea	-13921
▁alg	-13922
▁dry	-13923
▁tet	-13924
▁tol	-13925
ANIMO	-13926
ading	-13927
dapre	-13928
enwar	-13929
▁Bour	-13930
▁CAWU	-13931
▁Rich	-13932
▁ande	-13933
▁band	-13934
▁dant	-13935
▁lend	-13936
▁neat	-13937
▁neck	-13938
▁poet	-13939
▁ponn	-13940
▁sela	-13941
▁tang	-13942
▁verm	-13943
alousy	-13944
anzans	-13945
▁Flore	-13946
▁Lakaz	-13947
▁goble	-13948
▁lapen	-13949
▁loter	-13950
▁penso	-13951
▁perch	-13952
▁reads	-13953
▁style	-13954
200,000	-13955
Trankil	-13956
aumiere	-13957
ception	-13958
esecake	-13959
ocratic	-13960
ocratie	-13961
odigard	-13962
okratiz	-13963
onsibil	-13964
organic	-13965
osyonel	-13966
paravan	-13967
pitched	-13968
ployees	-13969
pportun	-13970
prealab	-13971
prendre	-13972
prezant	-13973
rackers	-13974
respond	-13975
ronicle	-13976
ronnman	-13977
safodaz	-13978
sanzman	-13979
teilles	-13980
tements	-13981
ucation	-13982
ukuyama	-13983
ulsingh	-13984
▁....”.	-13985
▁25-30%	-13986
▁40,000	-13987
▁ANPLWA	-13988
▁Aksyon	-13989
▁Alegre	-13990
▁Aliens	-13991
▁Arnaud	-13992
▁Arvind	-13993
▁Arzant	-13994
▁Auntie	-13995
▁Bakhsh	-13996
▁Bassin	-13997
▁Borean	-13998
▁Burzwa	-13999
35	-14000
FA	-14001
Est	-14002
Hon	-14003
Sat	-14004
ili	-14005
ray	-14006
say	-14007
sya	-14008
amos	-14009
dden	-14010
imet	-14011
innk	-14012
iram	-14013
ofob	-14014
utex	-14015
▁Kod	-14016
▁Kur	-14017
▁Lit	-14018
▁Nep	-14019
▁Squ	-14020
▁ais	-14021
▁hen	-14022
▁sac	-14023
.1979	-14024
Proze	-14025
asses	-14026
perse	-14027
plore	-14028
riere	-14029
volon	-14030
▁(197	-14031
▁1900	-14032
▁geng	-14033
▁inik	-14034
▁skin	-14035
▁stri	-14036
▁tiny	-14037
Santaz	-14038
amment	-14039
enting	-14040
mental	-14041
retman	-14042
ynamos	-14043
▁2,500	-14044
▁Hosen	-14045
▁Squid	-14046
▁anfin	-14047
▁erone	-14048
▁izole	-14049
▁loved	-14050
▁maler	-14051
▁paski	-14052
▁poule	-14053
▁proph	-14054
▁seter	-14055
▁trace	-14056
unching	-14057
ushiram	-14058
▁1983-8	-14059
▁Calais	-14060
▁Canada	-14061
▁Declar	-14062
▁Degrad	-14063
▁Emilio	-14064
▁Engels	-14065
▁Export	-14066
▁Finlay	-14067
▁Florid	-14068
▁Forces	-14069
▁Forget	-14070
▁Fourth	-14071
▁Franca	-14072
▁Groupe	-14073
▁Haring	-14074
▁Hopper	-14075
▁Hurnam	-14076
▁Huwara	-14077
▁INDIRE	-14078
▁Jeanne	-14079
▁Jeetah	-14080
▁Jerich	-14081
▁Josian	-14082
▁Kamini	-14083
▁Kansas	-14084
▁Kikfwa	-14085
▁Kiltir	-14086
▁Kombat	-14087
▁Langaz	-14088
▁Lanket	-14089
▁Lapres	-14090
▁Lareyn	-14091
▁Laswis	-14092
▁League	-14093
▁Little	-14094
▁Luxemb	-14095
▁Madrid	-14096
▁Mallac	-14097
▁Master	-14098
▁Melvil	-14099
Zi	-14100
ms	-14101
Bet	-14102
Sip	-14103
Sis	-14104
def	-14105
iom	-14106
jes	-14107
job	-14108
lel	-14109
pei	-14110
pri	-14111
vre	-14112
xim	-14113
▁95	-14114
▁Ca	-14115
Tril	-14116
isan	-14117
omer	-14118
ptir	-14119
stil	-14120
▁Mes	-14121
▁Mon	-14122
▁Nic	-14123
▁Wes	-14124
▁cra	-14125
▁glo	-14126
▁pek	-14127
▁siz	-14128
Lenin	-14129
Vedir	-14130
partu	-14131
plinn	-14132
▁Indo	-14133
▁Nann	-14134
▁Nwar	-14135
▁Pous	-14136
▁Work	-14137
▁ayer	-14138
▁coat	-14139
▁doll	-14140
▁evey	-14141
▁pake	-14142
▁sait	-14143
▁soit	-14144
▁twin	-14145
▁worn	-14146
▁zere	-14147
Subron	-14148
Telman	-14149
jestic	-14150
tudies	-14151
vizyon	-14152
▁BIZIN	-14153
▁Green	-14154
▁MEADE	-14155
▁Parmi	-14156
▁Works	-14157
▁aryer	-14158
▁bagar	-14159
▁inser	-14160
▁lapas	-14161
▁marin	-14162
▁mepri	-14163
▁ostil	-14164
▁pekoy	-14165
▁sovaz	-14166
▁syant	-14167
-15,000	-14168
Konpare	-14169
▁Mechan	-14170
▁Midsum	-14171
▁Miller	-14172
▁Mortal	-14173
▁Murgat	-14174
▁Museum	-14175
▁Mwayin	-14176
▁Nadine	-14177
▁Nouvel	-14178
▁Observ	-14179
▁Office	-14180
▁Ostral	-14181
▁PROPOS	-14182
▁Perfor	-14183
▁Pilger	-14184
▁Police	-14185
▁Pravin	-14186
▁Privat	-14187
▁Propri	-14188
▁Pushpa	-14189
▁Rajesh	-14190
▁Ramire	-14191
▁Reform	-14192
▁Report	-14193
▁Resett	-14194
▁Resort	-14195
▁Roster	-14196
▁Sadien	-14197
▁Salfit	-14198
▁Samare	-14199
Nek	-14200
bad	-14201
hum	-14202
kle	-14203
mor	-14204
nan	-14205
ozy	-14206
▁LI	-14207
Hill	-14208
aval	-14209
grup	-14210
neys	-14211
reed	-14212
uver	-14213
very	-14214
▁400	-14215
▁5%,	-14216
▁Ini	-14217
▁Jam	-14218
▁Lot	-14219
▁Nas	-14220
▁Naz	-14221
▁kav	-14222
▁lac	-14223
▁spr	-14224
egoti	-14225
ertab	-14226
itman	-14227
ounga	-14228
yante	-14229
▁50%,	-14230
▁Blan	-14231
▁Etan	-14232
▁Linn	-14233
▁Lorl	-14234
▁Sime	-14235
▁amiz	-14236
▁anse	-14237
▁bouz	-14238
▁ekin	-14239
▁fime	-14240
▁lage	-14241
▁lors	-14242
▁orib	-14243
▁proc	-14244
▁roar	-14245
▁sori	-14246
ctical	-14247
ctures	-14248
▁atlas	-14249
▁brief	-14250
▁friss	-14251
▁imenn	-14252
▁mannk	-14253
▁mazor	-14254
▁notre	-14255
▁spicy	-14256
▁turns	-14257
▁villa	-14258
Carajos	-14259
onomous	-14260
▁Cheong	-14261
▁Jamoun	-14262
▁Negoti	-14263
▁Pertab	-14264
▁Sadise	-14265
▁Servis	-14266
▁Sheila	-14267
▁Squeal	-14268
▁Steven	-14269
▁Sushil	-14270
▁Sylvio	-14271
▁TRAVAY	-14272
▁Tanzan	-14273
▁Teofil	-14274
▁Throes	-14275
▁Turism	-14276
▁Venezw	-14277
▁Victor	-14278
▁Wanted	-14279
▁Yoruba	-14280
▁ZANIMO	-14281
▁Zambia	-14282
▁Zawiya	-14283
▁acknow	-14284
▁acquis	-14285
▁actual	-14286
▁adapte	-14287
▁afford	-14288
▁afirme	-14289
▁agrave	-14290
▁akalmi	-14291
▁akimil	-14292
▁algues	-14293
▁alonze	-14294
▁ambush	-14295
▁anarko	-14296
▁ancest	-14297
▁angard	-14298
▁anpire	-14299
AZ	-14300
éc	-14301
Bud	-14302
Gro	-14303
Lex	-14304
Nat	-14305
slo	-14306
ède	-14307
0.50	-14308
Ally	-14309
Main	-14310
Must	-14311
anli	-14312
cart	-14313
cipl	-14314
ière	-14315
oped	-14316
oved	-14317
sède	-14318
▁ERS	-14319
▁Sud	-14320
▁gob	-14321
▁roz	-14322
avier	-14323
chure	-14324
eterm	-14325
iture	-14326
kling	-14327
rises	-14328
▁Bure	-14329
▁From	-14330
▁Kuma	-14331
▁eklo	-14332
▁goat	-14333
▁knel	-14334
▁merd	-14335
▁negl	-14336
▁niye	-14337
▁simi	-14338
▁tons	-14339
▁vern	-14340
▁wise	-14341
▁zure	-14342
Budget	-14343
Nobody	-14344
ailure	-14345
galite	-14346
othing	-14347
ployer	-14348
▁Mouse	-14349
▁Sudan	-14350
▁blaze	-14351
▁delix	-14352
▁frost	-14353
▁knelt	-14354
▁laful	-14355
▁lesid	-14356
▁pride	-14357
▁priye	-14358
▁refus	-14359
▁verse	-14360
Failure	-14361
cipline	-14362
▁Anplis	-14363
▁Bureau	-14364
▁Indone	-14365
▁LANGAZ	-14366
▁Moulen	-14367
▁Tianli	-14368
▁antite	-14369
▁antrop	-14370
▁apersi	-14371
▁aprove	-14372
▁argued	-14373
▁artefa	-14374
▁asasin	-14375
▁axepte	-14376
▁baabaa	-14377
▁bamboo	-14378
▁bambou	-14379
▁barbar	-14380
▁barely	-14381
▁barrel	-14382
▁barric	-14383
▁beasts	-14384
▁behave	-14385
▁behavi	-14386
▁besoin	-14387
▁biento	-14388
▁blokis	-14389
▁boiled	-14390
▁bonnes	-14391
▁bowler	-14392
▁braced	-14393
▁brains	-14394
▁breaks	-14395
▁breath	-14396
▁bumped	-14397
▁burial	-14398
▁bushel	-14399
Jim	-14400
ONY	-14401
UGC	-14402
Moiz	-14403
Surs	-14404
aule	-14405
inan	-14406
keep	-14407
ored	-14408
ouni	-14409
▁dru	-14410
▁mau	-14411
ONYAL	-14412
egard	-14413
utour	-14414
▁Even	-14415
▁SADC	-14416
▁Sach	-14417
▁antu	-14418
▁dumb	-14419
▁eloz	-14420
▁fame	-14421
▁fasc	-14422
▁ilim	-14423
▁lema	-14424
▁marz	-14425
▁oule	-14426
▁quit	-14427
▁rain	-14428
▁rape	-14429
▁saku	-14430
▁ship	-14431
▁stif	-14432
▁tend	-14433
▁wore	-14434
Autour	-14435
Regard	-14436
epsyon	-14437
mindev	-14438
▁Milti	-14439
▁Rayot	-14440
▁Sachs	-14441
▁desam	-14442
▁donne	-14443
▁fasad	-14444
▁lamir	-14445
▁lamur	-14446
▁magaz	-14447
▁marke	-14448
▁metie	-14449
▁oranz	-14450
▁pense	-14451
▁prove	-14452
▁roads	-14453
▁roles	-14454
▁stiff	-14455
▁sulve	-14456
Afrique	-14457
▁REPORT	-14458
▁antyer	-14459
▁calves	-14460
▁carpet	-14461
▁casual	-14462
▁ceased	-14463
▁chairs	-14464
▁chased	-14465
▁cheeks	-14466
▁chosen	-14467
▁choses	-14468
▁coffee	-14469
▁commer	-14470
▁commis	-14471
▁confie	-14472
▁couper	-14473
▁custom	-14474
▁dankan	-14475
▁deeply	-14476
▁defeat	-14477
▁deplor	-14478
▁deseni	-14479
▁desinn	-14480
▁deteni	-14481
▁dismis	-14482
▁dizenn	-14483
▁dousma	-14484
▁drinks	-14485
▁driven	-14486
▁duzenn	-14487
▁ekinox	-14488
▁ekrule	-14489
▁ekzamp	-14490
▁emphas	-14491
▁enntel	-14492
▁ensilt	-14493
▁ensten	-14494
▁epwize	-14495
▁erdtan	-14496
▁exekit	-14497
▁expire	-14498
▁explos	-14499
Bay	-14500
EIA	-14501
Mwa	-14502
▁31	-14503
▁Mu	-14504
High	-14505
dain	-14506
fane	-14507
high	-14508
lovo	-14509
▁15.	-14510
▁192	-14511
▁60.	-14512
▁Tai	-14513
▁box	-14514
▁riv	-14515
▁voy	-14516
erans	-14517
onkin	-14518
riend	-14519
udice	-14520
▁Caph	-14521
▁City	-14522
▁Coin	-14523
▁Dass	-14524
▁Span	-14525
▁Toup	-14526
▁amer	-14527
▁flas	-14528
▁kran	-14529
▁ours	-14530
▁rend	-14531
▁roll	-14532
▁sque	-14533
▁vway	-14534
Illovo	-14535
WANTED	-14536
anbout	-14537
mantik	-14538
wayans	-14539
▁Roche	-14540
▁anbon	-14541
▁anset	-14542
▁avans	-14543
▁azout	-14544
▁compt	-14545
▁detut	-14546
▁devid	-14547
▁devir	-14548
▁entre	-14549
▁infan	-14550
▁kozet	-14551
▁labus	-14552
▁laraz	-14553
▁laser	-14554
▁mange	-14555
▁marie	-14556
▁minor	-14557
▁pasaz	-14558
▁passe	-14559
▁ravaz	-14560
▁reper	-14561
▁touch	-14562
▁tough	-14563
▁touye	-14564
▁weigh	-14565
Tulezur	-14566
onnmant	-14567
▁2012),	-14568
▁anrisi	-14569
▁appeal	-14570
▁facult	-14571
▁faites	-14572
▁farmer	-14573
▁fasism	-14574
▁faudra	-14575
▁footst	-14576
▁forget	-14577
▁fortif	-14578
▁fossil	-14579
▁foular	-14580
▁foules	-14581
▁fourmi	-14582
▁frères	-14583
▁gained	-14584
▁genuin	-14585
▁gerila	-14586
▁glason	-14587
▁gloves	-14588
▁golmal	-14589
▁gounga	-14590
▁govern	-14591
▁grades	-14592
▁grands	-14593
▁grandy	-14594
▁groupe	-14595
▁groyne	-14596
▁guilty	-14597
▁habits	-14598
▁hammer	-14599
Ni	-14600
Ces	-14601
umm	-14602
”."	-14603
8...	-14604
Cela	-14605
ager	-14606
osed	-14607
sele	-14608
▁Any	-14609
▁sid	-14610
▁tez	-14611
.1965	-14612
elson	-14613
inces	-14614
ineap	-14615
ityel	-14616
osity	-14617
rowth	-14618
▁9:00	-14619
▁Cumm	-14620
▁Rome	-14621
▁ador	-14622
▁bree	-14623
▁faut	-14624
▁fout	-14625
▁gras	-14626
▁owns	-14627
▁prév	-14628
▁vint	-14629
Reform	-14630
amerik	-14631
▁2003.	-14632
▁avoye	-14633
▁banke	-14634
▁canal	-14635
▁corps	-14636
▁dezer	-14637
▁hills	-14638
▁metal	-14639
▁osito	-14640
▁purvi	-14641
▁reass	-14642
▁renar	-14643
▁revok	-14644
▁terer	-14645
▁terre	-14646
Firstly	-14647
Lamerik	-14648
glected	-14649
kouyone	-14650
▁20,000	-14651
▁Berksh	-14652
▁deaths	-14653
▁devons	-14654
▁fiasko	-14655
▁handed	-14656
▁hidden	-14657
▁higher	-14658
▁hoping	-14659
▁horror	-14660
▁hurled	-14661
▁ilayti	-14662
▁imedya	-14663
▁iminan	-14664
▁inakse	-14665
▁inanim	-14666
▁inches	-14667
▁indwir	-14668
▁inifik	-14669
▁inisye	-14670
▁innkom	-14671
▁inplis	-14672
▁inprim	-14673
▁insign	-14674
▁inspir	-14675
▁joined	-14676
▁jouent	-14677
▁jumped	-14678
▁kamyon	-14679
▁kaptir	-14680
▁karyol	-14681
▁kazyel	-14682
▁kiltiv	-14683
▁klotir	-14684
▁kolonn	-14685
▁kolpor	-14686
▁koltar	-14687
▁komans	-14688
▁konfie	-14689
▁kontur	-14690
▁konvok	-14691
▁kopere	-14692
▁korpor	-14693
▁koupab	-14694
▁kourta	-14695
▁koutim	-14696
▁kriyel	-14697
▁kudeta	-14698
▁labwet	-14699
PA	-14700
sic	-14701
yue	-14702
▁OK	-14703
▁WE	-14704
Donc	-14705
abol	-14706
berg	-14707
bile	-14708
fire	-14709
iaow	-14710
▁80.	-14711
▁Som	-14712
▁Tro	-14713
▁dad	-14714
Right	-14715
amber	-14716
dibil	-14717
gered	-14718
istry	-14719
madir	-14720
night	-14721
plies	-14722
polis	-14723
rakaz	-14724
uated	-14725
▁4:00	-14726
▁Mike	-14727
▁Plis	-14728
▁blow	-14729
▁fwir	-14730
▁klan	-14731
▁lugg	-14732
▁sept	-14733
▁tank	-14734
▁team	-14735
▁twit	-14736
Sertin	-14737
Sindik	-14738
cement	-14739
fossil	-14740
lement	-14741
prezan	-14742
sindik	-14743
▁Alman	-14744
▁Anfet	-14745
▁anvir	-14746
▁exses	-14747
▁fatak	-14748
▁ferry	-14749
▁lalev	-14750
▁rocky	-14751
▁seats	-14752
▁sumet	-14753
▁thorn	-14754
Eolienn	-14755
Veritab	-14756
enocide	-14757
irement	-14758
kamarad	-14759
kestyon	-14760
ozision	-14761
▁betrav	-14762
▁cement	-14763
▁danger	-14764
▁dekore	-14765
▁format	-14766
▁impart	-14767
▁instab	-14768
▁lafiev	-14769
▁laflot	-14770
▁lakrem	-14771
▁lakwis	-14772
▁lament	-14773
▁lamson	-14774
▁lanfer	-14775
▁lapeti	-14776
▁leader	-14777
▁league	-14778
▁lekter	-14779
▁lektir	-14780
▁lesson	-14781
▁levels	-14782
▁lizour	-14783
▁locker	-14784
▁losing	-14785
▁loulou	-14786
▁lèvent	-14787
▁maladi	-14788
▁manner	-14789
▁mariaz	-14790
▁marina	-14791
▁matted	-14792
▁matyer	-14793
▁maxims	-14794
▁mekont	-14795
▁memory	-14796
▁mervey	-14797
▁mirmir	-14798
▁missed	-14799
Ob	-14800
.8.	-14801
Ele	-14802
MAG	-14803
Tar	-14804
Upt	-14805
▁5%	-14806
▁VI	-14807
Good	-14808
good	-14809
kour	-14810
lery	-14811
otey	-14812
tage	-14813
▁Hor	-14814
▁Vis	-14815
▁Viv	-14816
▁Viz	-14817
▁lik	-14818
FERAN	-14819
Jésus	-14820
Lozik	-14821
Titer	-14822
cated	-14823
dings	-14824
feser	-14825
geted	-14826
innri	-14827
stein	-14828
▁Endo	-14829
▁Kler	-14830
▁Octo	-14831
▁bote	-14832
▁evil	-14833
▁grit	-14834
▁inap	-14835
▁kord	-14836
▁lede	-14837
▁nons	-14838
▁noon	-14839
▁oars	-14840
▁pict	-14841
▁plaf	-14842
▁rekr	-14843
▁sond	-14844
▁vile	-14845
Titera	-14846
Uptown	-14847
abiliz	-14848
ullery	-14849
▁1936,	-14850
▁Horse	-14851
▁Parke	-14852
▁acces	-14853
▁alime	-14854
▁chape	-14855
▁dimen	-14856
▁fille	-14857
▁fotey	-14858
▁knock	-14859
▁lafwa	-14860
▁lorye	-14861
▁prime	-14862
▁sofer	-14863
▁sourd	-14864
ultural	-14865
▁amorti	-14866
▁bitter	-14867
▁bother	-14868
▁demann	-14869
▁derive	-14870
▁disadv	-14871
▁extern	-14872
▁kriter	-14873
▁lafwar	-14874
▁molton	-14875
▁mouths	-14876
▁muzzle	-14877
▁namely	-14878
▁naryin	-14879
▁neatly	-14880
▁negliz	-14881
▁nodded	-14882
▁noktir	-14883
▁obstak	-14884
▁online	-14885
▁onorab	-14886
▁opened	-14887
▁openly	-14888
▁opozan	-14889
▁organn	-14890
▁overto	-14891
▁palest	-14892
▁pantom	-14893
▁parsel	-14894
▁partis	-14895
▁patant	-14896
▁phases	-14897
▁picked	-14898
▁pineap	-14899
11,	-14900
Inn	-14901
May	-14902
azz	-14903
▁1.	-14904
John	-14905
Lera	-14906
town	-14907
uary	-14908
wear	-14909
▁Isa	-14910
Angle	-14911
isees	-14912
raliz	-14913
veral	-14914
▁1979	-14915
▁Afro	-14916
▁Stud	-14917
▁alwe	-14918
▁bern	-14919
▁evre	-14920
▁foli	-14921
▁graz	-14922
▁gros	-14923
▁myth	-14924
▁reap	-14925
Intern	-14926
Preske	-14927
esifik	-14928
isionn	-14929
lanwit	-14930
onesan	-14931
pening	-14932
razman	-14933
▁1982.	-14934
▁Judée	-14935
▁Kolez	-14936
▁Revol	-14937
▁Tidal	-14938
▁adapt	-14939
▁balon	-14940
▁etone	-14941
▁finds	-14942
▁garde	-14943
▁heels	-14944
▁kalot	-14945
▁laont	-14946
▁lapos	-14947
▁malin	-14948
▁malon	-14949
▁menot	-14950
▁occup	-14951
▁paced	-14952
▁plage	-14953
▁relif	-14954
▁sapit	-14955
▁sekwe	-14956
▁siple	-14957
▁tiraz	-14958
Several	-14959
▁errrck	-14960
▁inkyet	-14961
▁lapens	-14962
▁malere	-14963
▁malinn	-14964
▁mision	-14965
▁plafon	-14966
▁poorer	-14967
▁portab	-14968
▁poster	-14969
▁potaze	-14970
▁poulen	-14971
▁pounds	-14972
▁precis	-14973
▁prekon	-14974
▁prelar	-14975
▁profet	-14976
▁propil	-14977
▁propre	-14978
▁prozek	-14979
▁prépar	-14980
▁puisse	-14981
▁pushed	-14982
▁pwazon	-14983
▁pwisan	-14984
▁raking	-14985
▁rappel	-14986
▁rapros	-14987
▁ratrap	-14988
▁refers	-14989
▁refise	-14990
▁refuse	-14991
▁rekile	-14992
▁releve	-14993
▁remove	-14994
▁rendre	-14995
▁renome	-14996
▁repete	-14997
▁repros	-14998
▁respir	-14999
?'	-15000
rou	-15001
”),	-15002
Mane	-15003
acun	-15004
anee	-15005
dwir	-15006
inng	-15007
linn	-15008
▁FSM	-15009
▁ICU	-15010
▁ISM	-15011
▁Lex	-15012
▁Nar	-15013
▁bwi	-15014
ively	-15015
matik	-15016
parey	-15017
tenir	-15018
ulate	-15019
▁Kaly	-15020
▁Lane	-15021
▁Some	-15022
▁Unem	-15023
▁brit	-15024
▁esap	-15025
▁koal	-15026
▁monn	-15027
▁mugs	-15028
▁scan	-15029
▁weed	-15030
450...	-15031
prints	-15032
▁Bodha	-15033
▁adult	-15034
▁betiz	-15035
▁beton	-15036
▁boure	-15037
▁dipen	-15038
▁droit	-15039
▁kilot	-15040
▁panel	-15041
▁soldi	-15042
▁thres	-15043
▁vizaz	-15044
reative	-15045
ribinal	-15046
uration	-15047
▁classe	-15048
▁dantif	-15049
▁impres	-15050
▁invant	-15051
▁korper	-15052
▁laforz	-15053
▁perspe	-15054
▁protoc	-15055
▁repose	-15056
▁revoke	-15057
▁rezinn	-15058
▁richer	-15059
▁rocher	-15060
▁rolled	-15061
▁rudder	-15062
▁réalis	-15063
▁sailed	-15064
▁sarite	-15065
▁savage	-15066
▁scared	-15067
▁scenes	-15068
▁seized	-15069
▁sekans	-15070
▁semans	-15071
▁seport	-15072
▁seront	-15073
▁shifte	-15074
▁shifts	-15075
▁shrewd	-15076
▁siperf	-15077
▁siprem	-15078
▁skills	-15079
▁soulaz	-15080
▁sounds	-15081
▁sourir	-15082
▁squeal	-15083
▁stabil	-15084
▁stated	-15085
▁struck	-15086
▁sturdy	-15087
▁sudden	-15088
▁suivre	-15089
▁sulaze	-15090
▁suliyn	-15091
▁supper	-15092
▁suspic	-15093
▁switch	-15094
▁tandis	-15095
▁tempos	-15096
▁tended	-15097
▁termin	-15098
▁teryen	-15099
.10	-15100
Fib	-15101
Rep	-15102
éro	-15103
▁6%	-15104
Bala	-15105
anoo	-15106
ayna	-15107
▁Reg	-15108
▁flu	-15109
▁kof	-15110
▁pag	-15111
Depre	-15112
Forse	-15113
Misie	-15114
inike	-15115
redir	-15116
▁6...	-15117
▁Game	-15118
▁Pari	-15119
▁flir	-15120
▁gold	-15121
▁grum	-15122
▁none	-15123
▁ring	-15124
▁tapi	-15125
▁trig	-15126
Crisis	-15127
ralman	-15128
riktif	-15129
social	-15130
▁Manze	-15131
▁Regar	-15132
▁Super	-15133
▁accel	-15134
▁alege	-15135
▁basin	-15136
▁calls	-15137
▁error	-15138
▁flank	-15139
▁griye	-15140
▁litre	-15141
▁looks	-15142
▁mount	-15143
▁obzer	-15144
▁river	-15145
▁tamar	-15146
endence	-15147
gerated	-15148
ounting	-15149
riyeris	-15150
▁15,000	-15151
▁Parfwa	-15152
▁Pilate	-15153
▁Prefer	-15154
▁anpwaz	-15155
▁aprouv	-15156
▁dessus	-15157
▁dismay	-15158
▁formed	-15159
▁hamper	-15160
▁hoarse	-15161
▁nomini	-15162
▁ofisie	-15163
▁owners	-15164
▁potans	-15165
▁rasinn	-15166
▁ravann	-15167
▁teryin	-15168
▁tested	-15169
▁thinnk	-15170
▁thrust	-15171
▁tibaba	-15172
▁tibout	-15173
▁toules	-15174
▁touris	-15175
▁toutou	-15176
▁trafik	-15177
▁tranpe	-15178
▁trembl	-15179
▁tribal	-15180
▁tromat	-15181
▁turnip	-15182
▁tutafe	-15183
▁uneasy	-15184
▁unlike	-15185
▁uproar	-15186
▁useful	-15187
▁uvriye	-15188
▁vadire	-15189
▁vagman	-15190
▁vestiz	-15191
▁visits	-15192
▁vivent	-15193
▁vizite	-15194
▁vizyer	-15195
▁voient	-15196
▁vwazin	-15197
▁waited	-15198
▁wander	-15199
nu	-15200
ERA	-15201
Sec	-15202
ube	-15203
élo	-15204
▁'7	-15205
EPOK	-15206
Sent	-15207
affa	-15208
aube	-15209
isha	-15210
▁DCO	-15211
▁Dar	-15212
▁agg	-15213
▁ice	-15214
▁ici	-15215
▁ruz	-15216
Lakur	-15217
grese	-15218
paraz	-15219
sante	-15220
▁1948	-15221
▁ends	-15222
▁lamb	-15223
▁norm	-15224
▁nunn	-15225
▁regr	-15226
▁torn	-15227
Except	-15228
amenaz	-15229
patron	-15230
▁Aisha	-15231
▁Lasos	-15232
▁Wages	-15233
▁Zapon	-15234
▁banks	-15235
▁brill	-15236
▁lames	-15237
▁larad	-15238
▁legan	-15239
▁media	-15240
▁mourn	-15241
▁numer	-15242
▁pasan	-15243
▁rengn	-15244
▁ruins	-15245
▁stalk	-15246
▁taxes	-15247
▁varye	-15248
▁veter	-15249
Forward	-15250
anteism	-15251
jobless	-15252
ogasyon	-15253
▁Kominn	-15254
▁abolis	-15255
▁cattle	-15256
▁dibute	-15257
▁dilwil	-15258
▁humans	-15259
▁insult	-15260
▁labrim	-15261
▁lertan	-15262
▁mustas	-15263
▁prolon	-15264
▁prosed	-15265
▁regagn	-15266
▁soufer	-15267
▁thinks	-15268
▁verbal	-15269
▁warmth	-15270
▁whisky	-15271
▁wicked	-15272
▁wikenn	-15273
▁yellow	-15274
▁zanana	-15275
▁zanbon	-15276
▁zennfi	-15277
▁zetwal	-15278
▁zistis	-15279
▁zoranz	-15280
▁zourne	-15281
▁zurnal	-15282
▁écrire	-15283
Bhojpuri	-15284
CESSIONS	-15285
District	-15286
Evidaman	-15287
Gramaten	-15288
Guarante	-15289
Independ	-15290
Katriyem	-15291
Komisyon	-15292
Konsyans	-15293
Koumadir	-15294
Laplipar	-15295
Minister	-15296
Morisyen	-15297
Morisyin	-15298
Partisip	-15299
46	-15300
56	-15301
ALL	-15302
▁99	-15303
▁SE	-15304
chés	-15305
enge	-15306
ieux	-15307
oles	-15308
yson	-15309
▁12:	-15310
▁PWU	-15311
▁coc	-15312
▁dés	-15313
▁etn	-15314
▁eux	-15315
ISYER	-15316
Popil	-15317
Rezim	-15318
Toule	-15319
ceful	-15320
reyan	-15321
teurs	-15322
▁1974	-15323
▁2013	-15324
▁8...	-15325
▁cake	-15326
▁cuts	-15327
▁lazu	-15328
▁scar	-15329
▁touj	-15330
itants	-15331
school	-15332
▁1,000	-15333
▁Proze	-15334
▁Sorti	-15335
▁agrer	-15336
▁allez	-15337
▁atrib	-15338
▁avoid	-15339
▁egrer	-15340
▁eklat	-15341
▁momem	-15342
▁saved	-15343
▁sifle	-15344
▁voted	-15345
certain	-15346
▁13,500	-15347
▁attrib	-15348
▁desten	-15349
▁drenaz	-15350
▁manger	-15351
▁minute	-15352
▁plates	-15353
▁purred	-15354
▁vilger	-15355
▁vwazen	-15356
National	-15357
Regardez	-15358
Seegobin	-15359
Somebody	-15360
Stratezi	-15361
Systemic	-15362
Zordizur	-15363
adaafist	-15364
adresser	-15365
aktyaliz	-15366
alsitran	-15367
antation	-15368
apartist	-15369
aternite	-15370
cassonne	-15371
cessions	-15372
crackers	-15373
downturn	-15374
economic	-15375
edyatman	-15376
eknolozi	-15377
election	-15378
etermine	-15379
finished	-15380
iksyoner	-15381
iladelfi	-15382
iladelph	-15383
inations	-15384
isiplinn	-15385
itecture	-15386
lizabeth	-15387
morisyen	-15388
oluntary	-15389
organize	-15390
orically	-15391
oriously	-15392
padaruth	-15393
peryalis	-15394
quarters	-15395
reliance	-15396
sifizans	-15397
sitektir	-15398
specific	-15399
UAL	-15400
upr	-15401
wer	-15402
keys	-15403
▁12.	-15404
▁121	-15405
▁95.	-15406
▁Heb	-15407
ators	-15408
enged	-15409
irmed	-15410
onies	-15411
ousse	-15412
overy	-15413
value	-15414
▁100%	-15415
▁1981	-15416
▁1989	-15417
▁Bote	-15418
▁Call	-15419
▁Cass	-15420
▁Defi	-15421
▁EGAL	-15422
▁Lavi	-15423
▁ceci	-15424
▁drog	-15425
▁haut	-15426
▁rass	-15427
▁sato	-15428
▁tape	-15429
enging	-15430
ierman	-15431
riedly	-15432
▁1975.	-15433
▁2005.	-15434
▁KOMAN	-15435
[...]
