▁mediok 1
▁invante 1
▁tester 1
▁ladministrasion 1
▁kombak 1
▁kanib 1
▁nom 1
▁maja 1
▁dinozor 1
▁counting 1
▁parlait 1
▁congratul 1
▁muscle 1
▁legalize 1
▁tet 1
▁textbooks 1
▁zedo 1
▁law 1
▁publ 1
▁exact 1
omenn 1
▁dialect 1
▁portion 1
▁ange 1
▁guess 1
▁trapezium 1
▁stuntman 1
▁performances 1
eral 1
▁groceries 1
▁neuf 1
▁dekone 1
▁ileg 1
▁linz 1
▁uncont 1
▁imitasyon 1
▁menton 1
▁biyar 1
▁difaman 1
▁doctrine 1
▁romantic 1
▁resitasion 1
▁vasiye 1
▁experimente 1
▁pun 1
▁winner 1
▁proficient 1
▁canne 1
e 1
▁behind 1
▁bene 1
▁voir 1
▁enstriksion 1
▁ovulation 1
▁anbie 1
▁butchers 1
▁alterne 1
▁bougiboug 1
▁devoted 1
▁delegasion 1
▁lezanviron 1
▁ave 1
▁sometimes 1
▁pizama 1
▁dow 1
▁spekile 1
▁ille 1
▁eskabo 1
▁roussaille 1
▁stokaz 1
hem 1
▁boulder 1
▁maniganse 1
▁modi 1
atorial 1
▁presentday 1
▁prom 1
▁metabol 1
▁separat 1
▁konplint 1
▁trannsink 1
▁lethar 1
▁trepie 1
▁ferry 1
bres 1
▁segne 1
▁komplint 1
▁deconcerte 1
▁goni 1
▁inseparab 1
▁cach 1
▁fahren 1
▁bilateral 1
▁angi 1
▁horizon 1
▁sivil 1
aud 1
▁dinstitutions 1
▁kanfre 1
▁epilatwar 1
▁okt 1
▁sipor 1
▁forpitie 1
▁duck 1
▁darfour 1
▁salitasyon 1
▁zig 1
▁transcribe 1
▁sponsor 1
▁lau 1
▁occupied 1
▁nonpos 1
▁euxmemes 1
▁fur 1
▁humili 1
▁soumar 1
▁sirplas 1
▁commencent 1
▁imp 1
▁medias 1
▁ninfomann 1
▁korespond 1
rwa 1
▁benefisie 1
▁lect 1
▁nod 1
▁souvenir 1
ouks 1
▁pasrel 1
lever 1
▁rotatif 1
▁consecut 1
tre 1
vwa 1
▁thieves 1
▁koroziv 1
▁raise 1
overs 1
▁lamem 1
▁leto 1
▁aie 1
▁crocod 1
▁flatri 1
▁naut 1
▁reduced 1
▁lug 1
▁lalev 1
▁relizie 1
ood 1
▁lakre 1
▁physion 1
▁banks 1
84 1
gann 1
▁joyeux 1
▁degre 1
▁event 1
▁interchange 1
ennta 1
▁quick 1
▁ach 1
▁bad 1
▁zigile 1
▁malsanse 1
▁hoe 1
ferences 1
▁lizinn 1
▁reprod 1
▁feed 1
▁kreolophone 1
▁audience 1
▁making 1
▁briyos 1
▁kontakte 1
▁quite 1
▁spicy 1
▁accommod 1
▁as 1
seed 1
wann 1
▁zourne 1
▁phenomenon 1
sonn 1
▁cheering 1
▁travel 1
▁beaux 1
tansion 1
▁steriliz 1
▁dispatch 1
▁sharma 1
▁tempt 1
▁aromatic 1
▁sirkilasion 1
▁stamping 1
▁refrwadisman 1
▁salle 1
▁gob 1
▁organised 1
▁caresse 1
▁kasenally 1
▁labus 1
▁piblikasion 1
▁journalist 1
▁bezwen 1
▁adez 1
▁saret 1
▁anglobe 1
▁shifte 1
▁palaver 1
▁allow 1
arkt 1
▁senboliz 1
oroid 1
pri 1
▁obligation 1
▁kouman 1
▁saisonnier 1
aliment 1
▁lakol 1
▁barn 1
▁charbon 1
anpir 1
▁accordonist 1
▁kik 1
▁scoubidou 1
▁sikatri 1
▁konfesional 1
▁touy 1
▁ekzerse 1
▁blo 1
▁seafood 1
▁violasion 1
▁doud 1
▁comme 1
hle 1
▁dezobe 1
▁categorical 1
▁tricked 1
▁detripe 1
▁barwa 1
▁vers 1
▁maltrait 1
▁connected 1
▁rase 1
▁akonpagnman 1
utik 1
▁automatically 1
enwar 1
▁volont 1
▁theyve 1
▁satelit 1
hide 1
▁gig 1
▁niouki 1
▁consent 1
▁sabachth 1
itte 1
▁ekleziastik 1
▁affiliation 1
ulate 1
▁eswe 1
▁fouraz 1
▁happen 1
▁privilez 1
▁debranse 1
▁redius 1
▁psikiatrik 1
▁spesial 1
▁penser 1
▁segat 1
ignes 1
▁laponp 1
▁remarque 1
▁clim 1
▁earl 1
rande 1
▁inocc 1
▁pipangay 1
▁sezarefil 1
urn 1
▁deviennent 1
▁extrater 1
▁knees 1
atu 1
▁katolis 1
▁happier 1
▁mediann 1
▁fringan 1
▁scol 1
▁bonbons 1
▁cataplast 1
▁bil 1
▁pyjam 1
ila 1
▁sevi 1
▁grant 1
▁lord 1
▁account 1
▁bushel 1
▁manor 1
▁pepiniere 1
▁rise 1
▁ecoute 1
rions 1
▁rentrer 1
alis 1
▁extrateres 1
▁limousine 1
rol 1
▁febles 1
▁anvwayaz 1
▁fanez 1
▁determined 1
▁pinces 1
▁guerres 1
▁hides 1
▁emansipe 1
▁nook 1
▁atlaz 1
▁reaste 1
▁deboute 1
▁apwa 1
etamol 1
▁tamiz 1
▁bak 1
▁idant 1
▁lique 1
▁employers 1
▁ekrit 1
▁insulte 1
▁kwinkare 1
▁partys 1
inger 1
▁akrobat 1
wazman 1
▁forgiven 1
▁enumer 1
▁giv 1
▁depth 1
lehem 1
▁pitza 1
▁extraordinaire 1
ogany 1
arth 1
▁expropriation 1
▁libertine 1
▁koulwar 1
▁flexibilite 1
▁revel 1
▁dames 1
▁assim 1
▁sucker 1
▁neglizab 1
▁kagazinie 1
▁lour 1
rete 1
▁alavans 1
▁restriktirasyon 1
▁director 1
▁carrier 1
▁rannman 1
▁orifis 1
lacer 1
▁depase 1
▁pasteur 1
▁tabdenwi 1
isitasion 1
▁gow 1
rouille 1
ich 1
hren 1
▁oktob 1
▁difiz 1
▁lakonpagn 1
▁rezondet 1
▁32 1
▁goutier 1
▁adverser 1
▁rakonter 1
▁abdomenn 1
▁repondit 1
▁phases 1
isible 1
dle 1
▁gon 1
itee 1
▁kivet 1
▁tickle 1
blo 1
▁feder 1
▁mesanste 1
▁discip 1
▁baign 1
ight 1
▁kolinos 1
▁sigzere 1
▁parwasien 1
pit 1
▁approvisionnement 1
▁forbidden 1
▁always 1
▁demiste 1
▁caresser 1
▁373 1
▁gang 1
▁trileng 1
▁delis 1
▁location 1
▁koripter 1
▁toutlan 1
▁flaner 1
▁aph 1
bell 1
irai 1
▁ingrat 1
ests 1
illi 1
imatik 1
uble 1
rition 1
▁unescos 1
ctez 1
▁kornmout 1
▁tranfer 1
▁gagnan 1
▁lwe 1
▁disparet 1
fie 1
▁jag 1
▁chevres 1
▁dezevre 1
▁convaincu 1
▁teeth 1
▁dousmandousman 1
aitre 1
▁legerement 1
▁masturbation 1
▁gilt 1
▁sows 1
▁esank 1
▁what 1
neath 1
▁afrom 1
▁larper 1
▁dress 1
▁semaines 1
y 1
avan 1
▁ekolozik 1
▁reuss 1
▁elections 1
▁zenere 1
▁appreciation 1
▁gingan 1
▁distinksion 1
esi 1
▁sees 1
▁lesid 1
▁malnutrition 1
▁eprouv 1
▁rupe 1
▁awann 1
obe 1
▁kosgard 1
▁longues 1
▁boukle 1
▁conniv 1
irable 1
▁bekonn 1
▁kouler 1
▁centime 1
ovis 1
▁machiav 1
▁vendre 1
▁destin 1
▁lendemain 1
▁stayed 1
▁sezonye 1
▁madan 1
▁sant 1
▁barely 1
▁dim 1
▁devint 1
▁convenient 1
▁rassurer 1
▁kosmopol 1
▁senn 1
▁mention 1
▁boiled 1
▁bla 1
▁biret 1
▁gouzon 1
▁kost 1
uyez 1
▁kavi 1
▁lakret 1
▁langre 1
▁ak 1
▁47 1
▁rikording 1
▁performance 1
▁ballon 1
▁photocopie 1
▁inau 1
▁propozision 1
▁fermer 1
oid 1
▁caused 1
▁terrorist 1
▁lecons 1
▁chronicle 1
▁pouvait 1
▁dapp 1
▁clouer 1
▁fidelity 1
▁envers 1
▁copy 1
▁favoured 1
▁convin 1
▁mank 1
wazir 1
olans 1
▁patron 1
▁objects 1
▁ritual 1
▁earned 1
▁mole 1
▁fenouy 1
cilier 1
▁decompression 1
▁plough 1
▁rs32 1
▁neve 1
histor 1
▁arrangement 1
▁indig 1
aktif 1
▁yapyap 1
▁epoch 1
rupt 1
▁dumping 1
irement 1
▁brankar 1
▁chamkay 1
dinn 1
▁anek 1
▁pencilling 1
ouyaz 1
▁arom 1
▁greo 1
▁langrenaz 1
▁looking 1
▁vitalite 1
▁paralysee 1
▁saxophone 1
▁discreet 1
▁konplet 1
▁ennbag 1
elift 1
▁agroindistri 1
▁witchs 1
▁dimages 1
▁march 1
▁laniere 1
agay 1
bis 1
▁absan 1
▁koumbarasion 1
will 1
wazier 1
▁jasmin 1
▁nacho 1
▁deguis 1
▁hi 1
▁doumela 1
▁augment 1
▁categor 1
▁zambian 1
rib 1
▁mastektomi 1
▁modifier 1
▁troubl 1
▁soussol 1
▁heriter 1
▁sutyen 1
▁fig 1
▁mand 1
▁arent 1
▁taken 1
▁ambulance 1
▁russi 1
▁baitka 1
▁jupe 1
▁zomla 1
▁loneliness 1
▁dizestif 1
▁masturb 1
▁kwarters 1
▁counted 1
▁pieton 1
▁jess 1
omplete 1
▁sanfil 1
▁transformater 1
▁benjamin 1
▁amikal 1
▁vanz 1
avals 1
▁oath 1
▁obeisans 1
▁inbivab 1
▁brunt 1
▁lorla 1
▁fournez 1
▁proclaim 1
▁twig 1
▁exprim 1
▁docker 1
▁rocky 1
▁zigolo 1
▁resipyan 1
▁metall 1
▁lenor 1
▁dyn 1
▁asterlamem 1
▁ameli 1
ersion 1
▁separer 1
▁moniter 1
▁inpotan 1
▁mikroorganism 1
verg 1
▁shellfish 1
▁titour 1
eme 1
▁vole 1
▁disrael 1
anasion 1
▁konpile 1
▁prezerve 1
case 1
▁friyapen 1
▁calendar 1
▁grass 1
nite 1
▁bergers 1
▁difize 1
▁goril 1
▁unle 1
▁bolshe 1
▁skizofrenn 1
▁pearl 1
▁abri 1
▁konsanti 1
▁settling 1
▁curricul 1
▁gazelle 1
vron 1
▁mobile 1
▁ouvert 1
▁sling 1
ifies 1
eminate 1
▁aveugle 1
▁bunch 1
▁situations 1
▁mannerish 1
▁kurpa 1
▁taywane 1
ondo 1
▁gloser 1
▁respekte 1
ineux 1
▁saser 1
▁dict 1
▁tolerate 1
terne 1
▁prostituee 1
▁cerveau 1
▁peoy 1
▁casque 1
▁gransoz 1
▁stetment 1
▁toxikomann 1
▁1599 1
▁simitier 1
▁seas 1
▁petites 1
▁merc 1
▁infarkt 1
▁tribi 1
▁illmannered 1
▁cabinet 1
▁travaux 1
▁summer 1
▁sipliy 1
▁cardi 1
▁kour 1
pler 1
gation 1
▁jardinage 1
atures 1
▁trwakar 1
clone 1
▁istorien 1
▁poler 1
▁swell 1
▁pluck 1
▁amizman 1
oscope 1
▁perdfami 1
▁question 1
onima 1
▁neurochirur 1
▁decrease 1
▁estim 1
▁casse 1
▁econom 1
▁smuggler 1
▁tina 1
▁gardsek 1
▁tenants 1
▁ipnoz 1
▁serenge 1
ankin 1
▁nerasteni 1
izasion 1
▁skipping 1
ipter 1
▁pianis 1
▁anpese 1
▁export 1
▁cardinal 1
▁ta 1
▁toutswit 1
agre 1
estyle 1
▁kouvan 1
isted 1
usque 1
▁deny 1
▁riy 1
▁sima 1
▁ancsac 1
▁organizations 1
▁returne 1
▁ensten 1
pied 1
▁arkad 1
▁enfer 1
▁zargon 1
▁akazou 1
▁faites 1
▁lapenn 1
▁dodos 1
▁savon 1
▁world 1
ktik 1
▁autorises 1
▁portefeuille 1
▁shame 1
▁vouliez 1
emonik 1
rah 1
▁easter 1
mire 1
▁sigid 1
▁journee 1
▁exists 1
▁vinil 1
▁mauric 1
▁papyela 1
▁crazy 1
▁uom 1
▁pib 1
▁existence 1
▁donkeys 1
▁fau 1
▁conception 1
▁evil 1
▁mariwana 1
amin 1
▁clair 1
▁19 1
urbation 1
cher 1
▁mensonge 1
bed 1
▁started 1
▁lesep 1
▁kemp 1
▁tombs 1
ung 1
voler 1
leen 1
▁prot 1
▁polisyon 1
▁tourism 1
cteurs 1
▁hourra 1
▁indiscret 1
▁cor 1
anp 1
▁ble 1
▁collab 1
▁baabaa 1
gorz 1
▁desikotaz 1
▁inkontrolab 1
▁potato 1
▁inposib 1
▁uturn 1
▁okip 1
▁aranzman 1
▁toe 1
▁learner 1
▁bordro 1
▁renovasion 1
▁larinzit 1
▁barre 1
▁radiance 1
▁kutla 1
izaman 1
▁golgota 1
▁bureau 1
▁gear 1
▁nerosirirz 1
▁tourdisman 1
▁narine 1
espri 1
▁impul 1
▁citrouille 1
▁mecc 1
▁ninetyn 1
▁albibinn 1
▁proze 1
▁discrim 1
▁matra 1
▁iron 1
▁sasseoir 1
▁poliomyel 1
▁teouv 1
▁cracherent 1
ial 1
▁sipek 1
▁legende 1
▁fofilaz 1
▁nerve 1
▁prerog 1
enns 1
▁renovation 1
▁daily 1
▁simi 1
▁rozet 1
▁prete 1
oform 1
▁consultation 1
▁cad 1
▁avantir 1
▁peizan 1
▁transfere 1
▁konfitir 1
▁dezaltere 1
▁exist 1
▁premi 1
▁included 1
▁mezire 1
▁glayel 1
▁soidisant 1
▁passion 1
olled 1
ern 1
▁pract 1
min 1
antisite 1
▁konpres 1
ersi 1
▁verti 1
▁fermie 1
▁turns 1
orans 1
▁magnezium 1
▁brasier 1
▁palpasion 1
▁organize 1
▁mmmmsmpmsdftsles 1
▁controleur 1
▁agronome 1
▁butey 1
lefan 1
▁interlok 1
▁else 1
▁shelf 1
▁walkman 1
ceptive 1
▁sindikalis 1
ifikation 1
▁agroind 1
▁kur 1
▁pave 1
▁raphia 1
▁potash 1
▁lesion 1
▁palto 1
indevi 1
▁lakel 1
▁montaz 1
▁hurriedly 1
▁alimanter 1
atis 1
▁reveye 1
▁bayas 1
▁soif 1
ieure 1
▁rains 1
▁nob 1
▁permanant 1
▁papay 1
▁datter 1
icle 1
▁kontribisyon 1
▁siphon 1
antisaz 1
olore 1
▁plentiful 1
▁internet 1
icial 1
▁sumarin 1
▁souv 1
▁inior 1
▁kiltive 1
▁veil 1
▁katolik 1
lect 1
▁zaire 1
▁flanel 1
rob 1
▁800000000 1
▁rezistans 1
parab 1
▁labataz 1
edie 1
alk 1
▁quantite 1
bearing 1
atib 1
unter 1
▁mascarene 1
▁changement 1
▁faylingkabinet 1
▁op 1
▁rilax 1
▁charitable 1
▁secouez 1
▁konv 1
children 1
▁devalie 1
hua 1
▁zinn 1
ourone 1
▁bow 1
▁thomps 1
ouyon 1
▁encoura 1
▁mondial 1
▁sinpanze 1
▁fast 1
▁left 1
▁gis 1
▁disconcerted 1
▁pala 1
▁enough 1
▁subtractively 1
▁setadir 1
▁ale 1
▁sef 1
▁nuisance 1
▁chats 1
▁interferences 1
lestick 1
▁agreement 1
▁chach 1
▁hunt 1
mail 1
teryer 1
▁lazou 1
▁enjoying 1
▁lakazlisien 1
▁pikt 1
▁imbecile 1
▁planifye 1
▁leksi 1
rog 1
▁demograf 1
iliasion 1
▁bileng 1
▁oasis 1
▁sikolozi 1
▁depriman 1
▁revele 1
▁vennsenkan 1
▁barbotaz 1
▁sirandann 1
▁805 1
▁soucis 1
▁nayn 1
but 1
▁konseyab 1
▁hiver 1
uteur 1
▁kaptive 1
▁chagosyen 1
▁labrous 1
▁disaient 1
▁riddle 1
uranz 1
▁foskous 1
▁lwint 1
▁sight 1
azion 1
int 1
ulum 1
▁kosioner 1
▁nonviolence 1
▁epilepsie 1
▁fliktie 1
▁ardan 1
band 1
▁flipper 1
▁pistas 1
▁inportater 1
▁regardant 1
to 1
▁biyo 1
mos 1
▁ansegn 1
▁po 1
▁local 1
▁decre 1
yorite 1
▁ugc 1
istor 1
▁desord 1
▁lakouzinn 1
▁prayers 1
▁recto 1
▁piramid 1
▁douni 1
▁oignon 1
ktie 1
▁otes 1
▁poetik 1
▁roler 1
ikatir 1
ortel 1
adar 1
▁lorlene 1
kouker 1
▁anpli 1
▁patpat 1
▁karandinn 1
▁idantik 1
▁atrape 1
▁siesta 1
▁effort 1
▁kargo 1
▁medic 1
▁opener 1
chet 1
▁bushes 1
▁publier 1
versib 1
▁equitable 1
ezi 1
▁kantite 1
▁orgas 1
▁sin 1
▁britanik 1
▁procedures 1
gement 1
▁chercher 1
onais 1
▁aunt 1
▁amize 1
▁shrimps 1
icho 1
▁konstan 1
▁asasinn 1
▁refise 1
▁tipik 1
bonis 1
▁navigate 1
▁background 1
▁insekt 1
▁offre 1
adrer 1
▁exorsism 1
▁gloss 1
▁melank 1
▁evolve 1
▁negation 1
▁demonstrated 1
▁erer 1
▁honoured 1
▁rodaz 1
▁begayer 1
itid 1
▁wikenn 1
▁inconsistent 1
▁annoying 1
▁posed 1
▁esklav 1
▁apple 1
▁frisiter 1
uye 1
ocier 1
▁belo 1
▁iritan 1
▁great 1
others 1
▁lartrit 1
▁inprevizib 1
ropri 1
▁irre 1
▁letagere 1
▁folklorists 1
▁fallen 1
▁anestezie 1
▁barab 1
▁anrime 1
▁bat 1
▁kes 1
▁maniel 1
▁yousouf 1
▁distra 1
▁feyaz 1
▁alley 1
ical 1
▁bould 1
▁barbel 1
▁sifizan 1
▁technologies 1
▁provok 1
▁pilye 1
▁egocent 1
▁fil 1
▁ravana 1
erre 1
▁65 1
▁lipou 1
▁kontinan 1
▁senp 1
▁masouran 1
yor 1
▁perdri 1
▁lokipasyon 1
▁vaste 1
▁marmalade 1
▁dezangaze 1
▁emmenager 1
▁eternal 1
anselie 1
▁tut 1
▁coral 1
▁nu 1
ible 1
▁repoze 1
▁lives 1
▁bhai 1
▁oblique 1
▁uproar 1
▁divergence 1
▁meritent 1
▁farata 1
▁arpon 1
▁simplify 1
▁itopik 1
ralman 1
▁sinkroniz 1
▁perkizisione 1
ignir 1
▁dezintox 1
▁uld 1
▁kazern 1
▁chur 1
▁fondamantal 1
▁expozision 1
▁sarret 1
mation 1
▁spok 1
▁filet 1
▁rasta 1
lontan 1
▁chang 1
ounn 1
▁atandan 1
▁kategorize 1
▁toletir 1
▁selofann 1
▁leglise 1
▁separeman 1
▁requins 1
▁mobiliz 1
▁suic 1
phe 1
▁exem 1
▁stirring 1
isateur 1
▁outils 1
▁wellintention 1
presion 1
os 1
▁sulevman 1
lande 1
▁chips 1
▁itilizasion 1
▁mitan 1
▁forger 1
term 1
▁corail 1
▁resourceful 1
racy 1
▁mettront 1
▁mice 1
roskop 1
▁pap 1
▁cheesecake 1
▁ons 1
iya 1
▁dediksion 1
og 1
▁agresivite 1
▁middle 1
bonn 1
▁restee 1
▁conquer 1
▁vwaz 1
▁lekay 1
▁cloche 1
selans 1
▁stain 1
▁kanwar 1
▁prizonie 1
▁instr 1
▁derogasion 1
▁bindie 1
▁tip 1
▁taymkiper 1
▁peripher 1
▁ard 1
▁deboule 1
▁donated 1
▁chercheur 1
▁prophecy 1
▁rechau 1
izaze 1
▁fleuve 1
gou 1
▁laissa 1
iper 1
▁glucose 1
▁bibliotek 1
▁trwaziem 1
▁ancient 1
▁ranpe 1
▁jecoute 1
▁eleg 1
▁plon 1
▁thin 1
▁vatic 1
▁fregat 1
vertir 1
tou 1
▁traptou 1
▁incidents 1
▁tonbo 1
▁capitulated 1
▁tabac 1
▁sertennman 1
▁rapid 1
▁kid 1
▁chose 1
▁lili 1
atch 1
▁nar 1
▁threed 1
▁anlev 1
ikan 1
▁finalis 1
vang 1
▁fiktif 1
▁facul 1
▁ring 1
▁commercial 1
▁interpretasyon 1
▁permeable 1
▁skouter 1
▁stress 1
aryenn 1
▁atlas 1
agram 1
▁disadvantage 1
▁lobe 1
▁discriminatoire 1
okoler 1
▁patriot 1
▁dirsisman 1
▁cinquantaine 1
▁surely 1
▁zad 1
▁giyom 1
7 1
ala 1
▁presi 1
▁broom 1
▁principaux 1
▁linprimant 1
▁lamal 1
▁motion 1
coloured 1
▁relege 1
▁photofin 1
▁hol 1
▁lenpas 1
▁dinosaurs 1
▁invested 1
ific 1
▁navigation 1
▁investment 1
ode 1
▁insidan 1
apaz 1
▁fortement 1
▁stable 1
▁procession 1
▁linkoni 1
▁reparant 1
▁fotokopi 1
aff 1
▁edge 1
▁feuille 1
▁completer 1
▁matrake 1
▁atlet 1
▁imiter 1
▁professe 1
▁psycholog 1
▁1946 1
▁brill 1
▁alleger 1
▁rotasion 1
▁longlong 1
▁fantezis 1
▁spoken 1
▁papiyon 1
▁sekans 1
▁needle 1
▁bisexiel 1
▁diarr 1
▁devlop 1
▁wo 1
▁cafe 1
▁insilt 1
▁inklasab 1
▁bars 1
▁bour 1
▁comprennent 1
▁tristes 1
▁prezant 1
▁result 1
▁dada 1
▁substances 1
▁barbou 1
▁misyela 1
▁konsernan 1
▁ime 1
backed 1
▁birming 1
▁lofertwar 1
▁aventure 1
▁pretansie 1
▁discussion 1
▁anorexi 1
ultere 1
▁photo 1
▁plasticine 1
ellig 1
oon 1
▁korperativ 1
plikab 1
▁latizann 1
▁enter 1
▁maladi 1
ieth 1
▁frwad 1
▁nager 1
▁backbone 1
osex 1
▁1925 1
▁che 1
▁dipwendevi 1
▁suppose 1
▁pasioine 1
▁atitre 1
onym 1
▁traderelated 1
▁rumours 1
▁genre 1
▁namib 1
▁konviksion 1
▁zetriye 1
▁konpagni 1
ipient 1
▁fortelling 1
▁dantant 1
emps 1
▁gra 1
▁cat 1
▁jo 1
▁farde 1
▁contraceptive 1
ogans 1
▁donnez 1
▁hab 1
▁approach 1
▁guillotine 1
ater 1
ruche 1
▁cest 1
riss 1
▁actually 1
rinn 1
▁genou 1
mandousman 1
▁kondikter 1
fors 1
▁viral 1
ris 1
▁connect 1
▁cush 1
▁kolekt 1
▁bleach 1
icace 1
▁illegal 1
▁gardener 1
▁decorate 1
ibe 1
▁rajpout 1
▁akselere 1
▁natale 1
▁organ 1
chn 1
▁relasyon 1
ontan 1
verte 1
▁ia 1
▁goungourou 1
▁neige 1
▁richer 1
▁collect 1
▁bouquet 1
▁quant 1
▁senater 1
asts 1
▁sauv 1
rice 1
cs 1
▁eurent 1
▁glase 1
▁wasted 1
▁quit 1
▁lamidal 1
▁larzes 1
▁maln 1
▁tobacconist 1
▁lumiere 1
aster 1
▁candy 1
▁picotin 1
oided 1
▁decorating 1
▁tracez 1
▁mendiant 1
▁trazekt 1
▁maharanee 1
ontrol 1
▁lafrans 1
▁korperatif 1
▁balayer 1
▁thorn 1
▁patronaz 1
rape 1
ondision 1
anion 1
▁intimidation 1
▁colossus 1
▁edible 1
hu 1
▁kanz 1
▁profound 1
▁rafal 1
▁jai 1
▁tsh 1
▁langazman 1
▁apropriye 1
▁lasemine 1
▁suivant 1
▁etranz 1
▁loseani 1
▁accum 1
▁kwakkwak 1
▁detendezvous 1
▁parye 1
▁portlouis 1
▁charlest 1
tizan 1
ktivman 1
▁runup 1
▁revealing 1
▁santez 1
▁deshon 1
▁sey 1
▁aplik 1
▁savonier 1
▁traff 1
▁snowball 1
▁rikord 1
▁espe 1
▁supposition 1
zis 1
izie 1
▁formal 1
▁kongolo 1
▁notes 1
▁beach 1
▁walked 1
▁desele 1
0s 1
▁literate 1
▁ease 1
▁ustensile 1
ros 1
▁renouv 1
▁kouvertir 1
▁cult 1
olasion 1
▁latonn 1
▁ous 1
lips 1
▁lepep 1
▁poupou 1
▁vwalie 1
vou 1
▁compren 1
▁beign 1
ules 1
▁eating 1
▁retrog 1
▁konbin 1
▁koupetire 1
▁popilasion 1
diksion 1
▁etid 1
▁miracles 1
▁litchi 1
▁sakouy 1
▁wirel 1
▁enseignants 1
▁toufe 1
▁nid 1
▁tourd 1
▁demitour 1
▁temptation 1
▁infize 1
▁couturiere 1
ral 1
▁pique 1
▁confrontations 1
▁dekrir 1
▁hits 1
▁depenser 1
▁pler 1
▁bl 1
iwala 1
▁rivers 1
owered 1
▁kotlet 1
▁konplexe 1
odaz 1
ivedir 1
desans 1
▁might 1
▁prodwir 1
jaab 1
▁inscrivezvous 1
▁kardi 1
▁revolisioner 1
▁proklamasion 1
layn 1
▁inscribed 1
▁sheila 1
▁guru 1
▁marathon 1
▁sirnatirel 1
▁zanf 1
▁malang 1
▁chombo 1
▁mason 1
▁administre 1
ctar 1
▁undert 1
▁anbarkader 1
▁lievre 1
▁flan 1
▁lao 1
▁zize 1
▁illust 1
nemoni 1
▁grog 1
▁trempe 1
▁organization 1
▁elizabeth 1
▁talon 1
emaker 1
▁ladultere 1
▁nam 1
▁commit 1
▁worldwide 1
▁desizyon 1
▁evidaman 1
▁bakhshi 1
▁whate 1
▁stations 1
▁persez 1
▁beret 1
▁genet 1
▁lekzame 1
▁prepared 1
▁twatir 1
▁espion 1
▁nd 1
▁swore 1
ceed 1
▁interesse 1
▁debreye 1
▁bodyguard 1
▁soldats 1
▁pantalon 1
iberi 1
▁threats 1
▁terminals 1
▁bangladesh 1
id 1
▁trula 1
▁bodybuilder 1
▁mesi 1
▁applaudissements 1
▁captain 1
ioned 1
▁affiche 1
▁england 1
▁selebrite 1
▁violan 1
▁narkotik 1
▁centrifu 1
▁malfeter 1
tempt 1
▁dirigeants 1
lead 1
▁lien 1
▁rasmalay 1
▁catching 1
▁rekonsolide 1
▁kontrav 1
▁edners 1
▁vibration 1
▁gran 1
▁arrive 1
▁blackwood 1
▁caretaker 1
▁ideas 1
hee 1
icac 1
▁setait 1
▁intervention 1
▁aperse 1
▁fletri 1
▁proxenet 1
▁clever 1
▁provins 1
▁gamel 1
▁terye 1
▁anl 1
imounn 1
▁koutpwin 1
▁dundes 1
▁jealousy 1
▁partage 1
▁grudge 1
fonn 1
▁inferior 1
▁kosmik 1
▁sinbol 1
▁ask 1
▁squealers 1
▁tombstone 1
▁bras 1
ouli 1
▁desvaux 1
▁lexpresyon 1
▁matchstick 1
▁demimezir 1
▁top 1
▁importer 1
▁sendikal 1
▁cheap 1
otmo 1
▁sakrilez 1
▁led 1
▁hour 1
▁bathroom 1
▁catapl 1
▁gardpes 1
▁entertainment 1
▁births 1
▁jesuschrist 1
wil 1
yn 1
▁letre 1
▁larmwar 1
indistri 1
▁izolant 1
▁impossible 1
▁traditionally 1
▁kastet 1
▁produisent 1
▁liberalize 1
▁sout 1
▁lagren 1
odivers 1
▁kana 1
▁attent 1
▁letap 1
▁pon 1
▁du 1
▁inporte 1
▁reported 1
▁receipt 1
odisman 1
han 1
iastik 1
▁acrob 1
▁federasyon 1
▁patisie 1
▁sirirz 1
jection 1
▁joze 1
▁doumpak 1
utation 1
port 1
uper 1
▁limouzinn 1
asional 1
▁apre 1
▁morel 1
▁alfabetizasion 1
▁ordres 1
▁hel 1
▁zame 1
▁lanouyman 1
▁kalay 1
▁detestab 1
lest 1
gra 1
▁lins 1
▁sperm 1
▁pria 1
▁continuez 1
▁sums 1
▁desorma 1
alegou 1
▁edision 1
▁itch 1
ifinal 1
oryom 1
neuf 1
▁manipulation 1
▁except 1
▁transaction 1
enne 1
amental 1
▁gambler 1
▁mutiler 1
▁luk 1
▁remed 1
▁alar 1
▁lodkologn 1
▁causes 1
rolozi 1
▁lines 1
▁demanze 1
▁appro 1
antman 1
▁situation 1
▁lelvin 1
▁kak 1
adire 1
▁degradan 1
▁rezolision 1
onktir 1
ium 1
▁accustom 1
istique 1
▁tanka 1
▁milit 1
▁rape 1
▁consume 1
▁bezdam 1
▁nymph 1
▁narater 1
▁klotir 1
▁dh 1
▁excellence 1
▁werent 1
▁species 1
▁indistrializasion 1
▁numbers 1
▁karne 1
root 1
▁crierent 1
▁lelv 1
▁kominalism 1
▁capitalist 1
▁kolekter 1
▁marched 1
▁vrs 1
18 1
▁transpar 1
▁souson 1
▁douze 1
▁mour 1
▁cope 1
▁swet 1
▁kind 1
▁eleksion 1
▁quarter 1
▁gemir 1
▁upturns 1
▁lankl 1
▁restriktir 1
ktif 1
▁kontravansion 1
▁troublemaker 1
▁stuck 1
▁effacer 1
▁morib 1
▁specimen 1
▁latasman 1
▁thatll 1
ouage 1
▁insecticides 1
▁vit 1
▁ire 1
▁fauna 1
inement 1
▁awkward 1
▁dekadnase 1
acles 1
▁soley 1
rads 1
▁bote 1
▁furt 1
▁divinity 1
brid 1
ido 1
▁ponktiel 1
ogram 1
▁siperp 1
▁hero 1
▁serirye 1
▁comb 1
▁nord 1
▁degaze 1
ren 1
▁greater 1
▁lakrwa 1
▁opresan 1
▁resikle 1
developed 1
▁konserve 1
▁boit 1
▁seash 1
▁rekreasion 1
▁finished 1
▁nourisan 1
▁nevenn 1
▁aventist 1
▁worn 1
▁experyans 1
▁rein 1
▁lourde 1
▁salue 1
▁badge 1
▁movie 1
enge 1
▁units 1
▁seminaire 1
▁nouvelzeland 1
▁jury 1
▁park 1
▁kliyantel 1
▁ly 1
deeds 1
ketborl 1
▁dadi 1
▁inak 1
▁peroke 1
▁premon 1
▁poison 1
▁refresh 1
▁lasi 1
▁ebony 1
▁maux 1
▁zenis 1
▁horoscope 1
▁lapov 1
▁jouer 1
▁pregn 1
▁reservi 1
▁kwense 1
▁travailler 1
emb 1
▁aksantegi 1
▁frans 1
▁convincing 1
▁jardin 1
▁mikroskop 1
▁energ 1
▁1900 1
▁penguin 1
▁firstly 1
▁kontant 1
assage 1
▁signer 1
olds 1
▁footstool 1
▁melankoli 1
▁anvwadfami 1
▁punir 1
▁konfronte 1
▁sibmerze 1
▁quelques 1
▁nevral 1
▁ferme 1
▁volan 1
▁creusez 1
▁serir 1
▁adversaire 1
fami 1
oupe 1
cense 1
ikaman 1
▁mervey 1
▁kouma 1
▁fertil 1
▁organized 1
▁zodi 1
▁gele 1
▁rasage 1
▁damzannla 1
▁absoli 1
▁imprisonment 1
omi 1
▁chromosome 1
▁expressed 1
▁recifs 1
▁miting 1
▁diferansiel 1
▁korbiyar 1
▁arrestation 1
onder 1
▁cases 1
▁nuvone 1
▁frot 1
▁disg 1
▁mereng 1
▁bonbe 1
▁superviseur 1
▁pilet 1
▁enner 1
▁resansman 1
keys 1
▁rencontre 1
▁fmi 1
▁mouse 1
▁kolon 1
▁fasilman 1
▁avertisman 1
▁aker 1
▁puisje 1
ounds 1
▁sasdo 1
▁otomobilis 1
▁tilanbik 1
▁groups 1
▁antisosial 1
▁carreau 1
▁gognarde 1
▁winning 1
▁unex 1
▁imaginary 1
▁lieu 1
▁difikil 1
▁prodw 1
▁ourselves 1
▁healthy 1
onnman 1
▁maternelle 1
▁hibernate 1
▁camion 1
▁champs 1
crow 1
▁overt 1
▁sympathique 1
▁cascade 1
▁back 1
▁disappearing 1
▁nani 1
▁directeur 1
▁legal 1
▁inkyetid 1
▁scrib 1
brella 1
▁divizion 1
▁azite 1
▁degrading 1
▁seaside 1
▁telephone 1
▁witchsorcerer 1
oom 1
▁levels 1
ilaba 1
▁ramification 1
▁1991 1
▁nausea 1
roberts 1
▁zimnaz 1
▁mem 1
▁rob 1
▁contagious 1
▁nephtali 1
raf 1
▁serye 1
▁ofiramezir 1
▁penso 1
▁packed 1
soll 1
▁apart 1
▁pickles 1
▁ditou 1
▁mauritianism 1
▁kranpon 1
▁6 1
▁lafen 1
▁abdominal 1
01 1
olo 1
▁anticor 1
▁tanmie 1
▁iregilie 1
▁lump 1
▁peaz 1
▁instruction 1
▁bare 1
▁ideolozik 1
quent 1
▁soulazman 1
▁derive 1
▁gardes 1
▁naval 1
▁coeur 1
▁levennman 1
▁deseni 1
▁pinnki 1
apper 1
▁wok 1
▁vann 1
▁bienven 1
▁revokab 1
▁avangard 1
▁ss 1
▁negl 1
▁argument 1
▁gentillesse 1
▁booked 1
▁siporter 1
▁generalized 1
▁bound 1
▁polarisation 1
▁lecole 1
▁konpozan 1
▁protocole 1
▁gromo 1
▁tie 1
▁profitez 1
▁batan 1
▁far 1
hib 1
redir 1
▁flush 1
loge 1
dir 1
▁mot 1
▁lalinn 1
▁throes 1
▁el 1
▁moderniz 1
▁karnaval 1
tele 1
angers 1
▁hoping 1
▁kob 1
vab 1
▁philanthropist 1
▁rythmique 1
▁konf 1
▁mosque 1
▁enterprise 1
▁pinset 1
▁compagnon 1
▁either 1
▁lanonima 1
▁vandan 1
▁fich 1
▁anymore 1
▁sweyn 1
▁dette 1
▁admitting 1
▁taux 1
▁parade 1
▁textil 1
▁david 1
▁hisher 1
▁ce 1
▁kouraze 1
▁piedrwa 1
▁among 1
▁imb 1
isses 1
▁selfcontrol 1
▁pover 1
vit 1
▁farg 1
▁hindoue 1
▁teroris 1
quement 1
▁digest 1
▁dansaient 1
▁outsid 1
▁inka 1
▁lapud 1
▁mepri 1
igan 1
▁frankly 1
▁attack 1
▁linteryer 1
▁jali 1
inerer 1
▁triyanger 1
irpat 1
rupulous 1
▁caraj 1
▁identifying 1
▁too 1
▁pelikil 1
▁larmistis 1
▁vedetarya 1
▁mummy 1
▁arism 1
▁patrone 1
▁siperstisyon 1
▁maltrete 1
▁squid 1
▁fiziolozik 1
▁nouri 1
▁abund 1
▁scra 1
▁decoura 1
▁imoral 1
▁sonze 1
▁swords 1
▁merchant 1
▁kaskader 1
▁storkiper 1
▁prosper 1
▁blasfem 1
▁gladiator 1
▁imply 1
▁paving 1
▁lotes 1
▁jeanne 1
▁qual 1
▁expoz 1
▁icecream 1
▁alo 1
▁milyoner 1
▁meks 1
▁angourd 1
izann 1
▁orphanage 1
▁otoktonn 1
▁rebondit 1
▁zamann 1
▁rounded 1
▁lakwis 1
▁vre 1
ifris 1
▁kist 1
▁jad 1
▁flooring 1
▁wicked 1
▁muslims 1
▁teachings 1
▁citadin 1
▁initiative 1
▁him 1
▁plonzer 1
▁korpore 1
▁pipette 1
▁stil 1
▁ekout 1
▁reappe 1
te 1
▁dried 1
many 1
▁negligence 1
▁mills 1
▁character 1
once 1
eline 1
▁konpoziter 1
▁maket 1
▁sakristi 1
un 1
▁blah 1
▁dais 1
▁nimerolozi 1
▁lanvergir 1
▁opened 1
polinn 1
rated 1
▁feather 1
istrasion 1
▁bronze 1
▁dezobeisans 1
▁floor 1
▁collapse 1
▁towns 1
▁egize 1
vers 1
▁relans 1
▁cuivre 1
▁platband 1
▁val 1
▁compatri 1
▁repart 1
▁kar 1
▁guilt 1
teopor 1
▁zongle 1
mit 1
▁interval 1
▁reak 1
▁antouzi 1
▁petrin 1
▁cryptic 1
▁cong 1
▁bolero 1
▁miligram 1
ridar 1
▁fishhook 1
▁larezinn 1
roy 1
▁vig 1
etikman 1
▁prostern 1
▁tromlin 1
▁benk 1
▁mounkiaw 1
▁remplissage 1
▁2530 1
▁famila 1
▁blond 1
▁ennalou 1
▁dekonpreser 1
▁lezerman 1
▁helmet 1
▁conduct 1
▁distinction 1
fate 1
▁chocol 1
▁boulevard 1
▁zanimoism 1
▁jile 1
▁lon 1
▁interim 1
▁sensibil 1
▁planke 1
▁boths 1
▁plut 1
▁tantativla 1
▁modifye 1
▁defet 1
fulness 1
▁rises 1
▁academie 1
▁kontourne 1
▁ph 1
▁waterpolo 1
▁lanbeli 1
▁alm 1
eyed 1
▁mood 1
ipolit 1
▁involves 1
▁antropolozi 1
pelez 1
gadi 1
▁oblige 1
masala 1
▁levez 1
▁klima 1
▁lepoque 1
▁must 1
▁drawingroom 1
ological 1
▁ordonna 1
▁inprovize 1
▁perturbation 1
▁forgive 1
▁pieni 1
▁simetrik 1
▁rouge 1
▁ez 1
▁vorasite 1
▁ezips 1
▁construire 1
▁sistematikman 1
▁locked 1
peng 1
▁express 1
▁siple 1
▁humains 1
▁namely 1
▁vivan 1
▁dying 1
▁chuck 1
▁fermtire 1
atiquement 1
urber 1
▁adaptation 1
▁employee 1
▁charanicharana 1
▁lapar 1
▁vizit 1
unulation 1
▁tune 1
▁detanz 1
yons 1
▁repuse 1
▁pilate 1
▁recession 1
▁denunci 1
▁recompense 1
▁kotom 1
ptik 1
endous 1
▁sitwayen 1
▁shield 1
▁includ 1
▁heartless 1
▁pwintez 1
▁plase 1
▁pesait 1
▁lavanbra 1
▁zom 1
▁shows 1
organism 1
▁alimentaire 1
▁ays 1
▁zepis 1
▁arsipella 1
▁errrr 1
▁metod 1
▁mande 1
▁eroik 1
▁bobine 1
▁alcoholic 1
▁mandarin 1
▁potri 1
▁magie 1
▁anferme 1
▁fires 1
▁raccourcir 1
▁demenaze 1
▁shower 1
▁billet 1
▁familles 1
▁signater 1
▁emanations 1
▁credibilite 1
obine 1
▁kriyepa 1
bas 1
▁interipsion 1
▁climbed 1
▁infants 1
vey 1
▁vivre 1
▁nen 1
▁beautiful 1
▁other 1
▁bons 1
▁utilisation 1
▁konforme 1
▁1956 1
▁burzwazi 1
▁zest 1
alti 1
▁revirman 1
▁deboulman 1
hers 1
▁vem 1
▁milt 1
▁hu 1
kter 1
▁gift 1
▁into 1
▁assemblee 1
▁pan 1
▁committee 1
▁lasanbe 1
▁dedlayn 1
iseaux 1
itory 1
▁ciseaux 1
▁chamber 1
▁sers 1
▁booming 1
▁refuses 1
▁tea 1
▁collective 1
▁onbilikal 1
▁unity 1
▁raf 1
▁theoretical 1
▁justice 1
▁verts 1
▁sosyo 1
anzil 1
▁company 1
▁prison 1
▁cambri 1
vention 1
▁inzekte 1
▁krisifi 1
▁aggress 1
▁skizofreni 1
▁neither 1
▁franseangle 1
ish 1
pe 1
▁konzele 1
▁pavaz 1
▁possedait 1
▁tarde 1
▁linv 1
▁lesp 1
▁miltipliye 1
kiper 1
▁mad 1
▁countries 1
▁tele 1
▁mision 1
112 1
▁rzan 1
duire 1
isaz 1
▁bis 1
▁anprann 1
achand 1
▁komer 1
▁penitans 1
▁infayib 1
▁diskoay 1
▁monoculture 1
▁powers 1
▁criter 1
ezle 1
▁konsome 1
▁nitroglycerine 1
▁poem 1
inox 1
▁fasafas 1
▁jonns 1
▁bolt 1
▁bonde 1
▁swastika 1
lax 1
▁setif 1
▁animals 1
▁komsikomsa 1
pong 1
▁menot 1
▁vase 1
text 1
fect 1
▁fore 1
▁triumph 1
▁destinasion 1
▁dosilite 1
▁flu 1
ru 1
▁zifle 1
▁fraktir 1
umes 1
▁lespasla 1
91 1
oniste 1
▁bumped 1
cur 1
▁batir 1
▁integrite 1
▁suspect 1
▁kib 1
▁skizof 1
▁obeissant 1
sium 1
▁animation 1
fou 1
▁kinn 1
▁complaining 1
▁angro 1
▁struggling 1
▁politisyen 1
▁inc 1
▁gmof 1
▁principles 1
▁lantrak 1
▁stoul 1
▁ranbour 1
▁psychological 1
▁savonet 1
▁mondyal 1
▁imple 1
▁whisky 1
▁arismetik 1
▁provicech 1
▁draw 1
▁impover 1
▁ple 1
▁steep 1
▁suburb 1
▁eskis 1
ght 1
▁imprimante 1
▁solidarite 1
▁mahashivrat 1
rick 1
▁clap 1
▁fouke 1
▁reim 1
▁amas 1
▁elastic 1
▁dane 1
▁memo 1
ativite 1
▁ennertan 1
▁tere 1
▁crispy 1
lybol 1
▁quarters 1
▁feb 1
▁avantpro 1
▁nupt 1
▁moutons 1
▁lye 1
▁nonretour 1
▁mutilation 1
▁thief 1
▁bia 1
▁indicateur 1
▁fibre 1
iligy 1
▁inaksesib 1
▁silence 1
▁dyp 1
▁condamner 1
▁dargent 1
▁fieldwork 1
▁occupe 1
▁revolution 1
▁valid 1
▁drivelling 1
▁koler 1
▁hisse 1
▁ide 1
▁dinamit 1
▁akrose 1
▁anbasadris 1
rue 1
▁economy 1
2013 1
▁dimnn 1
▁misch 1
▁truelle 1
▁cesse 1
▁continua 1
▁obeissent 1
▁sideen 1
▁ekwilateral 1
▁etrangers 1
▁invention 1
▁lempereur 1
▁sapo 1
▁anbilan 1
cade 1
▁families 1
▁krik 1
▁legisl 1
▁letran 1
▁meni 1
▁highlevel 1
▁decreed 1
usal 1
arr 1
▁meetings 1
▁interferer 1
▁konpoz 1
▁ankete 1
▁kamas 1
▁diset 1
▁distiller 1
▁pigeonhole 1
ibere 1
▁jaws 1
ikatif 1
▁nonasistans 1
▁airlines 1
▁budism 1
▁pupil 1
▁tentes 1
▁milpat 1
▁respire 1
▁marry 1
▁prek 1
otte 1
▁elo 1
pee 1
riti 1
▁dibien 1
▁ald 1
▁emissaire 1
▁domennla 1
▁reintrodir 1
▁corrobor 1
▁satur 1
▁chord 1
▁parli 1
▁socket 1
▁jib 1
▁1930 1
▁katkam 1
ponns 1
▁bain 1
▁egoutter 1
▁plonb 1
▁tenir 1
▁petanque 1
atou 1
▁decreasing 1
▁inverse 1
▁ajouter 1
▁doucement 1
resion 1
▁supermarket 1
graf 1
▁diplomat 1
▁gere 1
▁asize 1
▁tin 1
▁agale 1
▁unn 1
▁parole 1
▁kontan 1
▁suggested 1
▁labraget 1
▁biss 1
▁violon 1
▁arrival 1
▁192 1
▁	the 1
oseksiel 1
▁grandmother 1
▁sagrinan 1
▁legislative 1
▁folksong 1
▁lhotel 1
▁kuma 1
▁varyete 1
▁suffisamment 1
▁through 1
▁regarda 1
▁javelin 1
▁ogmantasion 1
ati 1
▁plac 1
issors 1
▁susp 1
▁bougie 1
▁gur 1
▁bigger 1
▁formika 1
▁abitie 1
▁dialog 1
▁profeser 1
▁conce 1
▁vagabon 1
▁bourgeoisie 1
▁taypis 1
▁koz 1
▁patisserie 1
▁infidele 1
otan 1
▁appoint 1
▁previous 1
▁saladie 1
▁molar 1
▁braced 1
▁cogn 1
▁rotation 1
▁annee 1
▁lasosiasion 1
▁conspiracy 1
▁coq 1
▁rosemont 1
▁tonguet 1
▁aporte 1
▁fwa 1
▁surveying 1
▁funer 1
▁orltou 1
▁lassemblee 1
▁sniff 1
▁wanted 1
rade 1
▁eskimo 1
▁selma 1
▁moz 1
▁distrib 1
▁stutter 1
▁zekrou 1
▁domine 1
▁disorderly 1
▁tipt 1
▁brede 1
▁suzette 1
▁mix 1
▁etiez 1
▁gosse 1
nat 1
▁cake 1
po 1
up 1
▁eternel 1
▁ezemoni 1
obi 1
▁demin 1
▁exprimez 1
▁mizo 1
▁koneser 1
▁accomp 1
▁lasarite 1
▁diasar 1
▁deluge 1
▁insult 1
▁ac 1
▁toucher 1
▁yesmenn 1
used 1
▁holi 1
orik 1
▁access 1
▁pains 1
▁mizerikord 1
▁atrap 1
▁tanzani 1
▁cym 1
▁linpasians 1
fekte 1
▁piose 1
▁bonavini 1
▁rebu 1
onica 1
▁ridiculous 1
▁granper 1
▁policies 1
▁deles 1
▁cards 1
▁sousvet 1
▁thinks 1
▁candid 1
▁apartman 1
▁preker 1
bear 1
ists 1
▁caul 1
▁lb 1
▁self 1
▁nasyonal 1
71 1
kiaw 1
▁raisins 1
▁individ 1
▁paswar 1
▁milligram 1
ouray 1
▁hectare 1
▁signe 1
▁lakav 1
▁extorke 1
▁asoup 1
▁canvassing 1
▁lansen 1
▁difikilte 1
▁milieu 1
▁tidezene 1
▁auparavant 1
▁hemp 1
▁rue 1
▁joke 1
▁lerin 1
▁brisee 1
▁antouziasam 1
▁remet 1
▁twelfth 1
▁inovasion 1
▁intens 1
▁env 1
▁recruit 1
▁solpis 1
ss 1
▁ladder 1
▁worthwhile 1
▁inakseptab 1
ourne 1
▁akril 1
▁cannibalism 1
▁instititris 1
▁grimase 1
▁transport 1
▁bethleem 1
▁fraternel 1
▁rasi 1
▁zener 1
▁derby 1
▁limenn 1
▁lavatory 1
▁ansyen 1
▁universal 1
▁circulate 1
▁itself 1
▁compteur 1
▁tret 1
▁sanskrit 1
ne 1
▁bag 1
▁decamp 1
▁kontinantal 1
vez 1
▁kestyon 1
▁campe 1
▁contact 1
▁cerf 1
▁grenouy 1
▁korsaz 1
pt 1
agon 1
▁rhum 1
ten 1
▁kontinye 1
▁bing 1
▁veye 1
▁competence 1
▁bhavnag 1
▁zwisans 1
▁regleman 1
▁solde 1
▁penn 1
wable 1
▁miroir 1
▁deksi 1
▁respecter 1
▁bhojpouri 1
▁aplon 1
▁forz 1
▁graynder 1
▁mutation 1
▁sen 1
▁istansil 1
▁devez 1
▁sparrow 1
▁faibles 1
▁nommer 1
▁janvier 1
▁kaser 1
itran 1
▁furni 1
▁soap 1
▁couteau 1
▁lasel 1
▁alarming 1
ysi 1
▁prend 1
▁concili 1
▁dac 1
▁felisitasion 1
▁ess 1
▁kaki 1
▁incre 1
▁cooper 1
▁proc 1
▁fasine 1
▁tournan 1
▁efektie 1
▁vexe 1
▁earthen 1
▁reaction 1
▁toutounn 1
▁meprizan 1
▁dofin 1
brand 1
▁perimet 1
▁solution 1
▁narasion 1
▁tw 1
▁rafraich 1
▁blasfeme 1
▁pinnget 1
▁canv 1
▁contaminate 1
ife 1
▁laz 1
▁debleyaz 1
▁curve 1
▁coconut 1
▁recently 1
▁sanbran 1
▁allongezvous 1
▁cost 1
▁oksidantalize 1
▁konferans 1
▁pasifis 1
▁kopirayt 1
▁somer 1
itasyon 1
▁anbigi 1
▁demontre 1
▁mefiezvous 1
based 1
kiler 1
▁incumb 1
▁aswafe 1
▁testament 1
▁inportasion 1
▁aliens 1
▁fislekan 1
▁darfur 1
▁cardio 1
▁kanonize 1
▁miryel 1
▁reyn 1
▁headboy 1
▁abiz 1
▁pres 1
▁piloti 1
▁pei 1
▁contains 1
▁strap 1
▁celle 1
▁sago 1
ost 1
▁destroy 1
ouver 1
▁pwatrinn 1
▁selibater 1
▁boules 1
▁detrir 1
▁provoque 1
elter 1
▁secondclass 1
▁grateful 1
▁lexces 1
▁fouk 1
▁psikolozikman 1
▁libye 1
▁heure 1
▁pizza 1
▁veziv 1
▁rang 1
▁speville 1
▁brand 1
▁regga 1
▁pl 1
▁panter 1
▁archipelago 1
▁reprezantan 1
▁1982 1
▁puffed 1
kg 1
▁milk 1
iker 1
▁krep 1
▁contrast 1
▁delarge 1
▁collaps 1
▁labalenn 1
▁sotrel 1
▁preoccup 1
▁jounn 1
▁arsitektir 1
▁lamitie 1
▁aborde 1
▁suffocation 1
▁threatened 1
▁zwir 1
▁sanse 1
▁dinform 1
sez 1
▁patrol 1
▁direction 1
▁piner 1
▁laboured 1
plus 1
▁vog 1
▁somaz 1
▁manter 1
▁zile 1
▁limigrasion 1
▁model 1
▁rila 1
▁says 1
isans 1
▁fries 1
▁refriger 1
▁buying 1
saille 1
▁sensitivity 1
▁portrait 1
▁disorient 1
▁regions 1
▁kataklism 1
▁swete 1
apas 1
▁dezerprepar 1
red 1
▁bolshevik 1
▁beet 1
▁atouse 1
▁cans 1
▁reinte 1
▁pretended 1
▁baccara 1
▁kogn 1
▁redes 1
gam 1
▁portplim 1
▁moine 1
▁lasurs 1
▁tropic 1
▁rud 1
▁normalize 1
▁comptes 1
ymes 1
▁finision 1
▁speed 1
▁noktirn 1
▁published 1
abl 1
▁risque 1
▁doktora 1
▁krawnlenn 1
▁superieure 1
▁vwazinaz 1
▁ambitious 1
▁corps 1
▁lekris 1
feme 1
▁monopoli 1
▁koumsikoums 1
▁aparision 1
▁demolir 1
▁unforunate 1
▁pian 1
▁inhabit 1
ibut 1
iboug 1
▁divertisman 1
mari 1
▁portie 1
▁comple 1
▁recolte 1
balance 1
▁strat 1
▁almond 1
▁bawnser 1
▁feodal 1
▁london 1
▁pourbwar 1
▁pisc 1
▁cent 1
▁pwinter 1
▁amelioration 1
▁navire 1
▁antremetez 1
▁sanpas 1
▁konstatasion 1
▁oserye 1
▁zansiv 1
▁obzerve 1
▁exemple 1
▁plasennta 1
nal 1
▁degring 1
▁complexity 1
▁live 1
▁euth 1
▁lezitimite 1
▁asouv 1
▁delwin 1
▁konbat 1
▁lhumanite 1
▁eyol 1
▁pwindevi 1
▁rabo 1
▁logo 1
▁espece 1
iri 1
▁lorry 1
▁tako 1
▁brez 1
sc 1
▁chop 1
▁salua 1
▁sarbon 1
rem 1
▁ravitaye 1
▁zongler 1
▁ves 1
opiez 1
▁langet 1
▁ranze 1
▁restrenn 1
▁inkor 1
espere 1
opia 1
▁kontin 1
▁bate 1
▁azout 1
▁varying 1
ailles 1
▁sanzenn 1
wayman 1
▁fouz 1
kaye 1
▁onor 1
▁mmmpsm 1
▁noorbux 1
▁dira 1
▁astrobi 1
▁amoureux 1
▁reflete 1
▁beef 1
▁sabbath 1
▁antiseptic 1
oyal 1
▁servis 1
▁mamm 1
▁sotsote 1
▁marchait 1
▁adrese 1
▁etablissement 1
▁baltann 1
▁canard 1
▁domestike 1
▁declaration 1
▁eyel 1
▁emphas 1
▁introduction 1
▁tantativ 1
▁kartye 1
▁plok 1
▁roze 1
ooka 1
▁elbow 1
letin 1
▁bacc 1
▁simant 1
▁zibile 1
▁church 1
▁sinnwa 1
▁serez 1
▁lesyel 1
aswa 1
▁discipline 1
kdek 1
pare 1
▁sydney 1
▁uncom 1
▁400kg 1
▁rally 1
▁hinduism 1
ivid 1
▁traumat 1
antite 1
▁uptodate 1
▁cohab 1
▁konstriktif 1
▁unoccupied 1
fif 1
▁konpromet 1
aliable 1
▁indign 1
▁fay 1
▁negritid 1
▁materyo 1
edien 1
▁service 1
▁contrad 1
▁zi 1
▁cartel 1
▁lapantkot 1
▁neglize 1
▁referans 1
▁excuses 1
respond 1
▁calp 1
▁lox 1
irent 1
▁appeles 1
▁anbalaba 1
▁complement 1
▁sama 1
▁email 1
▁insupport 1
▁sizela 1
▁dinfirmier 1
▁majors 1
obile 1
▁lasem 1
wav 1
▁sport 1
▁familiar 1
▁attaches 1
▁komision 1
▁farouks 1
▁crystall 1
▁thr 1
boxer 1
▁quatrevingt 1
▁profondement 1
▁ankouler 1
▁writer 1
▁meantime 1
▁hampering 1
▁ibl 1
▁descended 1
▁parf 1
▁demografy 1
▁anglob 1
▁stretcher 1
▁adision 1
▁inkarne 1
▁individual 1
▁kisanla 1
▁arid 1
▁penis 1
▁kamera 1
▁avons 1
▁dure 1
▁nep 1
▁pous 1
▁arith 1
▁understands 1
▁veteran 1
▁listen 1
▁repro 1
tani 1
▁ninetynine 1
amble 1
▁malawi 1
▁genn 1
▁loved 1
▁lennmi 1
▁dik 1
▁konstaman 1
▁inspection 1
▁malheureusement 1
▁voras 1
▁choula 1
▁necessite 1
▁anons 1
▁sommet 1
otocrat 1
▁ann 1
▁breasts 1
▁enseign 1
▁falsifikasion 1
▁finish 1
engi 1
▁agricult 1
▁bath 1
▁femelle 1
▁disparision 1
just 1
esis 1
▁tigarson 1
dan 1
lac 1
llanos 1
crew 1
▁list 1
▁admis 1
▁inspe 1
▁deplezan 1
▁sech 1
▁vezet 1
dawn 1
▁cacao 1
▁pie 1
yos 1
▁sexis 1
▁santimantalman 1
▁lanbi 1
aze 1
▁natte 1
▁mouk 1
▁inferieure 1
irm 1
▁cite 1
▁mika 1
borl 1
▁kwen 1
▁pecheurs 1
▁know 1
▁shepherds 1
▁vign 1
▁carpet 1
▁swas 1
touni 1
ilinn 1
▁navigue 1
▁desant 1
▁cependant 1
revi 1
▁ministry 1
▁diap 1
aque 1
ance 1
▁occasionally 1
▁sure 1
▁profesionelman 1
▁ier 1
▁ranpar 1
jour 1
▁phoenix 1
▁informe 1
▁garn 1
▁rs10000 1
orth 1
▁dezerte 1
▁ensorceler 1
▁completement 1
▁fantastique 1
rees 1
girl 1
▁pali 1
▁lautel 1
mate 1
▁lemwayin 1
▁ekrevis 1
▁prosesion 1
▁konokono 1
▁flakon 1
mm 1
ktivite 1
▁mandie 1
▁fraternite 1
▁rabazaz 1
▁balkanize 1
▁volat 1
rezon 1
▁agrolindistri 1
▁sagren 1
▁lagarsonn 1
▁cause 1
▁polenn 1
▁training 1
▁krizantem 1
itare 1
▁rival 1
ddle 1
▁integ 1
▁mauvais 1
▁courage 1
▁viz 1
▁dantis 1
eznous 1
▁forestie 1
▁dealing 1
▁stubborn 1
▁marches 1
▁spy 1
an 1
▁sori 1
▁hammer 1
▁ola 1
▁genu 1
izol 1
▁lanbet 1
▁sik 1
▁appelle 1
▁petrif 1
▁makal 1
▁vendu 1
ili 1
▁moyens 1
▁close 1
chi 1
▁ofise 1
▁giling 1
rail 1
▁paisible 1
▁sapron 1
▁harmonium 1
▁sinplifikasion 1
▁louanges 1
▁petision 1
▁soudain 1
▁brochure 1
site 1
▁mia 1
fans 1
▁insousian 1
▁satisfaksyon 1
▁tiagrikilter 1
irlandrwa 1
▁dezoriante 1
▁olie 1
bord 1
▁karismatik 1
▁pez 1
▁operates 1
▁shops 1
▁cerfs 1
▁voltfas 1
▁lakrwaze 1
▁consol 1
mis 1
▁lakrim 1
emiah 1
▁mozamb 1
cked 1
oped 1
oriquement 1
▁transplant 1
gh 1
▁portkle 1
▁kalite 1
▁kofre 1
▁repetision 1
▁lasintfas 1
▁simulation 1
pter 1
ibbean 1
bour 1
ics 1
▁pastan 1
ieusement 1
▁lopiom 1
moi 1
▁korpere 1
▁kime 1
▁gw 1
▁fekla 1
▁tousala 1
ro 1
▁minimus 1
▁eprouve 1
▁womans 1
▁harceler 1
▁somey 1
▁komen 1
▁lanper 1
▁assumptions 1
▁unimportant 1
▁pause 1
▁poksev 1
▁imperialis 1
▁concrete 1
▁prensipal 1
▁rouye 1
▁mekan 1
▁chere 1
▁colophanes 1
▁sefdeta 1
▁erbisid 1
terie 1
▁souver 1
wide 1
▁souris 1
▁souterin 1
▁exsepte 1
▁degringoler 1
▁kostimdebin 1
▁spool 1
▁chanvre 1
idy 1
▁grabbed 1
▁inconsolable 1
▁lont 1
▁molton 1
▁hypertension 1
pave 1
▁violently 1
▁miop 1
▁mantal 1
▁arimate 1
▁goujrati 1
▁perfect 1
▁chef 1
scot 1
▁tis 1
gdog 1
▁litiz 1
▁kot 1
▁science 1
zium 1
▁farser 1
▁beaut 1
▁serait 1
issements 1
▁akousman 1
▁otomatikman 1
▁flock 1
▁chale 1
▁lazil 1
▁ul 1
▁mingle 1
oti 1
ormi 1
▁toke 1
▁depane 1
▁malfouti 1
▁tricher 1
▁lalit 1
▁babaji 1
▁payait 1
▁united 1
pots 1
▁fences 1
speaking 1
tare 1
▁bapp 1
▁konsepsion 1
▁att 1
▁indust 1
▁punaise 1
va 1
▁ripiter 1
▁straight 1
utati 1
▁papar 1
▁sagay 1
▁eb 1
▁prestigieux 1
▁rekon 1
▁responsibility 1
▁memories 1
▁unbeliev 1
▁bandouyer 1
▁marmay 1
ilenn 1
▁kast 1
▁emancip 1
axi 1
▁pivot 1
▁payer 1
▁tonel 1
gouli 1
▁nitrision 1
▁tongues 1
▁tete 1
▁bucket 1
tile 1
▁anniversaire 1
▁evenman 1
▁effraction 1
▁urinate 1
reproduction 1
▁expresyon 1
▁grasshop 1
▁upto 1
ilater 1
▁konzonktir 1
apple 1
▁spermatozoid 1
▁sityasyon 1
dil 1
▁lazeng 1
▁194 1
▁conditioning 1
▁ventile 1
ases 1
▁avegle 1
▁shouting 1
▁windfall 1
▁lidership 1
▁shamp 1
▁trangle 1
adeur 1
ze 1
▁propres 1
▁dezele 1
ilitre 1
▁aksion 1
▁chapter 1
▁otrisien 1
▁cook 1
▁pratic 1
▁aurions 1
▁rochers 1
iry 1
positive 1
▁festin 1
▁adroit 1
iner 1
▁circuler 1
▁lorer 1
▁libien 1
ogra 1
▁konzonksion 1
▁menopoz 1
▁kotite 1
▁alegre 1
▁mazanbik 1
▁puppies 1
▁fianse 1
▁deformasion 1
▁papadam 1
▁fonser 1
▁vapeur 1
onneur 1
▁sinpat 1
▁dekrete 1
roits 1
▁corrupteur 1
▁tus 1
▁batlaz 1
▁komet 1
orasyon 1
mem 1
▁anpremie 1
▁meterreader 1
▁marto 1
▁laide 1
▁pul 1
▁impure 1
▁implement 1
▁improv 1
▁ampere 1
▁kartay 1
▁natirel 1
▁bakhsh 1
▁fiz 1
▁mor 1
▁nageoire 1
▁bear 1
orisation 1
abond 1
▁lass 1
▁repran 1
▁drapeau 1
▁messages 1
▁manguier 1
▁vasou 1
▁repeat 1
▁salpet 1
▁deplorab 1
▁disp 1
▁slam 1
▁frizer 1
▁trot 1
iyman 1
▁isterik 1
▁crib 1
▁campaigns 1
▁become 1
▁hold 1
▁ormonn 1
▁preok 1
▁anserpi 1
▁nidist 1
iend 1
▁semi 1
estif 1
▁falokrat 1
▁souhaitable 1
▁zot 1
▁dormi 1
▁confus 1
▁bingo 1
▁kalia 1
▁ledouz 1
▁kenn 1
▁bacteria 1
▁distilasion 1
▁walks 1
▁orange 1
▁sivik 1
▁folles 1
kl 1
▁lari 1
▁tiyot 1
▁plantain 1
▁monopolize 1
▁pion 1
▁mille 1
▁ennuye 1
▁hamburg 1
▁raide 1
▁ankraz 1
▁akable 1
▁sakived 1
▁konprime 1
▁oper 1
▁girof 1
▁picore 1
▁segatye 1
▁handsome 1
▁demistifie 1
▁isi 1
▁trente 1
ute 1
▁nene 1
onna 1
▁exses 1
▁bi 1
▁afford 1
▁manto 1
▁plimo 1
▁undress 1
▁solomon 1
▁angelus 1
▁detron 1
▁bateaux 1
lote 1
oufl 1
▁patri 1
▁konsiansie 1
▁admisib 1
▁lavennman 1
▁extrait 1
▁tired 1
▁cho 1
▁familyal 1
▁envansion 1
▁bains 1
rim 1
▁oppression 1
▁pould 1
▁beatifie 1
▁enf 1
▁lengthen 1
▁pounnde 1
▁swaz 1
▁voyaz 1
▁vacances 1
▁reconn 1
era 1
loc 1
quin 1
▁akuse 1
▁jerrycan 1
▁celleci 1
▁miray 1
▁rezyonal 1
▁brain 1
ink 1
▁egi 1
▁personn 1
▁kannvasing 1
itera 1
▁samdi 1
omach 1
▁brainwashing 1
▁maskil 1
ount 1
mak 1
▁rekrite 1
▁sistem 1
acher 1
▁guinee 1
▁diverzans 1
▁rezervasion 1
sement 1
▁fimri 1
enda 1
▁barks 1
▁greeted 1
▁tamarind 1
▁joiner 1
ogene 1
▁displ 1
outime 1
▁zezer 1
▁laissait 1
enndo 1
▁employe 1
▁pey 1
▁thank 1
▁formerly 1
▁puri 1
▁overse 1
▁ministere 1
▁morts 1
▁explos 1
vil 1
▁demon 1
▁endless 1
▁quotas 1
▁gowreesoo 1
▁brosse 1
emer 1
▁selfdefence 1
▁aniseed 1
cri 1
quelles 1
▁mannkin 1
▁sipervayzer 1
▁tendency 1
▁intend 1
▁pay 1
▁sinbolik 1
▁ascenseur 1
▁crayon 1
▁twit 1
▁vanngard 1
▁backs 1
▁exazerasion 1
erpi 1
▁jumble 1
▁conqu 1
▁tibut 1
▁verou 1
▁conven 1
▁ungrate 1
▁rokenn 1
▁pleure 1
▁fuy 1
▁below 1
▁pretentious 1
▁telecommande 1
rennent 1
▁mauvaise 1
▁paternelle 1
▁sita 1
▁singap 1
itent 1
▁lagoul 1
▁reparation 1
teady 1
▁existant 1
▁grandi 1
▁crochet 1
▁sakivedir 1
▁angry 1
▁historian 1
▁reorganization 1
▁kolk 1
▁cheek 1
▁colonne 1
heur 1
▁coherent 1
▁millenarian 1
▁anim 1
▁seasons 1
▁detourn 1
▁ultimately 1
▁makalapo 1
▁laissez 1
▁volay 1
▁assiettes 1
▁melody 1
ue 1
▁outboat 1
▁karant 1
▁evidently 1
▁fokare 1
▁pren 1
iav 1
▁alami 1
▁croute 1
▁katriem 1
▁carpent 1
lets 1
▁unluck 1
▁appears 1
▁lata 1
▁dentrer 1
vre 1
▁fasse 1
▁rebell 1
reg 1
▁footprints 1
▁os 1
otur 1
azi 1
▁apeze 1
▁sher 1
▁bourbak 1
▁dispensed 1
▁kag 1
▁serti 1
inie 1
▁akonplir 1
▁predictable 1
annya 1
▁crowbar 1
▁posibilite 1
▁consequence 1
▁bazarye 1
▁pilot 1
▁impres 1
ves 1
am 1
azer 1
▁crayons 1
▁doktrinn 1
▁surve 1
▁verbal 1
▁masculin 1
▁andormi 1
▁deaths 1
▁auto 1
▁dozaz 1
▁hole 1
▁downtown 1
▁friction 1
▁parkinnsonn 1
▁lafarinn 1
▁pastalon 1
▁older 1
▁behave 1
place 1
▁loter 1
▁supprimer 1
▁etape 1
▁ski 1
▁heir 1
▁lacc 1
▁boycotted 1
▁sefziz 1
▁cle 1
▁wt 1
igirasion 1
▁maintient 1
leem 1
▁frire 1
▁deduction 1
▁limitasion 1
▁signifiait 1
dings 1
▁dis 1
▁sekre 1
▁beetroot 1
in 1
▁parney 1
▁brene 1
▁patin 1
▁remaniman 1
mansman 1
▁venger 1
▁liki 1
▁strategie 1
▁compromis 1
▁hears 1
▁ecology 1
▁progres 1
▁aro 1
▁informel 1
▁vested 1
▁lex 1
▁roulroul 1
▁koupol 1
▁insilte 1
▁pitin 1
▁elir 1
rasi 1
▁dario 1
▁sitwayenn 1
jock 1
▁deter 1
▁demantel 1
▁ideolozi 1
▁kosmonot 1
▁joint 1
▁rezwenn 1
▁expor 1
▁ekinox 1
▁commun 1
▁caractere 1
▁interc 1
▁maintained 1
▁ditesnous 1
▁aparaman 1
▁cool 1
▁finally 1
▁etimolozik 1
▁ry 1
▁matriarka 1
guard 1
enital 1
▁gest 1
verb 1
▁oxim 1
▁edifice 1
▁philadel 1
▁bower 1
ilme 1
▁emeter 1
▁bij 1
▁cargad 1
▁kontour 1
▁omaz 1
▁zinek 1
pre 1
▁continue 1
looking 1
illis 1
ed 1
▁veter 1
▁belonging 1
▁soir 1
▁kontabilite 1
▁trwazer 1
istrib 1
▁biote 1
▁juri 1
▁preprim 1
frogne 1
▁amis 1
▁itilizasyon 1
▁gogn 1
ificant 1
▁demal 1
lery 1
▁sospik 1
▁lorizinn 1
▁cotton 1
▁evaporasion 1
▁deliberation 1
▁zour 1
antor 1
icir 1
ionship 1
▁eux 1
▁sufer 1
▁derniers 1
▁mutter 1
▁souset 1
▁dormez 1
▁gref 1
▁voulaient 1
atinn 1
▁mele 1
▁sannkoutla 1
▁entry 1
▁fatra 1
▁vye 1
▁langdebef 1
emoni 1
▁nwizib 1
▁lakonp 1
▁tore 1
▁netwayan 1
gay 1
▁once 1
▁pirifie 1
▁b 1
▁monsanto 1
▁swis 1
▁themselves 1
arienne 1
▁breakdown 1
▁pwason 1
▁zeyer 1
ertin 1
▁bouton 1
▁separatis 1
▁mener 1
▁emerald 1
▁vieyi 1
▁ana 1
▁drame 1
▁reformile 1
▁koresponn 1
beri 1
▁tabalti 1
▁ganee 1
▁foye 1
▁lazam 1
▁ultraliberal 1
▁porc 1
▁jini 1
▁vwa 1
▁remers 1
olter 1
▁ayir 1
▁tranzisyonel 1
▁linfirmiere 1
▁dinam 1
▁starved 1
kwi 1
▁decla 1
▁relanse 1
▁ep 1
▁enstenktivman 1
▁dirizan 1
▁substitute 1
▁timbre 1
sm 1
aux 1
derst 1
▁zwav 1
ikolor 1
icateur 1
▁expressions 1
▁inkoeran 1
▁tralala 1
▁elimine 1
▁lorganizasyon 1
ravel 1
▁lic 1
▁exsesif 1
▁apotres 1
▁stole 1
▁detriment 1
▁wanting 1
▁vous 1
▁congelateur 1
▁spelling 1
▁ofrand 1
▁rewarded 1
▁gospel 1
▁win 1
▁flatterer 1
▁despa 1
▁allaient 1
▁exhibition 1
sule 1
▁posede 1
▁anpl 1
▁reling 1
▁digestion 1
▁1975 1
▁alfabet 1
▁nonfimer 1
▁moons 1
▁antere 1
inki 1
▁eliz 1
▁envant 1
▁avertit 1
▁secou 1
▁factories 1
▁erodien 1
ensus 1
▁fetis 1
▁lowest 1
▁minutes 1
▁karipoule 1
▁flite 1
▁kanbriole 1
▁induism 1
▁fantastic 1
bourzwa 1
▁davans 1
▁locality 1
vites 1
orate 1
isept 1
▁safi 1
▁pise 1
▁panvi 1
▁goud 1
rust 1
▁orbit 1
▁fang 1
ored 1
▁etrwa 1
▁delimite 1
▁horizontale 1
▁kawnsil 1
▁labiyman 1
▁cin 1
▁rassemb 1
▁quechua 1
▁parles 1
▁sonne 1
▁pleuv 1
▁popilasyon 1
rants 1
▁lodkolog 1
matique 1
▁dimounnal 1
▁filon 1
▁plaisir 1
▁zezik 1
▁fago 1
▁lakanbiz 1
▁honn 1
▁inskrir 1
atisf 1
▁tourmante 1
▁felir 1
▁singing 1
iers 1
▁wing 1
▁indic 1
▁disket 1
▁pietine 1
▁sermon 1
▁abite 1
▁victoria 1
est 1
▁meres 1
▁recorders 1
▁lamans 1
▁kutim 1
▁witchcraft 1
▁lisidite 1
▁conseils 1
kre 1
▁iritasion 1
el 1
▁lindex 1
▁melimelo 1
▁endomm 1
▁lantonwar 1
inyis 1
▁lus 1
▁tretman 1
▁chasse 1
▁renonse 1
▁insomni 1
▁copper 1
ide 1
▁envo 1
▁zournalis 1
▁doukia 1
▁carelessness 1
▁litilite 1
ponn 1
▁mame 1
▁joker 1
rond 1
▁kabann 1
▁benzamen 1
▁protect 1
▁pure 1
▁arkelais 1
▁gogotri 1
▁latres 1
▁prinn 1
▁exanpsion 1
etin 1
▁salut 1
▁eclect 1
▁malady 1
▁kanal 1
ennti 1
▁assem 1
▁sibzektif 1
▁orfelina 1
▁senaryo 1
opozitif 1
▁dezerite 1
▁unconscious 1
▁elegans 1
▁preferences 1
▁sacred 1
▁frit 1
▁bracelet 1
▁ala 1
mon 1
anga 1
▁preferable 1
▁dutch 1
▁souci 1
▁ment 1
prim 1
▁tombola 1
▁especes 1
▁obeegadoo 1
▁nouvote 1
▁lapo 1
▁brightly 1
ene 1
▁return 1
▁pleasant 1
▁ovil 1
▁spur 1
▁festivals 1
▁derizwar 1
▁mang 1
▁preferred 1
▁laisse 1
▁dop 1
▁responsab 1
▁imilie 1
▁maladif 1
▁voleborl 1
ref 1
▁loudly 1
▁degrafe 1
▁refrigerateur 1
▁sorc 1
▁aba 1
▁feston 1
plinn 1
▁hardest 1
▁depas 1
▁dizwit 1
▁tables 1
▁disconect 1
▁papillon 1
▁destroyed 1
▁ugly 1
ougounou 1
▁redouble 1
▁demifon 1
▁larm 1
ap 1
▁pejor 1
▁royal 1
sia 1
▁disloquer 1
icism 1
▁debreyaz 1
▁mascareignes 1
▁shivala 1
aging 1
▁kontrepwa 1
▁look 1
▁pod 1
▁nomla 1
▁occasionnel 1
▁nipsial 1
▁lalwala 1
atig 1
▁sibversion 1
idon 1
▁virilan 1
▁desp 1
▁sartie 1
gasion 1
4d 1
▁alman 1
▁ekipman 1
▁maldetet 1
▁capitalism 1
enser 1
▁proxim 1
▁siperier 1
▁biz 1
▁toner 1
▁kilt 1
▁vite 1
▁orphelin 1
▁turned 1
▁chand 1
▁pretendre 1
act 1
▁ladans 1
▁brouyon 1
▁mond 1
oe 1
▁lent 1
▁poubelle 1
pse 1
▁pikn 1
terrain 1
▁winn 1
▁tackle 1
▁pro 1
▁labitid 1
▁kase 1
▁2000 1
▁itineraire 1
phie 1
▁pelrinaz 1
▁peuv 1
▁kominal 1
▁demer 1
▁sinpl 1
ikasite 1
yonet 1
▁hook 1
▁invocation 1
fectant 1
▁piblie 1
etik 1
▁rivrin 1
▁terres 1
▁kariyon 1
▁wellbeing 1
▁darreter 1
▁dezinterese 1
▁teck 1
edrale 1
ezvous 1
▁oppos 1
▁mansion 1
▁brick 1
▁repetitive 1
▁asakfwa 1
▁longer 1
▁dekl 1
▁mineure 1
osyon 1
other 1
▁relasman 1
▁stepping 1
▁campagnard 1
▁stetoskop 1
dautres 1
rige 1
▁gaj 1
▁characters 1
▁temwayn 1
▁leaf 1
▁dahl 1
▁netwayaz 1
▁bop 1
▁karese 1
▁etal 1
▁otur 1
▁voltage 1
▁demagogue 1
▁bataklan 1
▁clumsiness 1
ctricite 1
▁resister 1
▁kouzen 1
▁bonne 1
▁muddy 1
achth 1
orship 1
▁grasp 1
▁sekretarya 1
▁momem 1
▁lips 1
▁konfor 1
▁fimer 1
▁diagnozis 1
▁vigueur 1
agus 1
▁payment 1
▁issa 1
▁pisanli 1
▁presipoze 1
▁coloss 1
▁establish 1
▁ozana 1
▁exanpler 1
▁ability 1
▁materials 1
▁tart 1
▁forced 1
pan 1
▁climbs 1
▁konfront 1
uter 1
▁bassin 1
▁governing 1
pteurs 1
▁embrasser 1
▁rhume 1
▁extremes 1
▁folklor 1
hur 1
▁redaksion 1
▁leparaz 1
▁sith 1
▁appeared 1
▁teller 1
mal 1
▁booking 1
▁tourists 1
▁handy 1
▁absorban 1
▁lang 1
▁exam 1
▁slaughter 1
istration 1
▁malheureux 1
▁podium 1
entry 1
isione 1
▁pension 1
▁lalignman 1
▁real 1
▁opin 1
▁galilee 1
▁soutir 1
▁ivwar 1
▁comra 1
▁bull 1
▁zerizalem 1
▁wheres 1
▁pike 1
▁hindoustani 1
apat 1
ounder 1
▁chomtayt 1
▁enclosure 1
▁bayaz 1
▁parfums 1
mont 1
▁konprese 1
▁lanier 1
▁selen 1
▁lortograf 1
▁having 1
▁integrated 1
▁inflianse 1
lick 1
▁humiliate 1
ayib 1
▁amezir 1
▁vivaient 1
▁biolozik 1
▁running 1
▁ivrogn 1
▁aret 1
▁dekoupe 1
▁viger 1
▁desizion 1
▁snore 1
▁balivern 1
erecord 1
▁detruire 1
▁zo 1
▁formant 1
▁wounds 1
▁legend 1
▁elarzi 1
▁100000 1
▁marginal 1
▁reconna 1
ivan 1
▁evaluation 1
▁lesarp 1
▁rel 1
oranz 1
▁impract 1
▁dezerpre 1
▁har 1
itary 1
aniverser 1
unnel 1
▁ignorance 1
▁dran 1
▁avantgarde 1
▁interrupt 1
▁anplifie 1
▁attacher 1
▁veto 1
▁camoufl 1
ifre 1
▁resume 1
▁bankrout 1
▁gorer 1
▁eliminate 1
▁map 1
▁fonctionn 1
▁plants 1
ailing 1
▁kabinn 1
riv 1
▁media 1
▁dekul 1
▁lavign 1
▁chilli 1
▁gymnastique 1
▁objections 1
▁azenou 1
aires 1
▁fitnes 1
▁benzinn 1
▁raksiraz 1
▁web 1
▁koalision 1
▁rekonet 1
▁regrouse 1
▁sendika 1
▁amicale 1
▁denonsiater 1
▁unofficial 1
ievous 1
▁crisp 1
▁economic 1
▁avoided 1
▁exkirsion 1
▁anpagay 1
▁occuper 1
▁rarman 1
bleman 1
▁afar 1
ker 1
▁discoura 1
▁etimolozi 1
▁vilin 1
▁hurried 1
amer 1
because 1
▁approve 1
▁kg 1
▁bavant 1
▁peryodik 1
▁hitech 1
▁policy 1
iable 1
▁esclave 1
▁handicraft 1
▁gradoub 1
▁seul 1
▁whisper 1
▁investigators 1
▁click 1
▁preamble 1
▁threatening 1
▁anbar 1
▁bourbon 1
▁mami 1
▁mofinn 1
bagram 1
▁resolutions 1
ibin 1
▁baisser 1
▁napa 1
▁45 1
▁agees 1
▁mos 1
anter 1
▁ranbours 1
▁continues 1
53 1
▁oriantal 1
asiet 1
iment 1
▁sevente 1
▁detudi 1
▁merd 1
▁blanche 1
▁sedev 1
▁perform 1
▁aksel 1
▁youpi 1
▁referant 1
▁pov 1
▁percepteurs 1
▁selected 1
ikann 1
▁sooknund 1
▁koumadir 1
▁sais 1
irme 1
▁stronghold 1
▁dirigea 1
▁retap 1
▁kretonn 1
▁ru 1
▁konfians 1
▁serif 1
estibles 1
▁tracing 1
▁brule 1
▁factory 1
▁say 1
iltir 1
▁volunt 1
▁cord 1
▁lakok 1
▁tomates 1
▁diables 1
▁angwas 1
▁removing 1
lish 1
▁unexpected 1
▁questce 1
▁danasion 1
▁setskwer 1
cloth 1
▁atiray 1
▁elit 1
▁lietnan 1
▁komedien 1
▁zapon 1
▁cetera 1
▁reanpriz 1
▁sede 1
▁extending 1
▁rote 1
▁sque 1
▁briser 1
▁twent 1
ks 1
▁asmatik 1
▁feerique 1
▁calais 1
▁jumper 1
▁metamorfoz 1
▁outres 1
▁vinegar 1
▁performan 1
▁rektifikatif 1
▁sakri 1
hoea 1
esaret 1
▁trwit 1
▁stickers 1
ande 1
▁lali 1
▁idantite 1
▁dekwa 1
▁septam 1
▁lasansion 1
▁pilgrimage 1
▁marmite 1
▁signdekrwa 1
▁inflasyon 1
▁aktivis 1
▁rezion 1
eler 1
▁lamwatie 1
▁deman 1
▁educating 1
▁honeycomb 1
▁quietly 1
▁process 1
reser 1
▁lagricul 1
▁grinder 1
▁bouzwar 1
▁literature 1
▁kler 1
▁balie 1
▁sell 1
▁adapted 1
onter 1
▁hakka 1
des 1
off 1
osid 1
▁cochon 1
▁frapan 1
▁ibiskis 1
▁surroundings 1
▁metdekol 1
▁lakoll 1
▁etude 1
▁verifikasion 1
▁ziraf 1
har 1
dey 1
▁planterla 1
▁zelron 1
▁mefiance 1
▁operate 1
▁latelie 1
▁modele 1
ayay 1
▁shepher 1
▁micros 1
▁laskar 1
▁tabliye 1
▁organism 1
▁selebrasyon 1
▁cact 1
▁nwarsi 1
▁deal 1
▁sirtou 1
▁imedya 1
▁coupable 1
▁tronc 1
▁neigh 1
▁er 1
▁oter 1
▁permanently 1
▁ramo 1
▁armistice 1
▁collegue 1
▁ruf 1
▁tabou 1
▁medyom 1
▁otosifizans 1
▁rs 1
▁dece 1
▁skull 1
▁maurel 1
wif 1
▁nonrezidan 1
▁whipped 1
▁equilater 1
ariat 1
▁boulanze 1
▁revise 1
▁adul 1
player 1
▁menac 1
▁rakor 1
▁konvinki 1
▁swoll 1
▁ouvertman 1
sin 1
▁lvi 1
▁tentacles 1
▁inb 1
▁parvedi 1
▁commonwealth 1
▁vind 1
▁lavant 1
▁mimi 1
▁aprose 1
▁kennsel 1
▁vu 1
▁napoleons 1
▁griye 1
▁paral 1
▁metye 1
▁koran 1
▁kof 1
▁kosmon 1
▁nwel 1
▁canal 1
▁izole 1
isant 1
▁interonp 1
▁bergam 1
▁sec 1
luck 1
▁maskot 1
▁nickname 1
▁commerc 1
▁ll 1
▁lying 1
▁gounougounou 1
▁bureaucra 1
▁recovered 1
▁lasks 1
▁gethse 1
all 1
▁jockey 1
▁zenom 1
ousel 1
▁abroad 1
▁herbs 1
▁fasaf 1
▁allees 1
▁tache 1
▁unrest 1
▁tirbouson 1
▁emper 1
▁ranfrogne 1
▁attached 1
▁dif 1
▁pat 1
ancy 1
▁laccord 1
▁ridicule 1
▁vwar 1
▁laswit 1
▁divinla 1
▁ladan 1
▁siven 1
▁basse 1
ilri 1
▁sinpatize 1
house 1
▁trotters 1
▁insect 1
▁marri 1
▁parapluie 1
▁ressurection 1
esper 1
▁remarke 1
▁seksion 1
▁dekonzele 1
▁alternate 1
knack 1
▁tetdem 1
▁sinquieter 1
afes 1
▁pm 1
▁naze 1
▁becoming 1
▁arts 1
▁vertiz 1
▁prier 1
▁pointing 1
asoude 1
▁ramdoyal 1
▁sibzektivite 1
▁art 1
▁lotorite 1
▁fasinan 1
▁kantone 1
▁vert 1
▁ny 1
iration 1
▁embroider 1
▁kron 1
▁mekanizasion 1
▁frotwar 1
ator 1
osirirz 1
▁konservasion 1
▁troubled 1
pon 1
▁buze 1
▁towel 1
▁setup 1
▁stew 1
▁inqu 1
▁f 1
▁etes 1
▁testioub 1
▁intensite 1
ose 1
▁unsc 1
▁akwatik 1
▁tabouret 1
▁ravengar 1
antel 1
pipe 1
▁vakabon 1
▁jolies 1
▁graver 1
itan 1
▁souffler 1
▁miser 1
▁miltip 1
umanite 1
▁aktivite 1
esare 1
▁diplik 1
imantal 1
▁veau 1
▁eleve 1
▁grounds 1
▁journalists 1
▁barkshir 1
▁konpleman 1
▁marier 1
▁drawing 1
▁victory 1
▁flic 1
▁etoufman 1
itiel 1
▁lider 1
	 1
▁young 1
▁placed 1
▁postpon 1
m 1
▁ultimatum 1
▁vagues 1
▁panplem 1
▁ouvbwat 1
▁oil 1
▁vomiting 1
▁fis 1
▁trump 1
▁riot 1
▁parapl 1
▁aryere 1
▁xezi 1
▁meyer 1
▁babyfoot 1
▁agrikol 1
istics 1
▁fonksionel 1
▁revelasion 1
▁koksis 1
▁vary 1
▁yenn 1
▁dont 1
▁kalchoul 1
▁akaro 1
▁inpridan 1
▁merkantil 1
▁laliyn 1
▁compos 1
▁merch 1
▁exactement 1
▁maharani 1
▁psikanalis 1
▁recher 1
▁rebelyon 1
▁revision 1
yol 1
▁deblokaz 1
▁alle 1
▁happenings 1
▁depression 1
ofile 1
2 1
▁consomm 1
▁like 1
▁anpermet 1
▁kroket 1
▁trike 1
▁ledikasion 1
▁adil 1
▁kalver 1
▁help 1
▁mazoritela 1
▁negotiator 1
▁katar 1
▁namibien 1
sechee 1
▁rosla 1
bare 1
▁ipotez 1
▁doublarou 1
▁remersiman 1
▁propri 1
▁mettre 1
ployment 1
▁parquet 1
▁makaw 1
▁pretre 1
▁fisan 1
▁turistik 1
▁kum 1
▁label 1
▁prostitisyon 1
▁sefdef 1
▁sela 1
▁coqu 1
▁80 1
▁skid 1
▁frazil 1
ult 1
▁isaac 1
▁kalman 1
▁epav 1
▁gradual 1
lo 1
▁aluminium 1
reh 1
rit 1
oc 1
▁spre 1
aktivite 1
▁antrekot 1
▁medaille 1
▁spidbot 1
▁gifts 1
▁incumbent 1
▁lakour 1
▁backward 1
inaz 1
▁superieur 1
▁hindou 1
▁appris 1
▁dibyen 1
▁sirtu 1
▁demif 1
▁linprimri 1
▁pelemele 1
▁imem 1
▁omelette 1
▁fin 1
▁benwar 1
▁ordinerman 1
▁alcoolique 1
▁pirana 1
▁vitae 1
▁demois 1
▁jutilise 1
▁jeterent 1
▁selfreg 1
▁lodvi 1
▁type 1
▁fragmantasion 1
▁ages 1
▁emouvan 1
▁types 1
▁dart 1
▁obligatwarman 1
▁korde 1
▁dissatisfied 1
▁meet 1
▁erise 1
▁amie 1
▁pikir 1
▁kras 1
▁karate 1
▁tranp 1
get 1
▁rk 1
▁banbu 1
▁almanak 1
▁rezud 1
arid 1
▁grover 1
▁katre 1
▁dinamik 1
▁bistop 1
▁phrase 1
▁bouster 1
▁personne 1
▁celibataire 1
▁feodalite 1
▁letasivil 1
▁single 1
race 1
▁improbable 1
▁devinrent 1
ons 1
▁record 1
▁rawnd 1
▁fees 1
▁boykote 1
▁zigz 1
▁submitted 1
▁egorze 1
▁orkestre 1
▁leve 1
resser 1
▁puvwar 1
▁uncontrollable 1
▁mmmmsmpmsdfts 1
▁instans 1
▁zasmin 1
▁diskresion 1
▁rinoseros 1
▁inpratik 1
▁geant 1
▁facet 1
▁creuser 1
▁knick 1
▁sigar 1
▁rabase 1
▁lotograf 1
▁avertirg 1
omy 1
▁doula 1
▁mast 1
▁cosmopolitan 1
isonn 1
▁brok 1
▁sensible 1
▁amande 1
ogne 1
▁protestasion 1
ingh 1
▁hallmark 1
▁runs 1
▁possibilite 1
adare 1
▁elus 1
▁gorz 1
▁rekomet 1
▁demele 1
▁embrayage 1
▁rezional 1
twar 1
▁impermeable 1
▁portaport 1
▁rido 1
▁kept 1
▁stem 1
▁neurosur 1
▁features 1
v 1
▁flutter 1
▁degrosi 1
▁lekip 1
▁sidamer 1
ners 1
ckers 1
▁fidget 1
▁pomd 1
▁incu 1
▁pagod 1
▁matla 1
▁leral 1
▁septic 1
▁lasari 1
▁circul 1
▁pounk 1
eran 1
▁palisad 1
▁initiation 1
▁devastate 1
▁dautre 1
▁satir 1
▁brouette 1
▁sekt 1
▁forces 1
▁constellation 1
▁one 1
▁lesel 1
thing 1
▁vwala 1
▁playing 1
▁zway 1
▁leagued 1
▁lwen 1
▁geograph 1
▁reject 1
wana 1
▁farm 1
▁midwives 1
▁rolls 1
▁1012 1
bilan 1
15000 1
▁mortise 1
▁obstinate 1
▁definitely 1
ronomi 1
▁pese 1
▁bureauc 1
▁exsantrik 1
▁caesare 1
▁palourd 1
▁labuzi 1
▁lerni 1
▁strongly 1
▁supplies 1
▁loperateur 1
▁lido 1
▁legl 1
▁akolad 1
▁revander 1
ezik 1
▁zare 1
▁alez 1
▁atlantic 1
▁otozestion 1
▁intervansion 1
▁efreye 1
▁banndari 1
▁lobl 1
▁viol 1
maid 1
▁solision 1
▁serk 1
▁trazik 1
▁briyan 1
ueur 1
▁solemn 1
▁boulanzri 1
▁fennsifer 1
▁developed 1
▁cavadee 1
▁aveugles 1
▁rekomandab 1
▁krousti 1
▁christian 1
raid 1
▁sisters 1
▁drivers 1
▁roulettes 1
▁lasonn 1
▁konser 1
▁chous 1
▁inpir 1
orbux 1
▁fermtir 1
cutter 1
▁lekorla 1
▁persisted 1
▁cheke 1
▁izrael 1
▁toll 1
▁subjects 1
cast 1
▁servir 1
manter 1
▁duster 1
▁zakob 1
▁paraf 1
▁expekt 1
▁skwater 1
▁lopozision 1
▁dosage 1
▁yoruba 1
▁kridite 1
▁stout 1
onnement 1
▁investissement 1
asure 1
▁saw 1
▁priyor 1
▁tonn 1
▁likes 1
▁debark 1
▁etonnement 1
▁compartment 1
▁topik 1
▁skywill 1
▁lurking 1
▁goulidannta 1
▁chemistry 1
▁lake 1
▁soulwe 1
▁lavait 1
▁gomor 1
▁agg 1
▁fierte 1
▁scratched 1
▁sanpiona 1
▁korper 1
▁patrim 1
▁krway 1
▁restore 1
▁kous 1
ays 1
ab 1
▁souy 1
▁pharisiens 1
▁fount 1
▁boutique 1
▁bouyot 1
▁niklaz 1
▁murmure 1
▁dressmaker 1
▁anekdot 1
▁responsabilite 1
▁answers 1
▁reste 1
▁lexamin 1
▁productivity 1
▁rive 1
▁konfie 1
▁pirat 1
▁resik 1
▁maladimalgas 1
rak 1
oufle 1
▁omosexialite 1
▁diarrhee 1
▁lopinyon 1
▁maladresse 1
▁belch 1
▁unwanted 1
▁cheaper 1
▁dyalektik 1
▁famgard 1
ised 1
▁laksh 1
▁cop 1
▁anbonns 1
▁apel 1
side 1
▁desclaves 1
legim 1
▁vocation 1
▁greatgrand 1
▁weekends 1
▁manigans 1
angs 1
▁lafrontman 1
kripsyon 1
▁ls 1
▁lanzelis 1
▁ansiennte 1
▁siklis 1
irz 1
pars 1
▁councils 1
▁pivote 1
▁fren 1
▁3035 1
▁preserving 1
▁hidden 1
ieze 1
▁oubien 1
▁randevou 1
▁volant 1
iom 1
vret 1
kot 1
▁observater 1
▁arch 1
▁disperses 1
▁sacerdotale 1
▁misk 1
▁metaf 1
ipe 1
▁bothering 1
▁ambiguous 1
▁degra 1
pants 1
meab 1
▁editor 1
▁tolerates 1
▁succ 1
uvlab 1
inan 1
▁obs 1
▁premature 1
▁vedir 1
▁lesson 1
oss 1
▁spid 1
▁enleve 1
▁nestce 1
▁speaks 1
▁nayba 1
▁1938 1
▁pret 1
▁managing 1
▁zol 1
etman 1
▁konstitye 1
▁brazil 1
▁provayd 1
▁matapane 1
▁degradasion 1
▁atire 1
▁geto 1
▁insomnia 1
▁zebede 1
▁prinses 1
▁lieux 1
▁deje 1
▁adolescence 1
vingt 1
▁reyone 1
▁anderson 1
▁letamaz 1
▁charanich 1
▁bruce 1
▁nersri 1
▁accident 1
▁manipile 1
▁ambassad 1
▁etym 1
▁charleston 1
▁benit 1
▁zezi 1
▁lob 1
down 1
▁abraam 1
▁sappro 1
▁temperament 1
faz 1
▁seleksion 1
▁meksinn 1
▁kraz 1
▁tanzan 1
▁banane 1
▁tors 1
rennman 1
▁jean 1
▁eker 1
▁squatters 1
▁severe 1
▁eleksyon 1
▁mentionner 1
rire 1
▁pwins 1
▁attachez 1
emade 1
▁spec 1
▁sirnat 1
reation 1
ocial 1
▁repetitif 1
▁soumarin 1
▁wednes 1
icier 1
▁patdelefan 1
▁promosion 1
▁depends 1
▁desespere 1
▁pisinn 1
▁reservasion 1
▁firye 1
▁etim 1
▁quitt 1
▁extor 1
▁frais 1
▁inhabitant 1
hire 1
▁midsum 1
▁foset 1
▁giving 1
▁huissier 1
▁lalimyer 1
ilonn 1
▁picasso 1
▁salaryal 1
▁pail 1
▁airs 1
▁desandan 1
▁integr 1
▁important 1
▁onz 1
▁movements 1
elique 1
▁presidan 1
▁brasle 1
▁amiz 1
▁disappointment 1
oran 1
▁otokol 1
▁lud 1
▁ree 1
▁disappears 1
▁girlfriend 1
itique 1
▁telespektater 1
▁audition 1
▁sterling 1
▁transparan 1
▁proble 1
▁laviann 1
▁cloaque 1
▁merci 1
▁lax 1
▁ruine 1
▁elektrisite 1
▁nwayo 1
▁desinn 1
▁tiping 1
▁seraz 1
▁prodiktif 1
▁kaktis 1
▁friksion 1
▁maskilin 1
▁flexib 1
▁halaal 1
▁lorizon 1
▁gallop 1
▁contract 1
▁kandida 1
▁etwl 1
▁soulpis 1
▁shortcoming 1
▁potassium 1
▁goods 1
▁atm 1
▁brother 1
▁corrid 1
▁palpitasion 1
▁cycle 1
▁mortal 1
▁fese 1
▁dig 1
▁manure 1
▁tereb 1
asina 1
▁ofcourse 1
▁dom 1
▁ronfleman 1
▁tant 1
eli 1
▁dinner 1
▁inspiration 1
▁vinn 1
▁dimilie 1
▁sofa 1
▁demagog 1
▁vs 1
rab 1
▁serigra 1
▁defi 1
▁score 1
▁honey 1
▁hunter 1
yab 1
▁progresis 1
▁gardez 1
▁fox 1
▁faire 1
▁agreements 1
▁normalman 1
▁doing 1
▁sanksion 1
▁mal 1
▁flesh 1
▁tournevis 1
outra 1
▁lamek 1
▁quarrel 1
▁asire 1
mopol 1
ansiel 1
▁tanbour 1
ek 1
olt 1
▁kaysou 1
▁nonsalans 1
▁asgar 1
olor 1
▁impat 1
▁fonetik 1
▁dimoman 1
▁reservation 1
▁souvetman 1
iongon 1
▁lisansiman 1
▁dife 1
elling 1
wize 1
▁vals 1
▁kokainn 1
▁prehistor 1
▁illness 1
▁flay 1
▁anpirik 1
▁vigil 1
▁pigs 1
▁siff 1
▁anf 1
▁reimprison 1
witman 1
▁palp 1
▁cock 1
▁demoniak 1
▁invitasion 1
▁tirbous 1
▁appointment 1
▁kontestasion 1
▁lasann 1
▁redakteransef 1
af 1
▁fizion 1
▁centipede 1
▁commencerent 1
▁epilepsy 1
▁bann 1
▁clearly 1
▁jardinier 1
cif 1
▁bayan 1
▁tues 1
▁certainly 1
▁considered 1
▁weigh 1
▁love 1
▁otobi 1
▁kontribie 1
▁enseigne 1
▁diversifying 1
▁premiers 1
▁confondre 1
▁nominees 1
ieter 1
onie 1
▁aine 1
▁mikrob 1
iled 1
▁exakteman 1
▁prediksion 1
ork 1
▁soubasman 1
▁bourgande 1
▁proposition 1
▁osteoporoz 1
olad 1
▁kagaz 1
▁jeudi 1
▁reconstit 1
▁elabore 1
ful 1
▁similaire 1
▁insignificant 1
pozision 1
▁incor 1
▁harsh 1
▁foursete 1
▁avertissement 1
acceptable 1
▁darken 1
▁entra 1
▁historik 1
▁ecl 1
▁makote 1
▁longanis 1
uded 1
▁noze 1
▁informer 1
uilles 1
▁ireversib 1
▁semicircle 1
▁parapet 1
▁sofistike 1
endence 1
▁transl 1
▁suspendre 1
▁aut 1
orz 1
▁malf 1
▁appropriate 1
▁doubts 1
▁pulley 1
▁theat 1
▁schoolroom 1
▁magnifique 1
▁shopkeep 1
▁pretentieux 1
▁demann 1
▁lie 1
▁tiktak 1
▁alafen 1
▁skills 1
▁matter 1
▁tombeau 1
ekonomik 1
▁dinfirm 1
▁kand 1
yb 1
▁surplus 1
▁drift 1
▁perpandikiler 1
▁labourer 1
▁sint 1
▁ekitab 1
▁elver 1
▁pedagozik 1
▁dekuver 1
▁arrog 1
▁depli 1
▁avalans 1
▁rubble 1
ikter 1
▁beriberi 1
▁pikanloulou 1
▁sine 1
▁reest 1
▁lepeser 1
▁bavardent 1
▁exhausted 1
coach 1
▁kosmopolit 1
▁zuzu 1
▁thorough 1
▁sorcery 1
▁portmanto 1
▁jacket 1
▁tempos 1
atike 1
▁dantle 1
▁predicateur 1
▁larevolisyon 1
▁satisfaire 1
▁delire 1
▁kakafes 1
dotale 1
▁rights 1
▁healed 1
▁sart 1
ows 1
▁lami 1
ique 1
tier 1
▁frequ 1
▁enpas 1
▁dispute 1
onte 1
▁krwas 1
▁sailed 1
▁antreliyn 1
▁dekoksion 1
▁angele 1
▁croyezvous 1
▁grapheme 1
▁chewing 1
ozisyon 1
▁tablet 1
▁vagin 1
▁infrekant 1
▁fwete 1
▁symposium 1
▁keeps 1
▁topics 1
illesse 1
▁beared 1
▁min 1
ifie 1
▁frankomorisien 1
▁fridmer 1
▁rivyer 1
agaz 1
▁modeste 1
▁toux 1
ansab 1
▁epargn 1
▁kolaborasion 1
▁rugbi 1
▁laffaire 1
▁korse 1
▁labim 1
▁cardan 1
▁bourbone 1
▁reexportasion 1
▁ressources 1
▁kalaminndas 1
▁people 1
▁exec 1
▁neu 1
apped 1
▁capric 1
usted 1
▁dabitid 1
▁upsur 1
inel 1
▁enseignement 1
ourt 1
▁alkol 1
acrer 1
▁malanandi 1
▁konfiske 1
▁infirmier 1
▁casino 1
▁konfidansialite 1
▁premonition 1
▁menstruation 1
▁staff 1
▁laport 1
▁ansorsele 1
▁infrastriktir 1
cent 1
▁midday 1
▁advantages 1
▁known 1
▁aw 1
▁roupies 1
▁omar 1
▁limonad 1
▁diff 1
▁osman 1
▁fonctionner 1
▁bofor 1
▁sois 1
▁poppadum 1
▁moulin 1
▁gabri 1
▁oppres 1
▁liberater 1
▁ditin 1
▁koutir 1
light 1
▁rem 1
▁mouvement 1
▁teasing 1
▁tourtre 1
▁ferblant 1
▁cures 1
fik 1
▁konbien 1
▁well 1
▁plizir 1
▁heureux 1
▁pity 1
dred 1
▁gestion 1
oklas 1
▁poskart 1
▁craquer 1
▁daccomplir 1
▁morsel 1
avinn 1
▁knowing 1
▁confronted 1
▁resofe 1
▁indep 1
▁conjonctivite 1
▁repartition 1
▁jaw 1
▁kate 1
▁televisyon 1
▁photography 1
▁bristol 1
orable 1
▁construction 1
etree 1
▁langren 1
▁arranging 1
mel 1
andan 1
▁definitive 1
▁doub 1
▁intern 1
▁explwat 1
▁recommended 1
▁dependant 1
▁blocks 1
▁neur 1
▁grodiri 1
▁lasapel 1
rel 1
▁obviously 1
▁hotels 1
▁applied 1
▁kranp 1
▁adult 1
▁rouzer 1
▁indif 1
▁taking 1
▁specul 1
▁ink 1
▁soul 1
▁modifie 1
▁lec 1
▁lokal 1
▁final 1
▁catastrophic 1
▁interdite 1
▁gerivit 1
▁totaliter 1
aphas 1
▁exercer 1
▁egratigne 1
▁malefis 1
▁skilful 1
▁tailspot 1
▁bienetre 1
fruit 1
▁honte 1
▁remplir 1
▁another 1
▁aki 1
▁fredone 1
▁departman 1
leep 1
▁stubb 1
▁app 1
▁mangeait 1
▁advanced 1
▁dezarme 1
ants 1
invil 1
▁machines 1
▁timet 1
▁secs 1
▁touni 1
▁voute 1
▁threw 1
ipse 1
▁rezone 1
▁galaxy 1
▁winds 1
rouve 1
▁orphan 1
▁eklez 1
▁epizod 1
▁treler 1
▁krab 1
rence 1
lous 1
▁marke 1
▁kazak 1
igador 1
▁expects 1
▁fiftifif 1
istant 1
▁effet 1
▁gouni 1
▁magnetizer 1
dou 1
▁solisionn 1
▁narsisik 1
▁session 1
▁trilingual 1
▁ate 1
▁fellow 1
▁severenns 1
▁vav 1
▁rinse 1
▁recherche 1
▁minizip 1
▁kalkatia 1
oliere 1
▁zinzli 1
made 1
teau 1
▁jessie 1
imi 1
app 1
▁lakwiz 1
▁european 1
▁wagon 1
▁unanimously 1
s 1
▁capsule 1
▁twinkling 1
▁job 1
▁katak 1
▁rason 1
▁onto 1
▁iltraliberal 1
▁mantiy 1
isseurs 1
▁plonbe 1
▁sanctionne 1
▁pneumonie 1
wis 1
▁tag 1
▁unpredict 1
▁racism 1
▁pasazer 1
▁recalling 1
▁marketing 1
▁foyer 1
▁dew 1
io 1
▁sitr 1
itting 1
philis 1
yansay 1
▁anbrouyaz 1
▁compulsory 1
pher 1
▁sesa 1
▁lighten 1
▁degree 1
▁anarchy 1
▁redye 1
▁unconditionnal 1
▁sax 1
istie 1
▁penicillin 1
▁akrilik 1
▁grandm 1
▁ekute 1
▁oxtail 1
▁bish 1
▁capac 1
▁bieze 1
▁kapison 1
arie 1
▁agricole 1
▁poetry 1
▁sass 1
▁evitab 1
▁tromp 1
▁organisation 1
▁plead 1
▁golgote 1
▁ist 1
▁gropal 1
▁praise 1
▁myrr 1
▁poor 1
▁ladiet 1
▁lashed 1
▁generateur 1
▁reprezantasion 1
▁lek 1
▁plitar 1
▁grogne 1
▁kabo 1
▁torsenn 1
▁island 1
annel 1
br 1
▁rezonans 1
▁abonnman 1
▁foundry 1
ilo 1
zone 1
▁konpagn 1
▁doyen 1
▁bidet 1
▁kouv 1
▁flac 1
ibemol 1
▁kestyonla 1
▁oct 1
▁fonce 1
▁ansom 1
▁emaye 1
▁solicite 1
fortable 1
▁bistle 1
▁mu 1
▁waya 1
▁bigay 1
▁lavar 1
▁etone 1
▁alerte 1
▁debriyar 1
ifte 1
▁nasyonaliz 1
ats 1
emia 1
▁tamiser 1
▁falls 1
▁beats 1
▁kindly 1
▁toubiyon 1
▁epanwir 1
▁goute 1
▁sow 1
ind 1
▁amb 1
▁sauve 1
ikti 1
▁mathem 1
▁kopo 1
▁notis 1
▁sakouye 1
▁thompson 1
▁propoz 1
amie 1
▁slug 1
▁navigabilite 1
▁lanbision 1
▁volcanic 1
▁ste 1
▁cremation 1
▁aproxim 1
▁povrete 1
elizan 1
▁couv 1
▁participant 1
▁barb 1
idan 1
▁desantdili 1
▁torture 1
roit 1
▁oazis 1
▁acupuncture 1
▁veritableman 1
▁curiously 1
ak 1
▁col 1
firm 1
ary 1
▁rembour 1
▁things 1
▁koko 1
▁lakres 1
▁couleur 1
ikon 1
▁onze 1
▁read 1
kraze 1
▁conscience 1
▁underst 1
▁knew 1
▁protokol 1
▁malapropo 1
olit 1
▁retiring 1
cer 1
ifye 1
aser 1
▁intervy 1
▁publisher 1
▁comfortable 1
▁lamonte 1
▁modle 1
▁meninzit 1
▁impliquant 1
▁constitutes 1
▁claiming 1
▁evenement 1
▁laun 1
ouse 1
igrasion 1
▁shooting 1
▁samem 1
▁cer 1
▁egalman 1
▁observations 1
▁meteorit 1
▁coolie 1
▁pelindaba 1
▁created 1
▁geriser 1
▁relasionel 1
▁feri 1
▁gadara 1
▁stratez 1
▁guidance 1
▁lanvi 1
▁proklame 1
▁diverti 1
▁mademwazel 1
▁tiag 1
▁tutafe 1
▁danbwa 1
▁comprehensible 1
borler 1
▁solo 1
▁zechariah 1
▁kartel 1
▁jud 1
▁polisie 1
▁koumsa 1
▁dare 1
▁presip 1
▁relatif 1
1 1
▁staf 1
▁excessive 1
ifrice 1
sey 1
▁pretes 1
▁poussiere 1
▁trannde 1
▁riv 1
▁fortres 1
▁zoulou 1
anel 1
▁aval 1
▁kouronnman 1
peaking 1
smen 1
eta 1
▁wwii 1
▁mals 1
ghter 1
▁moket 1
▁connaitre 1
▁ago 1
▁toss 1
▁plint 1
▁mortez 1
▁deterzan 1
▁silansie 1
▁canvass 1
ibinn 1
▁oriantasion 1
leurs 1
▁necklace 1
marin 1
editer 1
▁jelly 1
▁incoherent 1
wed 1
▁wreck 1
▁telle 1
▁magouye 1
▁ezot 1
bencher 1
▁bwarenar 1
▁frakase 1
▁cheveux 1
▁dat 1
▁marche 1
▁manipulator 1
theless 1
▁menace 1
▁ex 1
▁paret 1
▁bienvenue 1
▁ball 1
▁returned 1
▁bouteilles 1
▁dado 1
▁anmer 1
▁biryani 1
▁lidersip 1
▁manipulateur 1
▁kut 1
▁zebedee 1
10000 1
▁filme 1
aprouve 1
▁asham 1
▁grannkrwa 1
▁konsiltasion 1
utable 1
▁pien 1
▁enormous 1
▁naurait 1
▁hous 1
▁regardan 1
ikal 1
▁soud 1
▁garde 1
creen 1
▁drenaz 1
▁impatient 1
▁voltiz 1
▁mefe 1
▁detant 1
▁apranti 1
vern 1
▁corrompu 1
▁rato 1
▁concentration 1
▁sanzer 1
▁spiral 1
▁candidacy 1
▁hut 1
▁ressort 1
▁konpot 1
archal 1
▁edite 1
▁rouz 1
▁reformist 1
▁accepte 1
fren 1
▁19yem 1
▁ceux 1
▁sisterinlaw 1
▁kestion 1
▁alligator 1
▁doker 1
▁principalement 1
▁alis 1
▁permanganat 1
▁dwatet 1
▁maw 1
▁bikanga 1
▁debarder 1
▁hostess 1
▁balai 1
▁kolektif 1
▁trous 1
▁kok 1
calypt 1
▁rougay 1
▁tissue 1
▁larenie 1
▁pozision 1
▁tirbilan 1
▁africa 1
▁construct 1
▁eliside 1
▁literacy 1
▁relig 1
▁tongue 1
▁anplway 1
▁entendu 1
▁prelid 1
▁playgroup 1
▁rides 1
▁malin 1
onnier 1
▁akrwasman 1
▁spencer 1
▁stated 1
▁bas 1
▁turqu 1
▁plank 1
▁insatisfait 1
▁carth 1
▁favorize 1
▁gou 1
▁akoste 1
▁aviater 1
▁unc 1
▁papaye 1
▁distingu 1
▁raccord 1
own 1
▁devraient 1
▁saple 1
▁etaitil 1
▁lafonn 1
▁difisil 1
▁petrolie 1
▁boarding 1
▁pilaw 1
▁sautent 1
▁fraka 1
▁salary 1
regne 1
▁empecher 1
today 1
▁tshert 1
▁symptom 1
▁eklo 1
▁cher 1
▁hip 1
▁lourdeur 1
▁unclean 1
▁arteryel 1
▁twal 1
▁inoccupe 1
▁ranbou 1
▁nasta 1
▁kanpe 1
yones 1
▁mme 1
▁gide 1
▁touring 1
▁sifok 1
▁surgeon 1
antages 1
▁marinn 1
▁sibversif 1
▁bienfeter 1
▁loads 1
▁angourdisman 1
▁sore 1
▁compart 1
▁lokalite 1
▁aspere 1
▁obzervasyon 1
▁temwagne 1
▁absol 1
▁apredemin 1
ita 1
▁labriz 1
▁politician 1
bike 1
▁asterik 1
▁asph 1
▁creator 1
▁vaks 1
▁camb 1
▁mekanizasyon 1
▁soke 1
▁kalaminn 1
▁akoustik 1
▁doranz 1
▁river 1
▁troue 1
▁lepor 1
▁saura 1
▁racing 1
cture 1
▁fondamental 1
▁ripiterz 1
enal 1
▁tenor 1
▁alim 1
▁cercle 1
▁farmhouse 1
▁sanpwin 1
▁variation 1
▁scabb 1
▁saucer 1
▁lokiter 1
▁bomatin 1
▁kateg 1
▁hairdresser 1
▁votre 1
▁grolatet 1
▁mercurochrome 1
▁lost 1
▁laglwar 1
▁balon 1
▁relas 1
▁beta 1
▁awareness 1
▁bonnto 1
▁bisik 1
olozikman 1
▁oars 1
▁lintelizans 1
▁bousone 1
▁kiss 1
▁council 1
▁mortaise 1
▁anplwayer 1
▁jobless 1
▁diarrhoea 1
ktire 1
▁bayon 1
▁abra 1
ilate 1
▁mongoose 1
▁zwin 1
▁zann 1
▁poign 1
▁shrill 1
▁persuas 1
▁versyon 1
▁cic 1
▁1986 1
▁kourbe 1
▁anis 1
▁pasp 1
▁shared 1
pekt 1
▁inpotans 1
▁imprim 1
▁mots 1
ertain 1
▁relationships 1
▁pomme 1
▁depanse 1
▁hsc 1
▁reapele 1
▁inkibater 1
▁deadend 1
▁kakouz 1
▁pur 1
▁manoe 1
▁bipoler 1
▁yoy 1
▁already 1
thieu 1
▁package 1
▁preschool 1
▁dislocation 1
ante 1
▁kool 1
▁consolation 1
▁disipla 1
▁resor 1
▁transferred 1
▁segnman 1
▁repulsion 1
▁matted 1
▁dezakorde 1
ik 1
▁busy 1
▁recol 1
▁disiplinn 1
▁aprik 1
▁drene 1
▁reanbarke 1
▁veritab 1
▁neglect 1
▁solide 1
▁plakar 1
▁vegetable 1
▁expos 1
▁orfelen 1
▁poset 1
▁jama 1
▁kongregasion 1
▁eklektik 1
▁manteau 1
▁communicate 1
▁bowler 1
▁purred 1
▁laryaz 1
▁gardpesri 1
▁standby 1
▁zenerasyon 1
▁cannibal 1
▁seizing 1
▁mist 1
▁mrs 1
gnaut 1
▁ayo 1
▁partaze 1
▁albat 1
▁identities 1
sem 1
▁inf 1
▁biver 1
▁phar 1
▁accueillant 1
▁elektoral 1
▁explik 1
▁points 1
▁awake 1
▁reouver 1
▁zist 1
▁stood 1
▁saenn 1
▁rwinn 1
▁kalson 1
▁anrezistreman 1
▁diziem 1
▁numerotation 1
▁hajiann 1
riksyon 1
▁madegonn 1
▁venus 1
▁kmh 1
▁apartir 1
▁holder 1
▁syring 1
▁function 1
▁konsian 1
▁development 1
▁contemptible 1
▁intrig 1
chron 1
imaron 1
▁solisyon 1
▁trier 1
▁payas 1
ace 1
▁renfor 1
ameless 1
▁memorize 1
▁portige 1
▁overwhelm 1
▁fidelite 1
▁kafetier 1
▁historic 1
zere 1
▁lakrimozenn 1
▁lalits 1
▁abalonn 1
▁prevent 1
▁shab 1
inently 1
▁villager 1
▁aplitar 1
▁61year 1
▁nounours 1
▁sauvage 1
▁foolish 1
▁lamb 1
▁pond 1
▁victor 1
▁globalisation 1
▁fermte 1
▁tanper 1
pliquer 1
aman 1
▁ansiennman 1
▁disappe 1
aur 1
▁innocent 1
raison 1
▁prestigious 1
▁redesinn 1
▁minute 1
▁clums 1
▁health 1
▁strictly 1
▁ceter 1
▁popilariz 1
▁years 1
▁magazine 1
xie 1
▁verasite 1
▁gab 1
▁makak 1
▁rosignol 1
▁headoffice 1
do 1
inite 1
▁discret 1
▁mastic 1
▁shal 1
▁kaytay 1
ound 1
▁pavo 1
▁masquer 1
▁nervous 1
▁siram 1
▁goes 1
▁otoekol 1
biance 1
▁achieved 1
▁littered 1
▁reshufflement 1
▁urit 1
▁swimming 1
▁ses 1
▁coff 1
▁ressucitate 1
▁etni 1
▁taxe 1
▁conflictual 1
▁repantir 1
▁lunivers 1
▁reorientation 1
▁safir 1
▁139 1
▁toxicomane 1
▁fodder 1
▁psychanalyt 1
▁avar 1
▁singapore 1
▁konfizion 1
▁certains 1
▁dekouloute 1
▁demakiye 1
▁semifinal 1
orted 1
▁compte 1
▁sooner 1
▁jeux 1
▁adapter 1
adence 1
iye 1
irouz 1
▁fatal 1
▁felisit 1
▁unless 1
▁souff 1
▁mazine 1
▁scarlet 1
▁machiste 1
▁sparkling 1
▁muriel 1
mar 1
▁deside 1
▁skins 1
idemer 1
▁novartis 1
itien 1
▁16 1
▁distillation 1
▁although 1
▁nostalzik 1
▁controls 1
▁interne 1
▁radius 1
▁paralax 1
▁bandson 1
▁anprive 1
▁drible 1
▁selman 1
▁prohib 1
▁clouds 1
▁anbras 1
▁nimerotaz 1
▁allumez 1
▁inkonpetan 1
▁lazlegoyavdesinn 1
▁reint 1
estimer 1
▁diszoke 1
upe 1
retman 1
▁investing 1
▁mangn 1
▁marxist 1
▁viend 1
aments 1
▁toiled 1
▁zenerater 1
▁marsien 1
▁goolam 1
▁onivo 1
▁sprinte 1
▁students 1
▁alantour 1
aktir 1
▁sousi 1
▁unwed 1
▁balad 1
▁kikote 1
▁from 1
▁gouverne 1
▁entrailles 1
▁mtuc 1
▁mouvmante 1
▁spesifikman 1
▁papers 1
▁private 1
▁betterave 1
▁uncons 1
▁swim 1
▁census 1
▁fois 1
▁jessica 1
▁cane 1
amp 1
▁supposed 1
comb 1
▁darbres 1
▁resiklaz 1
▁inis 1
▁deli 1
▁reunion 1
▁paralyse 1
arest 1
	op 1
itasion 1
hlete 1
enta 1
▁boud 1
▁lagrel 1
▁eleventh 1
▁permanganate 1
erique 1
▁tiro 1
▁souvent 1
▁otan 1
ikenn 1
▁okler 1
▁traite 1
iatri 1
▁gouttiere 1
▁committed 1
teurs 1
▁boursak 1
▁metodik 1
▁taboure 1
▁aver 1
▁rond 1
▁papa 1
▁avion 1
1995 1
▁ends 1
inture 1
▁dekadans 1
▁anor 1
▁sepia 1
▁fuzzy 1
▁inklir 1
▁larzanla 1
▁jamalgota 1
▁labdom 1
▁cha 1
▁desandans 1
▁radiater 1
▁sanboule 1
▁biberon 1
▁kondiraz 1
▁asidik 1
▁compliments 1
▁anbas 1
▁grilled 1
▁vigilant 1
▁wasnt 1
▁konba 1
idation 1
ellers 1
▁tambi 1
▁morcellement 1
▁ecrivain 1
▁rande 1
▁dusma 1
▁matrik 1
oniak 1
▁sushil 1
▁new 1
▁paths 1
▁z 1
ob 1
▁seri 1
erk 1
▁concluded 1
▁traces 1
▁marinade 1
opor 1
▁joc 1
▁riskan 1
▁considerant 1
mill 1
adir 1
assent 1
▁dull 1
urre 1
▁sizofin 1
▁kasyet 1
▁retouse 1
isting 1
▁kritike 1
▁pecheur 1
▁chak 1
▁kafouyaz 1
▁sodome 1
▁cohabitation 1
▁pre 1
ozi 1
▁sole 1
▁transposition 1
▁pictures 1
iseau 1
▁placenta 1
▁sponnsor 1
▁formation 1
▁tears 1
▁filament 1
▁biswa 1
whe 1
▁discerns 1
▁perruque 1
enger 1
▁plate 1
woman 1
▁documentation 1
▁botani 1
siere 1
▁wink 1
▁includes 1
eter 1
ilam 1
▁cathedrale 1
▁neurology 1
▁tailleur 1
▁dezini 1
▁langouti 1
▁ziromon 1
▁medsin 1
▁kolstore 1
▁hey 1
isserie 1
▁noyer 1
▁joy 1
gged 1
▁retrans 1
▁beke 1
▁koudprodiksion 1
▁leak 1
▁moris 1
▁ok 1
▁lapes 1
▁dents 1
ivor 1
▁extern 1
▁anpisilinn 1
▁dokter 1
▁referring 1
▁reinvestir 1
▁peacock 1
▁lagoon 1
▁frequently 1
▁hospitals 1
▁dissertation 1
▁ougadi 1
▁strikt 1
▁ske 1
alism 1
▁dipstik 1
▁solitid 1
▁trots 1
▁dekonpresion 1
▁laptop 1
▁experiments 1
▁dismiss 1
▁koleksyonn 1
▁debloke 1
▁obstriksion 1
▁inflasion 1
▁eliminatwar 1
▁revenge 1
ettez 1
▁angle 1
▁nonsalan 1
▁reappar 1
▁vitesse 1
atrinn 1
▁vertebral 1
▁highpit 1
k 1
ckets 1
▁stale 1
▁sinp 1
▁impressive 1
ares 1
▁careful 1
quoi 1
▁prizonla 1
▁acknow 1
▁venant 1
▁sonet 1
▁levantay 1
cu 1
▁kontansa 1
▁persecution 1
▁drwat 1
▁itilize 1
▁rekin 1
▁etudier 1
atre 1
ilm 1
reansib 1
▁epik 1
▁kouper 1
▁vitriol 1
▁monde 1
▁fel 1
waryom 1
▁alok 1
▁wawwaw 1
▁bangala 1
▁1969 1
▁donner 1
entiel 1
▁nepot 1
▁ofiram 1
▁jari 1
▁lasazes 1
▁rebound 1
▁konbatan 1
ola 1
apl 1
▁impu 1
▁degorze 1
chee 1
▁odoran 1
▁destruction 1
ely 1
okiltir 1
ghold 1
▁preparatif 1
▁konfidans 1
▁latrip 1
▁analysis 1
▁antrezot 1
▁am 1
antedix 1
▁franchement 1
▁apl 1
▁negative 1
▁boler 1
▁patience 1
▁descri 1
▁grave 1
▁off 1
▁covered 1
▁accus 1
▁debordman 1
▁labib 1
▁properly 1
▁challenges 1
▁sinpatiz 1
▁pasifik 1
oker 1
away 1
ha 1
▁flacq 1
▁kafarnaom 1
▁sosblans 1
▁cout 1
▁militaire 1
▁chouridar 1
ulter 1
▁recipient 1
▁transfiz 1
▁distinkteman 1
▁regar 1
▁zechar 1
▁prefas 1
▁sportif 1
▁lipe 1
▁wag 1
▁monta 1
▁figiran 1
▁grimpe 1
wi 1
▁conformite 1
▁imed 1
▁liste 1
▁laqu 1
xim 1
▁deserves 1
▁lavey 1
▁malmene 1
▁utilization 1
▁trigger 1
▁hopscotch 1
▁bonjour 1
▁transpoz 1
▁zipon 1
▁durable 1
▁such 1
▁donasyon 1
▁tragique 1
▁soket 1
▁reproach 1
konntri 1
▁zer 1
▁asiz 1
▁chaus 1
▁coffee 1
pl 1
ifis 1
▁pares 1
▁zinekolozik 1
abinn 1
▁radikal 1
▁louke 1
▁owned 1
▁letid 1
▁adousi 1
▁betsaida 1
▁piping 1
▁dezonore 1
▁language 1
▁appart 1
▁moribon 1
▁tami 1
▁defatige 1
▁akrosaz 1
▁kours 1
tront 1
▁orltouorl 1
oplas 1
▁assets 1
mantal 1
▁carnaval 1
long 1
▁blon 1
▁describes 1
▁hesitant 1
▁mord 1
▁saziter 1
▁craft 1
▁anrout 1
▁tortidemer 1
iaque 1
▁akonp 1
aj 1
▁offered 1
▁95 1
▁klasman 1
▁comics 1
▁sithan 1
▁compas 1
▁defetis 1
celle 1
▁inkapab 1
▁celsius 1
▁notory 1
▁parlman 1
▁ninf 1
▁crop 1
▁decoll 1
zezon 1
▁apprivo 1
▁britannique 1
▁toustous 1
▁nounchakou 1
akchar 1
z 1
▁sofe 1
▁lepremie 1
▁ditu 1
▁rofeser 1
▁kumquat 1
▁larantre 1
▁metafizik 1
▁prescri 1
ural 1
opwin 1
▁prosesis 1
▁kouset 1
▁koumi 1
▁tranzistor 1
▁bizoutie 1
▁seren 1
▁apresiab 1
▁kudey 1
▁midi 1
▁libre 1
▁regner 1
ordi 1
imes 1
▁nouga 1
▁tonaz 1
▁guys 1
▁boushirt 1
▁subscription 1
▁declare 1
▁maboul 1
▁fringe 1
▁trape 1
▁commencer 1
▁association 1
▁plonbri 1
▁whymper 1
▁detin 1
▁inappropri 1
▁mauvaises 1
▁kalou 1
▁descendit 1
anted 1
▁profetla 1
▁zartier 1
raye 1
▁kankre 1
▁jugnaut 1
▁jugnauth 1
▁solanel 1
▁anperer 1
▁lantre 1
▁stretched 1
▁parsipar 1
▁dible 1
▁ekzekision 1
▁konk 1
▁comprirent 1
▁debarquement 1
year 1
ously 1
▁fanat 1
▁lofficier 1
▁locker 1
▁augmenter 1
▁oval 1
▁legzanp 1
▁afirme 1
press 1
▁ilegal 1
▁anormal 1
▁informations 1
▁inform 1
▁viper 1
▁divandivan 1
▁demanderent 1
▁soumis 1
▁slayd 1
ordieux 1
▁nimakaram 1
▁poules 1
duc 1
▁moved 1
▁tenn 1
▁hint 1
▁ofanse 1
▁malbare 1
▁mahip 1
▁instantanee 1
▁anvayir 1
▁kopen 1
idated 1
▁egalize 1
onium 1
▁dramatise 1
uche 1
▁moul 1
istorik 1
▁labri 1
vis 1
▁permitted 1
▁two 1
▁roland 1
▁prekosyon 1
▁mit 1
por 1
zur 1
▁musculaire 1
▁obtenu 1
▁fisher 1
▁abandon 1
▁komp 1
▁neokolonial 1
▁kla 1
▁sexy 1
▁lava 1
▁maf 1
▁zalonn 1
▁dirmo 1
▁monsegner 1
▁edited 1
▁circums 1
▁saccumuler 1
▁ferasoude 1
▁edward 1
bill 1
▁rehab 1
▁amenerent 1
▁dayet 1
▁livres 1
▁anne 1
▁frwader 1
▁eskorte 1
▁hawker 1
▁categories 1
▁gethsemane 1
▁repu 1
▁exac 1
▁sam 1
▁tusa 1
▁hoped 1
▁boudis 1
▁detournman 1
▁ridd 1
giling 1
45 1
▁repair 1
▁bougain 1
▁ostral 1
▁krav 1
had 1
aire 1
onse 1
alkolik 1
▁dwa 1
▁kaninn 1
▁bouz 1
▁ovni 1
▁anfin 1
▁apostolik 1
▁assass 1
▁patil 1
▁inkirab 1
▁atant 1
▁grosie 1
▁babysitter 1
▁detann 1
▁korte 1
▁robe 1
▁foupam 1
▁guaranteed 1
antile 1
plained 1
▁talent 1
istik 1
▁amater 1
yens 1
▁format 1
▁benediksion 1
▁pac 1
▁spectacular 1
▁rezin 1
▁penetrate 1
▁taminn 1
▁beldezour 1
▁keep 1
▁pickpocket 1
▁haem 1
▁delinkan 1
▁dril 1
▁few 1
oisme 1
icelle 1
▁oib 1
▁agwa 1
▁overto 1
▁ong 1
▁spontane 1
yg 1
oner 1
▁crowded 1
▁mersriantrede 1
▁allusion 1
▁rear 1
roying 1
▁car 1
▁overth 1
▁substance 1
ger 1
▁demanzezon 1
ulars 1
▁survived 1
▁retonbe 1
▁detrwa 1
abeth 1
▁assurer 1
▁maskare 1
illages 1
▁zoo 1
▁siperfis 1
▁bloknot 1
▁fektivman 1
▁nvi 1
▁heroine 1
▁mans 1
▁lescl 1
▁puissent 1
▁confortable 1
▁str 1
891 1
▁deboutone 1
▁asseyezvous 1
▁megal 1
▁konsept 1
▁sfer 1
▁presion 1
▁discuter 1
▁pledwari 1
▁discrimination 1
▁atte 1
▁northener 1
▁mistake 1
▁voltize 1
▁verfime 1
▁201 1
▁agrip 1
▁petarad 1
▁telegraf 1
▁evitez 1
▁foutnot 1
si 1
▁generer 1
romet 1
track 1
▁apok 1
▁eben 1
aliz 1
mity 1
▁reminer 1
▁scru 1
▁agrambagram 1
▁barbar 1
▁aot 1
▁pand 1
ipoule 1
pond 1
ieshe 1
▁prelude 1
▁rekeyman 1
▁escal 1
orent 1
▁pasian 1
▁worth 1
▁siperpoze 1
▁anrezstre 1
▁trotsky 1
▁divided 1
▁rezigne 1
onci 1
▁taman 1
▁lendrwala 1
arts 1
▁pneumonia 1
▁queue 1
▁sakos 1
ignons 1
▁trebu 1
▁panier 1
▁2009 1
▁dimunnla 1
▁periode 1
wl 1
▁isole 1
▁navige 1
locks 1
▁labdomen 1
▁cold 1
oen 1
▁friss 1
▁sexuelles 1
▁minim 1
▁inpresione 1
▁galile 1
ivent 1
▁gall 1
roke 1
bey 1
▁lanasyon 1
itwar 1
▁video 1
▁papernoula 1
▁selil 1
igirasyon 1
estre 1
▁atouler 1
ouzinn 1
▁babou 1
toy 1
▁foup 1
▁vestibil 1
▁brezilien 1
▁promets 1
▁loup 1
▁jettent 1
▁oryantasion 1
▁fals 1
▁ouvertir 1
▁corromp 1
▁dynamic 1
▁spaghettis 1
▁morn 1
▁finit 1
▁highest 1
lopilo 1
▁ress 1
▁alegasion 1
▁mulin 1
▁pharaon 1
▁delibereman 1
▁ms 1
▁classic 1
▁posib 1
▁super 1
▁maogani 1
▁tarode 1
▁fangourin 1
▁exp 1
▁synchronization 1
▁lix 1
illotine 1
blans 1
▁colonization 1
▁gentlemen 1
▁karans 1
▁larzan 1
▁developer 1
▁zen 1
▁sirintandan 1
▁shad 1
cepter 1
▁sigzer 1
▁faction 1
▁mangez 1
▁1500 1
ume 1
▁refuse 1
▁omozenn 1
▁revoc 1
▁mamb 1
anbik 1
▁demanti 1
▁osek 1
▁motif 1
▁sibstit 1
▁tou 1
▁marchepied 1
▁politique 1
▁kouzin 1
▁midw 1
▁mwayen 1
ferme 1
▁artiller 1
raliberal 1
▁nightingale 1
inner 1
▁toys 1
▁attitudes 1
▁sereal 1
orno 1
▁dope 1
▁fortunately 1
▁confusioni 1
▁refite 1
▁etou 1
▁enclos 1
▁loxizen 1
▁benevolman 1
▁dist 1
▁nuance 1
▁simple 1
▁malerezman 1
▁konkin 1
▁instruments 1
▁dissol 1
▁containing 1
▁magazin 1
▁eople 1
▁trayir 1
▁suresh 1
▁exceed 1
▁koutouvelkou 1
iser 1
▁aliyn 1
▁kifer 1
▁rebelles 1
▁seemed 1
▁mante 1
▁manager 1
▁straightaway 1
▁pronounce 1
▁artificielle 1
mine 1
▁aussi 1
▁epices 1
▁calling 1
▁exekite 1
▁scrup 1
▁lakom 1
▁rappelez 1
▁pann 1
▁fill 1
▁kominie 1
resent 1
▁ener 1
▁hollande 1
▁problem 1
▁bogi 1
osor 1
▁diswif 1
ritif 1
▁carbine 1
▁limier 1
▁ceremonies 1
oi 1
▁larat 1
▁ofisiel 1
▁los 1
▁larbre 1
▁lion 1
▁ekrito 1
▁title 1
▁etranze 1
boule 1
▁rs200000 1
▁solitaire 1
▁buvez 1
▁paragraf 1
▁graduate 1
▁sinboliz 1
▁viza 1
ropo 1
▁inses 1
▁gluc 1
▁zigo 1
▁inflation 1
▁admire 1
land 1
glar 1
ueill 1
▁defame 1
▁you 1
▁seter 1
▁widow 1
▁mangeaient 1
▁warrant 1
▁spagthetti 1
▁impracticale 1
▁indi 1
▁moisson 1
heart 1
▁blokaz 1
▁kontinyelman 1
▁urgency 1
▁tombee 1
upuncture 1
▁formater 1
▁flotman 1
▁insiltan 1
burn 1
antay 1
▁sekater 1
isl 1
▁laparey 1
▁deepest 1
▁salmi 1
▁termine 1
▁celeste 1
▁floter 1
▁partikilarite 1
▁koniok 1
▁deliz 1
▁storeshed 1
▁fulltime 1
▁abondance 1
▁gete 1
▁remem 1
▁madamtonbe 1
▁petite 1
▁sitway 1
▁krem 1
▁oats 1
▁assize 1
▁avantirye 1
▁entend 1
▁krinier 1
▁sinplis 1
▁raffia 1
▁himself 1
anch 1
ansire 1
ortium 1
delefan 1
ls 1
▁indomorisien 1
▁tuni 1
uf 1
▁ayant 1
▁blokla 1
dans 1
▁koleksion 1
yers 1
▁fristre 1
▁bob 1
▁konvers 1
▁oster 1
▁sarbondibwa 1
▁inkorizib 1
chure 1
▁stoking 1
▁africain 1
imodo 1
ounga 1
yalite 1
alinn 1
ansif 1
▁guitare 1
jann 1
▁lastis 1
▁lanbik 1
▁flirting 1
▁mov 1
▁instantane 1
fl 1
▁mittal 1
▁zeton 1
izanpli 1
▁liseby 1
▁koksinel 1
▁commen 1
▁coincil 1
▁konsekans 1
ya 1
versa 1
▁translation 1
▁filtre 1
▁kres 1
▁tam 1
yir 1
estro 1
▁kolistie 1
▁explo 1
▁orizinalite 1
▁avions 1
▁vandaliz 1
▁interior 1
▁merciful 1
▁lansman 1
▁correlation 1
de 1
has 1
icate 1
▁frik 1
ins 1
▁circulated 1
▁cloth 1
▁oe 1
▁seed 1
▁lafwar 1
▁allocation 1
▁paysa 1
▁panse 1
gue 1
▁leadership 1
▁makacha 1
▁aprantisaz 1
ago 1
▁ouvriye 1
▁electrique 1
▁kamaron 1
▁sap 1
▁jose 1
itively 1
▁buddh 1
▁delapar 1
▁donnezmoi 1
▁ankilostom 1
oculars 1
▁kosmar 1
ck 1
▁kat 1
▁seksek 1
▁jamais 1
▁caoutchouc 1
▁listed 1
reat 1
▁geranium 1
▁agrand 1
▁marker 1
ially 1
▁hardship 1
▁musulman 1
▁eflere 1
▁desevwar 1
▁drink 1
▁epar 1
▁rekiperab 1
▁blaklist 1
▁cholesterol 1
icles 1
▁fabric 1
orize 1
▁rough 1
▁attacks 1
▁mademois 1
▁regles 1
▁eche 1
▁zordizour 1
▁resem 1
▁oto 1
▁ack 1
▁nouve 1
enu 1
▁islam 1
aport 1
▁danzere 1
grate 1
▁dapre 1
▁thanks 1
▁kiaw 1
▁lours 1
▁viable 1
rolozik 1
▁azisteman 1
▁sifte 1
ho 1
▁oubliez 1
▁raconter 1
▁symboliser 1
marse 1
▁sait 1
▁bankrut 1
▁molomolo 1
▁nigo 1
▁discuss 1
▁plastic 1
▁malez 1
▁agrer 1
▁ortofonist 1
▁kouto 1
▁plan 1
ferer 1
▁betleem 1
▁lasansir 1
▁charges 1
▁ritmik 1
▁servants 1
aise 1
▁hast 1
▁medecin 1
wo 1
▁nayant 1
▁wellintentioned 1
▁stopgo 1
▁anklin 1
▁kontribye 1
▁monuments 1
▁newborn 1
▁praymer 1
▁shopkeepers 1
▁konpetan 1
▁percez 1
▁ranplasan 1
▁pronoun 1
▁merkir 1
▁generally 1
▁rompit 1
▁rotengi 1
▁gonfle 1
▁arithmet 1
▁saut 1
ofman 1
▁dissatis 1
▁spesialis 1
▁voulezvous 1
▁commenca 1
▁write 1
▁konfirm 1
▁knuck 1
▁amour 1
▁amelior 1
▁grafiti 1
▁pans 1
▁eze 1
▁soufle 1
iah 1
▁alles 1
jamin 1
outeye 1
▁ralantisman 1
▁unhappy 1
las 1
▁reputation 1
icated 1
▁akros 1
▁viril 1
▁prets 1
rigible 1
▁deton 1
▁hoodlums 1
▁vizilan 1
▁kawn 1
razan 1
▁touch 1
idatir 1
▁arwi 1
▁epic 1
▁biped 1
▁pone 1
▁bizout 1
▁14 1
▁originated 1
▁fixed 1
bon 1
▁zanti 1
aliptis 1
▁tiza 1
▁lintansite 1
▁hitherto 1
▁gatec 1
▁wounded 1
▁republ 1
▁tussah 1
ateral 1
agozik 1
▁rasyon 1
▁blindly 1
▁nouvelmar 1
▁regrupman 1
▁lavenir 1
▁dass 1
isk 1
▁plumb 1
▁crucifix 1
▁mathematiques 1
▁envoye 1
▁ape 1
▁pecher 1
▁upon 1
▁piberte 1
▁attitude 1
viron 1
▁generator 1
▁pardonnera 1
▁lideal 1
▁discorde 1
▁dedikase 1
▁jocelyn 1
▁rideaux 1
▁crab 1
▁thompsons 1
▁fusils 1
▁kite 1
▁balrinn 1
▁societe 1
▁stroke 1
▁onksion 1
▁malhonnete 1
▁expirasion 1
ashing 1
▁lindistrila 1
▁embark 1
▁lazistis 1
▁conductor 1
▁orizontal 1
▁celebrations 1
▁inpe 1
▁larelev 1
▁adrenal 1
▁sans 1
icoque 1
▁fax 1
▁paramil 1
▁ambigu 1
▁stud 1
▁kontrad 1
▁korperasion 1
▁taktisien 1
▁lisyen 1
wor 1
▁patli 1
▁sacrific 1
▁orthopaed 1
crit 1
elot 1
▁aswiv 1
▁amegri 1
wers 1
▁gallon 1
▁sirkonferans 1
▁triy 1
▁mucus 1
▁daring 1
▁matyer 1
▁voisinage 1
enic 1
▁vize 1
▁writing 1
▁plantation 1
▁abstinans 1
▁political 1
section 1
▁crows 1
▁kloroform 1
▁diferan 1
▁age 1
unk 1
▁siamwa 1
▁arrete 1
▁palanquin 1
▁lasso 1
▁daller 1
▁doit 1
▁ponp 1
alou 1
▁nikel 1
▁litter 1
kwak 1
▁gobet 1
▁neof 1
aye 1
wane 1
▁voice 1
▁references 1
▁trenn 1
▁plonbaz 1
▁aklam 1
▁western 1
▁rire 1
▁illog 1
ual 1
ani 1
apit 1
▁neft 1
▁proport 1
▁disk 1
▁storytellers 1
▁lezame 1
itc 1
▁imperative 1
▁kuvertir 1
▁wel 1
▁responses 1
▁benef 1
▁proposed 1
▁kart 1
▁receip 1
▁glasses 1
▁masterpiece 1
come 1
▁demonstration 1
▁siv 1
emnite 1
▁economist 1
▁breaking 1
▁bab 1
hour 1
▁dorenavan 1
▁katalis 1
▁gol 1
▁stove 1
▁yev 1
▁modernize 1
▁orkonk 1
▁relir 1
▁urchin 1
▁direz 1
▁abstention 1
▁avalanche 1
▁asphalt 1
▁accuse 1
▁referendum 1
tirn 1
iyer 1
▁goddess 1
▁purch 1
▁objection 1
yen 1
antem 1
▁considerations 1
ford 1
▁anplifikater 1
▁borstal 1
▁lesegner 1
▁renifle 1
▁manifeste 1
▁repress 1
iklet 1
▁aniel 1
▁pelmel 1
▁abstenir 1
ington 1
▁commercialize 1
▁fl 1
▁bizen 1
▁compens 1
jac 1
ause 1
kinned 1
▁gratin 1
▁rim 1
▁deverg 1
▁pipit 1
▁jok 1
▁ration 1
▁vulgar 1
▁birds 1
▁lamante 1
▁karbonn 1
lektik 1
▁dele 1
▁dec 1
▁kindness 1
▁silteple 1
▁kontur 1
▁celles 1
▁defen 1
▁yourself 1
▁konstelasion 1
▁zidoka 1
▁falter 1
▁dizer 1
▁symmet 1
▁chambre 1
▁frigorifie 1
elik 1
▁lalanp 1
cere 1
▁ravived 1
▁helicopter 1
▁kantitatif 1
▁throwing 1
▁senyer 1
▁sunburn 1
▁plim 1
▁bitaz 1
oupli 1
▁snacks 1
▁eksite 1
▁eskal 1
▁teritwar 1
▁lanrez 1
▁celebre 1
gnr 1
▁nie 1
▁gant 1
▁zenan 1
▁competit 1
▁soso 1
atti 1
▁lotla 1
▁aus 1
▁bron 1
hine 1
▁parol 1
▁zamb 1
▁vwazen 1
▁vraiment 1
ansil 1
▁interkone 1
▁biceps 1
▁converse 1
▁farous 1
cious 1
▁etranzer 1
▁progress 1
▁recompensera 1
▁miaw 1
▁fertility 1
▁komant 1
▁karitatif 1
▁pate 1
▁tentative 1
deliev 1
▁fermement 1
▁venere 1
rila 1
▁nef 1
▁temoin 1
▁utilisant 1
▁fingerpint 1
▁naivte 1
aya 1
▁rappelezvous 1
▁comes 1
fix 1
▁regrettable 1
▁bres 1
arge 1
▁mabouk 1
▁sanktione 1
wit 1
▁papiyone 1
▁aveug 1
▁corrective 1
▁rekones 1
▁moist 1
orc 1
▁matlo 1
▁radiasion 1
▁punishment 1
▁winder 1
odid 1
▁facilities 1
▁mamlouk 1
▁permis 1
vwar 1
koko 1
▁ha 1
▁onet 1
ant 1
▁rakite 1
▁choses 1
andi 1
▁fonder 1
▁decap 1
▁otom 1
▁thirty 1
▁interviews 1
▁episode 1
▁validation 1
igal 1
▁lim 1
emes 1
▁kannji 1
oay 1
▁hegem 1
▁konsep 1
disel 1
parents 1
▁telman 1
ateur 1
▁little 1
▁confused 1
▁gas 1
▁option 1
▁riba 1
ratil 1
▁minis 1
▁rheumatism 1
▁emans 1
▁gratwitman 1
▁lanbetman 1
▁photofinish 1
dho 1
▁avorte 1
▁unpack 1
▁vesuvius 1
▁laverite 1
▁tor 1
pool 1
▁t 1
▁otok 1
▁poorest 1
▁selfreli 1
▁partiel 1
▁mortalite 1
▁lizienn 1
▁challenged 1
▁madness 1
otans 1
▁alala 1
▁moderne 1
bet 1
▁tabern 1
pere 1
▁ont 1
▁adzwin 1
▁lokipasion 1
▁tolie 1
▁siperstitie 1
▁emptyhanded 1
▁pik 1
▁ritme 1
▁aliment 1
▁galer 1
▁patiraz 1
▁big 1
▁pagayer 1
▁medieval 1
cel 1
lik 1
▁sig 1
▁mixt 1
▁parach 1
▁commanded 1
▁chaw 1
quant 1
▁arnak 1
▁frel 1
▁tail 1
▁lard 1
▁closed 1
▁worlds 1
▁reformatory 1
▁christianity 1
▁soubou 1
▁rapel 1
▁yeast 1
▁ensegn 1
▁lanpwaz 1
▁hered 1
▁beg 1
▁jacquier 1
▁simpl 1
▁person 1
▁negos 1
▁arche 1
▁wa 1
▁interes 1
inating 1
▁sirkons 1
▁nomad 1
▁ortoped 1
▁tortured 1
▁maintenant 1
oor 1
▁portent 1
▁devient 1
▁snan 1
▁norneg 1
▁nidism 1
▁epoquela 1
▁decoincer 1
▁lanse 1
▁occup 1
▁importan 1
▁fuel 1
joy 1
▁highpitched 1
letter 1
▁saved 1
▁tokt 1
▁zordizur 1
▁rabaser 1
▁jab 1
▁patouye 1
▁anfonse 1
▁demier 1
icite 1
▁terifian 1
▁lanklo 1
▁digging 1
edient 1
▁grofey 1
▁disgusted 1
etay 1
▁depe 1
▁astronome 1
▁kankan 1
inet 1
▁taksion 1
▁rebondisman 1
▁rebann 1
ofob 1
▁atros 1
▁university 1
▁sanction 1
isseur 1
ilaz 1
▁sip 1
▁beginning 1
▁sest 1
▁lafeksion 1
▁roues 1
▁commandes 1
▁moquer 1
illee 1
▁meninz 1
▁maillot 1
rag 1
▁moske 1
▁frwa 1
▁kokas 1
▁preciser 1
▁disantri 1
▁dekourone 1
▁recom 1
▁forum 1
▁latansion 1
▁dakna 1
elin 1
▁lamatier 1
gonn 1
chasse 1
▁madresser 1
▁ribawn 1
▁acrobatique 1
▁oyster 1
▁protestasyon 1
izip 1
▁electrical 1
▁faro 1
▁64 1
▁waist 1
▁successfully 1
▁supernatural 1
▁awarded 1
▁douler 1
▁lopin 1
▁homologue 1
ardan 1
▁efficac 1
▁sidameriken 1
▁cwa 1
▁support 1
▁samu 1
▁peas 1
bble 1
▁pedagogy 1
▁spotted 1
▁aphrod 1
▁sarman 1
▁dolar 1
▁deprime 1
▁mortie 1
▁pentagonn 1
▁lenn 1
▁comp 1
▁goal 1
imeme 1
▁faisant 1
▁failing 1
rilege 1
wad 1
▁lalamp 1
▁borrow 1
▁clos 1
▁siaw 1
▁chokra 1
▁gowreesoos 1
▁velo 1
▁baset 1
▁pasione 1
▁plumes 1
▁griffonner 1
for 1
▁landscape 1
▁quar 1
▁ridimanter 1
▁eko 1
▁larap 1
▁diskalifie 1
dis 1
oine 1
▁hormone 1
▁youngest 1
▁efare 1
▁secteur 1
▁ank 1
▁demander 1
▁oceanic 1
▁stay 1
atri 1
▁shouted 1
▁ornement 1
▁but 1
▁compose 1
▁remainder 1
▁fouet 1
cket 1
xe 1
▁prover 1
▁worthy 1
▁grey 1
▁lawyer 1
▁reggae 1
▁gamin 1
▁peila 1
▁tripote 1
▁vok 1
ensible 1
▁traged 1
▁komante 1
▁plati 1
▁makabi 1
▁cra 1
▁vines 1
oral 1
▁flou 1
itwayab 1
▁recreation 1
▁pere 1
▁travailleurs 1
▁personaz 1
▁redanpsion 1
▁inut 1
▁subsidise 1
dre 1
▁morph 1
▁laba 1
▁serenite 1
▁saf 1
▁rizidite 1
orizon 1
▁crate 1
▁commercant 1
▁flights 1
▁dezori 1
▁exploze 1
▁akademik 1
▁illumination 1
▁dynamites 1
▁carburant 1
▁inestim 1
▁homopho 1
▁lanatir 1
▁dolok 1
▁nehru 1
▁hoodl 1
▁transmit 1
▁standing 1
▁insiportab 1
▁cucumber 1
▁hasnt 1
▁konkiran 1
▁tripart 1
▁estropie 1
▁charter 1
▁transmision 1
▁daktilografi 1
▁kotomili 1
esses 1
▁gomlak 1
▁tonbal 1
ory 1
▁lace 1
▁lpt 1
▁imagination 1
▁frein 1
▁andre 1
▁propagann 1
▁pinpan 1
▁aspirasion 1
▁affa 1
▁zigzage 1
▁dezolasion 1
▁huddling 1
▁zetsemani 1
▁konparezon 1
▁resite 1
▁subsidy 1
jp 1
▁fon 1
yo 1
▁doux 1
▁fourmi 1
lespri 1
▁zombie 1
▁konvwa 1
▁bemol 1
▁dispozision 1
▁plusieurs 1
▁belfi 1
▁purg 1
▁laskardilo 1
▁dab 1
hi 1
▁systeme 1
▁restrict 1
▁institie 1
osphere 1
▁cuisiniere 1
ansiv 1
ckey 1
▁lasas 1
▁dekomande 1
▁andeor 1
▁lart 1
▁sinpatik 1
▁appendicitis 1
geant 1
▁maladroit 1
▁omop 1
▁mascara 1
▁spesifik 1
▁rebelion 1
▁adrwat 1
▁gondole 1
▁wachak 1
▁binn 1
▁parsella 1
▁ayez 1
▁arsivis 1
▁konfiskasion 1
▁enig 1
edule 1
▁directement 1
▁ermel 1
▁kardiolozi 1
ourterm 1
asar 1
▁rid 1
▁diskontinie 1
▁anouyan 1
▁honorable 1
▁nim 1
▁overdose 1
irur 1
idal 1
▁irritating 1
▁lobb 1
▁legos 1
▁apoplexie 1
▁dantision 1
▁septembre 1
▁bostok 1
▁maniab 1
▁travaille 1
▁fragment 1
▁possede 1
pi 1
▁gounga 1
▁flo 1
▁bird 1
inable 1
▁reader 1
▁akil 1
▁poulaye 1
▁entire 1
▁alete 1
▁life 1
▁lansar 1
▁jovial 1
ourant 1
▁inklinasion 1
▁pelican 1
▁shoes 1
▁bruit 1
ily 1
▁secur 1
▁plastisinn 1
▁kanper 1
▁reassure 1
▁rations 1
▁lomlet 1
▁bury 1
▁conf 1
▁konki 1
▁assainissement 1
▁katal 1
▁conjunctivitis 1
▁chalenn 1
▁defansiv 1
▁lanbou 1
▁anfibien 1
▁patinet 1
▁gramersi 1
▁deplorable 1
arsan 1
▁foots 1
▁dialekt 1
▁antouziast 1
▁portmant 1
isilinn 1
▁gan 1
▁significant 1
▁ubyin 1
dikal 1
ataire 1
ivab 1
▁sodomiz 1
▁bonapartist 1
▁nave 1
▁preferential 1
▁purchased 1
ansasion 1
▁mitinnri 1
▁monologue 1
riantre 1
gage 1
ement 1
▁malprop 1
▁konverti 1
▁rapidly 1
▁friyapin 1
azed 1
▁recent 1
▁increased 1
▁europe 1
▁tasting 1
uees 1
▁trouverez 1
▁pester 1
▁konifer 1
▁pag 1
▁iz 1
▁sanctioned 1
gu 1
▁kotize 1
▁incl 1
▁slates 1
▁autor 1
▁rideau 1
dha 1
▁essuyer 1
▁viv 1
▁inportan 1
▁monkey 1
gre 1
▁kondiman 1
▁promet 1
▁skwad 1
▁teneb 1
▁bod 1
▁energies 1
▁sussman 1
▁limage 1
▁mercredi 1
▁memwar 1
▁mazinn 1
▁hag 1
imill 1
sidire 1
▁proclaiming 1
▁orl 1
▁etonne 1
enans 1
▁parantal 1
▁liniversite 1
▁participer 1
segner 1
▁french 1
▁clusters 1
▁dirabilite 1
▁symbi 1
▁ranboursman 1
▁flaming 1
ores 1
lie 1
▁regrets 1
▁magazinla 1
▁rebel 1
unch 1
▁dign 1
▁viziter 1
▁pede 1
da 1
lib 1
alegal 1
▁gastroanterit 1
▁mr 1
▁polar 1
▁absorpsion 1
▁debi 1
ionn 1
▁egri 1
▁bille 1
izan 1
onans 1
▁tom 1
ority 1
▁tugged 1
sans 1
▁raptisaz 1
mouy 1
▁pech 1
▁moukti 1
▁matlas 1
▁lefthanded 1
▁dopan 1
▁venerer 1
▁cataleps 1
manse 1
▁orient 1
▁creates 1
▁interven 1
gri 1
▁kumsa 1
gledy 1
rime 1
itious 1
▁vera 1
▁reanb 1
▁libreman 1
▁medikal 1
▁st 1
▁used 1
▁nuvo 1
▁value 1
▁striktir 1
estime 1
▁terrifier 1
▁kourwa 1
▁lesegnr 1
▁pursantaz 1
▁coron 1
ulfitr 1
▁repinians 1
▁bisagn 1
▁sameness 1
belie 1
▁elektrod 1
▁profesi 1
▁akienn 1
▁baryer 1
▁tarnish 1
▁soter 1
▁tolerance 1
▁konsek 1
▁invincible 1
▁malsans 1
▁dixhuit 1
▁momentla 1
▁zoz 1
▁konpare 1
plan 1
tronpet 1
▁ministre 1
p 1
▁hindous 1
▁pavaze 1
▁siniorite 1
waz 1
▁excites 1
aa 1
▁animasion 1
▁midwife 1
▁peyi 1
▁issue 1
▁rezape 1
▁prerogatif 1
▁lete 1
▁pliyab 1
▁mirakla 1
▁conjon 1
esora 1
asting 1
▁negotiate 1
▁larev 1
▁hache 1
▁posedan 1
▁lexaminpou 1
▁sepsyal 1
▁devices 1
upler 1
▁content 1
▁analyans 1
▁nond 1
illac 1
▁nonkr 1
▁ninete 1
▁baleine 1
▁strategy 1
▁occur 1
▁debriye 1
▁pride 1
▁santaz 1
▁while 1
▁retous 1
▁prostitie 1
kelo 1
▁followers 1
▁mexico 1
▁tshirt 1
▁bref 1
ove 1
▁crept 1
atus 1
▁examination 1
▁pertir 1
▁klot 1
▁spektater 1
▁problems 1
▁katles 1
▁ins 1
▁lheure 1
▁business 1
ancellor 1
▁peutetre 1
▁organising 1
▁sosyalis 1
▁zaregne 1
▁vemisel 1
▁discriminatory 1
▁bouldou 1
ments 1
▁ayapana 1
▁luniversite 1
▁vineg 1
▁reunis 1
▁literal 1
▁kosiniater 1
▁vwazinn 1
▁konekte 1
▁lanplasman 1
▁lack 1
▁mazoret 1
▁vantard 1
▁gigolo 1
▁leau 1
▁mib 1
▁des 1
▁officially 1
▁dipwav 1
▁sirpriz 1
▁sending 1
▁aplodisman 1
▁naive 1
▁adrenalinn 1
▁gablou 1
tip 1
abled 1
▁konsila 1
▁voluntarily 1
▁aranz 1
▁redimande 1
▁viktim 1
▁mosion 1
▁aroz 1
▁carbon 1
atel 1
▁tris 1
▁represif 1
▁rent 1
▁talan 1
▁nouvelmarye 1
independence 1
▁kouchou 1
▁biftek 1
▁perfume 1
▁adorasion 1
grim 1
▁medium 1
▁stiff 1
resan 1
▁ranfor 1
▁suffisant 1
▁mulim 1
▁vey 1
▁controversi 1
▁mikmak 1
▁rep 1
▁fields 1
▁krepi 1
▁zil 1
▁skotch 1
▁decades 1
▁welcomes 1
▁spiritual 1
▁glise 1
▁croyant 1
▁unscrupulous 1
▁emerzans 1
▁denigre 1
▁taxed 1
yalman 1
▁debousole 1
▁baccal 1
▁thirst 1
▁kounouk 1
▁lyen 1
n 1
▁majong 1
▁turner 1
▁bisron 1
▁nerast 1
▁menazer 1
▁consciousness 1
▁provocative 1
▁kamouflaz 1
▁indication 1
▁stump 1
▁ounde 1
▁ferblantie 1
ouv 1
▁ginion 1
▁cheerful 1
▁sinkant 1
▁ouv 1
▁activities 1
▁spark 1
▁sewerage 1
▁cove 1
▁trouver 1
▁dut 1
ilizan 1
▁johns 1
▁balloon 1
▁fascist 1
▁bakter 1
▁allure 1
▁papie 1
▁markegarde 1
▁we 1
▁demode 1
▁legalizasion 1
▁extorsion 1
retour 1
▁esay 1
▁fir 1
▁empe 1
▁raz 1
▁corruption 1
▁tiredness 1
ouga 1
clop 1
▁gland 1
omann 1
▁propaganda 1
▁dispozitif 1
▁oise 1
▁petty 1
▁clapt 1
▁hor 1
▁gal 1
▁akapar 1
▁padkwa 1
▁croirez 1
▁gym 1
▁anbrouye 1
some 1
▁dislike 1
▁elektrisien 1
▁rapieste 1
▁konpayni 1
▁germe 1
▁pieze 1
▁trwaz 1
ii 1
▁dissu 1
▁estates 1
▁sorsye 1
▁replike 1
▁diplon 1
▁konnri 1
▁parda 1
▁ebenis 1
▁agree 1
iez 1
illot 1
dney 1
▁grostet 1
ocrat 1
▁bulk 1
▁newspaper 1
▁temporaire 1
▁repetez 1
▁artefact 1
▁ecoutez 1
▁pagne 1
ilitasion 1
▁alafin 1
▁blown 1
▁adekwa 1
▁opposite 1
▁rekonsidere 1
▁kwet 1
▁kontrefors 1
▁machann 1
▁cuts 1
▁lezion 1
▁dekonserte 1
▁hercule 1
▁avize 1
▁weys 1
▁bowl 1
▁konsistans 1
▁kazot 1
▁diete 1
▁confident 1
▁cla 1
▁mourir 1
▁lakorite 1
ous 1
aynayt 1
▁capitalisms 1
ozision 1
▁rektang 1
▁bouldozer 1
ionnaire 1
▁bwalo 1
▁revoltant 1
▁served 1
▁tidimounn 1
▁ox 1
▁rekile 1
▁allowance 1
▁ormi 1
prints 1
▁textiles 1
▁rotinaz 1
wision 1
enous 1
▁gandol 1
▁monsters 1
▁tinasion 1
▁farmer 1
▁malgas 1
▁entre 1
▁indike 1
▁demoule 1
▁rekil 1
▁workers 1
▁trwazyem 1
▁kolera 1
▁repandit 1
abol 1
▁regilater 1
▁chin 1
▁dwanie 1
▁eberze 1
▁protokoler 1
▁aneanti 1
▁centuries 1
▁kabose 1
▁mandol 1
▁ganase 1
▁namsek 1
▁total 1
▁contro 1
zinal 1
▁memberz 1
eding 1
▁fib 1
▁jossstick 1
▁lexterieur 1
▁daughterinlaw 1
▁interference 1
▁konp 1
weight 1
▁anglais 1
▁lafindimonn 1
father 1
urterm 1
▁turbul 1
▁childrens 1
▁kares 1
▁labousri 1
ledge 1
zier 1
▁refizie 1
▁sign 1
▁distressing 1
▁bresil 1
▁etudiants 1
▁metalik 1
▁inflaed 1
▁gravie 1
▁lanp 1
▁rekridesans 1
▁amand 1
▁montagn 1
▁bounding 1
ckl 1
▁larv 1
iraz 1
▁outbreak 1
zot 1
▁brass 1
▁exposer 1
▁sesasion 1
▁godam 1
essus 1
▁revoir 1
rew 1
ingual 1
▁checked 1
▁ordonner 1
▁artrit 1
▁fable 1
▁notbouk 1
▁labarb 1
▁cerem 1
▁dyke 1
▁wants 1
elri 1
▁affili 1
▁konsiant 1
▁coher 1
▁sut 1
▁psychiatri 1
idating 1
▁etroite 1
▁ebete 1
▁turnip 1
▁lekzanp 1
▁realised 1
gne 1
▁rankontre 1
▁lamak 1
▁uvre 1
▁marie 1
▁wadire 1
▁vilgar 1
▁veki 1
▁estimate 1
▁averti 1
▁calam 1
peple 1
▁anfas 1
▁impoverished 1
▁malantandi 1
▁anbaplump 1
▁talkative 1
▁greatly 1
▁gamekeeper 1
▁tousel 1
▁inpri 1
iyaz 1
▁literer 1
ozirirzi 1
▁persons 1
▁leave 1
▁prepozision 1
▁organic 1
▁empi 1
▁advis 1
▁dar 1
▁sectors 1
imet 1
▁marmit 1
▁ankou 1
▁creeper 1
ouvant 1
▁orezon 1
▁prototype 1
▁22 1
▁piknike 1
▁koze 1
ican 1
▁mahatma 1
▁across 1
▁pire 1
▁epaules 1
▁eclipse 1
▁trouble 1
▁wid 1
▁employer 1
▁retrouve 1
▁satinisevret 1
▁lak 1
▁anexe 1
isez 1
▁poupet 1
▁sipozision 1
▁rebwaze 1
▁sete 1
▁translator 1
▁bac 1
ip 1
▁causer 1
▁siperpwisans 1
▁degourdi 1
▁detest 1
cence 1
▁demenagement 1
▁segn 1
▁anfandker 1
▁kouve 1
▁flam 1
▁invanter 1
▁aujourdhui 1
▁pme 1
▁ramoli 1
▁suivit 1
▁soupsone 1
fs 1
▁glad 1
▁peze 1
ises 1
▁lateral 1
▁rene 1
▁ome 1
▁timama 1
opulate 1
▁tick 1
▁tournent 1
▁parlmante 1
▁char 1
▁quelle 1
▁fertilizasion 1
▁aplike 1
▁indou 1
▁paralysis 1
lala 1
ann 1
▁kurtize 1
▁artic 1
▁faint 1
▁grodan 1
▁fifth 1
▁apoplektik 1
▁illogical 1
▁chauss 1
▁sanzman 1
▁fromage 1
▁selfreliance 1
▁disagreement 1
▁koun 1
▁anxious 1
▁profet 1
wnd 1
▁zuma 1
▁labil 1
▁souke 1
hojp 1
▁komann 1
▁zande 1
▁rely 1
▁dekonpozision 1
▁mischievous 1
▁lofans 1
▁autel 1
▁kondane 1
▁sirpop 1
▁amarad 1
▁inperfeksion 1
▁drwatie 1
▁conventions 1
▁bureaucracy 1
▁moments 1
▁mats 1
▁dren 1
▁coiffe 1
▁monogami 1
▁pingpong 1
elit 1
▁butt 1
▁agaleenn 1
▁ho 1
▁resol 1
ellite 1
chelles 1
▁rug 1
osome 1
ains 1
▁fenetre 1
ouer 1
▁kanane 1
▁undes 1
▁hautparleur 1
▁ledwa 1
▁longs 1
▁cvc 1
▁apocal 1
▁inprimer 1
▁konsyans 1
▁rs1000015000 1
▁bungalow 1
▁kourti 1
▁ayer 1
▁kwaf 1
▁bros 1
▁naif 1
▁ekzan 1
▁sinserite 1
▁trikote 1
▁swaf 1
zeboul 1
▁oxford 1
▁unfortunately 1
▁mech 1
▁alphabet 1
▁golfkors 1
▁telegou 1
▁pomdadan 1
▁unfortun 1
▁laserin 1
▁diasarming 1
▁beri 1
▁suis 1
kwaz 1
ras 1
▁bagaz 1
▁jesus 1
▁generate 1
▁black 1
▁bhojp 1
▁ore 1
▁prest 1
rirent 1
▁jointly 1
▁kortez 1
▁artere 1
▁maog 1
▁ricecooker 1
▁peasant 1
▁ferlong 1
pose 1
▁bois 1
▁sinifye 1
agri 1
▁mafat 1
▁orifice 1
▁damaged 1
iol 1
▁debauched 1
▁evenings 1
▁lagon 1
▁money 1
▁deuil 1
▁letidla 1
▁incon 1
▁bisextil 1
▁barem 1
▁fran 1
▁lanverg 1
▁salty 1
▁sundhya 1
▁juin 1
▁nenenn 1
▁penwar 1
tility 1
▁angard 1
▁mandadare 1
▁bul 1
▁libenow 1
▁tumbled 1
ying 1
▁otantik 1
▁venerate 1
▁bordaz 1
▁immortal 1
▁reinkarnasion 1
▁komorien 1
▁absorb 1
▁psychiat 1
▁supersonic 1
▁presedan 1
lipse 1
lisien 1
▁fle 1
▁nause 1
▁taxes 1
▁nagent 1
▁valoriz 1
▁sosyetela 1
▁netron 1
▁kohl 1
▁abatman 1
achery 1
▁blow 1
lasion 1
▁latirans 1
▁camera 1
▁figir 1
▁candidate 1
▁tez 1
▁souha 1
▁storey 1
▁reabilite 1
artou 1
▁bataille 1
▁leav 1
▁beque 1
enouille 1
▁offic 1
▁sound 1
▁passive 1
▁likide 1
▁zenerasion 1
▁gut 1
▁totality 1
iska 1
▁fiyansay 1
▁bluffing 1
▁kontinie 1
▁plus 1
▁sk 1
▁rekor 1
▁pare 1
▁psikolozik 1
▁mw 1
▁orders 1
lement 1
▁confirmer 1
01112 1
▁konfrontasion 1
▁mitile 1
▁pantkot 1
▁analphabet 1
▁fabrike 1
▁komi 1
▁much 1
▁fasad 1
▁fanatic 1
▁lemoman 1
▁impots 1
▁n 1
▁ecras 1
▁cr 1
iske 1
▁pourrez 1
▁realize 1
▁laflit 1
▁romp 1
▁parttimer 1
▁stunt 1
▁kalamite 1
▁py 1
▁trakil 1
▁toilette 1
▁remorker 1
▁frotta 1
▁prospect 1
▁lark 1
▁navons 1
▁ziri 1
ome 1
▁foundations 1
▁lexteryer 1
gar 1
▁footsteps 1
jal 1
▁fars 1
▁bibit 1
inery 1
son 1
▁responsible 1
▁savings 1
▁blag 1
▁cori 1
▁invoke 1
▁raises 1
▁an 1
▁m 1
▁difficu 1
▁neighbour 1
▁krazer 1
▁onlookers 1
▁drdy 1
▁compter 1
▁zien 1
▁centre 1
erpok 1
▁deflagration 1
▁puni 1
▁dekaste 1
▁donne 1
lides 1
▁dro 1
▁insulter 1
wood 1
▁darkroum 1
▁scandale 1
▁polision 1
▁brancard 1
▁amena 1
▁lepap 1
▁seize 1
▁promote 1
otine 1
piece 1
▁refus 1
▁soient 1
▁seldom 1
▁nan 1
issent 1
▁principle 1
▁quarry 1
▁dorm 1
▁tersyer 1
▁esk 1
▁banque 1
▁cardamome 1
▁lapens 1
▁mersriantre 1
▁scen 1
▁guide 1
▁crippled 1
arking 1
▁konteste 1
▁parental 1
▁slo 1
▁haemorr 1
▁crushing 1
▁retoran 1
▁sufficient 1
▁lavarisel 1
▁lexamp 1
▁difam 1
isher 1
▁enorme 1
▁lorkes 1
▁carot 1
h00 1
atically 1
▁asirans 1
nur 1
▁cough 1
▁insektisid 1
▁feux 1
▁sold 1
▁santener 1
▁malis 1
▁kardiolog 1
cal 1
popotam 1
▁prophets 1
▁dared 1
boul 1
▁divage 1
▁difela 1
▁enim 1
▁nektar 1
▁rock 1
▁autour 1
▁jaz 1
▁lagitar 1
azyon 1
▁annual 1
▁selfdef 1
▁emerveyman 1
▁teknisien 1
▁bidzela 1
▁letin 1
▁emerve 1
▁tousort 1
▁temoigner 1
▁ospital 1
▁fence 1
bye 1
▁papern 1
▁still 1
▁elekt 1
▁puissance 1
▁pandi 1
dem 1
▁drought 1
▁mean 1
▁eponge 1
▁kup 1
▁stronger 1
▁gem 1
azar 1
▁playboy 1
▁visited 1
▁layn 1
▁sung 1
▁vari 1
▁lime 1
▁ga 1
▁sofer 1
roche 1
▁obzektif 1
▁sikd 1
▁opponent 1
▁propozisyon 1
▁baro 1
▁ortofoni 1
▁pirates 1
▁missing 1
▁benker 1
▁malgre 1
▁bienaime 1
▁remezire 1
▁pos 1
▁lasigal 1
▁kouver 1
▁kreat 1
▁ltd 1
▁torn 1
▁entelizan 1
▁succeeded 1
▁konpoze 1
▁delirium 1
estib 1
▁tik 1
erson 1
▁superstition 1
▁pleaded 1
▁buttocks 1
▁vant 1
▁parois 1
▁betises 1
▁wound 1
▁mobilisation 1
▁antor 1
▁aktializ 1
▁sibvansion 1
▁sil 1
▁coll 1
▁kondansasion 1
▁manifest 1
▁anper 1
▁aspire 1
▁savone 1
▁pennding 1
▁wenhua 1
▁worst 1
oteke 1
▁jew 1
▁lexersis 1
▁2 1
▁delavan 1
▁tiel 1
▁stern 1
▁gats 1
▁dabu 1
▁mie 1
▁bonnfam 1
yte 1
▁source 1
▁nimporte 1
▁souf 1
▁deplizanpli 1
▁domtom 1
▁girni 1
▁p 1
▁septem 1
▁crime 1
▁raconte 1
▁larekolt 1
▁coloph 1
▁terapi 1
▁educated 1
▁eritaz 1
▁mav 1
▁sanson 1
▁mourut 1
rikiltir 1
▁larpant 1
lab 1
▁tuition 1
▁salade 1
▁infekte 1
▁evidan 1
▁anpleman 1
ifference 1
▁tuye 1
▁bouklet 1
▁naynama 1
▁combat 1
▁bundle 1
▁nouilles 1
▁kaskol 1
▁dekore 1
▁konz 1
▁dreamed 1
inier 1
▁valerparski 1
▁saus 1
▁kontak 1
▁swift 1
▁const 1
ayon 1
▁agalega 1
▁inperyal 1
▁trou 1
▁dessin 1
cover 1
▁exotik 1
4 1
▁surviv 1
▁konpreser 1
▁cigaret 1
▁giy 1
▁gosar 1
▁bakara 1
owners 1
▁gare 1
▁anseyne 1
▁crat 1
▁retrovizer 1
▁pool 1
▁turningfork 1
▁weather 1
▁otosifizan 1
▁boxers 1
▁restaurants 1
garson 1
▁skinned 1
▁betonez 1
oge 1
▁confl 1
▁server 1
▁flak 1
▁impurity 1
▁prodikter 1
▁chanting 1
▁apprentice 1
▁azin 1
enef 1
▁desire 1
▁bret 1
▁tambourine 1
▁pinch 1
▁nofraze 1
▁bizu 1
▁commandment 1
iams 1
▁coming 1
▁midair 1
▁vigorous 1
▁murrayroberts 1
kal 1
▁uptown 1
▁hal 1
▁rou 1
▁koumbar 1
▁harder 1
▁streets 1
▁sotepile 1
▁juive 1
ilab 1
▁zennzan 1
▁roofs 1
▁y 1
binn 1
laire 1
▁soutien 1
▁honnete 1
▁thunder 1
▁whats 1
▁temps 1
▁ouvertement 1
▁arog 1
kile 1
▁korbi 1
▁rebouse 1
nund 1
▁blank 1
vous 1
▁lalim 1
kiy 1
▁bellies 1
▁samouray 1
▁maltret 1
isti 1
▁appreciable 1
▁bravat 1
▁camel 1
ycle 1
pte 1
▁living 1
aryaz 1
▁poult 1
▁kadav 1
ums 1
▁bliyer 1
▁managers 1
▁zodiac 1
▁uf 1
▁telefonn 1
▁frod 1
▁mizisien 1
▁respected 1
▁resistant 1
▁etale 1
▁redimann 1
▁nor 1
▁anlevman 1
▁scope 1
▁molaire 1
▁partout 1
▁decem 1
ef 1
▁panique 1
▁balanse 1
▁pert 1
▁inofis 1
▁soin 1
▁oeil 1
▁failure 1
▁teleph 1
▁anglo 1
osph 1
▁hre 1
▁ether 1
▁antrene 1
▁chocolat 1
▁moulkou 1
▁gentle 1
▁danre 1
▁sferik 1
▁assez 1
▁bienbien 1
▁promettre 1
▁marspie 1
▁akondision 1
▁homosexuel 1
▁voleurs 1
▁bretayn 1
▁killed 1
▁calamar 1
▁hunters 1
▁employed 1
▁intercourse 1
▁dezaprouve 1
▁antil 1
▁lizard 1
▁dore 1
▁douche 1
▁zav 1
▁toupe 1
▁violaman 1
tain 1
▁moka 1
▁atrosite 1
▁acajou 1
▁lakaz 1
tern 1
▁bites 1
▁uv 1
▁masiv 1
▁communalism 1
▁nonsal 1
▁crops 1
▁reprezante 1
▁lavion 1
minded 1
▁coupe 1
▁abom 1
aar 1
▁muslim 1
▁tegn 1
▁prosperite 1
▁critical 1
▁sentence 1
▁cutter 1
▁lobster 1
▁swazire 1
mander 1
▁maize 1
▁pran 1
▁no 1
▁orloze 1
▁verticale 1
▁gradually 1
▁lerip 1
▁monsieur 1
▁siprem 1
▁vetiver 1
▁sib 1
▁rythm 1
▁sleepy 1
▁patrona 1
▁revi 1
▁bek 1
▁soon 1
▁jericho 1
▁sauves 1
▁tact 1
▁profesora 1
▁suitable 1
bines 1
▁minion 1
▁materialize 1
▁allumee 1
▁konzonktirel 1
▁ekim 1
▁dame 1
▁doulinn 1
▁mend 1
▁kreativite 1
▁rekals 1
nd 1
ileged 1
▁ministrab 1
▁ghee 1
▁morpin 1
▁build 1
yem 1
▁ninport 1
▁kont 1
sit 1
▁plutot 1
▁outsiders 1
yd 1
▁republic 1
rend 1
▁cir 1
▁nominasion 1
▁papiy 1
ipline 1
▁2011 1
lou 1
▁talisman 1
lle 1
▁soz 1
▁grope 1
▁shirt 1
quez 1
orum 1
▁kasket 1
etid 1
▁tripartit 1
▁zerme 1
▁grafik 1
▁rome 1
epsi 1
▁chassis 1
dmark 1
▁pollute 1
▁pinision 1
orm 1
ielle 1
▁accur 1
▁zimo 1
▁omoman 1
▁lonzer 1
▁anou 1
▁millionaire 1
▁everyones 1
▁lazizani 1
▁exceptional 1
▁guerissez 1
▁lokalman 1
▁nym 1
▁its 1
▁makes 1
ologie 1
rouiller 1
▁democratie 1
▁sinkronizasyon 1
▁joking 1
▁limonade 1
▁kannle 1
▁diplomasi 1
umy 1
▁rekour 1
▁definitivman 1
▁involonterman 1
ussi 1
pa 1
▁disern 1
▁reanbrase 1
▁verouye 1
▁zis 1
▁exaggerated 1
▁largest 1
▁zanfan 1
▁cherchez 1
▁asistans 1
das 1
▁adisione 1
▁inportasyon 1
▁revolte 1
▁zeneralman 1
▁abstraite 1
▁russians 1
▁aims 1
▁recoltes 1
▁oublie 1
▁malefik 1
▁2007 1
▁jusqua 1
▁carry 1
▁balye 1
▁assister 1
cola 1
▁noires 1
▁mixte 1
▁enfants 1
▁pardonne 1
rogl 1
▁antoine 1
▁koupon 1
▁barach 1
▁kostik 1
▁aud 1
▁onomat 1
▁reall 1
▁biolozis 1
▁surrounding 1
▁dimansyon 1
▁saboteur 1
▁noted 1
▁office 1
▁philos 1
▁senfu 1
▁booklet 1
▁iltimatum 1
▁konik 1
▁sikre 1
▁lazle 1
▁swing 1
▁remov 1
▁estu 1
▁finansie 1
▁sapin 1
▁np 1
▁makoutou 1
▁convinced 1
▁leng 1
obiles 1
▁gamb 1
▁concious 1
▁sop 1
lan 1
irini 1
anche 1
▁apportez 1
▁laplenn 1
▁lasam 1
▁resources 1
▁practiced 1
▁koule 1
▁ostrich 1
▁envizib 1
▁protested 1
▁risen 1
▁fountain 1
▁herods 1
▁tarpaulin 1
▁broad 1
▁auront 1
▁slept 1
▁sitin 1
▁sirprann 1
▁york 1
kees 1
▁onwards 1
▁admirab 1
▁incub 1
▁grain 1
▁serviette 1
aminer 1
▁lalwes 1
▁antonn 1
▁krapo 1
▁trayi 1
▁whenever 1
▁five 1
▁stag 1
ues 1
estral 1
▁bourka 1
hoe 1
▁chlor 1
▁eld 1
▁efizi 1
▁souches 1
rian 1
apav 1
▁konserne 1
▁dedom 1
▁dedans 1
▁dignes 1
▁skorpion 1
▁csection 1
▁perinatal 1
▁sorselri 1
▁psikanaliz 1
▁efikas 1
▁structures 1
▁pourra 1
▁kuk 1
▁tailor 1
▁stupe 1
imenn 1
▁emerg 1
ptes 1
▁piyaz 1
▁diplome 1
▁pasifie 1
iz 1
▁depreci 1
▁komputer 1
inab 1
zen 1
▁impli 1
▁bodibilding 1
▁oversew 1
eram 1
uite 1
▁lazourne 1
▁cooperative 1
▁collier 1
▁badigeonner 1
▁anth 1
iv 1
inis 1
▁dherode 1
▁profesyon 1
▁lakuzinn 1
▁konsomasion 1
▁pliez 1
▁apot 1
▁virent 1
maili 1
▁ledos 1
▁rafinn 1
▁possibility 1
▁disolision 1
▁tipsy 1
oup 1
▁equipage 1
▁disan 1
▁sofaz 1
▁robertos 1
▁petition 1
▁fev 1
▁county 1
▁sosiete 1
▁ordev 1
▁amnezik 1
▁desobeir 1
▁leprezan 1
utions 1
▁450 1
▁schemes 1
▁parfors 1
▁judas 1
▁cont 1
▁kree 1
li 1
▁vertical 1
osantrik 1
▁lorganizasion 1
▁religious 1
▁devenus 1
▁wadir 1
▁mount 1
▁argentina 1
▁highway 1
▁incest 1
arna 1
▁mandian 1
▁rage 1
▁zalou 1
▁campaign 1
▁tombent 1
▁tobacc 1
▁sitadinn 1
▁inpos 1
▁anemonn 1
▁taxist 1
▁fizikman 1
▁fab 1
▁effective 1
▁nephe 1
isinn 1
▁grippe 1
▁lev 1
edir 1
fol 1
▁natif 1
▁revandikasyon 1
dese 1
▁ood 1
▁quator 1
▁12an 1
▁gyan 1
▁meille 1
▁fertile 1
ocation 1
▁preistorik 1
▁leson 1
▁rezon 1
▁suppl 1
gnon 1
▁konstriksion 1
▁salive 1
▁explique 1
▁admitted 1
▁trapeziem 1
ably 1
orage 1
▁deflagrasion 1
▁perforasion 1
▁efe 1
▁zet 1
mennt 1
▁negatively 1
▁distance 1
▁boats 1
▁ceased 1
▁tranzaksyon 1
▁trouve 1
▁dispers 1
▁leprosy 1
▁territoire 1
▁kolonn 1
▁demas 1
lui 1
▁nipat 1
▁labivet 1
▁evac 1
▁komsik 1
▁economically 1
▁kopi 1
▁inpratikab 1
▁intansite 1
▁rway 1
▁curriculum 1
▁lobby 1
▁andey 1
avann 1
▁agrikiltir 1
▁initially 1
pitie 1
▁fevriye 1
▁grawn 1
▁nonb 1
▁hospital 1
▁agrol 1
▁refuge 1
▁judiciaire 1
▁kre 1
geance 1
▁dilem 1
▁moqueur 1
▁lemapavyon 1
▁zwif 1
▁brizfer 1
▁incurable 1
▁emosione 1
▁sexiel 1
▁couche 1
▁inplikasyon 1
▁liquide 1
▁connaissent 1
orn 1
▁difficulte 1
iff 1
▁roti 1
▁losing 1
▁gossipy 1
▁trenez 1
itudes 1
▁kwivre 1
▁alokasion 1
▁barman 1
▁bouziye 1
▁bipol 1
▁lagoni 1
ingue 1
▁wake 1
▁ravann 1
antation 1
▁pogne 1
▁australia 1
▁cultivation 1
▁citron 1
▁lavantir 1
▁padma 1
▁anpe 1
▁rede 1
▁burdens 1
▁nerosirirzien 1
▁123456789101112131415 1
▁comintern 1
▁neonatal 1
▁diab 1
▁plasman 1
▁demant 1
▁cheval 1
ainable 1
▁lekar 1
▁disobey 1
ragan 1
▁eradike 1
▁apovri 1
ilson 1
▁manga 1
▁erezman 1
▁laisser 1
▁agenouille 1
▁drag 1
▁diskrimin 1
▁sized 1
▁matieres 1
▁excre 1
▁plomb 1
stru 1
▁nanyin 1
▁thickness 1
irl 1
▁satirik 1
▁mene 1
▁dancing 1
▁hearing 1
▁adoles 1
▁brouye 1
▁tension 1
gim 1
▁pandit 1
▁sleeve 1
▁continu 1
▁sann 1
▁kontab 1
▁diale 1
▁alex 1
▁1926 1
▁panic 1
ward 1
▁advantage 1
▁bic 1
▁enerzetik 1
▁infrastructure 1
▁amebleman 1
▁infini 1
▁agress 1
▁pantom 1
▁shepherd 1
▁rust 1
▁medicine 1
par 1
▁regn 1
▁proximite 1
▁notifie 1
alenn 1
▁bure 1
▁toile 1
▁inherent 1
▁explozion 1
▁recover 1
▁krier 1
▁strangle 1
▁milye 1
▁substit 1
▁arriver 1
▁degiste 1
mayn 1
▁deforme 1
▁rouspete 1
▁eber 1
▁soid 1
asible 1
▁beaucoup 1
▁bran 1
▁facil 1
▁plastron 1
▁frwase 1
▁officiel 1
▁zwiser 1
▁hex 1
▁enj 1
▁rekopie 1
▁kordone 1
▁lans 1
▁marger 1
▁clou 1
▁remis 1
afric 1
▁diminision 1
▁utiliser 1
lat 1
▁desik 1
fo 1
▁banglad 1
▁kiman 1
▁remplie 1
raft 1
rabl 1
▁archives 1
irdite 1
▁monaster 1
▁andernie 1
iev 1
▁teat 1
▁baskile 1
▁premiere 1
▁fluctuation 1
▁choler 1
▁termin 1
▁nerv 1
▁liron 1
▁hais 1
uses 1
▁remar 1
▁houses 1
▁commercialization 1
▁infizion 1
▁adepte 1
▁anprizonnman 1
vant 1
▁kontret 1
▁fachak 1
▁tours 1
▁gourdin 1
▁stock 1
▁cet 1
▁grinse 1
▁serrer 1
▁fatak 1
▁ant 1
▁hide 1
avi 1
▁breeding 1
▁barres 1
▁incident 1
▁salie 1
ilost 1
▁santigrad 1
▁umbrella 1
▁glikoz 1
▁dezerter 1
▁gambolled 1
▁zuliet 1
▁lanpoul 1
▁kanay 1
▁prop 1
▁fiel 1
▁ose 1
▁briefing 1
cles 1
▁debleye 1
▁jouons 1
▁dominer 1
▁unemployed 1
▁kategorik 1
▁leskalie 1
▁proteg 1
▁degou 1
▁ballot 1
▁laparans 1
▁terri 1
▁fatigues 1
▁pasians 1
▁ligne 1
▁appare 1
▁anvoy 1
▁familie 1
▁knel 1
▁presize 1
▁venaison 1
▁gozie 1
▁heroic 1
▁coronarienne 1
▁friyap 1
▁kouskous 1
▁trwaziemman 1
▁pwinson 1
▁decisions 1
▁diplomacy 1
▁got 1
endre 1
▁kanser 1
▁kordial 1
estyon 1
▁mournfully 1
▁glason 1
▁vays 1
▁onearmed 1
▁anlign 1
gere 1
bwar 1
▁sources 1
▁holes 1
▁disciple 1
▁enceinte 1
▁accessible 1
▁ennuyer 1
▁poussez 1
▁doktores 1
tam 1
▁pliante 1
▁dwarf 1
▁sote 1
▁trait 1
▁conference 1
▁lac 1
ming 1
▁tene 1
▁helps 1
▁fakir 1
▁scrupules 1
kresion 1
▁lindep 1
▁kourpa 1
▁agrav 1
▁koulfimal 1
▁amener 1
▁hindu 1
yard 1
▁dal 1
▁arsite 1
▁zong 1
▁debarase 1
▁ecri 1
▁ombre 1
▁esayaz 1
▁knickknack 1
opital 1
ize 1
▁biltin 1
▁trib 1
▁hect 1
▁rhetoric 1
onnable 1
▁appelez 1
▁letchis 1
▁redim 1
▁versan 1
▁foin 1
▁parey 1
▁shot 1
▁delwayal 1
▁partisipan 1
▁gomon 1
▁adher 1
▁villain 1
▁avale 1
▁termos 1
▁literis 1
▁arem 1
▁naked 1
▁rekoni 1
pion 1
▁apwin 1
▁captured 1
foresan 1
▁kamyon 1
▁prey 1
▁croix 1
▁dezagre 1
frwa 1
▁describing 1
agere 1
irez 1
▁tooth 1
▁team 1
▁boudouf 1
umanse 1
▁matem 1
asant 1
icient 1
ologist 1
▁rooms 1
▁indiscreet 1
▁anpasan 1
▁rekonesan 1
▁neronn 1
ec 1
▁efforts 1
▁retailer 1
▁grins 1
▁exile 1
▁medicinal 1
▁ekonomikman 1
▁now 1
▁anzeneral 1
▁klignotan 1
cend 1
▁ork 1
▁fabricant 1
▁goudron 1
ibre 1
▁milyon 1
▁kara 1
ablisman 1
▁karnaz 1
▁prec 1
▁citiz 1
▁decouvert 1
▁ertan 1
nabb 1
▁reyne 1
▁dekouyone 1
▁kuran 1
▁vesuvi 1
▁bloody 1
▁soften 1
▁chemin 1
▁etudiant 1
▁mocking 1
▁sopinet 1
▁sys 1
kir 1
▁lerlazezi 1
ike 1
▁sibmerz 1
▁griyad 1
azie 1
orsion 1
▁obligatoire 1
▁monitris 1
▁parantez 1
bandie 1
▁performansla 1
▁terrifying 1
▁labiel 1
▁reponditil 1
▁hearse 1
▁piet 1
▁dye 1
▁celeb 1
▁manifestasion 1
▁esklavaz 1
▁fronse 1
▁agroindustry 1
mad 1
▁tantasion 1
▁trout 1
▁sosi 1
▁votan 1
▁nimerik 1
▁komemore 1
▁volt 1
▁aranze 1
▁evinse 1
▁roulant 1
▁lapriyer 1
▁fram 1
▁recemment 1
▁150 1
▁pareille 1
▁vilazwa 1
▁rams 1
▁paz 1
▁krwaze 1
▁hall 1
▁exposed 1
▁amriw 1
▁tissu 1
ep 1
▁vizib 1
▁tum 1
▁malarya 1
▁religion 1
iving 1
▁britann 1
▁metamorf 1
▁mariee 1
▁interview 1
▁moustache 1
▁globalite 1
▁reflekter 1
▁more 1
▁artikile 1
▁dois 1
▁inclination 1
▁gitaris 1
lall 1
▁rekwin 1
idik 1
▁batiment 1
tod 1
▁cru 1
▁amendment 1
▁kasir 1
▁market 1
▁illustion 1
▁lakot 1
▁dit 1
▁proprietaire 1
▁kiltiv 1
arity 1
▁anpenn 1
▁flatez 1
centage 1
▁psom 1
▁often 1
road 1
▁tern 1
▁atraksion 1
▁salarye 1
▁promoted 1
▁garammasala 1
▁konpreansib 1
▁malaxe 1
wisters 1
wap 1
▁ranforsi 1
▁phoen 1
▁speck 1
▁perfeksionis 1
▁spend 1
▁kumansman 1
▁jum 1
▁batonla 1
▁nex 1
▁tandis 1
arsik 1
▁malign 1
▁behaviour 1
▁ingredian 1
ienced 1
▁estimer 1
▁entrer 1
▁sexi 1
▁carniv 1
▁granlagel 1
oyavdesinn 1
▁reperkisyon 1
ain 1
▁venez 1
▁ancetres 1
lif 1
kle 1
bl 1
▁mess 1
▁voulons 1
▁discussions 1
▁eropyen 1
cements 1
intandan 1
▁redemption 1
▁prodwiferlakaz 1
ements 1
ival 1
▁irrit 1
piti 1
▁lamous 1
▁bech 1
▁deze 1
▁spermatoz 1
▁apandis 1
▁dezinte 1
▁economists 1
▁alge 1
c 1
▁sakrifie 1
▁barikad 1
▁exag 1
▁perle 1
▁atan 1
▁blvd 1
▁gown 1
itrine 1
▁omeli 1
▁ord 1
▁jure 1
wete 1
▁inferieur 1
▁1972 1
▁mango 1
▁diriz 1
ozwar 1
▁ameriken 1
▁otage 1
▁receiver 1
▁metaforik 1
▁medle 1
eps 1
▁hayfield 1
▁casuar 1
▁sengne 1
▁bags 1
▁fracasses 1
▁doivent 1
▁tirwar 1
▁warmth 1
▁babor 1
▁accomplish 1
▁escort 1
endant 1
▁kirt 1
▁ratir 1
▁prise 1
▁rotine 1
▁revand 1
▁kausalya 1
▁savedir 1
▁lazurne 1
▁touk 1
▁dresaz 1
▁hijab 1
tage 1
▁contamin 1
▁kaif 1
▁kontradiktwar 1
▁aegis 1
▁mourgat 1
▁compris 1
▁satouye 1
▁katrovin 1
▁changez 1
▁lares 1
anim 1
▁lamori 1
▁masak 1
▁heart 1
▁remo 1
▁protected 1
▁potassi 1
▁confess 1
▁navre 1
chant 1
mandeter 1
▁ikonpri 1
▁agno 1
ast 1
▁cultural 1
▁ofisielman 1
▁pwend 1
ghters 1
kout 1
▁dung 1
▁visitors 1
▁effect 1
▁manzebwar 1
▁performers 1
▁sacrilege 1
▁judee 1
▁special 1
going 1
▁enzy 1
▁parra 1
▁greet 1
▁assault 1
▁salon 1
▁vwayazer 1
ett 1
▁bly 1
▁sassoient 1
alektik 1
▁rumour 1
▁konpar 1
ulaire 1
▁rekonsiliasion 1
▁chap 1
▁zournal 1
▁mangrove 1
▁extaz 1
omani 1
▁delegasyon 1
▁racines 1
fection 1
elda 1
▁balloons 1
▁china 1
▁recuperation 1
▁foul 1
▁bride 1
▁soupir 1
▁fayl 1
▁gargarize 1
▁voulez 1
▁lazleg 1
▁konsolide 1
uae 1
▁necessarily 1
▁rajen 1
▁allons 1
▁dezesperan 1
▁ilegalite 1
blok 1
▁diversity 1
akor 1
▁hurt 1
▁holiday 1
▁ouragan 1
izib 1
▁inofisyel 1
▁panjay 1
▁crabe 1
irye 1
▁sithanen 1
▁baze 1
▁enseigner 1
▁whoever 1
▁nasion 1
▁lapousier 1
▁frid 1
rondi 1
▁suff 1
▁rasism 1
▁smartiz 1
▁compet 1
▁suz 1
wadisman 1
▁troupeau 1
val 1
▁hardships 1
▁subtract 1
▁regilie 1
▁nostalgia 1
▁koutim 1
▁ekler 1
kardiogram 1
▁advisors 1
▁administrasion 1
▁direksion 1
▁aysesha 1
▁infe 1
▁sutenir 1
▁metraz 1
ah 1
▁kondir 1
▁travo 1
books 1
▁matrakaz 1
irans 1
▁transistor 1
▁nobody 1
▁asse 1
▁kafarna 1
▁deflation 1
▁dominasion 1
▁toits 1
▁dimanche 1
▁ava 1
▁fiskal 1
▁roulman 1
▁sertifika 1
▁denfants 1
atoires 1
▁pedi 1
▁prosterner 1
▁carrying 1
nef 1
▁indiz 1
▁repos 1
▁brushing 1
▁multinationals 1
▁gagnant 1
resi 1
▁praying 1
▁inprev 1
▁feyte 1
aps 1
▁spl 1
▁depayaz 1
▁grenad 1
▁regilariz 1
▁yes 1
▁lesclavage 1
aient 1
▁verbat 1
▁etanazi 1
▁stor 1
▁dictionary 1
▁soudage 1
▁consideration 1
▁aligned 1
erg 1
▁jette 1
▁golf 1
▁cannib 1
▁diffic 1
ographie 1
▁lonn 1
manship 1
▁slogan 1
▁brothel 1
▁mex 1
▁echouer 1
▁explike 1
▁entreprise 1
▁realisa 1
▁false 1
akot 1
iat 1
▁manig 1
▁valab 1
▁disorgan 1
▁bwadwazo 1
▁respektivman 1
▁providing 1
▁dirt 1
▁tenue 1
▁custom 1
▁cutting 1
▁ber 1
onet 1
▁izosel 1
istrad 1
▁metikile 1
▁viendrait 1
wizela 1
▁lazide 1
▁bouldog 1
▁wed 1
▁shadow 1
▁larz 1
▁karousel 1
▁ambiance 1
▁dealings 1
▁exasperasion 1
▁frekantasion 1
▁hypothesis 1
▁evalu 1
▁demifinal 1
▁locaux 1
▁dinamiter 1
tement 1
st 1
▁akusman 1
▁doudou 1
▁ferfout 1
▁moth 1
oron 1
▁ezakile 1
lon 1
▁some 1
like 1
▁konseye 1
▁possession 1
▁tonbaz 1
▁trikmardaz 1
▁preparasion 1
▁eskinte 1
▁deadly 1
▁raft 1
▁kam 1
yap 1
▁mickey 1
igali 1
▁vatevien 1
▁ankilost 1
▁adopter 1
▁daz 1
▁school 1
▁sournwa 1
▁yeah 1
joint 1
▁weeks 1
▁myself 1
idavit 1
▁sag 1
▁baja 1
▁kominik 1
oureux 1
▁compan 1
▁soufler 1
▁detanzaot 1
▁aksansirkonflex 1
wn 1
▁women 1
▁depite 1
or 1
▁dega 1
urance 1
▁parochial 1
▁ay 1
▁ch 1
▁kouk 1
▁sunasse 1
▁dess 1
▁relatively 1
kone 1
▁devire 1
▁ouvriere 1
▁pince 1
▁prino 1
▁locale 1
▁unus 1
▁voiture 1
▁hand 1
▁evant 1
▁spesyalist 1
teresse 1
▁zantray 1
▁kaylous 1
▁recommencer 1
▁siperfisi 1
▁tok 1
▁fascism 1
▁months 1
▁potansiel 1
ythm 1
▁tyr 1
▁galaxi 1
▁silwet 1
▁seval 1
▁seront 1
▁joseph 1
wale 1
▁mathematic 1
ollants 1
▁examens 1
yeux 1
▁moto 1
▁kir 1
al 1
▁rama 1
▁wol 1
▁seat 1
▁cochez 1
▁elu 1
▁maintain 1
istan 1
▁lamoutard 1
▁labou 1
▁fortress 1
itivman 1
▁omilie 1
▁ciel 1
▁sindikalist 1
▁gopia 1
▁violin 1
▁nazareen 1
▁portigal 1
▁anpoud 1
▁petit 1
▁sarbond 1
▁bater 1
inary 1
▁omozeneite 1
▁petticoat 1
itans 1
▁defofile 1
▁fenous 1
▁twins 1
nard 1
▁sangle 1
ilsif 1
▁oldfashioned 1
▁piz 1
genic 1
▁reinfekte 1
▁mountains 1
stances 1
▁heading 1
▁kokin 1
eti 1
▁tray 1
▁sentait 1
▁ol 1
▁mwa 1
▁jacuzzi 1
▁repaired 1
▁4er 1
rif 1
▁reafirme 1
▁fanatik 1
▁extend 1
▁rakle 1
oint 1
▁rs2 1
▁guests 1
▁temw 1
▁nonhuman 1
▁ebl 1
▁degats 1
▁employees 1
itre 1
▁interline 1
▁essayez 1
▁racont 1
▁glory 1
▁courir 1
oun 1
▁1953 1
▁cropping 1
▁kalib 1
▁anemi 1
▁twa 1
▁hommes 1
▁singaron 1
▁cosmopol 1
▁piknik 1
▁ma 1
▁approxim 1
▁roots 1
jours 1
▁batri 1
▁ceci 1
lic 1
▁reparasyon 1
enally 1
▁ennjoy 1
▁draze 1
▁flasko 1
▁omosexiel 1
▁atanta 1
▁fifteen 1
▁saliv 1
ather 1
▁advan 1
▁katrepeng 1
▁uand 1
▁recepteur 1
▁bousabous 1
▁konven 1
▁chefs 1
arou 1
▁fornication 1
▁endroits 1
▁foreign 1
▁somehow 1
▁nelzir 1
▁britanniques 1
pwa 1
▁fidelman 1
▁macon 1
▁amalgame 1
▁dred 1
▁zete 1
▁larmoire 1
▁akontreker 1
sa 1
▁her 1
▁biblo 1
▁atourderol 1
▁maziskil 1
▁militer 1
▁princess 1
▁overwhel 1
▁materyalize 1
cord 1
▁anvrak 1
▁konpetisyon 1
ografik 1
avara 1
▁spesializasion 1
▁repanti 1
▁fratern 1
▁causing 1
▁enstal 1
ba 1
▁80000 1
▁tranquill 1
ibiscus 1
▁fourrage 1
▁rajiv 1
▁filip 1
▁syste 1
onance 1
▁does 1
▁lamores 1
▁bine 1
▁spo 1
udal 1
▁gazing 1
ikt 1
▁exalt 1
orant 1
▁controle 1
▁block 1
▁anoura 1
▁reyd 1
▁gravey 1
▁elektrifie 1
▁velvet 1
▁feelings 1
▁andetay 1
▁bouilloire 1
▁lakollakol 1
veux 1
▁redistribie 1
▁fear 1
▁sousol 1
▁contraception 1
dab 1
▁lopinion 1
▁parten 1
blab 1
king 1
▁fiol 1
▁bale 1
▁syndicate 1
▁romi 1
▁melanc 1
▁leg 1
▁fiziolozi 1
▁sustained 1
▁lulu 1
▁soulye 1
aka 1
▁grupla 1
▁lanbas 1
▁fez 1
▁since 1
▁fatalis 1
▁ordinary 1
aktani 1
▁menthe 1
▁konsekitif 1
▁converted 1
▁benediksyon 1
▁philosop 1
▁anvie 1
▁peu 1
alem 1
▁investisman 1
▁devinet 1
▁me 1
▁legally 1
▁kest 1
▁krap 1
▁iltim 1
▁rezerv 1
▁pinn 1
▁debut 1
bli 1
▁comment 1
▁preprimer 1
1415 1
monte 1
▁balancoire 1
▁netait 1
▁unfor 1
▁plage 1
▁santilit 1
▁nway 1
▁us 1
▁kikenn 1
▁soset 1
▁landsc 1
▁drin 1
mand 1
▁nuitla 1
▁repilsion 1
▁resine 1
▁fenean 1
rency 1
abri 1
▁squeezed 1
rouye 1
teid 1
▁iniform 1
▁postale 1
olic 1
▁impasse 1
▁inperyalis 1
▁boyo 1
▁volatil 1
▁alt 1
▁limportance 1
▁demagozi 1
▁menaz 1
▁konst 1
▁counts 1
anble 1
▁continued 1
▁ster 1
▁stopped 1
ouyar 1
▁secretariat 1
▁omet 1
▁lar 1
▁potential 1
▁abel 1
▁latrap 1
hole 1
ensera 1
▁reached 1
▁motorcycle 1
▁nobles 1
▁mangeant 1
ella 1
▁18 1
ridge 1
▁annon 1
▁anseyman 1
▁mouyaz 1
▁preventive 1
▁sponns 1
▁delivre 1
▁alatrenn 1
▁decon 1
▁van 1
iznef 1
ihad 1
▁washing 1
▁stamp 1
▁oral 1
▁irbin 1
▁kolporte 1
▁sixteen 1
▁kourt 1
▁fitting 1
▁remboursement 1
▁utm 1
▁katrovindiznef 1
▁sirve 1
▁asime 1
▁submit 1
mam 1
▁inzenier 1
▁gelar 1
▁inpresionn 1
▁adie 1
▁lamann 1
▁mazoriter 1
yerman 1
wiv 1
▁roche 1
▁kouzinn 1
▁knofi 1
▁kontrovers 1
▁malet 1
▁grimpante 1
▁anparti 1
▁malad 1
▁mekontantman 1
▁1977 1
▁aksesib 1
▁discrimin 1
▁quest 1
▁anonym 1
ouzou 1
▁sintom 1
▁abreze 1
▁feray 1
▁talks 1
▁disadvant 1
▁zabulon 1
rai 1
▁mao 1
▁cube 1
▁lagreab 1
▁suffering 1
▁ameliore 1
▁impose 1
▁briefly 1
▁grawnflor 1
▁rafinnman 1
▁mus 1
▁zonn 1
▁assess 1
warla 1
▁father 1
▁lal 1
▁british 1
city 1
▁tamanikok 1
▁regonfle 1
▁nepalais 1
oured 1
hold 1
▁fleri 1
▁1951 1
▁ie 1
▁epoqu 1
▁alinter 1
▁zennfi 1
▁lwes 1
▁mise 1
▁sawal 1
▁milat 1
▁hoof 1
▁laspe 1
▁trust 1
▁ekose 1
▁rigolo 1
▁preserved 1
▁pays 1
bes 1
▁ranferme 1
▁aeryin 1
▁sexielman 1
▁anguille 1
▁peau 1
▁santigram 1
▁desequ 1
joun 1
rivo 1
▁aka 1
▁echarpe 1
▁partnership 1
▁locally 1
urzwazi 1
▁kaleid 1
▁reprendre 1
▁selfs 1
▁tiptop 1
▁influences 1
▁sirn 1
▁reference 1
▁hypothe 1
▁mel 1
▁zalenn 1
▁bandeson 1
▁ourit 1
▁konsekrasion 1
▁pain 1
aum 1
▁consolidation 1
▁koutpie 1
▁poz 1
▁serai 1
▁kontgout 1
▁akse 1
▁uneven 1
▁outil 1
▁missed 1
▁mee 1
▁reverifie 1
▁whirl 1
▁expresion 1
▁reasonable 1
▁sicknur 1
▁flash 1
▁reinc 1
▁perdre 1
▁irrigate 1
coute 1
▁bw 1
▁akontre 1
▁dilute 1
▁individi 1
▁instale 1
air 1
▁monarch 1
uting 1
▁malpar 1
▁ekipie 1
▁partu 1
▁smugg 1
▁hypn 1
▁loreille 1
▁sosyalist 1
▁lirinn 1
▁malediksion 1
▁kaleidoscope 1
▁partisipe 1
▁contenir 1
nement 1
▁cy 1
▁laryng 1
▁just 1
▁todays 1
▁demobilizasion 1
▁paryaz 1
▁embar 1
▁bataye 1
▁knee 1
▁laboratwar 1
▁incorporated 1
zmoi 1
▁robdesam 1
aw 1
▁antrekoup 1
iflam 1
▁pioke 1
amik 1
pcos 1
▁flamboy 1
▁abnegasion 1
▁vrac 1
▁composed 1
▁apareye 1
▁ini 1
▁pasan 1
▁pantouf 1
▁strainer 1
tka 1
pensive 1
▁tanbourinn 1
▁belong 1
▁accountancy 1
▁basbous 1
yse 1
▁smes 1
cir 1
▁sivilize 1
▁exekitif 1
▁half 1
▁sarbonnter 1
▁infl 1
▁blok 1
▁garden 1
▁conduire 1
▁trouvay 1
▁modis 1
▁tokmarya 1
▁offshore 1
▁tomate 1
▁figh 1
▁classes 1
kam 1
▁defl 1
▁belot 1
▁fabrication 1
▁relais 1
▁ouvrit 1
ract 1
▁efikasite 1
▁restructuring 1
▁anbigw 1
iklop 1
▁refine 1
▁biter 1
▁organiser 1
▁guvernmantal 1
▁alarman 1
▁kamizol 1
▁alze 1
▁efektif 1
▁attendre 1
▁reveyon 1
▁satanic 1
▁karbon 1
▁kapt 1
▁dezirab 1
ominie 1
onfle 1
▁karyol 1
▁chron 1
user 1
ikoums 1
▁untie 1
▁blaspheme 1
rollable 1
▁systematic 1
▁doiseau 1
▁mmo 1
▁reklam 1
▁curer 1
▁literesi 1
▁dissent 1
▁vokal 1
▁resipian 1
▁boxes 1
▁bannla 1
▁brans 1
▁sannla 1
▁demit 1
▁travay 1
▁cancer 1
▁fresh 1
▁associated 1
odoo 1
▁medicaments 1
▁arka 1
▁syndical 1
▁swe 1
▁qualitative 1
▁neurasth 1
▁fand 1
▁roles 1
▁diminye 1
▁prefet 1
es 1
▁lotorizasion 1
▁rayskouker 1
itations 1
▁makab 1
▁sauc 1
rope 1
▁seloigner 1
▁mazanbron 1
▁takine 1
▁paresse 1
▁laparol 1
▁zambi 1
uing 1
▁adaptab 1
▁mansione 1
▁near 1
▁dangerous 1
▁petriser 1
oler 1
▁material 1
▁maitre 1
▁lartik 1
▁lit 1
▁paste 1
▁lodas 1
utra 1
▁dekole 1
▁syklonn 1
▁temway 1
▁expert 1
▁lanvir 1
▁gain 1
▁stroll 1
▁tantinn 1
▁relatives 1
▁nores 1
▁brevier 1
▁implant 1
▁sinplisite 1
▁depuis 1
▁converting 1
▁degradation 1
▁nenwa 1
▁fights 1
▁vaccination 1
▁explain 1
▁jack 1
▁lamwat 1
▁akapare 1
▁lamarie 1
▁sym 1
▁klak 1
▁positions 1
▁ros 1
▁mediz 1
▁palabre 1
▁letiopi 1
▁consecration 1
▁identify 1
▁anbigwite 1
▁turbulence 1
ktiv 1
▁marazinn 1
gal 1
▁kondire 1
▁lapipi 1
ousti 1
▁determination 1
▁compl 1
▁regatta 1
▁documents 1
▁sefdefami 1
▁mardes 1
▁mohamed 1
▁tiyo 1
▁socialisme 1
▁finger 1
▁ejac 1
▁quiet 1
▁mazout 1
▁stupides 1
▁vesuve 1
▁faset 1
▁123456789101112 1
▁rehabilitation 1
esse 1
▁raptise 1
▁lavert 1
aver 1
▁readapt 1
▁marath 1
▁individiel 1
▁coquette 1
chap 1
asso 1
▁trezor 1
▁boja 1
▁ling 1
andans 1
▁aswar 1
oub 1
denwel 1
▁circulating 1
▁fluttering 1
▁kouronn 1
▁bank 1
▁peep 1
▁launching 1
▁inbarab 1
▁emploi 1
▁konstern 1
▁konivans 1
ained 1
▁miaow 1
ripe 1
▁nta 1
▁siprim 1
▁concave 1
▁anplin 1
▁koutiryer 1
▁missile 1
▁communicative 1
▁laloup 1
aughty 1
▁kalachand 1
▁zimaz 1
insi 1
▁inviter 1
loo 1
▁games 1
▁saserdot 1
▁dilar 1
▁mangels 1
▁roller 1
▁standar 1
▁oskilte 1
▁nekrolozik 1
▁determiner 1
67 1
▁compartmental 1
▁tromat 1
▁serfla 1
▁iregilier 1
▁beliefs 1
▁chores 1
inezon 1
ilingue 1
velop 1
rasion 1
▁bles 1
▁8th 1
▁prenom 1
▁mother 1
metik 1
▁publicite 1
bean 1
▁basil 1
ayl 1
▁zib 1
▁plo 1
ication 1
▁eple 1
▁temwin 1
▁pli 1
▁betani 1
▁indiens 1
▁decouper 1
▁laplipar 1
▁mauri 1
▁hanging 1
▁rese 1
▁lasalinn 1
▁engaged 1
▁ezi 1
▁leternite 1
▁analyse 1
▁dangereux 1
▁cognac 1
▁bach 1
▁linite 1
▁intansifie 1
mark 1
ring 1
▁odi 1
▁repud 1
▁afilie 1
nes 1
▁regard 1
▁indiskresion 1
▁affreuse 1
▁serin 1
▁akize 1
ulty 1
▁amitie 1
▁limpot 1
kt 1
oz 1
▁lalo 1
▁jews 1
estrian 1
▁league 1
▁lazybones 1
▁midwest 1
▁paser 1
▁reaches 1
▁robinet 1
▁stupid 1
▁promises 1
anth 1
▁esankre 1
▁mers 1
▁recommand 1
▁dinite 1
▁moustik 1
▁zazer 1
▁appliquez 1
▁permision 1
▁february 1
▁gripe 1
▁tasse 1
iasion 1
▁last 1
ontane 1
▁birthday 1
▁egrer 1
▁oksidantal 1
▁mozambiques 1
pad 1
▁mizerab 1
▁emansipasion 1
▁buissons 1
▁devoirs 1
▁cam 1
ime 1
▁lopital 1
▁benis 1
▁166 1
▁malformation 1
ipatata 1
▁tofi 1
▁bodybuilding 1
▁trouso 1
iab 1
ating 1
▁parkour 1
▁enregistres 1
orab 1
▁konzwint 1
vesouris 1
▁miskiler 1
▁maccueille 1
▁rasel 1
▁saison 1
▁karnivor 1
▁epargne 1
▁anpik 1
▁valet 1
▁presented 1
▁senntri 1
▁tranquillement 1
▁watt 1
▁habitants 1
▁deflasion 1
▁filtrer 1
▁physi 1
▁compreh 1
jourd 1
▁meaning 1
▁coudre 1
▁developing 1
▁description 1
▁sipozeman 1
wazi 1
oule 1
▁horm 1
▁bilaryoz 1
▁otopsie 1
▁captivate 1
▁ariv 1
sos 1
▁bivar 1
▁grafi 1
▁melancolie 1
▁piti 1
imen 1
▁astronot 1
▁traditional 1
▁zuti 1
ilit 1
▁payal 1
▁emergence 1
▁stri 1
▁pel 1
▁tickets 1
▁repo 1
▁norvez 1
▁koleks 1
▁lightly 1
▁coco 1
▁paniers 1
inels 1
▁apie 1
▁sanpider 1
▁badamye 1
▁soutire 1
▁sabo 1
▁entern 1
▁silk 1
▁criminals 1
▁ankle 1
▁police 1
▁separe 1
ourder 1
▁bilingue 1
▁silos 1
break 1
isien 1
▁rasire 1
rochrome 1
▁repres 1
▁bebif 1
bled 1
▁planting 1
▁chanapouri 1
▁fou 1
ality 1
ject 1
▁bezer 1
▁players 1
▁garsonla 1
▁kayak 1
▁mineral 1
▁cicatrice 1
▁kouloute 1
iche 1
▁konfortab 1
▁observed 1
▁nast 1
▁fling 1
ucination 1
▁cooker 1
rance 1
▁enfan 1
▁panjabi 1
▁aste 1
▁pint 1
▁bits 1
▁2018 1
▁ordinaire 1
▁korekter 1
▁demiton 1
▁emmen 1
▁bridge 1
▁inkonsians 1
▁opuvwar 1
▁delinqu 1
▁ogis 1
▁heterosexual 1
▁promouvwar 1
▁galvanize 1
▁bewil 1
ako 1
▁prieres 1
▁linge 1
▁1919 1
▁necessaire 1
▁stuffed 1
▁emmene 1
▁franfran 1
▁vantardiz 1
▁igfa 1
▁amizan 1
▁atelier 1
▁vernis 1
▁balance 1
▁vilv 1
▁surprised 1
▁danniversaire 1
▁changed 1
▁detourne 1
▁bill 1
▁sarbonie 1
▁epilasion 1
▁distress 1
▁roke 1
▁mercu 1
▁tourbillon 1
▁miske 1
▁graphic 1
uise 1
▁mahar 1
▁meurt 1
▁begun 1
▁hands 1
illation 1
alizasion 1
▁delicate 1
▁tolerans 1
▁nevralzi 1
▁tirani 1
▁sounds 1
▁dantie 1
▁rip 1
▁vou 1
ging 1
asite 1
▁certaine 1
▁eseyaz 1
▁entouree 1
cial 1
▁labourers 1
uner 1
▁makroekonomik 1
▁voila 1
eni 1
onde 1
▁youve 1
▁remision 1
▁dezordone 1
▁kedra 1
▁disappoint 1
▁multilingual 1
▁sevriye 1
▁eske 1
▁goyavie 1
▁transp 1
▁meprize 1
▁inogire 1
wader 1
▁neophyte 1
▁tablo 1
ash 1
fran 1
anas 1
▁jos 1
▁kav 1
▁optiboner 1
▁carefully 1
▁reget 1
▁prodiksyon 1
▁puppet 1
▁sove 1
▁chake 1
ibilite 1
▁deregulation 1
▁lamiz 1
▁radioaktivite 1
▁electrocardiogram 1
▁amer 1
▁miltiplikasion 1
otheque 1
▁roder 1
▁sannk 1
▁key 1
▁cramp 1
▁faranayt 1
usc 1
▁vegetales 1
▁siens 1
ought 1
▁koulou 1
▁koutirye 1
▁exorsize 1
▁photocopy 1
▁largent 1
jah 1
▁setting 1
▁anform 1
▁anfet 1
▁nonstop 1
▁promou 1
▁put 1
▁mariliz 1
▁stolen 1
▁tasted 1
apyap 1
lette 1
▁ties 1
▁chasser 1
▁willow 1
▁frizidite 1
▁antone 1
agement 1
▁attention 1
raver 1
▁homes 1
arti 1
loulou 1
▁abrupt 1
▁pisan 1
▁bequeath 1
▁keys 1
rically 1
▁eval 1
vergence 1
oo 1
ferves 1
▁soiree 1
▁bifte 1
▁caramel 1
▁terriblement 1
▁bosss 1
▁pikpik 1
cache 1
kape 1
▁doeufs 1
▁nont 1
▁crampe 1
▁avoc 1
▁invinc 1
▁sanasi 1
▁emab 1
▁histoires 1
▁merde 1
▁yearolds 1
▁begging 1
▁klavie 1
aryin 1
lizour 1
▁divorcer 1
▁penal 1
▁trochetia 1
▁do 1
▁laflam 1
▁lasonp 1
▁gouvernay 1
▁could 1
▁idantiter 1
▁respirasion 1
▁gardiens 1
▁melas 1
▁use 1
▁dw 1
▁inexper 1
▁meninges 1
▁microphones 1
▁battery 1
▁riptir 1
▁shall 1
▁degonfle 1
▁flagstaff 1
▁orgasm 1
▁indienne 1
▁serviterla 1
▁scaff 1
urb 1
▁tron 1
antasyon 1
▁alege 1
▁sandal 1
▁rezolisyon 1
▁hoops 1
adre 1
ktir 1
▁gla 1
▁dilapider 1
▁swami 1
▁roches 1
▁ah 1
▁limidite 1
▁consequ 1
▁exhaust 1
▁tenait 1
▁prologue 1
trenn 1
adoo 1
▁materialise 1
▁testimonies 1
ffer 1
▁swazir 1
▁exterie 1
friend 1
incing 1
▁bots 1
▁abondans 1
▁pron 1
▁diagnosis 1
▁ensured 1
▁carn 1
bif 1
▁whos 1
izien 1
▁kriket 1
▁create 1
▁lemonn 1
▁vanwas 1
▁steering 1
▁arriere 1
bie 1
▁komba 1
▁miltileng 1
▁canad 1
▁manip 1
▁pak 1
▁frac 1
▁dizneviem 1
▁konplete 1
▁konbine 1
▁rocailleux 1
▁philadelphia 1
▁collecting 1
▁triple 1
position 1
▁onetman 1
▁dei 1
▁foolishly 1
▁shut 1
▁sirfile 1
▁refusait 1
▁boufon 1
aminasion 1
▁forklift 1
▁ducklings 1
▁catches 1
▁avalwar 1
▁aper 1
▁pleu 1
▁election 1
▁kanibal 1
▁anfantiyaz 1
oyer 1
▁listwar 1
stance 1
▁carried 1
▁hypoc 1
otin 1
▁blero 1
▁shoping 1
▁octobre 1
aking 1
▁inclure 1
▁rotor 1
▁minn 1
▁necks 1
▁larse 1
▁morfinn 1
▁detendue 1
▁scrabble 1
▁retou 1
▁pilking 1
memes 1
▁recharge 1
▁burnt 1
ver 1
▁reservoir 1
▁defection 1
▁bouskile 1
▁ordiner 1
ument 1
▁moksha 1
▁menaze 1
▁tand 1
▁pansiona 1
▁hope 1
▁contrary 1
▁cate 1
▁deni 1
▁coupes 1
▁lentement 1
▁persi 1
▁mode 1
▁sadc 1
▁netto 1
▁renegosie 1
oug 1
▁amounts 1
▁using 1
bumps 1
▁deziste 1
▁trimes 1
▁terrify 1
▁nap 1
▁momanla 1
▁dentelle 1
▁flot 1
▁posture 1
▁rozie 1
▁altitid 1
▁artillery 1
00000 1
▁tanzanien 1
▁ansestral 1
▁vintiem 1
paret 1
▁poet 1
▁separate 1
reni 1
yenn 1
icide 1
▁naime 1
ilingual 1
▁menage 1
▁afirmatif 1
ccord 1
▁souffrir 1
▁pivo 1
▁anonse 1
▁twelf 1
▁tur 1
forse 1
▁seventeen 1
tains 1
▁tortoises 1
▁fouro 1
▁eklersi 1
▁198 1
▁opens 1
▁climatic 1
▁cruise 1
▁nieces 1
▁lagrot 1
▁discretion 1
▁soci 1
▁birmingham 1
▁philosoph 1
▁painted 1
▁fak 1
▁tabl 1
▁koste 1
▁comfort 1
agrafe 1
▁okoumansman 1
▁respecte 1
▁baa 1
▁excrements 1
ema 1
▁semez 1
▁objective 1
▁1234567 1
apolis 1
▁demantelman 1
▁repiblik 1
▁sapphire 1
room 1
▁volatile 1
▁slylooking 1
▁tapi 1
▁nimble 1
▁match 1
▁provocation 1
▁chaussettes 1
▁scale 1
▁zistifie 1
▁abo 1
▁avarye 1
lor 1
▁motive 1
▁passover 1
inding 1
▁lamba 1
▁moniman 1
▁oralman 1
▁saye 1
▁armcha 1
▁fiyel 1
mper 1
▁likid 1
▁woodcutter 1
▁tiseve 1
zie 1
▁introduce 1
inir 1
▁courent 1
ranz 1
▁telug 1
▁lema 1
▁judea 1
▁commissions 1
▁beans 1
▁maid 1
▁trips 1
posium 1
▁translate 1
raze 1
▁rebuilding 1
▁mauritien 1
▁alfabe 1
▁pouri 1
alene 1
▁homogene 1
▁kte 1
▁angrily 1
ellia 1
▁mens 1
▁anplwaye 1
▁drank 1
▁thir 1
▁lingu 1
▁kriel 1
▁atansyon 1
▁fourth 1
▁diss 1
▁lafis 1
▁larou 1
▁koma 1
▁robes 1
▁krake 1
tez 1
▁kolonbinn 1
▁poker 1
▁extermine 1
▁flametree 1
▁anflame 1
▁espes 1
▁trafik 1
rene 1
▁wit 1
▁konpagne 1
▁dad 1
▁organiz 1
▁msiri 1
ksiel 1
▁eter 1
▁osmoz 1
bou 1
▁daf 1
▁differences 1
▁indirek 1
▁gropoumon 1
▁goslow 1
▁bonte 1
▁konzesion 1
▁sopinn 1
▁masmedia 1
▁komestib 1
uch 1
▁crown 1
duits 1
▁katora 1
▁efemine 1
▁anvant 1
▁balao 1
atiques 1
▁skeleton 1
enkan 1
▁associe 1
▁expropriasion 1
▁solve 1
▁column 1
▁hail 1
epile 1
▁tronbonn 1
▁deposede 1
▁vizibilite 1
▁alread 1
▁inplike 1
▁probableman 1
▁he 1
▁exkize 1
▁debourse 1
▁rendent 1
▁reconfort 1
▁frin 1
▁span 1
▁drama 1
▁dogs 1
▁aching 1
▁lavabo 1
digra 1
▁traversin 1
ors 1
▁oprese 1
▁built 1
▁voyez 1
▁antikor 1
▁descendants 1
▁entirely 1
▁certificate 1
▁sarz 1
▁arbit 1
▁pagay 1
acc 1
▁plaine 1
▁oxymoron 1
▁monarsi 1
▁ramirez 1
▁voluntary 1
▁harnessroom 1
▁lemal 1
▁menwizie 1
zonnman 1
▁eteindre 1
▁vatilasion 1
▁unf 1
riste 1
▁ankl 1
▁pwanie 1
▁fondateur 1
▁konfesionel 1
▁rien 1
▁alarm 1
▁akeyan 1
▁partenaria 1
▁period 1
▁abdom 1
otov 1
▁asyon 1
▁aerasion 1
▁prepar 1
cos 1
▁trusted 1
▁zibilision 1
▁harness 1
bana 1
▁chute 1
▁document 1
seven 1
▁tizan 1
iteur 1
stitie 1
▁colombes 1
▁unstable 1
▁erm 1
pman 1
▁mayonna 1
▁poketmoni 1
▁devizaze 1
▁piktogram 1
▁blessing 1
▁lesper 1
rez 1
▁improvement 1
▁prote 1
▁really 1
den 1
uriere 1
▁voudre 1
▁provoke 1
▁naivman 1
▁programla 1
▁uneasy 1
▁additively 1
▁glisan 1
▁mayonez 1
▁novater 1
ifier 1
prise 1
▁ekoule 1
▁lego 1
▁poster 1
▁starfish 1
▁lapprobation 1
▁complained 1
▁kra 1
▁howl 1
▁recapit 1
▁balsam 1
wenns 1
▁ekolie 1
▁rabote 1
orcer 1
▁zistwar 1
▁tournir 1
▁ritiel 1
▁lemigrasion 1
▁rezim 1
▁rann 1
▁personelman 1
▁grannasion 1
▁toutes 1
▁zinz 1
▁ondire 1
anes 1
ifikater 1
▁konvok 1
▁kornak 1
▁levent 1
▁defending 1
▁fragmentation 1
▁secondary 1
▁konserv 1
▁glorious 1
▁signifie 1
▁lavanvey 1
▁pins 1
od 1
▁faster 1
▁tranzaksion 1
intern 1
▁demob 1
▁etai 1
▁fourteen 1
▁avalez 1
▁bikarbon 1
▁hoodlum 1
▁montre 1
▁ele 1
▁kaviram 1
she 1
ipar 1
ranse 1
▁stylo 1
▁produced 1
▁davantaz 1
▁traitre 1
▁platre 1
▁many 1
▁dedikas 1
▁clear 1
▁notary 1
▁malnouri 1
▁mol 1
▁mirak 1
▁smallpo 1
▁trank 1
▁pic 1
▁heal 1
▁ub 1
▁dimond 1
▁sulfat 1
▁realiser 1
▁kontrasepsion 1
▁shroud 1
▁gous 1
▁palpe 1
▁bibi 1
▁boulo 1
▁panser 1
▁lacune 1
▁constitute 1
▁absolutely 1
▁matir 1
▁deerpals 1
▁jumped 1
▁dizesion 1
▁light 1
▁voliere 1
▁kontrast 1
▁boites 1
▁sparrows 1
▁vieyfi 1
cut 1
▁rembourser 1
▁krizla 1
▁wayawaya 1
▁bisiklet 1
▁swears 1
▁langwas 1
▁cro 1
▁lip 1
▁oriante 1
▁cob 1
▁antrevi 1
▁nikleer 1
ud 1
▁hypnot 1
▁empir 1
▁obedient 1
▁mefian 1
▁wiski 1
▁moi 1
▁boite 1
▁stabilite 1
▁striktirel 1
▁roulet 1
ilte 1
▁renverse 1
▁slower 1
illard 1
▁manz 1
▁embarr 1
accord 1
▁milite 1
▁so 1
▁ordir 1
▁suspense 1
▁nerozirirzi 1
▁unreliable 1
▁naiv 1
▁genesareth 1
▁sauvages 1
inees 1
▁donnent 1
▁loxiz 1
stre 1
▁norwes 1
▁antan 1
inerie 1
hop 1
▁overd 1
▁pouviez 1
rev 1
▁saliva 1
▁bouillon 1
▁relizion 1
▁limour 1
▁samba 1
arn 1
▁demolition 1
▁nonvi 1
▁pensezvous 1
▁chim 1
▁metallique 1
▁bilingual 1
▁strese 1
▁samurai 1
on 1
wal 1
▁jamaat 1
▁helped 1
▁serenade 1
oction 1
▁enkapab 1
▁golden 1
▁explore 1
▁debus 1
▁mosi 1
▁the 1
▁warned 1
▁lotel 1
▁jetais 1
▁filantrop 1
▁scrat 1
▁refilme 1
▁nonsans 1
▁should 1
▁espad 1
▁certificat 1
▁contempt 1
▁night 1
psi 1
ieres 1
imante 1
▁linvanter 1
▁prothese 1
▁leswar 1
atir 1
▁incroyable 1
▁reprezant 1
▁desavouer 1
▁splinter 1
▁sibstitision 1
▁kazimodo 1
annuated 1
mor 1
▁expres 1
▁lair 1
▁zene 1
ocol 1
▁scorpion 1
▁tanp 1
▁tests 1
▁moves 1
▁supporter 1
onis 1
▁sins 1
▁crossroad 1
▁optimism 1
▁lesprila 1
▁bri 1
▁depouyman 1
▁savent 1
▁lasonpsion 1
▁demibin 1
▁flotte 1
▁planton 1
▁plantasyon 1
▁diagnostike 1
▁oldfash 1
▁ecarter 1
▁recovery 1
▁buvant 1
▁konpozision 1
bol 1
▁derrick 1
plore 1
▁depresion 1
etans 1
▁critique 1
▁seven 1
▁whatever 1
▁voie 1
▁set 1
▁evol 1
▁lanvironnman 1
▁semiz 1
▁benediction 1
▁salere 1
▁tayt 1
▁peign 1
antour 1
wint 1
▁artists 1
▁tromelin 1
▁klik 1
▁lenportans 1
▁biskot 1
▁haute 1
▁acquired 1
inois 1
irirz 1
rouse 1
▁trankilite 1
▁levres 1
▁vresan 1
▁approaching 1
▁genius 1
▁oly 1
agog 1
onvon 1
▁sirpopilasion 1
▁burrow 1
▁entendre 1
▁creolisation 1
▁colis 1
▁zenosid 1
▁throw 1
▁fetaz 1
▁recueill 1
▁05h00 1
▁belt 1
▁3er 1
▁participants 1
▁tranbleman 1
▁admiring 1
▁maltra 1
law 1
▁kozer 1
▁vomit 1
ero 1
▁matiere 1
▁existan 1
▁vezetaryin 1
▁bapteme 1
obil 1
▁organn 1
akiye 1
▁dixieme 1
▁rekizision 1
▁ear 1
▁involonter 1
▁anbreyaz 1
oupaz 1
▁fezab 1
▁nombreuses 1
▁komersialize 1
▁pomdeter 1
wes 1
ion 1
▁owners 1
▁ireg 1
▁konzelater 1
▁abin 1
▁dy 1
▁flute 1
antrik 1
▁minimem 1
anaz 1
▁pong 1
▁loroskop 1
▁aksansir 1
▁demare 1
▁aerienne 1
▁underwear 1
▁deplace 1
▁zantiman 1
▁savons 1
▁evantielman 1
pik 1
▁length 1
▁sosyete 1
amen 1
▁opportunity 1
que 1
eness 1
mee 1
ux 1
▁secre 1
▁doll 1
peyman 1
▁distinctive 1
alision 1
▁trees 1
▁konpletman 1
boute 1
▁famla 1
▁sisi 1
▁longann 1
▁mait 1
▁vodou 1
3 1
▁dau 1
▁appearance 1
debe 1
▁bones 1
▁recrute 1
▁lerlaz 1
▁sraight 1
▁lapeti 1
▁sauce 1
▁race 1
▁cemeter 1
▁sikl 1
▁letsi 1
▁beking 1
▁krisyal 1
▁hermetique 1
onist 1
▁spesimenn 1
pwin 1
pli 1
▁lekonomi 1
▁reserv 1
▁frode 1
▁fotofinis 1
▁obsesion 1
▁skritin 1
▁wellbe 1
▁rake 1
▁mull 1
fertwar 1
▁bouraz 1
▁diferansie 1
▁koray 1
▁load 1
▁stanp 1
▁ralie 1
▁apele 1
▁wide 1
▁skate 1
▁idealis 1
▁linfirmi 1
▁clowning 1
▁pencil 1
▁federater 1
▁soupap 1
▁zenerosite 1
▁transf 1
▁samaj 1
▁paque 1
▁teaches 1
▁arzantie 1
▁isk 1
▁corner 1
▁coventry 1
ouye 1
▁selection 1
▁boreanaz 1
▁kontexla 1
▁tex 1
▁children 1
▁commis 1
iffe 1
ansite 1
▁rwine 1
▁illusrate 1
▁encyclop 1
▁indigestion 1
▁kaprikorn 1
▁terater 1
▁chaume 1
▁tifinn 1
▁rish 1
fects 1
▁tel 1
▁louker 1
▁barbouye 1
▁lastik 1
▁recevoir 1
▁handbag 1
▁souls 1
▁debarras 1
▁sanglante 1
▁bomarse 1
▁nayez 1
▁wider 1
▁degoute 1
▁inkonse 1
▁vue 1
▁preferansyel 1
▁jaime 1
▁shook 1
▁prelim 1
▁sosyalism 1
▁jetaient 1
▁bose 1
▁kapkap 1
▁received 1
▁fossilfuels 1
ctly 1
▁necess 1
▁cotes 1
vation 1
▁demokrasi 1
▁katapilar 1
irer 1
▁lapp 1
▁sosyal 1
▁ler 1
▁priests 1
▁11 1
▁verbi 1
stit 1
▁virility 1
▁nonres 1
▁imaziner 1
▁producer 1
▁konversyon 1
▁choli 1
ille 1
akie 1
▁diabetic 1
▁tirayman 1
usi 1
▁psychanal 1
▁tennis 1
▁baylouke 1
▁docteur 1
▁colour 1
▁throne 1
▁bav 1
▁guns 1
▁confuse 1
▁lafwa 1
▁psikolozi 1
▁tanperaman 1
▁lullab 1
▁boulboul 1
▁terrain 1
▁lavaper 1
▁zigzag 1
▁lanturaz 1
▁lemon 1
enime 1
▁privilege 1
▁crap 1
▁thesis 1
aisan 1
▁assomb 1
▁venison 1
▁items 1
▁embr 1
▁degar 1
▁rate 1
▁di 1
alips 1
▁consistent 1
▁oriflam 1
ourdir 1
▁dekorater 1
▁rekomandasion 1
▁kansel 1
▁made 1
▁efervesan 1
▁presyon 1
▁during 1
▁ascendancy 1
▁maharaja 1
enet 1
▁violonsel 1
▁string 1
▁egare 1
▁epeler 1
▁inite 1
▁teokon 1
▁princ 1
▁arondi 1
▁suspicion 1
▁cylind 1
▁dayri 1
▁landime 1
▁traizon 1
▁grandioz 1
▁marinad 1
cus 1
▁advert 1
▁victims 1
▁monst 1
stone 1
▁kardinal 1
▁prime 1
▁akiponktir 1
▁sagenouilla 1
▁biskwi 1
▁elijah 1
▁magnets 1
▁exercised 1
▁losti 1
▁products 1
▁douziem 1
▁ts 1
▁anfen 1
▁drew 1
ablir 1
▁apersevwar 1
▁anbalao 1
asistans 1
indkrwa 1
▁tanpi 1
uti 1
▁sharp 1
portan 1
▁koustik 1
▁ducks 1
▁siansfiksion 1
orasion 1
▁tidal 1
▁class 1
olie 1
▁respons 1
▁furlong 1
▁fenns 1
▁postal 1
▁krapil 1
▁blink 1
▁kone 1
▁meant 1
▁supplement 1
▁zoke 1
▁saxofonis 1
▁indiferan 1
▁larme 1
▁zetseman 1
▁mertri 1
▁pwen 1
inasyonal 1
▁intermedier 1
bow 1
▁sinners 1
▁facebook 1
▁conversion 1
▁zeometrik 1
▁malagasy 1
▁impuissant 1
itatif 1
▁oye 1
▁joumma 1
▁pardone 1
▁tigit 1
▁seeing 1
▁site 1
▁politically 1
lection 1
▁catamaran 1
▁mitra 1
▁romain 1
▁potasiom 1
▁tekoma 1
oney 1
▁koukou 1
▁procapitalist 1
▁indispansab 1
▁bec 1
▁boarder 1
ts 1
▁kuyoner 1
▁array 1
kteman 1
▁katastrof 1
▁mezon 1
▁traject 1
written 1
▁part 1
▁dakor 1
▁vate 1
▁linformation 1
▁ordered 1
▁delave 1
▁six 1
▁rav 1
yar 1
▁rediksion 1
▁treasures 1
▁formil 1
▁korelasion 1
kan 1
▁deloyale 1
▁ripe 1
▁juridique 1
▁negro 1
▁1993 1
▁forever 1
▁vedet 1
▁zimbabwe 1
▁otodest 1
▁deplwaye 1
▁ef 1
▁dites 1
▁tre 1
▁term 1
jourdhui 1
▁mamal 1
▁band 1
▁guarded 1
▁blessure 1
▁rekonstrir 1
▁poumon 1
▁inlaw 1
▁strain 1
▁retisans 1
▁frag 1
▁epines 1
▁comprime 1
▁kominist 1
▁cimet 1
▁said 1
▁banknotes 1
▁decadence 1
▁zezie 1
onns 1
▁bonmarse 1
assi 1
▁superfl 1
▁agreable 1
▁lonbri 1
▁len 1
▁rekonpoze 1
▁proses 1
▁wean 1
▁poland 1
▁segregasion 1
▁broket 1
▁highlight 1
▁overthrow 1
▁teas 1
▁konkibinaz 1
▁lous 1
▁kronom 1
▁detaye 1
▁cups 1
▁kote 1
▁na 1
▁anise 1
▁striking 1
▁pointed 1
▁anplasanpl 1
▁detect 1
▁strugg 1
▁vap 1
▁g 1
▁versions 1
▁alcohol 1
▁inattentive 1
▁helic 1
▁apartenans 1
▁abne 1
▁rs3000 1
▁editorial 1
▁personally 1
▁philanth 1
▁completed 1
▁malform 1
▁psikiat 1
▁fotif 1
▁arc 1
▁del 1
▁demand 1
ousir 1
▁eswig 1
arnasion 1
▁summary 1
ld 1
▁mayo 1
▁melancholy 1
occ 1
chounn 1
▁serser 1
▁orphelinat 1
▁kresonier 1
▁eteroseksiel 1
▁kord 1
taz 1
▁joli 1
▁bekingpowder 1
▁ratified 1
▁whatsoever 1
▁flouk 1
▁nightclub 1
▁ja 1
▁exsite 1
▁situee 1
▁carat 1
▁karkas 1
▁duckl 1
▁komye 1
▁peyna 1
▁qua 1
▁rekonp 1
▁acteur 1
▁antisept 1
▁copies 1
▁batch 1
adel 1
▁richesse 1
▁klape 1
▁klipe 1
▁notamment 1
▁bidonvil 1
▁gip 1
▁dundes19 1
▁feels 1
▁doz 1
▁ecrit 1
▁akey 1
▁terror 1
▁moreover 1
braz 1
▁anfanti 1
▁antisiklonn 1
▁nonaligne 1
▁pardes 1
▁tested 1
▁shiv 1
▁rotary 1
▁projects 1
▁tiroir 1
▁centilitre 1
▁happ 1
cept 1
▁eropein 1
▁idantifie 1
▁pomdeler 1
any 1
▁obes 1
malk 1
▁stop 1
mage 1
▁analfabet 1
▁enseignent 1
▁stoop 1
▁alepok 1
▁dezakor 1
▁aze 1
▁jalsa 1
▁kapasite 1
▁hong 1
▁mascot 1
▁ekz 1
▁messager 1
▁adeton 1
▁rousseau 1
▁remained 1
tonn 1
▁hunger 1
▁antibiotik 1
▁sanzab 1
▁quer 1
▁maxims 1
▁modelmaker 1
lezan 1
▁200 1
▁demitonn 1
pliquez 1
esirable 1
▁lasik 1
▁patatipatata 1
▁superannuated 1
bate 1
▁vizavi 1
▁lannee 1
▁elle 1
▁calend 1
▁along 1
▁irony 1
▁pannjale 1
▁sas 1
ivol 1
▁inkolor 1
▁eleves 1
▁childs 1
jay 1
ket 1
othes 1
▁nouvelles 1
▁pikerpoket 1
▁offer 1
▁favorab 1
▁memorab 1
▁romans 1
▁enpot 1
▁demeure 1
▁hit 1
▁dezene 1
rale 1
▁ascend 1
▁gilinggiling 1
▁creat 1
▁79 1
▁fiziye 1
▁weightlif 1
▁conform 1
▁ventilation 1
reri 1
▁vaches 1
▁sales 1
▁ouvrent 1
▁fondan 1
▁seki 1
▁priez 1
▁severman 1
▁smile 1
▁20 1
▁preparasyon 1
▁compress 1
▁toc 1
▁bhojpuri 1
▁reconcili 1
▁horrible 1
▁telefonis 1
▁ignorant 1
▁karos 1
▁sise 1
▁stron 1
▁musician 1
▁beijing 1
▁april 1
▁konse 1
▁eseans 1
▁esapatwar 1
▁baskets 1
enom 1
▁diskite 1
▁paresseux 1
▁gabl 1
▁ekziste 1
▁linfliyans 1
▁profitab 1
▁chutney 1
▁matier 1
▁brize 1
▁tiket 1
▁sevret 1
▁phosph 1
adha 1
▁okouran 1
▁oldage 1
▁anrwe 1
▁alor 1
▁changing 1
▁surprises 1
▁kontinyez 1
▁parfetman 1
▁ipotek 1
▁feminis 1
idrate 1
▁sieze 1
▁climbing 1
chakou 1
▁iskaryot 1
iyan 1
▁reazir 1
▁entered 1
▁millionaires 1
▁maison 1
▁vos 1
edly 1
▁classique 1
▁unfortunate 1
▁oparler 1
▁ladrwatir 1
bir 1
▁osi 1
▁forward 1
▁boutikie 1
▁erod 1
▁etidyan 1
▁satisfaksion 1
▁stork 1
▁aksioner 1
inter 1
rial 1
▁lire 1
▁trip 1
▁enpresion 1
▁fabrique 1
▁aston 1
▁atoup 1
▁sub 1
▁vient 1
▁minimal 1
▁deriver 1
▁expedie 1
ifikasion 1
badine 1
ivole 1
▁volim 1
▁symet 1
▁boire 1
▁kul 1
▁devantir 1
▁apparently 1
▁rivalite 1
▁roupi 1
▁environment 1
▁bisex 1
▁communic 1
▁jaloux 1
ortion 1
▁polarizasion 1
▁jettele 1
▁mahogany 1
▁omniprezan 1
▁tr 1
▁growls 1
▁parasitis 1
▁personnes 1
▁geldelou 1
▁bout 1
ignent 1
▁ekimoz 1
▁frekante 1
▁sinpa 1
▁199 1
▁zistwarto 1
aiser 1
▁taste 1
▁install 1
▁rocks 1
▁pigeon 1
▁lexpress 1
uments 1
▁propose 1
▁officers 1
▁academy 1
▁mwayin 1
▁sarzman 1
▁silenn 1
▁linst 1
▁saffron 1
▁confidence 1
▁orizontalman 1
▁sodier 1
▁fonctionnaire 1
▁adjoint 1
▁defoulman 1
cient 1
▁sed 1
▁fedi 1
▁amnistie 1
▁imperson 1
▁risky 1
▁hak 1
▁kalamar 1
ilib 1
▁zanbl 1
▁psik 1
▁teknolozila 1
▁poems 1
▁airletter 1
▁gueris 1
izers 1
ness 1
▁rassem 1
▁usually 1
rrr 1
▁sassit 1
▁fransman 1
urate 1
▁venture 1
▁according 1
mene 1
▁kouba 1
▁sibordone 1
▁grawnrays 1
▁balade 1
▁enlever 1
▁karlaz 1
▁harnais 1
pris 1
▁paraly 1
▁konte 1
▁zide 1
emption 1
▁supervision 1
▁demark 1
ificator 1
▁kontinielman 1
▁dimal 1
▁denonsiasion 1
▁lapolis 1
▁dentifrice 1
▁laboutik 1
▁tanpann 1
▁kristianize 1
ployed 1
▁worse 1
▁malsin 1
olet 1
▁planifikasion 1
▁lagriculteur 1
▁recheke 1
riyer 1
▁bast 1
▁gathering 1
▁otantisite 1
▁chaos 1
▁lese 1
right 1
▁eaten 1
▁craindre 1
▁lamarel 1
amorse 1
▁barsketborl 1
asion 1
▁marginalise 1
▁toffee 1
▁diner 1
ouloute 1
▁aspect 1
▁krint 1
menns 1
▁raced 1
ffe 1
▁cul 1
▁wives 1
▁rentra 1
▁meilleurs 1
▁regardent 1
▁antiderapan 1
▁prosen 1
▁louanz 1
best 1
▁nies 1
▁enpresione 1
▁spoiled 1
▁debouraz 1
ozer 1
▁latant 1
▁mik 1
▁smoking 1
▁orak 1
ratik 1
olisyon 1
▁atraver 1
▁envie 1
▁obzekte 1
▁furn 1
▁paid 1
▁alexteryer 1
▁synth 1
▁titalber 1
▁kordine 1
▁welc 1
inte 1
▁zarb 1
▁devo 1
▁clumsy 1
▁bienfe 1
▁sirkonskripsion 1
▁washer 1
▁agroindistriyel 1
▁plaster 1
▁klimatik 1
▁penetrasion 1
▁employment 1
▁peop 1
▁commence 1
▁uncondition 1
▁mekanik 1
▁misterye 1
▁citizen 1
▁wine 1
bwat 1
▁omision 1
quar 1
▁intwision 1
▁tripot 1
▁gegaye 1
▁emmenerent 1
▁krak 1
amment 1
▁scripture 1
▁batayez 1
▁ankon 1
▁dobt 1
▁chanson 1
▁konsesyon 1
▁cashdesk 1
▁dezintoxikasion 1
▁tek 1
▁branche 1
▁ledan 1
▁ayayay 1
▁braye 1
▁sitwayin 1
etan 1
▁ograde 1
▁dees 1
▁tikouyer 1
▁manie 1
▁mechanical 1
▁mug 1
anque 1
▁bengal 1
▁diforme 1
▁stanpe 1
▁idi 1
▁sover 1
izur 1
▁pedale 1
▁magdala 1
▁captiv 1
▁chalk 1
illeurs 1
▁sistematik 1
▁fetefourn 1
ri 1
▁placez 1
▁monwar 1
▁williams 1
orer 1
▁initiated 1
▁sinizit 1
▁steps 1
▁dezinfekte 1
▁konsiderasyon 1
oos 1
okrasi 1
▁gast 1
▁audit 1
▁insectes 1
▁arrondi 1
▁rezo 1
calyptus 1
▁attractive 1
▁popil 1
▁turbines 1
▁lexpres 1
▁fumier 1
▁mic 1
▁taught 1
▁seye 1
▁devalize 1
temps 1
▁sinplifie 1
▁ladrog 1
▁fetched 1
▁zaf 1
▁pwi 1
▁kontrebann 1
▁piper 1
▁lalwa 1
▁septik 1
pwisan 1
▁chirur 1
▁linpresion 1
▁manda 1
ph 1
▁troubles 1
▁ouverture 1
tements 1
ida 1
▁micro 1
▁faced 1
iny 1
▁sense 1
azin 1
ocal 1
▁reche 1
▁v 1
▁prophetes 1
▁cataclysm 1
▁detekte 1
cili 1
askiler 1
phere 1
▁marigold 1
▁vodka 1
▁neon 1
▁roul 1
▁teachers 1
▁prosenn 1
▁fesse 1
▁nerolozi 1
▁kanalizasion 1
ivers 1
▁orib 1
▁riches 1
▁aldrinn 1
▁nwazet 1
ructuring 1
▁semolina 1
▁pronounced 1
▁sevalier 1
▁mefi 1
▁survi 1
ico 1
▁noting 1
▁fezer 1
▁boot 1
▁lifetime 1
▁evaluate 1
▁failed 1
▁laprosesion 1
intfas 1
▁detase 1
▁percussion 1
▁prism 1
▁porslenn 1
▁galimatia 1
▁maxim 1
inct 1
▁bik 1
▁enseignez 1
▁nanz 1
▁refreshing 1
▁middleman 1
▁sorting 1
▁706 1
▁angl 1
▁gatecrash 1
▁pronost 1
▁diabol 1
▁iberne 1
uring 1
onom 1
▁rekonesans 1
▁pratique 1
▁ery 1
▁antrel 1
▁nosion 1
▁demikar 1
▁rast 1
▁safety 1
▁leponz 1
▁remersi 1
▁zezikifer 1
▁douzan 1
▁idee 1
▁contamination 1
▁lingwistik 1
▁tolerer 1
▁merchants 1
▁property 1
▁sorte 1
poll 1
▁knack 1
▁epoux 1
▁rezerve 1
▁dezorme 1
▁kayman 1
▁toba 1
▁pw 1
▁reptile 1
▁rins 1
▁sanksione 1
▁beauty 1
▁groom 1
orie 1
uraz 1
▁ond 1
▁fers 1
run 1
▁eskar 1
▁inkonfortab 1
▁diver 1
▁alevin 1
▁card 1
▁cutters 1
▁kontredir 1
▁topografi 1
▁laminn 1
▁selfdefense 1
▁blanc 1
▁rishi 1
▁ilezitim 1
▁correct 1
pected 1
▁distile 1
izyon 1
▁lanku 1
▁pizwar 1
▁reveilla 1
▁tipul 1
ilibree 1
▁kontremet 1
▁mersener 1
▁communication 1
▁sunday 1
ades 1
gm 1
▁exercise 1
gea 1
▁mistifikasion 1
▁dikte 1
▁zavlo 1
▁kii 1
▁embryon 1
▁apro 1
▁management 1
▁tifoid 1
▁bizoutri 1
▁angrese 1
mant 1
▁chos 1
▁ousi 1
▁nasionalizasion 1
▁panday 1
▁toulez 1
▁s 1
▁effra 1
▁prodiktivite 1
▁detail 1
aits 1
▁nazare 1
▁salsa 1
▁recorder 1
▁nuri 1
▁panntier 1
▁haricots 1
▁ansekirite 1
rycan 1
zenier 1
▁headphones 1
▁choisir 1
▁labyrin 1
▁abil 1
▁promnad 1
▁konpetision 1
▁koumansman 1
▁tools 1
▁propre 1
▁dol 1
▁developpement 1
▁goosebumps 1
▁asimile 1
▁sens 1
▁fristrasion 1
post 1
▁gand 1
▁tradiksyon 1
▁rehe 1
▁koupir 1
▁zetwaldemer 1
▁reliziez 1
▁bodies 1
▁larsdam 1
nip 1
▁alisinasion 1
▁demandent 1
▁reduce 1
▁shrim 1
▁lirekrir 1
▁ways 1
▁kordinater 1
▁fasil 1
▁needs 1
▁explaining 1
▁explains 1
▁frize 1
▁smf 1
▁dipen 1
▁sourir 1
olesans 1
▁alfabetize 1
▁anthropology 1
▁fronte 1
▁cah 1
▁respectively 1
▁retroaktif 1
▁bickerton 1
pers 1
▁offertory 1
▁rachel 1
▁6yem 1
▁carnage 1
▁exsel 1
▁reversed 1
▁enternet 1
▁typ 1
▁panicked 1
▁mama 1
▁darkroom 1
blan 1
▁inte 1
▁lemm 1
▁imperfection 1
▁pourtant 1
▁sanp 1
▁skin 1
geur 1
▁efficace 1
▁inperson 1
▁superst 1
vier 1
▁gorl 1
▁ralonz 1
▁chinoises 1
▁rugue 1
▁rivaz 1
▁juste 1
▁polival 1
▁donnees 1
▁ekzanpler 1
▁bourbrit 1
▁bist 1
▁kreasion 1
▁asetonn 1
▁nitroglycer 1
ius 1
▁alcod 1
▁laying 1
▁ostilite 1
▁panndit 1
▁navet 1
▁linion 1
▁morteze 1
▁sra 1
▁tiles 1
▁batayer 1
onial 1
path 1
▁preparing 1
ouble 1
▁eroism 1
bours 1
▁lanver 1
▁bangkok 1
nman 1
▁soulign 1
▁nosmoking 1
▁transformasion 1
▁investigasion 1
▁dishonest 1
▁etesvous 1
▁jss 1
▁add 1
▁kavedi 1
▁directions 1
▁tampon 1
▁resanti 1
▁tombees 1
▁sesel 1
▁intelle 1
ogie 1
▁cerfvolant 1
▁indomauritian 1
▁parabol 1
chool 1
▁anorm 1
▁couverts 1
▁pense 1
▁fift 1
▁livre 1
▁saunterer 1
▁aquarium 1
▁nivo 1
▁pig 1
▁appel 1
▁zanet 1
31 1
▁refonn 1
▁america 1
▁boper 1
▁chatouiller 1
▁primis 1
▁comed 1
▁doudpiti 1
▁garaz 1
▁resarze 1
ury 1
▁familyplanning 1
▁cann 1
▁why 1
▁depies 1
▁choos 1
▁regrouping 1
o 1
▁clo 1
▁fles 1
▁serse 1
▁navigasion 1
▁dub 1
▁dantrwa 1
▁transporte 1
▁evangile 1
▁unlucky 1
▁resolving 1
uelle 1
▁lelefan 1
▁bwar 1
▁folk 1
▁antrav 1
▁inkonple 1
▁oneway 1
▁nanye 1
▁remor 1
unis 1
▁demisione 1
▁slight 1
ucitate 1
▁gour 1
▁hemor 1
▁tamp 1
▁barmenn 1
ifiable 1
▁grin 1
▁monol 1
atter 1
▁absor 1
▁propel 1
▁defined 1
▁indifference 1
▁alphonse 1
▁karots 1
▁archive 1
▁girland 1
▁carajos 1
▁acoust 1
▁bicycle 1
▁commented 1
▁psychiatrique 1
▁clandestine 1
▁filt 1
▁gramsci 1
▁perm 1
arkal 1
saida 1
▁stool 1
▁17 1
▁ense 1
▁ubye 1
▁ideolozikla 1
▁wheat 1
▁deboulkik 1
▁amputation 1
▁agroindustrial 1
▁pratiques 1
▁katepeng 1
▁61 1
▁donkey 1
▁turism 1
▁asks 1
▁realisation 1
▁abon 1
▁separ 1
rup 1
▁walkout 1
▁yard 1
▁boyfriend 1
▁patois 1
▁anciennete 1
▁crit 1
▁swiside 1
▁filozo 1
▁waiting 1
▁wis 1
▁guvern 1
▁lozikla 1
▁conduc 1
▁byin 1
rasyon 1
▁persec 1
▁britain 1
▁costs 1
▁manoeuvre 1
wazo 1
ation 1
▁sevraz 1
▁pasture 1
▁faut 1
▁soupire 1
▁boulanz 1
▁reprodir 1
▁ostralien 1
orcerer 1
▁broder 1
wenn 1
▁timid 1
▁melon 1
her 1
▁voyant 1
orez 1
▁condamne 1
▁zouzout 1
▁khadi 1
▁04h00 1
▁dezang 1
izer 1
▁chan 1
▁refuser 1
ested 1
rezvous 1
ologues 1
▁flew 1
wnser 1
▁monopolise 1
▁madiedo 1
▁panike 1
▁satisfe 1
▁masinasion 1
▁tarpolinn 1
▁trahir 1
▁lot 1
▁kun 1
▁renewable 1
▁nordis 1
onbe 1
▁suivirent 1
▁deleryom 1
▁gravite 1
▁lamas 1
▁beige 1
uge 1
▁deplore 1
▁2004 1
▁altogether 1
▁plait 1
▁tonnerre 1
▁nepotism 1
▁robbed 1
▁contra 1
▁repay 1
▁brush 1
▁tornado 1
▁reorgan 1
▁kaskamay 1
▁sample 1
▁fonctionnelle 1
outard 1
▁modalite 1
▁guarding 1
▁botswana 1
▁soudi 1
▁zouk 1
▁parfe 1
iquement 1
▁effervescence 1
▁constipation 1
▁reduction 1
▁iinn 1
gn 1
erst 1
oskop 1
▁optim 1
▁bwater 1
▁kotomay 1
▁chrom 1
▁douces 1
mother 1
▁prizon 1
▁polye 1
▁reglemante 1
▁address 1
▁lalitier 1
▁pouv 1
▁nuire 1
▁phys 1
▁glace 1
▁vitamines 1
▁cupboard 1
▁reinir 1
▁spice 1
edes 1
▁omwin 1
▁beldez 1
▁critic 1
▁kourbani 1
▁continuellement 1
▁emosionie 1
▁linguistic 1
▁lalians 1
▁deportation 1
▁ye 1
▁goose 1
▁ruin 1
iliz 1
▁materiaux 1
▁carre 1
▁jard 1
▁baka 1
keter 1
ozitif 1
▁inperatif 1
aso 1
▁puber 1
▁derezonab 1
▁rerak 1
▁ferple 1
▁filakter 1
▁relieved 1
▁gwf 1
▁loraz 1
▁pensez 1
▁explained 1
▁demision 1
▁tasty 1
▁notion 1
▁sezar 1
▁reflection 1
enced 1
▁exams 1
amaran 1
▁ezite 1
▁sivala 1
▁inpilsif 1
▁walkover 1
▁emoglobinn 1
▁constip 1
avouer 1
▁lavans 1
elva 1
iful 1
▁level 1
▁oreilles 1
▁rime 1
▁ecriture 1
▁titburzwazi 1
kenn 1
▁700 1
▁processes 1
▁mim 1
▁demar 1
▁tender 1
▁parodi 1
▁filozofik 1
anste 1
▁extravagant 1
▁otour 1
▁loue 1
▁areas 1
▁paradiziak 1
▁asoupi 1
▁pirate 1
▁gratitude 1
▁tumbledown 1
▁errone 1
▁interloc 1
osion 1
▁manage 1
▁musique 1
▁rela 1
▁pias 1
▁lung 1
ow 1
▁afrikin 1
▁scared 1
▁silabus 1
▁sigaret 1
▁diber 1
onp 1
▁ceb 1
▁retard 1
▁simit 1
▁biscuits 1
▁deziemla 1
▁sisp 1
▁guest 1
▁devi 1
▁endistriyel 1
▁reticence 1
▁avoy 1
▁falling 1
▁lait 1
▁trans 1
▁laroze 1
▁vulture 1
▁tousa 1
yante 1
onesans 1
▁antre 1
▁train 1
▁transform 1
▁zenezaret 1
co 1
▁rasial 1
iting 1
▁drage 1
▁slaves 1
▁spoilt 1
▁trwap 1
▁23 1
▁liberty 1
▁research 1
▁kalitatif 1
ophoniste 1
▁tiplanter 1
▁today 1
▁panplemous 1
▁planned 1
▁lyin 1
vin 1
▁rames 1
▁inplemantasion 1
are 1
▁stalk 1
ayk 1
yman 1
▁kavo 1
▁tiner 1
▁achie 1
▁preferent 1
wiz 1
rehensible 1
leg 1
▁dredlok 1
▁tipti 1
▁vinrent 1
▁erediter 1
▁chisel 1
▁mazigador 1
▁blessings 1
▁zapone 1
▁bacon 1
▁ever 1
▁sust 1
▁vanze 1
▁trez 1
di 1
▁beat 1
▁apar 1
▁ethnique 1
▁censes 1
gow 1
ralite 1
▁kontat 1
▁reinkarne 1
▁akite 1
▁blaklisted 1
▁servising 1
▁rondin 1
▁diffuse 1
▁deposit 1
▁quitte 1
▁to 1
▁expat 1
plated 1
▁kangar 1
▁rityel 1
▁sirpri 1
▁sians 1
▁obstacle 1
▁kresenndo 1
▁docteurs 1
res 1
ulated 1
▁dinod 1
▁rass 1
rosi 1
▁barlizour 1
▁mammal 1
atively 1
▁chauvesouris 1
▁creatures 1
▁heals 1
▁stationn 1
▁goulument 1
▁sours 1
cue 1
▁fanor 1
▁ankestyon 1
▁raped 1
▁storm 1
▁badam 1
▁cous 1
▁zaviron 1
▁frekans 1
▁transfizion 1
▁orchestra 1
▁nonranboursab 1
okab 1
dote 1
hs 1
▁grosiro 1
▁oktagonal 1
▁gradwe 1
▁zorey 1
▁formally 1
▁miniskil 1
▁gives 1
ulent 1
▁irrigation 1
▁transgenic 1
▁portfey 1
coire 1
▁retire 1
▁reverse 1
aik 1
▁nwaz 1
▁bengali 1
▁boston 1
▁necessa 1
▁pocket 1
▁replace 1
▁morceau 1
▁hemisphere 1
cription 1
▁repase 1
▁reveal 1
▁peur 1
▁raff 1
▁profiter 1
▁lapay 1
apping 1
▁uncle 1
▁listened 1
▁ogmant 1
▁dekapsilater 1
▁eiduladha 1
▁rezistan 1
▁seewoos 1
illiste 1
▁varis 1
nag 1
▁ravis 1
▁shape 1
▁lamor 1
kde 1
▁gaspiyaz 1
elve 1
▁travof 1
etah 1
▁wrinkles 1
▁marokin 1
▁underestimate 1
fre 1
▁gabari 1
▁zasarlegim 1
▁cultiver 1
▁household 1
▁experienced 1
▁disad 1
▁letasiv 1
anie 1
▁karakteriz 1
▁pente 1
ici 1
▁superi 1
oum 1
▁madagas 1
▁forty 1
ateau 1
▁maker 1
▁riddles 1
▁avez 1
▁kran 1
▁representation 1
ol 1
▁arms 1
▁lama 1
▁dernie 1
▁bross 1
▁pliyan 1
our 1
▁akizision 1
▁rouleau 1
▁prosternes 1
▁academic 1
▁murgat 1
▁bruyante 1
▁pardonn 1
▁stran 1
phabet 1
▁compla 1
▁targeting 1
▁lepar 1
▁blancs 1
▁sixieme 1
▁incubateur 1
vraz 1
▁entierement 1
▁antet 1
▁artikil 1
▁ilim 1
aon 1
▁someones 1
round 1
▁putty 1
▁torti 1
▁disab 1
ikok 1
yanse 1
▁gondola 1
lwi 1
tons 1
▁adolescent 1
▁haird 1
▁casier 1
▁fourn 1
▁partie 1
▁doute 1
▁apez 1
▁sousaliment 1
▁bid 1
▁rekonpanse 1
ib 1
▁bombay 1
▁filaos 1
▁biennet 1
▁pomdamour 1
▁ares 1
▁mils 1
▁weary 1
edite 1
ystem 1
▁fest 1
▁performing 1
▁inkoni 1
▁absoud 1
▁lavantaz 1
▁bring 1
▁decrire 1
▁kangourou 1
▁drunkard 1
▁ty 1
▁dhabit 1
▁hygien 1
▁konvwate 1
aviers 1
▁refers 1
▁nobe 1
▁dise 1
▁fleurs 1
▁avaient 1
▁fotok 1
▁halffinished 1
▁linfl 1
aliser 1
▁ecran 1
irite 1
asser 1
▁gardkor 1
▁versant 1
▁omnip 1
▁fletan 1
▁corset 1
▁tikont 1
entiful 1
ified 1
▁intak 1
▁modest 1
▁vremem 1
▁vef 1
▁kopinn 1
ript 1
▁dynam 1
ifere 1
▁lorz 1
▁esansyel 1
zvous 1
▁hierogly 1
defer 1
▁andirsi 1
▁accompagner 1
▁inkontestab 1
hip 1
▁expelled 1
▁brizan 1
▁sugger 1
▁lodyans 1
heid 1
▁inspector 1
▁hara 1
▁relaxed 1
▁matthew 1
▁islamic 1
▁plafond 1
▁kornflor 1
▁lacking 1
▁guts 1
▁has 1
▁sokol 1
▁lautosuff 1
ees 1
▁tref 1
▁prodwi 1
▁accumulated 1
▁deforestation 1
pasion 1
▁dact 1
▁kazerne 1
▁obi 1
▁aura 1
▁abes 1
▁arriving 1
orsed 1
▁contraste 1
▁steriliser 1
▁rebor 1
▁administ 1
▁fondetin 1
▁sitiini 1
▁pois 1
▁reaz 1
▁inv 1
▁patant 1
▁anouye 1
▁demifinale 1
▁mertriye 1
wnlenn 1
▁dern 1
▁lab 1
▁colt 1
▁indispoze 1
▁several 1
▁effemine 1
▁apr 1
▁novice 1
▁disel 1
▁magouy 1
oori 1
▁zechariahs 1
▁un 1
ilif 1
▁arrives 1
▁anbet 1
ader 1
▁ovilasion 1
▁lind 1
▁ur 1
▁ream 1
ature 1
▁harmful 1
▁scribes 1
▁issued 1
▁damour 1
▁grize 1
▁primitive 1
▁dekote 1
▁piqu 1
▁triang 1
▁uswa 1
▁concentrate 1
▁awt 1
▁cave 1
▁blacksmith 1
▁afromorisien 1
▁schools 1
kler 1
▁nonsense 1
ouser 1
▁tort 1
▁gime 1
▁tool 1
▁skop 1
▁ingredients 1
▁las 1
▁plen 1
▁eclairs 1
apo 1
▁finest 1
ilie 1
▁belles 1
hru 1
▁lamarz 1
▁diabolic 1
▁sensitization 1
▁profit 1
iksion 1
▁orfel 1
▁migration 1
▁appele 1
▁chaussures 1
▁andomaze 1
ontest 1
▁bateau 1
▁tranquille 1
▁revey 1
▁prick 1
▁globil 1
▁aplikasyon 1
▁errrck 1
▁detachez 1
▁sesi 1
iphe 1
▁cocon 1
▁coinc 1
▁cheque 1
oryel 1
▁israel 1
▁enerve 1
▁dependent 1
▁marron 1
▁3	op 1
orises 1
▁handmade 1
otinn 1
▁lotaz 1
▁diversifikasyon 1
illed 1
▁delabre 1
▁artistic 1
▁rawat 1
wik 1
▁linndemiel 1
▁caut 1
▁grannrout 1
▁ankese 1
▁mixer 1
▁agas 1
▁liter 1
ocate 1
▁chonko 1
▁ilistrasion 1
▁heels 1
▁luggage 1
▁sok 1
rator 1
▁exces 1
▁inspecteur 1
▁stennding 1
▁grenade 1
▁excellent 1
▁apprent 1
▁sorts 1
▁recomm 1
▁slavery 1
▁repose 1
▁diskawnt 1
▁morne 1
▁deeds 1
icker 1
▁vijay 1
▁sonore 1
▁bottles 1
▁cheat 1
▁singa 1
▁desote 1
▁dizital 1
▁crescend 1
otation 1
▁astrobiology 1
▁pourrions 1
▁terebantinn 1
▁unwedge 1
enavan 1
▁penisilinn 1
▁teori 1
▁seconds 1
▁savire 1
▁west 1
▁defig 1
▁volcanique 1
▁deals 1
▁bureaucrats 1
▁complicite 1
rate 1
▁scre 1
▁infusi 1
▁zalouzi 1
▁clothing 1
ronom 1
▁discomfort 1
▁sosiab 1
ble 1
▁amort 1
▁parfum 1
▁ekze 1
▁somnifer 1
▁inpresaryo 1
▁reintegre 1
▁sid 1
▁mary 1
▁consommation 1
▁disguise 1
▁derriere 1
▁friksione 1
▁legim 1
▁sirk 1
▁sere 1
▁anniversary 1
▁sponnsorize 1
ining 1
dite 1
▁paternite 1
▁hatched 1
▁rut 1
▁alexander 1
▁obst 1
▁tropikal 1
▁glwar 1
ansie 1
▁byens 1
work 1
▁19th 1
▁tizanfan 1
▁id 1
▁trazedi 1
▁resanble 1
▁demiserk 1
▁binoculars 1
▁ceiling 1
▁avann 1
tu 1
▁maure 1
ez 1
orrow 1
▁flamb 1
▁tapet 1
▁poudre 1
▁sacc 1
▁exploited 1
▁akolit 1
apart 1
jet 1
▁venisonn 1
▁perforez 1
▁kontaminasion 1
▁soda 1
▁honnet 1
oralize 1
▁jup 1
▁inogirasion 1
▁anvog 1
▁affect 1
▁recitation 1
▁timetable 1
▁greedily 1
▁kapon 1
▁lelvaz 1
▁sentir 1
▁montrer 1
▁atenn 1
ocating 1
oko 1
▁konporte 1
▁razwar 1
▁fwit 1
▁sper 1
▁aiguille 1
▁dreams 1
▁closer 1
▁funera 1
▁cu 1
▁forsing 1
▁parafinn 1
▁partizan 1
▁mwayenaz 1
▁pattes 1
ireksion 1
gee 1
▁afon 1
▁zonndef 1
▁dopaz 1
▁showoff 1
▁petas 1
▁ade 1
arson 1
▁spite 1
septab 1
▁underclothes 1
▁konvwatiz 1
▁trene 1
▁libi 1
▁accueil 1
▁soson 1
▁der 1
▁stratezik 1
▁analiz 1
▁capernaum 1
▁dentre 1
▁sinpleman 1
▁edmi 1
▁tradision 1
▁tutolong 1
▁agro 1
▁obtain 1
▁puck 1
▁dividend 1
▁objet 1
▁way 1
ipere 1
▁deserted 1
▁lasinn 1
ivyer 1
cake 1
▁indezir 1
▁tiberkiloz 1
▁rabbit 1
▁stratag 1
▁makrel 1
▁painting 1
▁slice 1
▁banker 1
▁bun 1
▁vide 1
▁petartifis 1
▁sonorizasion 1
▁reception 1
▁trochet 1
▁then 1
▁decom 1
b 1
▁debt 1
▁discotheque 1
▁plancher 1
▁calv 1
▁malparl 1
▁mahen 1
▁siyantis 1
asis 1
ivalve 1
▁board 1
▁becom 1
▁soutirez 1
▁rhymes 1
raman 1
▁euro 1
▁trail 1
▁sarzfam 1
phire 1
▁diction 1
iss 1
angrav 1
▁affective 1
▁sodomiser 1
▁tabernak 1
my 1
▁reminerater 1
▁reexportation 1
▁kovil 1
prann 1
▁polinater 1
▁dragon 1
mof 1
▁fuit 1
▁agase 1
▁irration 1
▁komemorasion 1
▁expensive 1
siel 1
▁dribbler 1
▁nazareth 1
▁mann 1
uted 1
rik 1
ograf 1
▁regardez 1
▁premye 1
▁politik 1
▁taper 1
▁aprouval 1
▁nika 1
▁foie 1
▁ditch 1
▁krever 1
not 1
▁hypnotise 1
▁trikaz 1
▁applause 1
▁peyman 1
▁moutarde 1
▁arrangements 1
▁zir 1
▁wife 1
▁shutter 1
▁aneste 1
▁51 1
▁zero 1
dezord 1
ie 1
▁rok 1
▁passed 1
▁deperi 1
tire 1
answar 1
▁chiffon 1
▁arme 1
▁antie 1
▁shy 1
▁call 1
▁met 1
▁labor 1
▁lepreux 1
▁couleurs 1
▁beij 1
▁etions 1
▁carton 1
▁devir 1
▁melanch 1
▁berenger 1
isation 1
ician 1
▁bouyant 1
zaminn 1
yu 1
▁mariemadlenn 1
seline 1
▁masses 1
ography 1
▁aider 1
▁struck 1
▁guerir 1
▁presentation 1
▁batana 1
racks 1
ational 1
▁connait 1
▁kontinyeziska 1
▁abandonn 1
▁contag 1
▁deth 1
ament 1
▁batat 1
▁arra 1
▁fortifie 1
▁instruite 1
▁dilemma 1
▁periscope 1
▁fnn 1
▁kadnase 1
▁zweer 1
▁pass 1
▁execute 1
▁blak 1
▁swiy 1
izion 1
▁oxt 1
▁amerdan 1
ian 1
▁laitue 1
▁basket 1
▁cdrom 1
▁segre 1
▁aident 1
izot 1
▁sterilise 1
▁com 1
▁diabete 1
feser 1
leur 1
▁minisipal 1
▁riz 1
▁concre 1
▁omofonn 1
▁fier 1
▁adversaries 1
▁exibision 1
itaz 1
▁narciss 1
▁lanons 1
▁jer 1
riere 1
▁formenn 1
▁instriksyon 1
▁spesialization 1
aison 1
▁fanancier 1
▁dirtande 1
rin 1
▁bin 1
▁dum 1
▁farsi 1
▁corporations 1
▁assertion 1
▁siklism 1
▁barikade 1
▁enterese 1
▁vouzot 1
▁polit 1
▁treasurer 1
▁economiser 1
▁fracture 1
▁transpire 1
▁ju 1
▁belzeboul 1
▁degrade 1
tayt 1
▁control 1
▁vez 1
akte 1
▁konvenab 1
▁inadmisib 1
▁confirmation 1
▁dilebi 1
▁konkur 1
ianse 1
▁lugg 1
▁fortinn 1
▁vote 1
ively 1
▁tapaz 1
▁ortopedik 1
▁pirifikasion 1
▁sision 1
▁kem 1
▁auraient 1
elated 1
eson 1
lers 1
▁beelze 1
▁declared 1
▁saggraver 1
▁takt 1
▁sankt 1
▁kapris 1
▁kink 1
▁accolades 1
▁asterisk 1
▁glaciale 1
▁defaite 1
▁fim 1
▁labondans 1
▁pack 1
▁konekter 1
▁jou 1
ograph 1
▁toro 1
▁ese 1
▁reason 1
▁quart 1
▁nostalgic 1
▁detestable 1
▁dominan 1
▁imans 1
▁sifre 1
▁germany 1
▁parala 1
▁financing 1
plied 1
▁revini 1
▁konpansasion 1
▁rekolt 1
▁akouse 1
▁transactions 1
▁slit 1
▁3yem 1
▁villageois 1
▁anakor 1
▁sipozitwar 1
▁menacing 1
▁explan 1
▁chiffres 1
▁parmi 1
▁lapwint 1
able 1
▁murder 1
▁ware 1
▁plant 1
▁violans 1
▁speculate 1
▁palabrez 1
▁veterinaire 1
▁calls 1
▁rezis 1
▁systems 1
▁down 1
▁relizye 1
▁privately 1
▁clam 1
▁chapp 1
aklan 1
▁infirmite 1
▁childbearing 1
▁sagos 1
▁70 1
omm 1
▁hundreds 1
▁neatly 1
▁lotopsi 1
▁tortikoli 1
▁indemnite 1
▁mauv 1
▁commandments 1
▁caval 1
ly 1
▁batteur 1
▁pression 1
▁gradiel 1
▁enspeksion 1
▁aya 1
uc 1
▁autobi 1
if 1
▁ralantiser 1
amar 1
▁salt 1
▁ratise 1
▁lappendicite 1
▁unt 1
▁millier 1
▁nenport 1
hon 1
umn 1
erc 1
icable 1
▁rajesh 1
isyonn 1
ansman 1
atories 1
▁neocolonial 1
▁klerman 1
▁bulversmanla 1
▁propaz 1
▁mempa 1
▁devise 1
▁soulez 1
▁cd 1
rove 1
▁raid 1
▁konsilie 1
▁nefas 1
▁virzinite 1
▁prim 1
▁communities 1
▁dentisty 1
▁rhinoceros 1
▁holid 1
dspeaker 1
holder 1
▁partager 1
▁oldtime 1
reuse 1
▁communist 1
▁rezervwar 1
▁importantly 1
▁lhistoire 1
▁vacc 1
▁trayon 1
shaped 1
▁touse 1
▁procl 1
▁419 1
▁titulaire 1
▁russia 1
▁mazor 1
▁prepa 1
▁balle 1
▁tandem 1
▁librer 1
▁lakagnot 1
▁ankonstriksion 1
▁continuer 1
▁experts 1
▁resezir 1
▁teorikman 1
agn 1
dw 1
▁platter 1
▁diametralman 1
▁sardarinn 1
▁excursion 1
ines 1
▁toast 1
▁konferansie 1
▁cycl 1
▁jambes 1
▁wheels 1
▁bekinn 1
▁parfin 1
▁ironing 1
▁salami 1
▁piez 1
▁syn 1
▁xray 1
▁unim 1
▁centralization 1
▁tekn 1
▁tatonn 1
▁querelleur 1
▁cousin 1
▁akseptab 1
▁alav 1
▁potin 1
▁konverzans 1
▁breeders 1
▁konkerir 1
▁saga 1
ayans 1
▁least 1
▁tekt 1
▁brood 1
▁prodiksion 1
▁frankofoni 1
▁remou 1
▁taureau 1
▁high 1
▁philip 1
▁exkiz 1
▁nic 1
handed 1
▁shabituer 1
▁kronolozi 1
nel 1
iere 1
▁imports 1
dekol 1
▁farmasien 1
▁ethn 1
ilt 1
▁kanpman 1
▁baptises 1
aval 1
▁guer 1
▁sipliye 1
▁baba 1
▁promossion 1
▁insepar 1
▁patinroulet 1
▁kulfi 1
iture 1
▁cons 1
▁watching 1
▁tidy 1
▁exsitasion 1
▁selon 1
▁afidavit 1
▁egaliter 1
▁desela 1
▁erope 1
▁gofre 1
metez 1
▁avwar 1
▁zetwal 1
▁lall 1
▁jord 1
ondition 1
▁puddle 1
▁depliyan 1
▁fyer 1
▁exazer 1
▁kameram 1
▁demigro 1
▁fredericks 1
▁prevok 1
▁apost 1
▁retourner 1
▁trapeze 1
zant 1
▁aks 1
▁firent 1
▁amani 1
mat 1
▁seraient 1
▁epil 1
▁viris 1
▁is 1
▁distribisyon 1
▁tenis 1
▁fal 1
▁direkteman 1
▁zarm 1
▁mouroum 1
poste 1
▁lead 1
▁laenn 1
▁pilgrim 1
▁ascense 1
▁sicknurse 1
▁mainly 1
▁bake 1
▁omwen 1
▁bomb 1
▁sacrifice 1
▁kakatwa 1
dev 1
iling 1
▁reset 1
▁kinke 1
onsel 1
▁onbrel 1
▁size 1
▁musee 1
▁selectionnez 1
▁anfetli 1
▁interese 1
▁venaient 1
▁dear 1
▁starts 1
▁intervene 1
▁katri 1
▁overdoz 1
▁tarod 1
▁trankilman 1
▁institutional 1
▁enseignements 1
ips 1
▁farmers 1
▁urged 1
▁sikriyer 1
▁zardin 1
com 1
▁barbell 1
▁invisible 1
▁kalker 1
▁fed 1
▁bordmar 1
▁lapel 1
▁kapra 1
▁demotivation 1
col 1
▁inog 1
▁kominalis 1
▁federations 1
▁sarm 1
▁toujours 1
▁noticeboard 1
uster 1
▁zwen 1
▁overtook 1
▁inher 1
▁zozef 1
isor 1
▁koper 1
▁lareg 1
jouna 1
estion 1
▁mending 1
fabet 1
teman 1
▁provin 1
ison 1
▁blister 1
▁kriote 1
▁moutia 1
▁toulezour 1
▁nancy 1
▁lila 1
▁misunderstanding 1
thanded 1
▁zak 1
inat 1
▁urban 1
▁sikriye 1
▁portmone 1
▁zard 1
▁avantaze 1
▁exose 1
▁events 1
▁ajustement 1
▁vivise 1
▁subversive 1
▁bibiography 1
▁dun 1
ifikasyon 1
▁fonctionnaires 1
▁skoubidou 1
fil 1
▁lapomad 1
▁bloom 1
oly 1
zinite 1
▁basic 1
▁guinea 1
▁tremblement 1
▁pasadena 1
▁komie 1
▁serviteur 1
azaz 1
▁diskotek 1
phia 1
▁sauter 1
▁acute 1
▁usa 1
▁tan 1
▁luniversity 1
▁negosian 1
▁depravasion 1
▁shake 1
▁dekap 1
▁treatment 1
arsis 1
▁transition 1
▁telegram 1
▁regimes 1
▁predict 1
▁affected 1
rec 1
▁not 1
anti 1
▁mabc 1
▁metres 1
▁cattle 1
▁tonbe 1
▁nouveau 1
▁telling 1
▁trompette 1
▁plantaient 1
▁partition 1
itius 1
▁apriv 1
▁interm 1
▁foursetaz 1
▁teror 1
▁pastor 1
▁pla 1
▁ed 1
▁notebook 1
▁bourb 1
▁kolizion 1
meme 1
▁santie 1
▁vocal 1
▁mazizi 1
▁rasgoula 1
▁ghost 1
▁zairwa 1
▁tonbalis 1
▁daffaires 1
kouchou 1
▁reose 1
akers 1
met 1
▁doiseaux 1
▁drainage 1
▁olande 1
▁preach 1
▁ourdou 1
cellement 1
▁hun 1
▁jav 1
▁josian 1
▁reporter 1
meur 1
▁etranger 1
▁duo 1
00 1
▁vendeur 1
▁gyne 1
▁sieve 1
▁harpoon 1
▁fami 1
▁thrashing 1
▁orthopa 1
▁pwinsone 1
▁bokla 1
▁gonflab 1
▁boner 1
▁escalier 1
▁chut 1
▁ups 1
▁supire 1
ually 1
▁raison 1
▁linndem 1
▁zenn 1
▁malonete 1
▁mitik 1
▁announcement 1
▁kosonmaron 1
▁kolok 1
▁cash 1
kri 1
ompsyon 1
▁creating 1
▁acted 1
▁quils 1
	the 1
atia 1
▁desole 1
▁sapprocha 1
struction 1
▁oc 1
▁orchid 1
▁maladres 1
▁patates 1
▁grandissait 1
▁recited 1
▁cleaned 1
▁feod 1
▁conflict 1
outan 1
▁deklare 1
▁sibsid 1
rift 1
▁monolog 1
▁lapl 1
▁1997 1
orses 1
▁sifraz 1
▁lasistans 1
▁anrisi 1
ougl 1
▁ramayana 1
▁piss 1
▁plime 1
▁snatch 1
▁tame 1
tep 1
▁station 1
▁wait 1
▁frank 1
▁plafon 1
rosesion 1
▁lidee 1
▁serving 1
▁demeler 1
▁gardfou 1
▁healers 1
▁motifs 1
▁amen 1
underst 1
av 1
▁tumbler 1
▁isaiah 1
▁kwafez 1
▁brifkees 1
bel 1
▁j 1
illant 1
▁leko 1
fed 1
▁erbis 1
▁groyne 1
▁nesesite 1
▁labourzwazi 1
▁lidantite 1
▁souffert 1
▁tirpwin 1
▁readymade 1
etesvous 1
▁inosan 1
▁didnt 1
▁fosse 1
▁attrib 1
▁multimillionnaire 1
▁guesser 1
oigner 1
▁kiksoz 1
▁maladie 1
▁kwir 1
alsoutr 1
▁perpetrated 1
▁grenadinn 1
vex 1
▁zouti 1
▁hang 1
▁venn 1
▁pouli 1
▁secret 1
▁tanbav 1
▁rezireksion 1
▁extent 1
▁fave 1
▁melting 1
▁trakter 1
▁ba 1
▁tomatoes 1
▁signes 1
▁otoport 1
▁komkwa 1
ilege 1
▁mane 1
▁sintespri 1
▁deswit 1
▁ankadre 1
▁obsede 1
▁salmon 1
▁derek 1
▁korporel 1
▁lozistik 1
▁citronnelle 1
▁manset 1
▁lanpler 1
▁whitewash 1
▁decollage 1
▁formidab 1
▁amandes 1
▁narc 1
▁detektiv 1
▁anonim 1
asm 1
▁sarkastik 1
▁globalman 1
▁philanthrop 1
▁pets 1
▁opl 1
▁ps 1
mil 1
▁capitulation 1
▁merit 1
▁devlope 1
▁ezitan 1
omaniok 1
▁primitif 1
▁shaw 1
▁rois 1
▁repl 1
cl 1
▁evident 1
▁duty 1
▁choisi 1
▁bronch 1
▁watch 1
▁67 1
▁nean 1
▁oroskop 1
▁disinter 1
ctionn 1
ams 1
▁bord 1
▁latay 1
▁trotinet 1
▁informants 1
▁brito 1
▁amenn 1
▁announce 1
▁dishon 1
▁remaining 1
▁crew 1
mare 1
▁veyez 1
▁cultiv 1
▁negosye 1
▁lekrit 1
zz 1
zedi 1
▁latak 1
▁polites 1
▁tonight 1
gner 1
▁interrupted 1
▁rising 1
▁kourtie 1
▁concessions 1
▁zoliv 1
▁servit 1
▁ogm 1
▁katna 1
irmi 1
▁nepli 1
▁masater 1
▁emerge 1
▁ennem 1
▁lasosyasyon 1
▁imam 1
▁personalize 1
▁kontener 1
▁laviktwar 1
▁luckily 1
▁irreversible 1
▁lizye 1
▁pleg 1
ableman 1
▁batiments 1
issippi 1
▁sad 1
▁diversification 1
▁oriz 1
▁communique 1
▁ressour 1
rye 1
▁dir 1
▁rapies 1
▁antretan 1
▁lamnisti 1
▁dezoriantasion 1
ference 1
▁sideboard 1
▁risk 1
▁whole 1
▁compagn 1
▁tousan 1
man 1
▁prinsipalman 1
aym 1
▁subsidies 1
▁boiling 1
▁pers 1
▁maybourzwa 1
▁unoccup 1
▁desikote 1
▁greffier 1
ffement 1
▁studied 1
powder 1
▁interoz 1
▁paragraph 1
▁antirouy 1
▁vagman 1
▁gramat 1
▁mettez 1
▁boudwar 1
entanto 1
anson 1
▁illicit 1
▁grape 1
▁provocateur 1
▁imf 1
▁repertwar 1
▁deerpalsingh 1
▁distrer 1
▁transe 1
▁patins 1
▁degizman 1
▁nontaxab 1
▁replik 1
▁girl 1
▁practised 1
▁negoti 1
▁chalata 1
▁laval 1
▁korner 1
▁lare 1
▁stepne 1
▁routine 1
▁platinum 1
▁sonz 1
▁discre 1
ctionnaire 1
▁alcodis 1
ouvel 1
▁sauver 1
urs 1
▁kankrela 1
gnman 1
▁pes 1
▁jounnjouna 1
▁suffis 1
▁redir 1
▁echafaud 1
eries 1
▁leter 1
▁nonveg 1
▁lest 1
▁ateste 1
ued 1
esans 1
▁rum 1
▁victim 1
ialize 1
▁rasione 1
▁malagas 1
▁parsyel 1
▁quelquesuns 1
▁mora 1
▁precautionary 1
▁universites 1
▁explwater 1
amani 1
▁deplacer 1
▁lombre 1
▁ogres 1
▁skot 1
isin 1
▁aprovizionnman 1
onsnous 1
▁storytelling 1
▁fetefourni 1
▁prezidan 1
▁nau 1
▁reaf 1
▁helicoptere 1
▁eloquence 1
▁vint 1
zema 1
▁salo 1
▁archelaus 1
▁nationalist 1
indre 1
isement 1
▁karya 1
▁mize 1
endix 1
oking 1
▁sorsie 1
▁yout 1
▁breadfruit 1
▁neanmwin 1
▁andose 1
uvre 1
▁piser 1
▁devwal 1
▁cyclist 1
▁nwaye 1
▁rekont 1
▁than 1
▁quitter 1
▁ainsi 1
▁introduced 1
▁laddou 1
▁persiad 1
▁193 1
imezir 1
▁saponer 1
koz 1
▁poligonn 1
▁amare 1
▁laso 1
▁reminded 1
▁define 1
ators 1
▁genocide 1
▁illeg 1
▁imc 1
▁amenazman 1
gr 1
▁margoz 1
▁direkter 1
▁groupe 1
▁benitie 1
ortab 1
▁kamikaze 1
▁mauritians 1
▁aktialite 1
▁irres 1
▁goudrone 1
fit 1
▁humilier 1
▁kalifikasion 1
▁writ 1
▁lakey 1
▁poulia 1
▁gandia 1
▁roasted 1
▁accompan 1
▁ful 1
▁sha 1
▁ekonomikla 1
▁ge 1
▁dekor 1
▁andrwa 1
▁timber 1
▁quay 1
▁examples 1
▁lasies 1
▁domineering 1
▁morisien 1
▁aliments 1
▁demonstrations 1
field 1
▁brezil 1
▁dommage 1
▁trafikan 1
▁erodiad 1
q 1
▁disc 1
▁lini 1
▁enthusi 1
isie 1
tico 1
▁toward 1
▁acety 1
embark 1
▁louvertir 1
▁navez 1
iatik 1
▁haiti 1
iryel 1
▁kognitif 1
▁evakie 1
▁parents 1
▁delay 1
▁sikatrize 1
▁vetements 1
▁sakou 1
▁frame 1
▁nuits 1
▁date 1
▁tileker 1
ouzi 1
▁labrez 1
▁ovan 1
striksion 1
▁kotidien 1
▁granlespri 1
▁toules 1
▁ternir 1
▁tekte 1
▁loz 1
▁imoun 1
▁eberzman 1
▁effeminate 1
▁aboli 1
▁trousseau 1
▁ars 1
▁fist 1
▁fekondasion 1
▁komander 1
▁inviting 1
▁faithfulness 1
▁enrichir 1
entir 1
▁depozit 1
▁aerod 1
▁meritants 1
▁siziem 1
▁kreatir 1
▁linstriksion 1
▁lobs 1
▁crowd 1
▁jefface 1
▁faktir 1
▁hop 1
▁antye 1
▁tikou 1
ft 1
▁shiva 1
▁exkreman 1
▁sosrouz 1
oqu 1
▁delir 1
▁african 1
▁souzestim 1
▁medikaman 1
yne 1
▁questions 1
▁divide 1
▁eskro 1
▁kolore 1
▁cur 1
▁nof 1
▁traitors 1
▁caught 1
rod 1
ca 1
▁akus 1
▁smaller 1
▁kosonnri 1
▁nicotine 1
inction 1
▁lasirenn 1
iure 1
▁soupson 1
▁indeed 1
▁upsurge 1
▁sew 1
▁pansion 1
▁announcer 1
▁gabardinn 1
atoner 1
▁lerla 1
▁reelman 1
▁linen 1
▁ambulant 1
▁your 1
▁present 1
▁cred 1
▁resurs 1
▁pitchfork 1
orisien 1
▁recruter 1
▁mdikal 1
▁sketbord 1
▁puisse 1
endic 1
▁plenntiplennti 1
▁moutay 1
andy 1
▁volatilize 1
▁arrested 1
▁grands 1
▁rakont 1
▁derape 1
▁bien 1
▁groboudouf 1
appe 1
▁activity 1
▁alfabetik 1
▁blocking 1
▁program 1
pot 1
▁rapt 1
iellement 1
▁lastoplas 1
alifie 1
▁corporation 1
▁inox 1
▁revenus 1
▁remembered 1
▁vitrinn 1
▁sinbolikman 1
	we 1
▁meritokrasi 1
▁fris 1
▁ally 1
acious 1
▁ouver 1
▁attaquant 1
▁longan 1
zing 1
▁reyni 1
▁setiem 1
▁sifizaman 1
mi 1
ae 1
▁ourle 1
▁samlo 1
▁promenezvous 1
▁imitasion 1
▁disaster 1
▁reviv 1
▁demandez 1
▁trombon 1
▁coquille 1
▁exasperation 1
ided 1
ouvert 1
▁peut 1
▁kash 1
▁ture 1
▁entrusted 1
itative 1
▁ruz 1
▁seasonings 1
▁camphre 1
▁patriotism 1
chon 1
▁peace 1
▁fasilite 1
▁nate 1
▁nasionalite 1
▁senfuir 1
▁formelman 1
▁raidir 1
▁print 1
▁innocence 1
▁portlasiet 1
▁feel 1
▁blinde 1
▁capitalists 1
▁pruve 1
imay 1
ulte 1
▁reproduction 1
▁vivants 1
▁antrepriz 1
▁grossiste 1
issante 1
dia 1
▁emigrant 1
▁etablir 1
▁myster 1
elizans 1
▁inpasian 1
▁kardamonn 1
lover 1
▁dezavant 1
▁acquisition 1
▁latest 1
▁sown 1
▁sober 1
▁bonzour 1
▁rencont 1
onomik 1
▁cyn 1
▁antretien 1
ultane 1
▁roderdeler 1
▁restes 1
▁priz 1
apres 1
icy 1
▁anbapl 1
▁stupidite 1
▁aterisaz 1
▁collaboration 1
▁efrwayab 1
▁ravaton 1
ester 1
▁potie 1
▁matthe 1
▁anec 1
▁asked 1
ctions 1
mone 1
▁coquillages 1
▁rapat 1
▁raisin 1
▁feros 1
etime 1
▁forecast 1
▁dentition 1
▁ansiklopedi 1
epte 1
trou 1
▁sus 1
▁sombre 1
ancelier 1
ront 1
▁pofler 1
▁anpile 1
▁faksion 1
aute 1
▁daisy 1
▁histoire 1
▁touye 1
▁smell 1
▁james 1
respect 1
dy 1
▁eiilm 1
▁piok 1
▁lakes 1
▁tule 1
▁sciences 1
▁anter 1
▁accurately 1
▁soustra 1
▁eminently 1
plete 1
▁mouline 1
▁sor 1
ni 1
▁fool 1
▁notik 1
▁tranble 1
▁revolutionary 1
▁ribbons 1
ise 1
▁doors 1
▁enmity 1
▁voient 1
▁obstak 1
▁kontretan 1
▁sev 1
iber 1
▁placard 1
▁schema 1
▁relaunch 1
▁traze 1
▁piso 1
▁korbizo 1
▁egal 1
▁azektif 1
▁ets 1
▁inplisit 1
▁km 1
▁koupet 1
▁vegetation 1
▁montan 1
▁glouglou 1
▁sir 1
ister 1
▁alkolik 1
▁tomboy 1
asab 1
▁suvan 1
▁atl 1
▁balenn 1
g 1
othe 1
▁fouti 1
▁hypnotize 1
unkenn 1
▁messie 1
▁sivism 1
▁nepale 1
gent 1
▁liant 1
▁schoolboy 1
▁parazit 1
▁broker 1
▁biggest 1
▁strik 1
regation 1
▁ruins 1
▁imambocus 1
▁turn 1
▁soit 1
▁dezir 1
omane 1
▁tropik 1
▁weaknesses 1
▁privilezie 1
olan 1
▁konversion 1
▁notaman 1
▁tilabutik 1
▁kaspiant 1
▁dri 1
▁superfic 1
▁loud 1
▁confetti 1
▁bonb 1
▁tourbiyon 1
▁supervisor 1
▁bakgra 1
▁passez 1
▁tont 1
▁pouvons 1
ouni 1
▁likely 1
▁radioaktif 1
▁kons 1
▁indiscipline 1
▁surpris 1
▁bonnes 1
▁texas 1
▁rompre 1
▁lefet 1
▁pull 1
▁lavwann 1
▁rakole 1
▁tamil 1
▁evanzelik 1
▁christophene 1
ypt 1
▁marsandiz 1
▁drol 1
▁vocab 1
▁pagri 1
▁leather 1
▁cac 1
▁mekanism 1
▁suspic 1
▁av 1
▁upst 1
▁anrole 1
ato 1
▁relev 1
▁ditor 1
▁mah 1
▁elis 1
▁tartinn 1
▁indizesion 1
▁sektoryel 1
▁wc 1
▁malbar 1
▁genon 1
▁efficiency 1
▁narye 1
▁blie 1
kwa 1
▁chicks 1
▁demok 1
▁frole 1
portans 1
▁miltipl 1
▁baseball 1
▁skelet 1
▁inkrwayab 1
iserinn 1
▁friz 1
vind 1
▁kotsa 1
dens 1
▁poro 1
▁renuvlab 1
▁deifie 1
▁virg 1
▁matematisien 1
▁console 1
▁france 1
▁siman 1
▁bobinn 1
▁pimp 1
▁retournez 1
▁sefdegar 1
▁pugdog 1
▁selri 1
▁1962 1
uer 1
▁malalez 1
▁gained 1
▁viss 1
bo 1
▁agriment 1
▁dushan 1
▁lamok 1
▁lakoler 1
▁lasir 1
▁jadmire 1
▁init 1
▁cieux 1
▁dechirer 1
▁tulsi 1
▁ekzer 1
oise 1
▁sar 1
▁sipa 1
igration 1
▁manipul 1
▁celuici 1
▁pater 1
▁buku 1
keeper 1
▁verbatim 1
▁imaz 1
▁secondly 1
▁makiye 1
ote 1
▁pwasonla 1
▁arsenal 1
▁kil 1
▁planset 1
▁anplwaditan 1
▁obscurity 1
▁aktiel 1
▁wr 1
▁entrerent 1
▁blasfemater 1
esyon 1
▁supporting 1
▁plonze 1
▁blue 1
▁cavi 1
▁tended 1
onim 1
uck 1
mane 1
▁monument 1
▁pispot 1
femme 1
▁otodestriksion 1
▁gastronomi 1
▁hamecon 1
▁korn 1
urt 1
▁masc 1
kte 1
▁foret 1
▁orni 1
▁telez 1
▁deboser 1
▁cardam 1
▁regile 1
ied 1
ifif 1
oye 1
▁verdir 1
▁nitrogliserinn 1
▁infirm 1
▁restaurant 1
toir 1
▁slide 1
▁incroy 1
adien 1
zektif 1
▁generous 1
▁rezete 1
▁attache 1
▁sanas 1
▁relizyon 1
▁ize 1
▁intelligence 1
▁simagri 1
▁lumieres 1
▁normally 1
▁annoy 1
▁sion 1
▁bakteri 1
▁sprinter 1
▁dormait 1
▁granbwa 1
▁envway 1
▁boulangerie 1
▁en 1
▁electronic 1
▁deserv 1
▁enemies 1
winn 1
▁indiennes 1
▁neighbourhood 1
▁sides 1
▁mint 1
▁tas 1
okom 1
▁filling 1
▁baladez 1
▁navig 1
▁alouda 1
▁ter 1
▁sangl 1
▁yogi 1
▁rows 1
oy 1
▁gum 1
▁sirkonsizyon 1
▁lizol 1
▁lasoudir 1
▁fediver 1
▁kenz 1
cte 1
▁wedge 1
▁tra 1
▁badine 1
omoz 1
▁asleep 1
▁polisvoler 1
yan 1
▁agricultural 1
▁frimeurs 1
▁spleen 1
▁bisep 1
▁inparsial 1
ipsion 1
omni 1
▁konstit 1
kote 1
▁mascar 1
▁appetite 1
▁frontiere 1
▁forest 1
vel 1
▁machinery 1
▁depozision 1
▁sodomi 1
▁handle 1
▁gens 1
▁plafone 1
▁purpose 1
▁fizib 1
▁prendre 1
▁doublir 1
▁nonchalant 1
▁denoun 1
▁caterpill 1
▁asestad 1
▁61yearold 1
▁forgot 1
▁rectum 1
▁obten 1
▁konverse 1
▁lenz 1
▁bourzwa 1
▁aeropor 1
▁horizontal 1
astik 1
▁dann 1
▁valeur 1
▁tata 1
▁platbann 1
▁covent 1
hade 1
▁mange 1
▁tronp 1
▁diable 1
▁jaune 1
▁fandi 1
▁mamzel 1
▁domest 1
▁crush 1
▁plume 1
▁bean 1
▁sexe 1
▁lagos 1
▁blouse 1
ouille 1
vwayan 1
adem 1
▁magist 1
▁chocolate 1
▁lunch 1
▁desten 1
ofonn 1
▁okazion 1
▁endorm 1
▁timer 1
▁tamanicoque 1
ulous 1
▁bladder 1
▁japon 1
▁fat 1
▁galoup 1
▁desbinn 1
▁unne 1
▁a 1
▁lener 1
laim 1
urti 1
▁engrais 1
▁vilger 1
▁nonviolans 1
▁colere 1
ball 1
▁pound 1
▁inkonparab 1
▁reanprizonnman 1
▁prive 1
▁taille 1
▁inpardonab 1
andal 1
▁enthousiaste 1
polis 1
▁paul 1
edan 1
▁crust 1
▁sibstans 1
▁deliv 1
▁constantly 1
▁fourchette 1
▁monopol 1
▁authent 1
▁insulting 1
▁paranoya 1
▁commune 1
ables 1
▁desam 1
▁fff 1
▁1985 1
▁dimansion 1
▁continye 1
▁wat 1
▁plantasion 1
▁gathers 1
grand 1
▁furnace 1
▁emmener 1
iseur 1
▁arzantinn 1
▁couler 1
▁swisider 1
▁allegement 1
▁btrit 1
▁insip 1
▁decoction 1
▁orph 1
▁defin 1
▁beti 1
▁antropolog 1
▁tails 1
bale 1
▁kligne 1
▁lapert 1
▁heur 1
▁brike 1
▁eventually 1
▁kom 1
cip 1
▁chagossians 1
▁parapli 1
▁dreadlocks 1
▁benevol 1
rug 1
▁extre 1
▁sortent 1
cience 1
▁eretik 1
▁dizwitiem 1
▁expansion 1
wnt 1
▁suit 1
wayn 1
▁issues 1
▁chopped 1
▁travayla 1
ump 1
▁satire 1
oose 1
▁vess 1
▁pr 1
▁maset 1
▁lezand 1
▁nostalzi 1
▁transkrir 1
▁schizoph 1
▁researchers 1
▁charlatan 1
▁conducted 1
▁jong 1
▁emer 1
▁ravaz 1
cee 1
▁sapit 1
ellization 1
▁galigali 1
▁quon 1
▁spar 1
ferm 1
▁impartial 1
▁governmental 1
▁pretann 1
▁laughing 1
▁rendu 1
▁accord 1
▁resist 1
▁simik 1
▁privasion 1
apane 1
▁membre 1
▁inper 1
ilye 1
▁punis 1
▁vamp 1
▁desortki 1
▁blennder 1
▁skore 1
▁sardinn 1
▁maye 1
▁mauriciens 1
▁reg 1
▁faux 1
▁simityer 1
▁sarreter 1
▁defie 1
▁north 1
iler 1
▁trois 1
▁foi 1
▁ora 1
▁90s 1
▁ekaliptis 1
▁kopin 1
▁associ 1
▁defeats 1
▁siperfli 1
alize 1
▁frisel 1
▁catar 1
▁pelouz 1
▁puttylike 1
aron 1
▁koupkouyon 1
▁cond 1
▁tiraye 1
▁05 1
▁andire 1
▁kabri 1
▁comm 1
▁chalenj 1
▁lamare 1
ilans 1
▁datt 1
▁te 1
▁sandales 1
▁rinte 1
▁pleboy 1
▁eveye 1
▁pegn 1
fire 1
▁chaussure 1
▁repudier 1
▁diminie 1
▁satis 1
▁silent 1
▁krevet 1
▁avait 1
▁offensive 1
lantique 1
▁nocif 1
▁fragmante 1
▁rearme 1
▁plenn 1
iken 1
▁recy 1
▁import 1
▁gardmal 1
▁oktagonn 1
▁rondel 1
mer 1
▁defav 1
zab 1
▁swiver 1
▁diluer 1
▁tradisionelman 1
▁provo 1
▁asir 1
▁hedges 1
▁handyman 1
▁nonviolent 1
▁alf 1
▁grasped 1
▁damie 1
onn 1
▁emphasis 1
anser 1
acelle 1
▁fene 1
▁rushed 1
inate 1
uie 1
▁aids 1
▁loperasion 1
▁sourds 1
▁foumalkan 1
▁purent 1
▁lorloz 1
▁fatig 1
▁ecological 1
▁prophet 1
▁lel 1
▁egeye 1
▁inportans 1
▁hos 1
▁boultang 1
oret 1
hettis 1
▁drip 1
▁related 1
▁bright 1
power 1
▁avis 1
▁ekarte 1
▁salaman 1
sesion 1
gmenn 1
▁captures 1
aming 1
ws 1
▁pawpaw 1
▁sindour 1
▁trade 1
lam 1
▁beds 1
ased 1
▁inapp 1
uvwar 1
▁aband 1
▁ainee 1
apman 1
▁eropeen 1
▁tu 1
▁gargou 1
▁gynaec 1
▁moulouktani 1
▁cassette 1
▁maybe 1
▁segregation 1
▁experimante 1
raient 1
▁redefinir 1
▁dansent 1
▁twalet 1
▁mi2013 1
▁reality 1
▁15 1
▁blouz 1
▁cocc 1
▁syez 1
▁oppress 1
▁lafaminn 1
▁controversies 1
▁satellite 1
▁neuron 1
▁shatter 1
▁fille 1
▁pict 1
ais 1
▁asasin 1
▁fritter 1
▁jetez 1
▁unfolds 1
esant 1
▁900 1
▁peyer 1
▁condition 1
▁bonit 1
▁ast 1
eur 1
▁plantes 1
▁district 1
▁travers 1
afrik 1
▁exc 1
▁tipl 1
onner 1
▁concept 1
▁produce 1
▁rantabilite 1
▁maime 1
▁wardres 1
▁eloignezvous 1
yonn 1
▁dezavwe 1
▁istorik 1
▁catastrophe 1
▁melodik 1
▁atiran 1
▁batatran 1
▁polone 1
▁unbel 1
▁diskur 1
▁sarrete 1
▁vep 1
▁schol 1
▁detasman 1
▁unimaginable 1
▁flas 1
▁voisin 1
▁atou 1
mn 1
▁guava 1
▁lenfer 1
▁eager 1
▁chances 1
▁lanpader 1
▁koursirkwi 1
▁metamorfoze 1
▁chaudiere 1
ashivrat 1
▁teknik 1
▁alla 1
nk 1
▁esanz 1
▁fraternize 1
▁conviction 1
▁dracon 1
▁profiteer 1
▁intensive 1
▁detrone 1
▁unoff 1
▁obeir 1
▁daway 1
▁bafwe 1
▁rhumatismes 1
▁foxwood 1
arke 1
▁lele 1
▁parliament 1
▁konsiantize 1
▁atlantik 1
chua 1
▁expla 1
▁delim 1
▁deserter 1
flor 1
▁brakonie 1
linn 1
▁homard 1
▁transforme 1
▁marzinalize 1
99 1
▁twazon 1
zon 1
▁lutm 1
▁prune 1
▁desese 1
▁comprendre 1
etone 1
▁lencens 1
▁etann 1
▁oryant 1
▁27 1
▁decoupe 1
▁mugs 1
▁wataz 1
▁evantiel 1
▁offertoire 1
▁beings 1
ucation 1
got 1
▁rafresisman 1
▁meti 1
▁vande 1
▁foodstuff 1
enth 1
▁tulezur 1
olding 1
▁kondision 1
▁debalansman 1
▁egosantrik 1
antes 1
▁cows 1
lace 1
▁mendier 1
▁sacrist 1
▁minit 1
▁sanboul 1
▁majoret 1
▁lanc 1
▁laine 1
gie 1
▁rebellions 1
▁major 1
▁spesialman 1
▁argued 1
▁renaissance 1
▁argue 1
▁afternoon 1
▁impending 1
▁produces 1
▁genoux 1
opotam 1
▁positif 1
orous 1
▁prekosion 1
▁linguists 1
▁fimye 1
▁constitutional 1
▁otis 1
▁gatokoko 1
▁tresorier 1
▁distenge 1
▁expre 1
▁este 1
▁rektoverso 1
▁comet 1
ata 1
rique 1
▁fragm 1
adrwat 1
▁numb 1
parey 1
▁mourn 1
▁remplissez 1
▁personifie 1
▁jolis 1
▁jubilate 1
▁sy 1
igonn 1
▁kolonizasyon 1
▁desinater 1
italist 1
ellent 1
▁sal 1
wa 1
▁doom 1
▁tamar 1
▁gerard 1
▁bo 1
▁latansyon 1
▁magazinn 1
▁mani 1
▁depos 1
▁klas 1
▁dispose 1
itures 1
ieme 1
istifie 1
▁ozan 1
▁welfare 1
▁nasional 1
▁correctly 1
▁skil 1
▁resoudre 1
umuler 1
▁inventor 1
▁dize 1
▁ik 1
▁lafo 1
▁idealement 1
▁absent 1
▁portabagaz 1
▁chag 1
▁poser 1
▁cert 1
▁croire 1
▁tipikman 1
▁tabiz 1
▁bienere 1
reciation 1
▁hyd 1
▁form 1
uee 1
▁realisateur 1
▁nyaz 1
▁contred 1
▁abordab 1
▁boast 1
▁poonoos 1
▁rasazie 1
▁akouple 1
▁osterite 1
▁regrete 1
▁akt 1
▁konsil 1
▁apprenticeship 1
▁fimie 1
▁volunte 1
▁tante 1
▁kans 1
▁verifie 1
▁retirer 1
ula 1
▁remod 1
▁tayming 1
ended 1
ordonn 1
▁usefulness 1
▁asfalt 1
▁pwent 1
▁prouve 1
▁envelope 1
▁fermet 1
▁ballet 1
▁parking 1
▁clipclop 1
▁bewitch 1
▁probabilite 1
▁collez 1
ition 1
▁intentionnellement 1
▁population 1
pent 1
▁nectar 1
▁matriar 1
▁salte 1
▁sipersonik 1
▁menase 1
nan 1
rimer 1
▁kaytalon 1
▁grocers 1
▁lwi 1
romp 1
▁gardbou 1
▁plavant 1
▁listre 1
▁rempl 1
ayaz 1
▁foulir 1
▁rikorder 1
▁perspect 1
▁imedia 1
▁revinn 1
▁pourrait 1
lamer 1
▁indianapolis 1
▁tiennent 1
itie 1
▁prezan 1
▁frappe 1
▁rankont 1
▁proof 1
▁strategies 1
▁laravinn 1
olozik 1
▁charas 1
▁birth 1
bot 1
▁sispans 1
uncture 1
▁lantreprizla 1
▁indisipline 1
▁milaz 1
▁tid 1
ade 1
▁enthousi 1
▁death 1
▁pannchang 1
▁distribision 1
▁queen 1
▁scrap 1
▁attended 1
deau 1
▁banjo 1
▁faculty 1
▁blasph 1
▁tikol 1
▁tirent 1
dman 1
▁diksion 1
▁junction 1
▁rey 1
▁mid 1
▁gilti 1
▁lever 1
▁rays 1
istol 1
▁voit 1
▁instinct 1
▁larez 1
▁porridge 1
▁adapte 1
▁daff 1
▁hence 1
▁falez 1
▁fly 1
▁chou 1
32 1
▁again 1
▁stockage 1
fta 1
▁student 1
▁sont 1
▁anomali 1
zektivite 1
▁devine 1
▁hire 1
▁ranporte 1
▁cens 1
chers 1
jabi 1
▁faces 1
▁chouk 1
▁ashtray 1
▁randman 1
ilan 1
▁lexamen 1
now 1
▁sovsouri 1
▁reprim 1
ffet 1
▁lavan 1
▁melasse 1
▁sooklall 1
▁shaving 1
▁vignerons 1
▁kargezon 1
ikiler 1
▁soufrans 1
iennete 1
▁volume 1
▁fardo 1
▁lock 1
tograf 1
▁quota 1
▁lokasion 1
▁namibie 1
▁mefians 1
▁pra 1
▁ranv 1
▁flung 1
▁uncomfortable 1
▁dezesper 1
▁expertise 1
▁branches 1
▁portpinn 1
ey 1
▁announces 1
▁native 1
▁signifi 1
▁altar 1
▁stairs 1
itt 1
▁joue 1
▁nice 1
▁pedal 1
▁tiginn 1
▁tifi 1
brush 1
uits 1
ousi 1
▁skout 1
▁impression 1
▁realist 1
▁domination 1
▁paracetamol 1
▁realizasion 1
▁whips 1
▁mmm 1
ender 1
rti 1
▁saign 1
▁heartbeat 1
▁crescent 1
▁inpresion 1
▁voodoo 1
▁konfigirasyon 1
otasion 1
▁appren 1
▁afraid 1
▁pine 1
▁konteni 1
▁lezalant 1
▁prerogative 1
▁vend 1
okol 1
▁elegan 1
terieur 1
▁improved 1
▁1970 1
▁konsyan 1
▁korom 1
▁taperecorded 1
▁stomach 1
▁primary 1
arbon 1
intox 1
▁bazouka 1
▁quelconque 1
▁debout 1
atters 1
▁voted 1
isme 1
▁lobi 1
▁toul 1
▁avezvous 1
▁memory 1
ulman 1
▁lexception 1
▁friendship 1
▁krokodil 1
▁bes 1
▁come 1
angard 1
ig 1
▁anzinn 1
▁biblioteker 1
▁ladesant 1
rily 1
▁deraye 1
▁cath 1
▁chor 1
▁adorer 1
▁degrad 1
▁bleue 1
▁nonranbours 1
▁zinekolozi 1
▁foulsapat 1
▁hig 1
▁mermaid 1
▁vilnerab 1
▁pred 1
▁clerk 1
▁lefrer 1
▁millions 1
▁valv 1
▁smiling 1
▁diesel 1
▁ribbon 1
▁crane 1
▁debraye 1
▁trin 1
▁chant 1
▁airl 1
▁tranzision 1
▁bases 1
▁fondman 1
▁inaktivite 1
▁goulikann 1
▁urin 1
▁required 1
▁bissondoyal 1
▁rad 1
▁accusation 1
▁deporte 1
vlop 1
▁ellememe 1
▁educational 1
▁marko 1
▁varyan 1
▁baissac 1
▁nasty 1
edience 1
▁milimet 1
▁kaz 1
▁dirige 1
▁emprunter 1
▁frigid 1
▁subversion 1
▁pantin 1
▁autocrat 1
▁bachara 1
▁anfilaz 1
▁konpayn 1
▁fighter 1
▁alfe 1
▁konpromi 1
▁pousse 1
▁mwin 1
▁domenn 1
endication 1
▁zwe 1
▁vid 1
▁conseil 1
▁imid 1
▁natasion 1
▁kadla 1
▁acrobat 1
blem 1
▁contras 1
▁imagine 1
▁equipe 1
▁celebrer 1
▁inpar 1
▁agresif 1
▁deranger 1
▁debrouiller 1
▁dentendre 1
▁rediksyon 1
aleon 1
orizasion 1
▁qualified 1
▁grow 1
▁prices 1
▁toffe 1
oviziel 1
▁beneath 1
▁deranz 1
▁riske 1
▁ponpe 1
▁merkre 1
▁get 1
▁hitt 1
▁anant 1
fant 1
antique 1
attack 1
agage 1
▁droppingtube 1
▁impot 1
▁besann 1
▁fritez 1
▁impediment 1
rezan 1
▁sofistikasion 1
▁revolisione 1
▁panneau 1
▁together 1
▁adhesive 1
▁verrez 1
▁toilettes 1
▁rekalkile 1
▁kolekte 1
▁anbete 1
▁rite 1
▁abominable 1
▁abazour 1
maire 1
ool 1
▁hungry 1
▁dialectic 1
▁jour 1
▁bez 1
sik 1
▁kado 1
▁marriages 1
▁dosie 1
▁agence 1
▁mitasion 1
emn 1
▁ule 1
▁frekan 1
▁zwazo 1
▁bot 1
▁gropat 1
▁kateri 1
▁masinn 1
▁azanda 1
▁stops 1
▁validasion 1
▁gmo 1
▁195 1
▁begonia 1
▁fortifian 1
▁circuit 1
▁silo 1
▁kreyonaz 1
▁radiografi 1
▁dies 1
▁eskont 1
▁thinking 1
▁liniment 1
▁boukane 1
▁criaient 1
ourner 1
▁undo 1
fere 1
▁misye 1
▁aerodrom 1
▁supple 1
enik 1
▁extravag 1
▁bagas 1
▁deprav 1
▁lotri 1
oeran 1
▁ziyet 1
▁delivered 1
kont 1
▁fwaye 1
▁clong 1
▁kotwaye 1
▁dizenn 1
▁grandfather 1
▁laserv 1
ocy 1
▁katover 1
▁couma 1
kilte 1
▁body 1
list 1
▁wigw 1
▁mauricienne 1
▁af 1
▁lecart 1
tir 1
▁enterdi 1
i 1
het 1
alon 1
▁namaz 1
zzing 1
▁soutenir 1
▁sookdeo 1
▁laswa 1
▁bruler 1
▁katkar 1
▁marekaz 1
▁humour 1
▁kafeole 1
▁neg 1
itted 1
▁lacord 1
▁rekri 1
▁remuneration 1
▁strip 1
shop 1
▁chops 1
▁aboyer 1
▁whether 1
▁suppos 1
▁buttock 1
▁vokasion 1
▁antiryom 1
▁totalite 1
▁mous 1
▁section 1
▁egypt 1
▁limem 1
▁suicide 1
faite 1
▁devan 1
rann 1
▁restoran 1
▁kontpresyon 1
▁patwa 1
▁magadan 1
▁avantier 1
▁growth 1
▁wal 1
▁men 1
▁stab 1
▁priestly 1
▁degypte 1
blance 1
▁influenza 1
wich 1
▁prends 1
▁september 1
ledges 1
presyon 1
oteur 1
▁pharma 1
▁rentres 1
▁verifiez 1
▁enigmatik 1
▁ecorce 1
▁tout 1
▁zed 1
▁oule 1
ians 1
▁professional 1
▁linking 1
▁biodivers 1
▁mizilmann 1
▁jude 1
icence 1
inz 1
▁karton 1
▁principal 1
▁manipilasion 1
▁pwazon 1
▁rekey 1
ilage 1
isode 1
▁resif 1
▁complex 1
istoire 1
▁angorze 1
rasher 1
▁niaze 1
▁rank 1
▁departaze 1
antik 1
▁network 1
▁lamizer 1
▁reabilitasion 1
▁disapproval 1
▁eviter 1
▁coussin 1
10 1
▁menwiz 1
sam 1
▁cherpers 1
▁effects 1
▁humiliation 1
▁drum 1
lophone 1
aton 1
▁kawnselia 1
▁ass 1
▁tempo 1
▁inj 1
▁2er 1
▁larestan 1
konflex 1
▁rendirent 1
▁lapas 1
▁alonz 1
▁segatie 1
inatal 1
its 1
kon 1
▁image 1
▁gaspiye 1
▁moll 1
▁success 1
ine 1
▁sun 1
▁toule 1
▁champ 1
▁piege 1
atif 1
atay 1
▁veget 1
▁rudder 1
▁bewit 1
azon 1
▁okilt 1
anto 1
▁piscine 1
▁reel 1
▁lesperans 1
▁avoye 1
▁junior 1
▁twitter 1
▁stiker 1
▁dragged 1
▁indistriyel 1
▁exizan 1
▁tronpet 1
▁noel 1
▁sovaz 1
seau 1
▁explanation 1
▁juices 1
▁pompeii 1
▁305 1
▁murm 1
esp 1
igrad 1
▁desoles 1
▁histor 1
▁radotez 1
▁sekirite 1
▁posible 1
anal 1
▁langdebe 1
kolt 1
▁hens 1
▁damberi 1
krou 1
▁partic 1
guer 1
idel 1
▁flaunt 1
▁exod 1
▁abandonnez 1
▁mouton 1
pital 1
▁alternativ 1
▁fict 1
▁interdit 1
▁discourage 1
▁dosil 1
▁retablir 1
▁ners 1
▁tusel 1
▁protezs 1
▁freder 1
self 1
ppled 1
▁branse 1
▁frisone 1
▁longtemps 1
▁cumin 1
ities 1
▁agrik 1
▁worrying 1
▁listens 1
▁tafta 1
▁wash 1
▁ferment 1
▁lapos 1
▁blew 1
lene 1
▁canape 1
▁roadmap 1
▁fisherman 1
▁amphib 1
▁bravely 1
▁kreolizasion 1
▁interested 1
▁calamity 1
▁roughly 1
▁pronom 1
ivation 1
▁tins 1
▁amant 1
▁plas 1
▁remains 1
▁idrozenn 1
▁koripsion 1
▁korser 1
yx 1
▁korazin 1
▁voisins 1
▁releve 1
▁aaron 1
▁mart 1
▁pantoufles 1
▁resettlement 1
▁isnt 1
erv 1
outr 1
▁lafoul 1
▁inprobab 1
▁teste 1
▁grows 1
▁appl 1
▁leker 1
▁inanime 1
▁fourir 1
ith 1
ansib 1
▁lavanpwint 1
▁arguing 1
▁poll 1
▁creol 1
▁adriana 1
▁stirred 1
▁kotizasion 1
▁happens 1
▁3000 1
▁prevwar 1
▁sortir 1
▁derac 1
▁semizie 1
▁peintre 1
cter 1
▁dezorganizasion 1
▁katimini 1
▁staz 1
▁lekiri 1
▁komod 1
▁herbe 1
▁facts 1
▁erminet 1
▁deferle 1
▁espionaz 1
▁indikasion 1
▁obeissez 1
ve 1
▁tons 1
▁ilistre 1
▁condense 1
▁boulone 1
▁omozene 1
▁sispe 1
esmen 1
▁labe 1
▁epe 1
▁levier 1
▁mou 1
gust 1
▁quelque 1
▁1961 1
▁levin 1
▁hommage 1
▁laughter 1
▁preacher 1
▁karom 1
▁repite 1
▁pearls 1
▁pasionan 1
▁jirai 1
▁antider 1
▁examiner 1
▁commemoration 1
cress 1
▁bourzon 1
▁abacus 1
▁braces 1
▁materyel 1
▁insin 1
▁tifan 1
▁subsid 1
▁parfaite 1
▁rec 1
▁dekwinse 1
map 1
▁austere 1
▁danplwa 1
▁otosif 1
▁jeuner 1
▁anbetan 1
▁baw 1
perable 1
▁obligatwar 1
▁zeolozi 1
▁adv 1
▁afron 1
▁clairiere 1
▁narinn 1
▁mway 1
▁kominikasion 1
▁dixsept 1
▁korbo 1
▁diskour 1
onko 1
▁ankastre 1
▁lobscurite 1
▁payason 1
▁fid 1
▁jeanb 1
▁doti 1
▁rall 1
▁dilapide 1
▁vinegret 1
▁rab 1
▁lisansye 1
ession 1
▁chaff 1
▁ansibemol 1
▁konsomater 1
▁dezole 1
▁denied 1
▁dictionnaire 1
▁artifisiel 1
▁lanbasad 1
anpler 1
▁inhuman 1
▁sospikant 1
▁aklame 1
▁gen 1
▁kestione 1
pery 1
▁obeyed 1
▁pok 1
▁amib 1
▁words 1
▁mant 1
▁ham 1
▁lakdenesans 1
▁ressuscite 1
▁crimplene 1
▁dreaming 1
▁serpan 1
▁malezi 1
▁jilebi 1
▁shes 1
▁klike 1
▁pouritir 1
▁poorer 1
▁libellule 1
▁dancer 1
▁specifically 1
▁grap 1
▁konklir 1
▁invites 1
▁ital 1
▁magical 1
▁utilisent 1
iaire 1
▁lamant 1
▁systemic 1
yad 1
▁canada 1
▁emeral 1
▁quatre 1
▁pilor 1
fey 1
▁nersing 1
ges 1
▁kromozom 1
▁ladiskord 1
▁fesses 1
tali 1
▁sabachthani 1
▁navait 1
▁nibil 1
▁industrialisation 1
▁disappeared 1
▁fancy 1
▁piedanlo 1
azman 1
illite 1
▁equipement 1
▁congratulate 1
▁rendit 1
▁konturn 1
▁tanto 1
▁emot 1
▁batt 1
▁bricklayer 1
▁btrital 1
▁dem 1
issement 1
▁atro 1
▁vinker 1
▁squander 1
▁soundtrack 1
▁squelette 1
▁mersi 1
▁finding 1
▁lagras 1
▁poulpe 1
▁santenn 1
▁kouz 1
▁avertis 1
▁oibs 1
▁sitadin 1
▁liye 1
ylophone 1
▁kreve 1
▁akademi 1
pilse 1
▁letazer 1
▁complaint 1
▁lokazion 1
▁frizid 1
▁amorse 1
▁barbara 1
▁photographs 1
▁bagi 1
▁memorable 1
▁analizla 1
▁irefitab 1
▁drunk 1
name 1
sing 1
▁madam 1
▁batelie 1
▁lekilib 1
ini 1
▁trowel 1
▁bourton 1
▁kawal 1
▁sterilisation 1
▁mystificator 1
▁devil 1
▁acceptable 1
▁larivyer 1
▁amnezi 1
▁suterin 1
▁recouvert 1
▁aditif 1
▁glann 1
▁delokalize 1
▁rekt 1
▁reass 1
devel 1
▁forkl 1
▁foular 1
▁huddle 1
▁staircase 1
atal 1
arbati 1
▁kupe 1
▁muslin 1
▁klasifikasion 1
▁kou 1
quets 1
▁impact 1
▁condam 1
▁barabbas 1
▁hats 1
▁flows 1
▁hundre 1
▁inkietan 1
▁laprem 1
▁vanguard 1
onserte 1
dekan 1
▁otomobil 1
▁ziman 1
▁teofil 1
▁number 1
▁gennesaret 1
▁amnisti 1
▁drunkenness 1
ush 1
▁kanbre 1
▁sinwaz 1
▁appellent 1
▁crepe 1
▁franch 1
biz 1
▁irige 1
▁ramifikasion 1
▁fourmis 1
▁granfrer 1
wayal 1
imanter 1
▁kontre 1
▁blanket 1
▁bouillir 1
▁frange 1
▁companies 1
▁maraton 1
▁meringue 1
▁carpenter 1
▁abilte 1
▁rude 1
▁plein 1
▁insign 1
ience 1
▁attempted 1
▁marty 1
▁civil 1
▁tradisyonel 1
▁lep 1
▁nur 1
ville 1
▁suleve 1
▁spinney 1
▁presup 1
▁nowhere 1
▁rozo 1
▁emmena 1
▁menu 1
▁lawyers 1
▁nothing 1
▁shelter 1
▁kapot 1
▁mediater 1
groom 1
▁chalennj 1
▁defence 1
lique 1
▁sadducees 1
▁misericordieux 1
▁pharisien 1
▁nus 1
▁lokazyon 1
▁dusman 1
yste 1
uier 1
▁magnetik 1
▁sekter 1
▁planted 1
and 1
▁koumans 1
▁poiss 1
▁kokon 1
▁arg 1
▁gymn 1
▁diversifie 1
gnance 1
▁aprobasion 1
▁pinez 1
▁lasante 1
▁sikreri 1
agonal 1
▁1846 1
▁disabmoule 1
▁vain 1
▁morsele 1
▁potis 1
ivite 1
▁koni 1
▁removal 1
▁constata 1
▁repousse 1
▁grill 1
▁twice 1
▁extract 1
▁gropwa 1
▁cils 1
▁konpak 1
▁karte 1
▁policier 1
▁galan 1
▁tektonik 1
▁fliktiasion 1
▁amph 1
zan 1
▁strings 1
▁kapa 1
▁resc 1
▁kananeenn 1
▁asterla 1
▁greedy 1
apana 1
▁kaka 1
▁forbid 1
▁pup 1
▁ivrogne 1
▁zul 1
▁agresion 1
▁bekdeliev 1
▁delight 1
▁peach 1
oksion 1
▁pornograph 1
▁radyo 1
▁lesaf 1
▁exaltasion 1
▁recommend 1
▁cele 1
▁prezerv 1
▁instriksion 1
▁diezel 1
▁asoupli 1
▁lakup 1
▁damee 1
etyn 1
▁quantity 1
▁our 1
▁described 1
▁nov 1
▁konveni 1
▁elbo 1
▁larya 1
indaba 1
▁koumsikoumsa 1
▁sipervizion 1
▁uni 1
▁talker 1
asy 1
▁gasp 1
▁toxic 1
▁sternly 1
igi 1
▁kreolite 1
▁dekouler 1
fan 1
konn 1
▁kalimay 1
▁kontest 1
▁labay 1
▁fatalism 1
▁anviron 1
▁goulam 1
▁titbur 1
anne 1
▁devet 1
▁rali 1
▁rolling 1
raham 1
▁decolonization 1
▁norm 1
▁allies 1
▁expense 1
xenet 1
ounou 1
▁kasrol 1
▁bigoul 1
▁sinkronize 1
▁contre 1
▁besamel 1
▁sakenn 1
▁zanblon 1
mard 1
▁heavily 1
▁fight 1
▁lign 1
▁koucha 1
▁metaphor 1
▁lieutenant 1
yau 1
▁somn 1
▁yards 1
▁swadizan 1
▁compulsorily 1
▁wrest 1
▁herbal 1
▁kangaroo 1
▁sils 1
▁laronn 1
▁alive 1
▁lavwar 1
▁plastez 1
▁gargoulet 1
▁akseler 1
▁vieil 1
▁mistrust 1
▁devwar 1
▁parc 1
▁enspekter 1
▁fishbone 1
▁germer 1
▁readjust 1
▁zwanion 1
▁sacri 1
▁neighborhood 1
▁sardar 1
▁konsistan 1
▁mazavarou 1
▁antis 1
▁artizan 1
▁1000 1
▁exercice 1
▁cimetiere 1
adi 1
arana 1
▁feroce 1
▁nature 1
▁pardonnes 1
▁membership 1
▁selvon 1
annla 1
savon 1
▁mocha 1
▁tamam 1
▁kontiniasion 1
▁movement 1
▁virus 1
▁fifi 1
▁masinis 1
▁enpe 1
▁anime 1
▁sity 1
▁thought 1
▁mizisyen 1
▁perdision 1
yater 1
▁treachery 1
abble 1
▁melange 1
▁lanbalaz 1
▁jeu 1
▁intoxication 1
▁grouping 1
▁asiste 1
dos 1
▁ang 1
▁artisla 1
▁kaptile 1
▁sern 1
▁lorea 1
▁sp 1
▁lite 1
▁imazine 1
▁chapitre 1
uant 1
▁distinksyon 1
▁bofis 1
▁applicable 1
▁synd 1
▁obey 1
▁amnesty 1
▁avyon 1
▁couvrezvous 1
▁chinese 1
▁liniman 1
ouler 1
▁dalon 1
▁athlet 1
▁prevenir 1
▁abaim 1
▁ron 1
▁mini 1
▁lived 1
▁dekonprese 1
▁istwar 1
▁check 1
▁aligne 1
▁eng 1
▁cholo 1
▁tatwaz 1
▁football 1
▁komedi 1
▁agreab 1
▁supplier 1
▁parachute 1
▁supposedly 1
▁realignman 1
▁linvers 1
▁fermtirekler 1
▁wall 1
▁graffiti 1
▁anefe 1
arly 1
▁obz 1
▁desordre 1
▁aziste 1
▁showoffs 1
▁inimaginable 1
▁ecoutent 1
▁inhab 1
▁karang 1
▁benefit 1
▁intans 1
▁commem 1
▁learn 1
▁product 1
▁mazisien 1
▁proposes 1
▁joss 1
▁danaliz 1
▁venerasion 1
▁debit 1
▁fagote 1
▁dekouraze 1
▁holding 1
▁ches 1
▁lekler 1
ies 1
▁adopt 1
▁yang 1
▁virgin 1
▁deklase 1
▁dor 1
▁santi 1
▁sassoit 1
▁topet 1
▁kask 1
▁ignore 1
▁pose 1
▁agitation 1
▁lancet 1
▁amaz 1
▁souffle 1
▁longterm 1
▁fonsye 1
▁treasure 1
▁recif 1
▁marb 1
▁massage 1
imelo 1
▁zamaik 1
▁brouyaz 1
laz 1
▁side 1
▁formel 1
oyavdes 1
▁plaisance 1
▁gratsiel 1
▁mobilized 1
▁regular 1
▁fivebar 1
▁counterattack 1
▁reprose 1
▁differently 1
iate 1
▁factor 1
▁fraz 1
▁promilge 1
asman 1
▁sertenn 1
▁mas 1
▁extremely 1
ity 1
▁labet 1
▁raye 1
▁fasone 1
▁olye 1
▁nofraz 1
▁dekouvert 1
▁paleboulfer 1
▁terifie 1
▁mare 1
▁lemer 1
▁problematik 1
▁preskrir 1
▁experiment 1
▁difame 1
▁abandonner 1
▁kontrint 1
▁trespase 1
▁geri 1
▁kills 1
▁anc 1
▁fizitif 1
▁utensil 1
▁apetisan 1
▁prolonz 1
▁atra 1
▁boutir 1
▁aprofondi 1
▁da 1
▁abord 1
▁surm 1
▁dispens 1
▁azilite 1
▁neuros 1
geoisie 1
▁rezinbe 1
▁moutard 1
▁helping 1
▁poured 1
▁confond 1
▁anvlop 1
▁gard 1
▁antouka 1
▁daffichage 1
▁context 1
▁anvoute 1
▁izrel 1
▁abolir 1
▁game 1
asinn 1
▁babwin 1
▁lavwa 1
▁capital 1
▁palet 1
▁inn 1
ped 1
▁linprim 1
▁videot 1
▁arkeolozi 1
▁irritable 1
cule 1
▁coughs 1
▁ennmi 1
▁characterize 1
▁neuv 1
▁triste 1
▁kuver 1
▁wipe 1
▁enregist 1
▁ebene 1
▁ansorse 1
plem 1
frenn 1
▁1965 1
▁pneum 1
▁peple 1
apos 1
▁receives 1
mes 1
▁passing 1
▁pars 1
▁lucky 1
▁profonde 1
omode 1
▁mekontan 1
▁ra 1
▁dus 1
▁penetre 1
▁kanadien 1
▁seasonal 1
ustom 1
▁interests 1
icides 1
▁istorikla 1
▁temwagnaz 1
aisseur 1
▁defigiran 1
▁chappal 1
▁venue 1
ordone 1
▁babi 1
▁christ 1
arl 1
ples 1
▁transm 1
▁conse 1
▁hool 1
▁korengi 1
▁daccord 1
▁3rd 1
▁increasingly 1
▁provide 1
▁galoupe 1
nivo 1
▁vadire 1
▁konzigal 1
▁purvi 1
▁partiela 1
▁ekzek 1
▁civic 1
▁slop 1
ondoyal 1
▁fera 1
▁austerity 1
▁accomplished 1
▁mam 1
▁striktire 1
▁magic 1
▁choup 1
▁satan 1
▁nev 1
▁poussent 1
▁forcibly 1
▁dangers 1
▁sim 1
▁sibvansione 1
▁sleeper 1
▁limport 1
▁lagres 1
▁degrate 1
▁windfalls 1
▁drugs 1
▁artery 1
▁sizo 1
▁konstipe 1
▁gabardine 1
▁lamars 1
▁konntrak 1
annk 1
▁travelled 1
▁fistre 1
▁kapiler 1
▁unicity 1
▁linformasyon 1
ossion 1
▁gil 1
▁hud 1
▁ekipe 1
ografi 1
▁nostalg 1
▁narration 1
▁osor 1
▁tradisyon 1
izont 1
▁kuyonn 1
▁passe 1
▁snakes 1
▁internal 1
▁fifty 1
▁hearts 1
▁fraksione 1
▁deskripsion 1
▁kalkilater 1
▁notoryete 1
▁mom 1
ushing 1
▁autonomie 1
▁krwayan 1
▁homosex 1
▁zamzam 1
▁konsilt 1
▁penetration 1
▁visie 1
▁itinerary 1
▁swaleh 1
▁entree 1
▁traitera 1
▁sanndokann 1
▁nonal 1
ppe 1
▁spices 1
▁agripe 1
▁gabard 1
▁isol 1
▁violation 1
▁retann 1
vable 1
etrees 1
▁pwido 1
▁zeneral 1
▁desertification 1
▁serman 1
ours 1
▁pesri 1
▁kaye 1
▁lanfaz 1
robat 1
▁irreg 1
▁voices 1
▁lexperyansla 1
▁orfelin 1
▁malefique 1
▁indis 1
▁pensait 1
teen 1
▁corne 1
▁moyenn 1
▁delinkans 1
▁secretary 1
▁detaillant 1
▁mulen 1
▁reverber 1
▁pilkington 1
ferans 1
▁apovrisman 1
▁conspir 1
▁amusement 1
▁kal 1
▁leaders 1
reed 1
tack 1
▁1987 1
▁dupl 1
▁diffamer 1
▁exaltation 1
▁paw 1
▁rags 1
▁lisien 1
▁wistiti 1
▁endanger 1
ym 1
▁released 1
▁payn 1
▁linportans 1
ciere 1
▁soutapi 1
▁sifann 1
adine 1
▁ningres 1
▁essayer 1
gle 1
▁want 1
▁tapis 1
▁okipan 1
▁khadija 1
▁salomon 1
▁fere 1
▁temwaniaz 1
ciously 1
▁persevwar 1
▁disipe 1
plating 1
▁quen 1
▁sefd 1
▁pedestrian 1
▁deraciner 1
▁gouvernail 1
▁siwre 1
▁pietons 1
▁grasshoppers 1
frer 1
▁repressive 1
▁modes 1
wisans 1
▁devriez 1
rolog 1
arsonn 1
▁franse 1
▁sells 1
▁sections 1
▁imilite 1
▁komb 1
day 1
▁hell 1
cite 1
issible 1
▁escapes 1
▁ouvre 1
▁privacy 1
▁disconc 1
▁monsla 1
front 1
▁puff 1
▁reward 1
▁avan 1
uile 1
▁definit 1
▁birokrasi 1
▁parad 1
▁pilat 1
▁mesurer 1
▁pinisyon 1
▁kudme 1
▁sierz 1
icor 1
▁ase 1
▁sourisier 1
▁teleskop 1
▁nazi 1
pals 1
bine 1
▁harbour 1
▁ene 1
▁dizziness 1
▁enjambe 1
▁pitie 1
▁guipure 1
▁original 1
▁audiovis 1
▁enthusiastic 1
oseros 1
▁lorater 1
▁ve 1
▁mulligatawny 1
▁white 1
▁couper 1
klam 1
icelles 1
rie 1
▁nonbre 1
▁cleaning 1
▁yod 1
▁anvlope 1
▁apportera 1
▁ozonn 1
▁kne 1
▁dime 1
urant 1
▁jargon 1
▁exekit 1
▁drav 1
▁worker 1
▁lezer 1
▁konplike 1
▁unalter 1
▁toxikomani 1
▁apocalypse 1
selves 1
▁trair 1
vansion 1
▁anmentan 1
▁prila 1
▁sagg 1
▁fotograf 1
95 1
▁eto 1
▁spared 1
▁obscur 1
▁cure 1
▁retourne 1
▁inattentif 1
▁sewing 1
▁endure 1
jid 1
▁omisid 1
▁valerpars 1
▁anfaver 1
▁bait 1
▁verin 1
▁risponns 1
▁landmark 1
▁terorize 1
▁jip 1
▁frerla 1
▁grosierte 1
▁capacite 1
▁komans 1
▁ens 1
▁egg 1
▁behavi 1
▁deform 1
▁habitudes 1
▁terminis 1
▁raj 1
▁thoroughly 1
quet 1
▁parvatee 1
▁completely 1
▁audessus 1
▁zizman 1
▁rub 1
▁detonater 1
aille 1
▁shrou 1
▁dekagonn 1
▁attraper 1
▁deliver 1
ilter 1
dule 1
ploi 1
▁komersyal 1
▁pluie 1
▁damages 1
fon 1
▁omonim 1
▁laourets 1
▁greve 1
▁deboul 1
▁nettoyage 1
▁draf 1
▁piman 1
ikase 1
▁collision 1
▁conc 1
ieux 1
▁cliff 1
inalite 1
▁potatoes 1
▁takar 1
▁lamarye 1
▁droite 1
ksyone 1
▁disetiem 1
▁moust 1
▁suaire 1
neviem 1
▁eskarpin 1
▁pardonner 1
▁authors 1
▁bouleverse 1
▁repas 1
▁kamoufl 1
▁deroulman 1
▁recourse 1
▁koulout 1
▁sindespri 1
▁jeetah 1
free 1
▁battre 1
▁denn 1
▁sentry 1
▁animalism 1
▁korek 1
odest 1
▁accelerer 1
▁pwinmor 1
▁lampadaire 1
▁replante 1
▁epouser 1
▁brifing 1
▁voudra 1
▁kary 1
▁sifonn 1
▁metafor 1
▁disert 1
▁folding 1
▁frighten 1
▁papayer 1
▁word 1
▁stripe 1
▁spesyalman 1
▁rakoursi 1
▁old 1
▁sophistic 1
▁koregraf 1
▁jetes 1
▁insurance 1
anda 1
▁bonane 1
▁dilekaye 1
▁jetty 1
▁casserole 1
▁chemist 1
▁glasier 1
▁ridikilize 1
▁evennman 1
▁cas 1
▁abolision 1
▁lilla 1
▁saisir 1
izoph 1
▁deliberasion 1
▁sonor 1
▁lhopital 1
▁twis 1
▁breath 1
▁eliminn 1
ress 1
▁vicks 1
▁mmmmsmpmsd 1
rize 1
▁vibrater 1
yani 1
▁collectors 1
▁dressing 1
▁note 1
▁crying 1
▁2nd 1
▁konvenk 1
▁moralite 1
▁insatisf 1
▁spes 1
▁fondasion 1
▁25 1
ostop 1
▁hedge 1
aill 1
▁landing 1
▁skor 1
▁lexame 1
isyon 1
▁agrafe 1
▁vanzans 1
▁hat 1
ooth 1
▁stenn 1
▁fork 1
▁goniongonion 1
▁affluence 1
faiteur 1
▁sari 1
isite 1
▁aim 1
outla 1
▁chapkan 1
misib 1
▁krwar 1
▁kamoufle 1
▁pagn 1
▁akadem 1
▁bananier 1
▁regroup 1
▁kayambo 1
▁interviewe 1
▁lobskirite 1
▁zistwarla 1
▁eski 1
▁drove 1
idence 1
▁ligament 1
▁wickedness 1
▁naquit 1
▁boufonn 1
▁tonnage 1
▁approprie 1
▁exerc 1
▁hauteur 1
▁dacier 1
▁lamp 1
▁laper 1
▁productive 1
▁phob 1
▁creak 1
▁paternal 1
istri 1
▁aeg 1
andker 1
▁douziemman 1
▁consumption 1
▁ferais 1
▁bore 1
▁cinq 1
▁rimer 1
py 1
▁dez 1
▁lapin 1
▁anbasader 1
▁goulabjamoun 1
▁festiv 1
▁cela 1
atee 1
duces 1
▁reconsol 1
▁story 1
▁convers 1
▁apropo 1
▁seventh 1
▁sa 1
▁margar 1
▁aloud 1
▁centrality 1
▁defigire 1
▁seminaris 1
▁transmettre 1
▁manimani 1
▁up 1
▁lamone 1
avis 1
▁koken 1
▁esansiel 1
▁lexistans 1
▁repandirent 1
▁care 1
▁vecu 1
▁linguist 1
▁village 1
omor 1
▁lepre 1
▁ironie 1
ra 1
ina 1
▁empereur 1
▁mariju 1
▁medsinn 1
▁vanpir 1
▁avenir 1
▁fondater 1
▁hallucination 1
▁learnt 1
▁voulait 1
ilise 1
▁dokim 1
▁madagaskar 1
▁cancel 1
▁lalmayn 1
▁mangent 1
▁asi 1
▁hegemony 1
ween 1
▁afronte 1
▁oligarchs 1
▁hunting 1
▁konsesion 1
▁katrovindis 1
▁fleur 1
▁avi 1
▁weight 1
▁mazistratir 1
▁cannot 1
▁discouraging 1
ciers 1
▁mute 1
▁kayakaya 1
▁lizour 1
▁guvernman 1
▁reputati 1
▁incense 1
▁lekolaz 1
▁kaste 1
▁clinic 1
▁chassa 1
ga 1
▁blaze 1
▁sirpeple 1
ices 1
▁petal 1
▁klib 1
▁intoler 1
▁inonde 1
▁grandson 1
▁koreksion 1
▁mazist 1
▁fime 1
gnote 1
▁shop 1
▁ridikil 1
klav 1
aptiste 1
akoula 1
▁lekol 1
▁repetition 1
▁preferans 1
▁astonishing 1
▁advancing 1
▁foud 1
▁whim 1
▁anecdote 1
▁blanch 1
tefact 1
▁creativite 1
▁inde 1
▁reads 1
▁palankin 1
▁chwit 1
▁ethi 1
▁recommander 1
▁fix 1
▁rentre 1
▁occurs 1
▁realigne 1
▁bopre 1
▁persekision 1
war 1
▁incantation 1
▁devie 1
▁dorad 1
▁proteksion 1
▁bretel 1
▁tribinal 1
▁akurterm 1
ches 1
▁vandaliser 1
▁lifeline 1
▁redakter 1
▁maskarad 1
deswit 1
syon 1
▁mir 1
▁consortium 1
▁burrun 1
▁savonn 1
▁laont 1
ail 1
▁profila 1
ers 1
▁konfer 1
▁gratpapie 1
▁bombard 1
▁dekolonizasyon 1
▁zariko 1
▁sezonie 1
▁komeraz 1
▁travelling 1
▁vilaz 1
▁espione 1
▁ribb 1
▁retrograde 1
▁gyna 1
▁nage 1
fils 1
▁lisifer 1
▁peine 1
uis 1
ption 1
oux 1
emen 1
▁tanporer 1
▁zurnalis 1
▁demot 1
▁certific 1
▁afrontman 1
▁femmes 1
ulsion 1
▁princes 1
▁parlmanter 1
yoz 1
▁travels 1
▁matriculation 1
▁husks 1
▁claptrap 1
alcul 1
▁ial 1
▁crevettes 1
▁film 1
▁adulte 1
▁skarp 1
elyn 1
▁cri 1
usalem 1
▁cooking 1
▁sect 1
▁tielver 1
▁disabled 1
▁exciting 1
▁sauterelles 1
▁rer 1
▁omnipresent 1
▁kredibilite 1
▁arbitration 1
lley 1
etizer 1
▁sagesse 1
▁show 1
▁independence 1
▁respond 1
▁morselman 1
▁jau 1
▁yamy 1
▁arcade 1
▁rupture 1
ousay 1
▁immoral 1
▁nurse 1
▁ironik 1
ipasion 1
▁idolatre 1
ione 1
▁delirious 1
▁sifoke 1
▁reprises 1
ria 1
▁tultan 1
▁kontkare 1
▁movi 1
▁operator 1
▁acry 1
▁hotesse 1
▁lafringal 1
utch 1
icitor 1
▁thermos 1
▁rib 1
▁natirelman 1
▁salad 1
▁bidze 1
▁letat 1
▁exhib 1
▁reponn 1
▁lavierz 1
▁krwazier 1
▁gayar 1
▁pagla 1
▁salitasion 1
▁link 1
▁trom 1
▁stade 1
▁dip 1
▁simet 1
▁fiercelooking 1
▁zabzabina 1
sels 1
▁maintenir 1
▁brains 1
ides 1
ler 1
dain 1
▁accompanying 1
▁wom 1
▁enrich 1
▁rwiso 1
▁swin 1
▁asf 1
▁flametrees 1
▁pretan 1
▁distorted 1
▁alon 1
▁piyanter 1
▁cit 1
▁reparti 1
▁laid 1
▁bazooka 1
anich 1
▁motto 1
▁toutotour 1
▁fam 1
tiere 1
▁188 1
alte 1
▁exportasyon 1
▁koleford 1
▁kontigne 1
▁tradikter 1
▁felt 1
▁sidon 1
▁coast 1
▁lavance 1
▁boukmeker 1
▁konsider 1
dok 1
▁profession 1
ran 1
ifika 1
ouki 1
▁cleverer 1
▁avanmem 1
▁kontradiksyon 1
▁fampolis 1
▁creer 1
▁tiermond 1
▁enkap 1
▁bite 1
▁abaz 1
▁partners 1
▁chome 1
role 1
▁etaler 1
▁osekour 1
▁gerer 1
▁herisson 1
▁kristase 1
▁novembre 1
▁matrak 1
▁femin 1
▁vex 1
▁sanpiyon 1
▁secondes 1
▁metallic 1
▁kandidatir 1
▁snack 1
▁anx 1
▁gardening 1
▁vreman 1
▁serf 1
▁pediatrics 1
▁furniture 1
▁frust 1
▁milyarder 1
▁tapirouz 1
aos 1
▁imitater 1
▁sinus 1
▁lader 1
▁favourable 1
▁throat 1
vie 1
▁artificial 1
▁laxatif 1
▁egzanp 1
▁realign 1
▁multiplug 1
▁timekeeper 1
inational 1
▁golet 1
▁only 1
▁desaccord 1
▁otosatisf 1
▁rincer 1
▁rythme 1
▁obtaining 1
▁travailleur 1
▁inclus 1
▁lekouyon 1
▁padok 1
▁500 1
▁ted 1
▁intox 1
▁fetch 1
▁pliryel 1
▁launched 1
▁plebisit 1
▁prohibited 1
▁aimer 1
rogne 1
▁puree 1
rash 1
▁patisri 1
▁etudes 1
▁respeak 1
▁third 1
▁ces 1
▁antierman 1
ersonik 1
▁nannkatay 1
▁fouting 1
▁prekonize 1
ayt 1
▁paintbrush 1
▁boss 1
▁dispoze 1
▁kazie 1
bable 1
▁konstitie 1
▁scold 1
▁freez 1
ivi 1
▁louse 1
ift 1
▁opium 1
▁dimiel 1
ocations 1
▁sirkilasyon 1
▁efas 1
▁tanki 1
▁kolkole 1
▁tree 1
▁truv 1
▁mikro 1
asiv 1
▁peaceful 1
▁stith 1
▁resisite 1
hood 1
▁twelfthly 1
▁calendrier 1
▁decimal 1
▁parts 1
▁administration 1
onyme 1
▁anesthes 1
▁moitie 1
▁ordre 1
▁nutrition 1
sisman 1
wir 1
▁deroul 1
▁levure 1
▁gathered 1
▁seule 1
▁nightmare 1
▁argiman 1
▁remontwar 1
▁lay 1
▁deux 1
ets 1
▁bhavnagar 1
▁flor 1
▁spekilasion 1
▁vev 1
brekin 1
▁reveals 1
▁owl 1
▁debar 1
▁recon 1
▁cunt 1
▁593 1
▁choked 1
▁prisoner 1
▁pled 1
▁demip 1
▁grodir 1
▁mantez 1
▁resolved 1
▁siset 1
▁mattress 1
▁milis 1
▁accompaniment 1
▁antiderap 1
▁dison 1
▁pisanlibatay 1
▁kamasutra 1
iemement 1
▁ofset 1
arse 1
▁visit 1
▁pennmenns 1
▁inkonstan 1
ruire 1
▁design 1
▁labwason 1
▁linpos 1
▁transfusion 1
▁prokapitalist 1
▁imagined 1
▁activist 1
▁24 1
▁madamsere 1
▁sofist 1
▁symbolize 1
▁opinion 1
▁sinomorisyen 1
azet 1
▁gosri 1
▁chaturti 1
du 1
▁firecra 1
▁pornografi 1
ibwa 1
▁danger 1
▁kanbri 1
▁doves 1
ined 1
▁seriz 1
▁kotex 1
inion 1
▁humid 1
▁cut 1
▁john 1
▁tansion 1
▁0 1
▁reapl 1
▁kategori 1
▁autruche 1
▁mutton 1
▁pase 1
▁inkons 1
▁tay 1
atives 1
pok 1
▁nuptial 1
▁lining 1
ac 1
▁fek 1
▁createur 1
▁molekil 1
zetik 1
▁deformed 1
▁grefie 1
inans 1
▁flate 1
▁bosi 1
▁whe 1
▁mathur 1
▁louer 1
▁silenced 1
▁free 1
l 1
▁kolan 1
▁palanngouli 1
▁vousmemes 1
▁bebifout 1
▁tab 1
▁insertin 1
▁antred 1
psom 1
▁detailed 1
▁lazar 1
▁skandal 1
▁sone 1
▁closely 1
▁mecan 1
▁stocks 1
itter 1
▁300 1
▁soup 1
▁sye 1
▁mandapos 1
▁dissiminate 1
▁chouchounndar 1
iniere 1
▁sezourn 1
▁pelle 1
▁lakinn 1
▁betel 1
▁fouy 1
▁pardonnez 1
▁indecent 1
▁dezabiye 1
▁esek 1
▁pane 1
▁metabolik 1
▁antase 1
ame 1
▁materyal 1
▁expuls 1
▁reapar 1
▁customary 1
▁catastrophes 1
▁sekenn 1
▁financiers 1
▁venir 1
▁arive 1
▁fem 1
▁lepokla 1
▁manier 1
ronpet 1
▁disagre 1
▁tortue 1
▁paralle 1
reshing 1
▁realization 1
riek 1
▁kourone 1
▁permi 1
▁mekont 1
▁akawn 1
▁inkonpatib 1
▁enterprises 1
▁wors 1
cil 1
▁toutouk 1
woos 1
▁prefix 1
bouk 1
▁serpent 1
▁alzeb 1
▁lemosyon 1
▁fotokopie 1
▁korekteman 1
▁varavara 1
▁tong 1
▁dalo 1
▁rekonfor 1
▁jeanbaptiste 1
redict 1
▁rustre 1
▁valiz 1
▁dag 1
▁please 1
uler 1
omet 1
▁tap 1
▁traverser 1
▁manque 1
▁covering 1
▁eid 1
▁nab 1
▁konvalesans 1
▁obliged 1
▁inzeksion 1
▁sizofrwa 1
▁non 1
▁lagorz 1
▁revolisyoner 1
▁pensaient 1
▁kataplas 1
▁konstab 1
▁beverly 1
▁inpoli 1
▁slaughtered 1
▁letan 1
▁6er 1
the 1
▁ovule 1
▁perfectly 1
▁21st 1
diere 1
wayin 1
▁copie 1
▁salted 1
▁porto 1
asons 1
ondasion 1
▁niece 1
▁overwhelming 1
▁drop 1
▁sintax 1
fort 1
▁oncle 1
▁reply 1
oman 1
▁zap 1
neys 1
▁etourd 1
▁anthurium 1
▁losion 1
▁lklore 1
▁conflicts 1
▁culturelle 1
▁referred 1
arnish 1
▁rivage 1
▁balizaz 1
▁cot 1
ortki 1
▁christmas 1
▁sociable 1
▁satisfied 1
▁petsay 1
▁balcon 1
▁absorber 1
oudi 1
giving 1
▁rectify 1
▁nanryen 1
azal 1
▁koniv 1
▁croissance 1
▁shorts 1
▁pwa 1
▁gap 1
idannta 1
▁ratna 1
▁nitrozenn 1
▁politikman 1
▁fane 1
▁distinguish 1
▁amount 1
▁abundance 1
▁ansort 1
▁qualite 1
▁exprime 1
▁encens 1
▁karanter 1
▁recuperer 1
▁evaliasion 1
▁deteste 1
▁ladisk 1
▁casuarina 1
▁koul 1
quieter 1
▁viseline 1
ministration 1
▁rhetor 1
▁hair 1
ham 1
▁ouswa 1
▁aster 1
▁continuing 1
▁etat 1
▁gach 1
don 1
▁previzib 1
▁mater 1
▁graveur 1
▁mesure 1
▁inquiet 1
▁souflet 1
▁november 1
▁epuise 1
▁sandals 1
▁lanblem 1
ota 1
▁vilgarite 1
▁preanbil 1
▁readaptasion 1
▁rom 1
▁scout 1
▁roses 1
▁typh 1
▁milshek 1
▁labous 1
ings 1
▁stands 1
▁ministres 1
paste 1
▁awting 1
▁laswaf 1
▁semantik 1
▁siti 1
▁fund 1
▁zag 1
▁refro 1
▁menizie 1
ouka 1
▁elast 1
▁operet 1
▁andeye 1
▁oxym 1
▁monoton 1
▁dynamos 1
▁farms 1
▁lasiet 1
▁sarze 1
▁introd 1
▁anbrou 1
▁soutiengorz 1
pie 1
[...]
